<pad>	0
<start>	0
<end>	0
<unk>	0
▁the	-2.99943
▁.	-3.21798
▁,	-3.25386
s	-3.36942
ed	-3.82035
▁a	-3.86261
▁to	-3.88005
▁of	-3.93024
▁in	-4.0087
▁and	-4.08811
ing	-4.27204
▁s	-4.35586
▁on	-4.87286
▁said	-4.88362
y	-4.91566
▁for	-4.95305
▁that	-4.98437
▁is	-5.18336
ly	-5.19625
▁was	-5.26484
▁with	-5.29057
▁be	-5.30649
▁	-5.37672
▁it	-5.40223
d	-5.45195
▁he	-5.48405
▁at	-5.49799
e	-5.53103
▁an	-5.56368
▁from	-5.61048
▁by	-5.63033
▁as	-5.66836
▁has	-5.66953
▁have	-5.75912
▁his	-5.75929
▁are	-5.88084
n	-5.9103
▁but	-5.93355
▁will	-5.96445
▁were	-5.96593
t	-5.9976
▁not	-6.03714
▁u	-6.06142
▁who	-6.09922
▁after	-6.14825
▁had	-6.17598
▁been	-6.23277
▁they	-6.25964
▁this	-6.26064
▁t	-6.27193
▁i	-6.30192
▁their	-6.30674
▁people	-6.31595
▁year	-6.3172
▁about	-6.34023
▁more	-6.34423
▁its	-6.37002
▁two	-6.386
▁new	-6.40742
▁korea	-6.4151
▁we	-6.41598
r	-6.4288
▁which	-6.45971
▁president	-6.46729
▁one	-6.46779
er	-6.4748
▁up	-6.47499
▁her	-6.48299
▁government	-6.50553
▁would	-6.51435
▁or	-6.53803
▁north	-6.5719
▁she	-6.57531
▁out	-6.59694
▁also	-6.60236
▁than	-6.62107
▁over	-6.65335
ies	-6.65736
es	-6.6777
▁last	-6.68866
▁cnn	-6.69986
a	-6.7023
l	-6.70268
▁police	-6.70645
▁when	-6.73162
▁first	-6.73389
▁south	-6.74188
o	-6.7753
an	-6.8057
▁us	-6.80797
▁there	-6.80805
▁other	-6.82354
▁some	-6.827
▁into	-6.83997
▁all	-6.84502
▁no	-6.84906
▁time	-6.88122
▁told	-6.92189
▁world	-6.93351
▁korean	-6.95594
▁can	-6.96571
▁state	-6.98687
▁percent	-6.9994
▁you	-7.00287
▁years	-7.01308
on	-7.01839
i	-7.02843
▁united	-7.04204
▁al	-7.05739
▁could	-7.06154
▁them	-7.07078
▁if	-7.07466
▁according	-7.07502
▁officials	-7.07823
al	-7.08012
▁country	-7.10965
▁party	-7.11935
▁three	-7.1207
▁monday	-7.12914
▁iraq	-7.13424
▁minister	-7.13926
ese	-7.14016
▁militar	-7.14261
▁tuesday	-7.15218
▁national	-7.15532
▁says	-7.15857
▁day	-7.16375
▁m	-7.18422
ce	-7.19264
▁what	-7.19374
▁kill	-7.20256
▁obama	-7.21022
▁week	-7.21057
▁re	-7.22322
▁states	-7.22451
▁like	-7.22538
▁million	-7.2328
▁him	-7.2342
▁take	-7.23491
▁wednesday	-7.23818
▁so	-7.24089
▁japan	-7.24233
▁before	-7.24352
c	-7.244
▁most	-7.25263
▁old	-7.25348
▁since	-7.2661
▁against	-7.26642
▁sunday	-7.26757
▁now	-7.28275
▁down	-7.28971
▁bush	-7.29481
▁china	-7.29681
▁under	-7.29777
▁nuclear	-7.30097
▁where	-7.30772
▁near	-7.30792
▁un	-7.30815
▁dur	-7.31193
▁back	-7.33203
▁say	-7.33692
en	-7.3495
cause	-7.35653
ish	-7.35658
▁official	-7.35964
▁off	-7.36078
▁city	-7.3628
▁nation	-7.3657
▁thursday	-7.36797
▁former	-7.36965
▁just	-7.37633
▁may	-7.37693
in	-7.38883
▁security	-7.3907
▁whil	-7.39125
▁house	-7.39814
▁four	-7.40506
▁do	-7.40576
▁reported	-7.40622
tween	-7.40637
▁made	-7.41945
▁war	-7.42968
▁american	-7.43987
▁b	-7.443
▁high	-7.44554
▁group	-7.46447
▁month	-7.46909
▁many	-7.47784
▁man	-7.4793
▁through	-7.48562
▁know	-7.49628
▁end	-7.49964
▁news	-7.51618
ion	-7.52441
▁plan	-7.53148
▁being	-7.53984
▁show	-7.54088
▁including	-7.54727
▁called	-7.54983
▁home	-7.5707
▁did	-7.5717
▁international	-7.57501
▁statement	-7.57565
▁get	-7.58608
▁our	-7.58955
▁n	-7.59078
▁six	-7.59424
▁help	-7.59835
▁any	-7.60319
▁found	-7.60497
man	-7.6078
▁part	-7.6114
g	-7.61511
▁work	-7.62218
▁report	-7.63375
▁de	-7.63387
▁won	-7.63566
ther	-7.63796
▁court	-7.64905
h	-7.65194
▁reports	-7.65247
▁next	-7.65868
▁go	-7.66309
▁foreign	-7.66564
▁make	-7.67305
▁five	-7.67331
▁second	-7.67564
▁talks	-7.68052
▁my	-7.68181
▁attack	-7.68352
hose	-7.68643
▁death	-7.68741
▁still	-7.68792
le	-7.68906
uch	-7.69531
▁how	-7.70036
▁days	-7.70148
▁prime	-7.71544
▁long	-7.71671
▁troops	-7.72568
▁leas	-7.72948
ers	-7.73028
other	-7.73115
▁seoul	-7.73532
▁office	-7.73661
▁w	-7.74842
▁authorit	-7.75058
▁want	-7.75845
▁around	-7.75996
▁th	-7.76193
able	-7.76866
▁recent	-7.77195
▁come	-7.77683
▁hour	-7.77702
▁arm	-7.78533
▁see	-7.79038
▁ministry	-7.7945
▁set	-7.79453
▁leader	-7.79867
p	-7.8
▁top	-7.80204
▁close	-7.80652
▁way	-7.81226
out	-7.81533
▁program	-7.81969
ity	-7.82131
▁car	-7.82241
▁clinton	-7.82362
▁lead	-7.83455
▁p	-7.83549
▁public	-7.83736
▁washington	-7.83858
▁support	-7.84876
▁company	-7.85158
▁site	-7.85594
▁return	-7.85706
▁agency	-7.8692
▁place	-7.87253
▁believe	-7.87272
est	-7.87463
▁presidential	-7.87525
▁expected	-7.87713
▁iraqi	-7.87744
▁bank	-7.8788
▁spokesm	-7.87929
▁look	-7.87932
▁well	-7.88403
▁press	-7.88516
▁chief	-7.88713
▁k	-7.88807
▁saying	-7.89216
▁even	-7.89243
▁brit	-7.8943
▁billion	-7.90115
▁children	-7.90557
▁head	-7.90609
▁forces	-7.91033
m	-7.91144
▁york	-7.91231
▁both	-7.91678
▁should	-7.92127
▁earlie	-7.92633
▁political	-7.92783
▁campaign	-7.93199
▁election	-7.93246
▁number	-7.93469
▁early	-7.93506
k	-7.93768
▁died	-7.93807
▁arrest	-7.94173
ment	-7.9418
▁air	-7.94534
▁chin	-7.94669
▁saturday	-7.95132
▁white	-7.95191
▁general	-7.96102
▁meeting	-7.9616
▁came	-7.96254
▁members	-7.96347
▁times	-7.9647
▁friday	-7.96712
▁kim	-7.97886
▁countries	-7.97944
▁democratic	-7.98458
▁fire	-7.98601
▁women	-7.98691
▁economic	-7.98932
▁ask	-7.99259
▁claim	-7.99444
▁health	-7.99822
▁team	-7.99825
▁power	-8.00079
▁among	-8.00714
▁good	-8.00727
▁took	-8.01777
▁visit	-8.01892
▁going	-8.02076
▁family	-8.02122
ve	-8.02321
▁think	-8.02406
▁center	-8.02433
▁human	-8.02618
▁months	-8.02781
▁capital	-8.03338
▁lee	-8.04341
▁d	-8.04419
▁later	-8.04797
▁night	-8.04803
▁try	-8.04944
▁much	-8.04984
▁life	-8.05007
▁need	-8.05141
▁turn	-8.05521
▁deal	-8.05557
▁left	-8.05644
▁announc	-8.0584
▁men	-8.06371
z	-8.07638
▁me	-8.07777
▁ago	-8.0785
▁yesterday	-8.07979
▁john	-8.08062
▁use	-8.08268
▁severa	-8.08338
u	-8.08546
f	-8.08591
▁face	-8.0884
▁secretary	-8.09511
▁major	-8.0995
▁run	-8.10485
▁allow	-8.10497
ation	-8.10769
th	-8.10786
▁f	-8.10928
▁bas	-8.10951
▁area	-8.11142
land	-8.11401
▁release	-8.11535
▁pakistan	-8.11633
▁move	-8.11839
ic	-8.11934
▁right	-8.12505
▁hit	-8.12729
▁put	-8.13002
▁held	-8.13082
▁per	-8.13239
▁start	-8.13246
▁iran	-8.14222
▁same	-8.14402
▁c	-8.14608
▁business	-8.14786
▁market	-8.15035
▁oil	-8.15269
▁issue	-8.15351
▁case	-8.15491
▁own	-8.16067
▁local	-8.16115
▁main	-8.16177
▁media	-8.16418
▁force	-8.16423
▁law	-8.16452
▁e	-8.16497
▁don	-8.1652
▁com	-8.1654
▁department	-8.16713
▁then	-8.17442
▁today	-8.17447
um	-8.17573
▁university	-8.17662
▁school	-8.1781
▁record	-8.17871
▁past	-8.18065
▁win	-8.18398
▁dead	-8.18505
▁opposition	-8.18984
▁economy	-8.19134
▁appear	-8.19271
▁third	-8.19287
▁call	-8.19292
▁militant	-8.19748
▁roh	-8.19761
▁space	-8.19775
▁concern	-8.20057
▁half	-8.20097
▁candidate	-8.20523
▁morning	-8.20688
▁leaders	-8.20772
▁financial	-8.2099
ntil	-8.21419
▁co	-8.21721
▁few	-8.21934
ri	-8.22191
▁these	-8.22198
▁late	-8.23173
▁london	-8.2352
▁taliban	-8.2352
▁whe	-8.23525
▁defense	-8.2368
▁large	-8.2424
▁sign	-8.244
▁water	-8.24513
▁final	-8.24783
▁clear	-8.24972
▁open	-8.24977
▁play	-8.25402
▁free	-8.2547
▁film	-8.25472
▁remain	-8.25794
▁vote	-8.26028
▁your	-8.2684
▁hospital	-8.26999
▁test	-8.27014
▁beijing	-8.27438
▁money	-8.28121
▁workers	-8.28262
▁administration	-8.28275
▁afghanistan	-8.28277
▁service	-8.28548
▁palestinian	-8.28611
▁spokes	-8.28666
▁german	-8.28786
us	-8.29089
▁mccain	-8.29287
▁line	-8.29623
▁rule	-8.29736
each	-8.29847
▁does	-8.29963
▁park	-8.30196
▁eight	-8.30313
▁post	-8.3105
▁increase	-8.31171
▁source	-8.31171
▁great	-8.31345
▁best	-8.31427
▁system	-8.31552
▁big	-8.31661
▁central	-8.31865
▁attacks	-8.3189
▁bill	-8.31982
▁ve	-8.32036
▁already	-8.3204
▁led	-8.32061
▁baghdad	-8.32213
▁bomb	-8.32724
▁give	-8.33019
▁change	-8.33142
▁strong	-8.33287
▁along	-8.33311
▁killing	-8.33397
▁cut	-8.33411
ism	-8.33471
▁march	-8.33506
▁province	-8.33617
▁video	-8.33621
▁small	-8.33799
▁began	-8.33848
▁far	-8.34044
▁decision	-8.34096
▁trade	-8.34346
▁tak	-8.34372
▁control	-8.34685
▁food	-8.34691
▁agreement	-8.34878
▁seven	-8.35589
ra	-8.35709
▁current	-8.3595
▁releas	-8.36044
▁ap	-8.36056
▁thousand	-8.36496
▁keep	-8.3675
▁miles	-8.36867
▁away	-8.37044
▁operation	-8.37173
▁fund	-8.3765
▁french	-8.37965
▁israeli	-8.3815
▁conference	-8.38336
▁however	-8.3835
▁hope	-8.38401
▁rights	-8.38499
▁become	-8.38522
▁region	-8.38534
▁continue	-8.3868
▁sen	-8.38692
▁israel	-8.38895
across	-8.38896
▁mak	-8.38934
▁gas	-8.39036
▁station	-8.39511
▁consider	-8.39611
▁southern	-8.39835
▁injur	-8.39895
▁attempt	-8.4059
▁barack	-8.40592
age	-8.40803
▁soldiers	-8.40916
▁web	-8.40966
▁global	-8.4097
▁qa	-8.41311
▁accus	-8.414
▁woman	-8.41506
▁information	-8.41744
▁star	-8.41891
yang	-8.42068
na	-8.42307
▁confirm	-8.42367
▁violence	-8.42895
▁east	-8.43001
▁european	-8.43363
▁border	-8.44069
▁name	-8.44314
▁weapons	-8.44378
▁condition	-8.44462
▁young	-8.44542
▁person	-8.44631
▁russia	-8.44792
▁others	-8.45028
▁union	-8.45034
▁offer	-8.45756
▁plann	-8.45876
▁here	-8.46011
▁town	-8.46212
▁action	-8.46515
▁director	-8.46681
▁full	-8.46922
▁rate	-8.47136
▁committee	-8.47275
▁launch	-8.47486
▁students	-8.47685
▁short	-8.47853
▁point	-8.48005
▁prices	-8.48215
▁following	-8.4831
▁northern	-8.48494
▁federal	-8.48926
▁weeks	-8.49032
▁peace	-8.49303
▁internet	-8.49317
▁count	-8.49427
▁live	-8.49898
▁article	-8.4994
▁order	-8.50103
▁involv	-8.50451
▁california	-8.50778
▁total	-8.50858
▁pyong	-8.50989
▁republican	-8.51237
▁alleged	-8.51328
▁stock	-8.51442
▁ver	-8.51666
very	-8.51671
▁added	-8.52013
▁every	-8.52039
▁britain	-8.52048
▁member	-8.52259
▁might	-8.52265
▁outside	-8.52563
or	-8.52612
▁grow	-8.52676
▁talk	-8.52687
spite	-8.52719
▁key	-8.5281
▁aid	-8.52963
re	-8.53089
b	-8.53108
▁hundred	-8.53119
▁never	-8.53138
▁congress	-8.53334
▁target	-8.53334
▁side	-8.53422
▁o	-8.53519
▁include	-8.53533
▁comment	-8.53601
▁tour	-8.53752
▁interview	-8.54201
▁watch	-8.54277
x	-8.54567
▁real	-8.54616
▁ahead	-8.55004
▁immediate	-8.55075
▁organization	-8.55524
▁investigation	-8.55626
▁anti	-8.5569
▁research	-8.55828
▁went	-8.55855
▁points	-8.55908
▁emergency	-8.56204
greed	-8.56807
▁hold	-8.5706
▁senior	-8.57071
▁sea	-8.57271
▁associat	-8.57281
▁must	-8.57376
▁cost	-8.57673
▁game	-8.57716
▁little	-8.57745
ur	-8.5783
▁ban	-8.5784
▁working	-8.58217
▁body	-8.58284
▁crisis	-8.58424
▁france	-8.58451
ry	-8.58688
▁find	-8.58689
▁follow	-8.58692
son	-8.58741
▁possible	-8.58748
▁got	-8.58802
▁red	-8.5903
▁energy	-8.59107
el	-8.59342
▁charges	-8.5942
▁hard	-8.59549
▁council	-8.59795
▁question	-8.59815
▁stop	-8.60064
to	-8.60194
▁companies	-8.60256
▁prosecutor	-8.60262
▁study	-8.60301
▁west	-8.60431
raf	-8.60437
▁again	-8.60463
▁elections	-8.60955
▁hyun	-8.61027
▁pay	-8.61175
▁january	-8.61186
▁interest	-8.61219
▁larges	-8.61541
▁age	-8.61619
▁newspaper	-8.61888
▁speak	-8.62031
ro	-8.62196
▁base	-8.62315
▁race	-8.62338
▁latest	-8.62397
▁g	-8.62576
▁june	-8.62625
▁building	-8.6284
▁due	-8.63008
▁coast	-8.63069
▁future	-8.6307
▁cause	-8.63368
▁list	-8.63512
▁reporters	-8.63761
▁meet	-8.63844
▁tell	-8.63847
▁july	-8.64093
een	-8.64115
▁america	-8.64241
▁round	-8.64266
▁previous	-8.64507
▁mean	-8.6496
▁further	-8.64995
ard	-8.65058
▁russian	-8.65072
▁less	-8.65206
▁search	-8.65234
▁suicide	-8.65246
▁toward	-8.65286
▁child	-8.65472
ness	-8.65505
▁policy	-8.65753
▁travel	-8.66028
▁airport	-8.66207
▁afghan	-8.66208
▁george	-8.66211
▁heart	-8.6666
▁carry	-8.66748
▁lot	-8.66876
▁weekend	-8.66951
less	-8.67017
▁england	-8.67197
▁ruling	-8.672
▁share	-8.67212
▁elect	-8.67386
▁term	-8.68004
▁poll	-8.68074
▁process	-8.681
▁gaza	-8.68477
▁black	-8.68651
▁september	-8.68695
▁television	-8.68704
▁ever	-8.6894
ive	-8.69035
▁minutes	-8.69105
▁demand	-8.69153
▁judge	-8.69201
co	-8.69423
▁hostage	-8.6947
▁bring	-8.69715
▁couple	-8.69725
▁terror	-8.6979
▁hand	-8.69804
▁cha	-8.69865
▁medical	-8.69972
▁hav	-8.70034
▁efforts	-8.70147
▁lost	-8.70164
▁scientist	-8.70216
▁pro	-8.70303
▁son	-8.70379
ar	-8.70421
▁level	-8.70632
▁lawmaker	-8.70732
▁storm	-8.70743
▁act	-8.71149
▁develop	-8.71224
▁groups	-8.71311
▁send	-8.71323
▁street	-8.71453
▁grand	-8.71501
▁executive	-8.71764
self	-8.71839
▁ground	-8.72405
▁wide	-8.72486
ter	-8.72556
▁father	-8.72558
▁break	-8.72582
ance	-8.72678
▁island	-8.72723
▁too	-8.72868
▁victory	-8.72893
▁shot	-8.73043
▁serious	-8.73067
ty	-8.73145
▁series	-8.73491
▁better	-8.73594
▁terrorist	-8.7364
▁stay	-8.73695
eda	-8.73751
▁suggest	-8.73804
▁communist	-8.73858
▁goal	-8.74373
▁ra	-8.74466
▁mother	-8.7463
ous	-8.74789
▁direct	-8.74897
st	-8.74943
▁provide	-8.7519
▁industry	-8.75191
▁fuel	-8.75193
▁sent	-8.75284
▁missile	-8.7546
woman	-8.75518
▁strike	-8.75566
hind	-8.75617
▁december	-8.75729
▁role	-8.75749
▁sex	-8.76006
▁musha	-8.76049
▁apri	-8.76054
▁tv	-8.76104
▁inside	-8.76188
▁cell	-8.763
▁incident	-8.76542
▁almost	-8.76826
▁fall	-8.76843
▁hotel	-8.77095
▁protest	-8.77179
▁parliament	-8.77242
▁threaten	-8.77411
▁result	-8.77499
▁mission	-8.77797
ton	-8.78145
▁seek	-8.78256
though	-8.78347
▁yet	-8.78541
ble	-8.78633
▁europe	-8.78911
▁wounded	-8.79028
cy	-8.79146
▁inter	-8.79184
▁really	-8.79243
▁enough	-8.79301
▁important	-8.79307
▁nine	-8.79405
▁wall	-8.79528
▁history	-8.79582
▁chairman	-8.79596
▁flight	-8.80096
▁asia	-8.80114
▁cross	-8.80119
▁november	-8.80144
▁david	-8.80144
▁prison	-8.8015
▁front	-8.80179
▁special	-8.80195
▁caus	-8.80395
▁season	-8.80406
▁western	-8.80572
▁job	-8.80669
mar	-8.80707
▁vehicle	-8.8071
▁voter	-8.80735
▁mark	-8.81147
ch	-8.81192
▁soon	-8.81243
▁wife	-8.81569
▁am	-8.81621
▁democrat	-8.81817
▁rice	-8.81865
▁liv	-8.81892
▁given	-8.81995
▁discuss	-8.82085
▁san	-8.82104
▁plane	-8.82105
▁india	-8.82154
▁player	-8.82177
▁damage	-8.82285
▁fighting	-8.82446
▁room	-8.82522
▁amid	-8.82732
▁step	-8.82753
▁happen	-8.83062
▁receiv	-8.83111
▁private	-8.83298
▁met	-8.83455
▁started	-8.8361
▁ship	-8.8373
▁r	-8.83761
▁middle	-8.8388
▁whose	-8.83932
▁urg	-8.8411
ist	-8.84147
▁crash	-8.84173
▁foot	-8.8448
▁gen	-8.84618
▁express	-8.84708
bc	-8.84825
▁price	-8.84833
▁light	-8.85046
▁walk	-8.8505
▁august	-8.85653
ia	-8.85913
▁different	-8.85951
▁commission	-8.86086
ought	-8.86244
▁rebel	-8.8626
▁negotiation	-8.86262
▁board	-8.86357
▁j	-8.86391
▁thought	-8.8654
▁exchange	-8.86656
▁though	-8.86826
▁evidence	-8.86852
▁supporter	-8.8703
▁problem	-8.87044
▁serve	-8.87298
▁victims	-8.87338
▁bad	-8.87465
▁join	-8.87478
▁road	-8.87497
▁district	-8.87761
▁development	-8.87803
ally	-8.87839
▁dozen	-8.88066
▁warn	-8.88216
za	-8.88311
▁protect	-8.88318
▁conduct	-8.8836
▁bus	-8.88361
▁pressure	-8.8838
▁problems	-8.88483
▁boy	-8.8864
▁aim	-8.88644
▁animal	-8.88686
▁trip	-8.88799
▁situation	-8.88987
▁resident	-8.89066
▁fail	-8.89133
vez	-8.89374
▁sell	-8.89535
▁gave	-8.89618
▁australia	-8.8965
▁areas	-8.89881
▁attend	-8.89917
▁homes	-8.90117
▁movie	-8.90228
▁lower	-8.90395
▁leave	-8.90484
▁february	-8.90539
▁train	-8.90565
▁reach	-8.90578
▁primar	-8.90649
one	-8.90818
▁survey	-8.90852
by	-8.90997
▁low	-8.91039
▁battle	-8.91057
▁complete	-8.91162
ful	-8.9129
▁analyst	-8.91799
▁summit	-8.91799
▁senate	-8.9181
▁church	-8.92116
▁fell	-8.92125
▁lawyer	-8.92126
▁mid	-8.92351
▁los	-8.92364
▁risk	-8.92438
▁crew	-8.92445
coming	-8.92557
▁senator	-8.93075
▁link	-8.93088
▁ll	-8.93132
▁disease	-8.9315
▁let	-8.93231
▁heavy	-8.93396
▁tried	-8.93495
▁illegal	-8.93719
▁pakistani	-8.93985
▁prevent	-8.94042
▁ki	-8.94226
▁rival	-8.94368
▁results	-8.94857
▁land	-8.94859
▁approv	-8.94997
▁speech	-8.9502
▁labor	-8.95026
is	-8.95095
▁vice	-8.95113
▁relations	-8.95189
▁october	-8.95347
▁mov	-8.95356
▁together	-8.95369
▁protesters	-8.95405
▁intelligen	-8.95408
▁address	-8.95535
▁pull	-8.95709
▁project	-8.9581
▁wanted	-8.95998
la	-8.96157
▁hill	-8.96253
▁florida	-8.9667
▁something	-8.96673
▁rais	-8.96764
▁paris	-8.96772
▁moo	-8.96902
▁request	-8.97003
▁tokyo	-8.97003
wide	-8.97193
▁focus	-8.97338
▁summer	-8.97338
▁cup	-8.97705
▁phone	-8.97964
▁brown	-8.97969
▁begin	-8.98008
▁hamas	-8.98012
▁position	-8.98038
▁product	-8.98149
▁host	-8.98211
▁attorney	-8.98348
▁crowd	-8.98348
▁justice	-8.98349
▁crime	-8.98349
▁technology	-8.98363
▁leban	-8.98366
▁arriv	-8.98534
▁online	-8.98576
▁loss	-8.98646
▁hong	-8.98707
▁growth	-8.98735
▁thai	-8.98747
▁st	-8.98819
▁decided	-8.9889
▁seem	-8.98937
▁calls	-8.99149
ary	-8.99155
▁eastern	-8.99252
▁muslim	-8.99368
▁network	-8.99372
▁quick	-8.99374
▁getting	-8.99383
ba	-8.99422
▁schedul	-8.99589
▁fight	-8.9963
▁blood	-8.99721
▁daughter	-8.99725
▁fan	-8.99781
▁coalition	-9.00055
▁girl	-9.00058
▁popular	-9.00096
biggest	-9.00126
▁treat	-9.0071
▁pick	-9.00755
▁gold	-9.00759
▁league	-9.00764
▁chance	-9.0079
▁rise	-9.00803
▁markets	-9.0086
ni	-9.00951
▁assembly	-9.01152
▁officer	-9.01356
▁apparent	-9.01441
▁missing	-9.01492
▁award	-9.01523
▁carrie	-9.01617
▁l	-9.01631
▁saw	-9.01749
▁reached	-9.01779
it	-9.01889
▁needed	-9.01928
▁stage	-9.02096
▁buy	-9.02128
▁cover	-9.02201
▁tax	-9.02202
▁credit	-9.02399
▁quot	-9.02456
▁hillary	-9.02507
▁legal	-9.02535
side	-9.02551
▁kind	-9.02559
▁games	-9.02575
▁effort	-9.02589
▁bid	-9.0299
▁joint	-9.03135
▁expect	-9.03486
bi	-9.03508
▁scene	-9.03558
▁koreans	-9.03597
▁match	-9.038
▁h	-9.03928
▁asian	-9.03936
▁fee	-9.04011
▁olympic	-9.04059
▁cit	-9.04173
▁stand	-9.04197
▁democrac	-9.04273
▁destroy	-9.04273
▁feel	-9.04596
▁officers	-9.04603
▁services	-9.04773
▁sarkozy	-9.04994
▁jail	-9.05
▁governor	-9.05008
▁nomination	-9.05013
▁music	-9.05264
▁dr	-9.05505
▁form	-9.05694
▁robert	-9.05721
▁polls	-9.0602
▁charge	-9.06046
▁cat	-9.06053
▁describ	-9.06149
ey	-9.06184
ha	-9.06238
▁threat	-9.06239
▁drug	-9.06306
came	-9.06351
▁murder	-9.06453
▁issues	-9.0654
ak	-9.06958
▁staff	-9.07064
▁texas	-9.07187
▁running	-9.07197
ial	-9.07474
▁le	-9.07505
▁event	-9.07871
▁ba	-9.07923
▁turkey	-9.07942
▁quarter	-9.07943
▁camp	-9.0823
ta	-9.08275
▁population	-9.08313
▁story	-9.08691
te	-9.08717
▁letter	-9.08732
▁paul	-9.08971
▁australian	-9.08998
▁experts	-9.09043
▁blast	-9.09053
▁delay	-9.09056
▁deput	-9.09067
▁love	-9.09188
▁community	-9.09222
▁protests	-9.09239
▁deni	-9.09414
▁jobs	-9.09474
j	-9.09626
▁field	-9.10027
ways	-9.10095
pent	-9.10196
ie	-9.1031
▁idea	-9.1045
▁beat	-9.10535
▁why	-9.10573
▁higher	-9.10617
ian	-9.10917
▁radio	-9.10961
▁iranian	-9.10983
▁river	-9.11001
▁image	-9.11103
ung	-9.11164
▁safety	-9.11357
da	-9.11368
▁book	-9.11414
▁association	-9.1143
up	-9.11723
▁sales	-9.11782
▁embass	-9.12113
▁title	-9.12113
▁things	-9.12126
▁continued	-9.12408
▁rose	-9.12416
▁plant	-9.12481
▁message	-9.12587
▁fear	-9.1259
at	-9.12815
▁deep	-9.12831
▁sanction	-9.12893
▁resolution	-9.12893
▁suffer	-9.1306
▁lives	-9.13258
▁opened	-9.1344
▁civilians	-9.13579
▁appeal	-9.13678
▁similar	-9.13678
▁refus	-9.14037
▁firm	-9.14074
▁trial	-9.14097
▁average	-9.14331
▁earth	-9.14479
▁islami	-9.14484
ler	-9.14518
▁production	-9.14537
▁daily	-9.14546
▁minute	-9.14619
▁safe	-9.14623
whil	-9.14788
▁delegates	-9.14845
▁po	-9.14921
▁view	-9.14997
▁researcher	-9.15101
▁debate	-9.15143
▁la	-9.15249
▁initial	-9.15269
▁royal	-9.15278
▁king	-9.15294
▁wait	-9.15304
▁rest	-9.15598
hutto	-9.1562
▁ceremon	-9.1567
▁airline	-9.1592
▁often	-9.15957
▁identified	-9.16041
▁husband	-9.16074
ang	-9.16078
▁measures	-9.16079
▁journalist	-9.16104
▁na	-9.16179
▁computer	-9.16287
▁doing	-9.16421
▁poor	-9.16498
▁africa	-9.1662
▁care	-9.16839
▁kong	-9.17327
▁mo	-9.17505
▁drive	-9.1756
▁michael	-9.17703
▁reform	-9.17703
▁vot	-9.1777
▁contain	-9.17782
▁li	-9.17821
▁present	-9.17897
▁fired	-9.17952
▁pre	-9.18029
▁shooting	-9.18086
▁moment	-9.18152
▁rock	-9.18237
▁date	-9.18338
▁famili	-9.18414
▁neighbor	-9.18525
▁parents	-9.18611
ant	-9.18653
▁nam	-9.18942
▁investigator	-9.19034
▁fact	-9.19212
▁push	-9.19215
▁done	-9.19224
di	-9.19236
▁dispute	-9.19362
▁burn	-9.19469
▁tourist	-9.1949
▁gun	-9.19523
rought	-9.19555
▁investment	-9.19789
ine	-9.19882
▁commander	-9.20106
rt	-9.20131
▁accident	-9.20163
▁estimate	-9.20259
▁movement	-9.20304
geles	-9.20501
▁facilit	-9.20539
▁certain	-9.2062
▁transport	-9.2062
▁club	-9.2062
▁paper	-9.20662
▁ordered	-9.20809
▁affair	-9.21043
▁block	-9.21048
▁included	-9.21078
▁education	-9.21134
▁african	-9.21321
▁prince	-9.2135
▁ambassador	-9.21469
▁increasing	-9.21469
w	-9.21552
▁port	-9.21611
▁ei	-9.21682
▁details	-9.21686
ma	-9.2175
▁suspected	-9.2184
et	-9.21849
▁sexual	-9.2192
▁period	-9.22226
▁access	-9.22429
▁design	-9.22465
▁related	-9.22528
▁majorit	-9.22659
▁accept	-9.22713
▁professor	-9.22757
▁finish	-9.22775
▁matter	-9.22801
▁dow	-9.22855
▁sentence	-9.22873
▁provid	-9.2297
▁forc	-9.23051
▁afternoon	-9.2319
▁account	-9.23225
▁difficult	-9.23322
▁wear	-9.23343
hua	-9.23372
▁declar	-9.23523
▁contract	-9.23527
▁english	-9.23624
▁potential	-9.23625
▁gain	-9.23702
id	-9.23837
men	-9.23941
nato	-9.23998
▁bodie	-9.2407
▁turk	-9.24074
▁rally	-9.24086
▁manager	-9.24288
▁ready	-9.24329
▁reject	-9.24445
▁cabinet	-9.24501
▁activities	-9.24573
▁draw	-9.24861
▁detain	-9.24938
▁kilometer	-9.2494
▁track	-9.24947
▁brother	-9.24954
▁leav	-9.25021
▁cars	-9.25137
▁huge	-9.25139
▁charg	-9.25266
▁limit	-9.25384
giving	-9.25385
▁sun	-9.25756
▁contact	-9.25828
▁patient	-9.25856
▁course	-9.25867
▁friend	-9.25882
truck	-9.2627
▁marine	-9.2628
▁common	-9.26281
▁holding	-9.26382
▁saudi	-9.26724
▁wors	-9.2686
▁opening	-9.26987
stead	-9.27139
▁eu	-9.27262
▁sure	-9.27651
▁civil	-9.27653
▁broadcast	-9.27676
▁ex	-9.27752
▁rescue	-9.27918
▁doctors	-9.27929
▁conservative	-9.2808
▁announcement	-9.281
▁treatment	-9.28126
▁played	-9.28209
▁progress	-9.28519
▁broke	-9.28564
▁raid	-9.28569
▁cases	-9.28641
▁enter	-9.28983
▁peninsula	-9.28995
▁response	-9.28995
▁material	-9.28995
▁suspend	-9.28995
▁indian	-9.29052
▁challenge	-9.29236
▁read	-9.29243
▁institute	-9.29456
▁deliver	-9.29654
▁guard	-9.29747
▁create	-9.29835
mi	-9.29867
▁non	-9.30092
▁hearing	-9.30205
▁prisoner	-9.30378
▁check	-9.3038
▁cities	-9.30575
▁fly	-9.30646
▁partie	-9.30674
▁village	-9.3069
▁ran	-9.30723
▁kar	-9.30744
▁rain	-9.30797
▁mexico	-9.30851
▁lift	-9.30879
▁passengers	-9.30939
▁probabl	-9.30941
▁forward	-9.31046
▁independent	-9.31051
▁single	-9.31098
▁critical	-9.31249
wood	-9.31319
▁illinois	-9.3132
▁square	-9.3132
▁taiwan	-9.31321
▁availab	-9.31333
▁interior	-9.31368
▁means	-9.31415
▁streets	-9.31419
▁green	-9.3153
▁spoke	-9.31662
▁understand	-9.31677
▁published	-9.3168
▁trading	-9.31792
▁blue	-9.3186
▁actor	-9.3188
▁shows	-9.32102
▁session	-9.32266
▁fast	-9.32354
▁abo	-9.32359
▁spread	-9.32476
un	-9.32607
▁natural	-9.32755
▁explosion	-9.33221
▁relationship	-9.33221
▁investor	-9.33263
▁passed	-9.33345
▁warning	-9.33362
▁criticiz	-9.33631
ll	-9.33687
▁allegation	-9.33705
▁nothing	-9.33725
▁smith	-9.33726
▁spending	-9.3387
am	-9.3394
▁nav	-9.34009
▁diplomatic	-9.34199
gnp	-9.34228
▁ko	-9.34368
▁cho	-9.34401
▁secret	-9.34647
▁index	-9.34675
▁investigat	-9.34679
▁command	-9.34778
▁chicago	-9.35158
▁social	-9.35393
▁slow	-9.35448
▁annual	-9.35574
▁insurgent	-9.35648
▁snow	-9.35648
▁data	-9.35692
▁citizens	-9.35759
▁bar	-9.3577
▁estimat	-9.36069
selves	-9.36089
▁giant	-9.3615
▁rising	-9.36157
▁produc	-9.36184
▁mayor	-9.36354
▁ma	-9.36491
▁shin	-9.36492
▁personal	-9.3652
▁separate	-9.36593
▁female	-9.36636
▁nominee	-9.36636
▁actual	-9.36637
▁worth	-9.36707
time	-9.3693
▁criminal	-9.37133
▁helicopter	-9.37133
▁weather	-9.37134
▁virginia	-9.37143
▁winning	-9.37145
▁avoid	-9.37162
▁sold	-9.37325
▁longer	-9.37442
▁canno	-9.37451
▁italian	-9.38137
▁chang	-9.3818
▁truck	-9.38183
▁code	-9.38278
ney	-9.38319
▁approach	-9.38641
▁satellite	-9.38641
▁shiite	-9.38642
▁mail	-9.38707
▁export	-9.38734
▁mass	-9.38934
▁particular	-9.39148
▁lack	-9.39167
▁pai	-9.39614
▁moon	-9.39666
▁honor	-9.3967
▁chung	-9.39684
▁discovered	-9.39716
▁century	-9.39828
▁pass	-9.39907
▁decades	-9.39954
▁injuries	-9.40011
▁success	-9.40076
▁voice	-9.40177
▁compar	-9.40198
▁boat	-9.40218
▁nasa	-9.40275
▁dollar	-9.40339
▁adding	-9.40594
▁employees	-9.4062
▁espe	-9.40688
▁construction	-9.40694
▁italy	-9.40761
▁range	-9.40825
ol	-9.41067
▁establish	-9.41168
▁import	-9.41199
▁science	-9.41225
▁finding	-9.41282
▁fill	-9.41308
▁camera	-9.41309
▁insist	-9.41448
▁ben	-9.41632
▁operat	-9.41711
▁color	-9.41741
▁standard	-9.41751
▁super	-9.41756
aught	-9.41758
▁toll	-9.41799
▁committ	-9.41814
ada	-9.41843
▁dae	-9.42018
▁friends	-9.42076
▁xin	-9.42217
▁thing	-9.42301
▁rare	-9.42308
▁additional	-9.42398
ne	-9.42407
▁flood	-9.42477
▁unit	-9.42631
▁seat	-9.42708
▁visitor	-9.42739
v	-9.42759
▁islam	-9.42773
▁earthquake	-9.42776
▁involve	-9.43078
▁steps	-9.43126
▁raise	-9.43242
▁refugee	-9.43267
▁college	-9.43305
▁supreme	-9.43305
▁barrel	-9.43314
▁jones	-9.43365
cially	-9.4347
▁che	-9.43599
no	-9.43603
▁bit	-9.43709
▁industrial	-9.43729
pain	-9.43764
▁anything	-9.4384
▁occurr	-9.43875
▁rich	-9.44024
tan	-9.44116
▁resign	-9.44341
▁everything	-9.44372
▁drop	-9.44384
▁prize	-9.4439
▁peaceful	-9.44406
▁zone	-9.44431
▁size	-9.44525
▁build	-9.44766
▁maintain	-9.44909
▁reactor	-9.44921
▁extend	-9.4497
▁ice	-9.4512
▁gather	-9.45161
▁experience	-9.45201
▁parts	-9.45305
▁wound	-9.45437
▁speed	-9.45465
off	-9.45489
▁dis	-9.45522
▁bak	-9.45763
▁figure	-9.45817
ong	-9.45848
▁defeat	-9.45993
▁moscow	-9.45993
▁review	-9.45993
▁value	-9.45997
▁prosecution	-9.46001
▁dropp	-9.46261
▁quit	-9.46275
▁dollars	-9.46363
▁shut	-9.46491
▁ho	-9.46526
▁el	-9.46527
▁massive	-9.46558
ga	-9.46586
▁sharp	-9.46622
▁original	-9.46729
▁il	-9.46814
▁ii	-9.46918
▁peter	-9.46937
▁cap	-9.4704
▁carolina	-9.47089
▁condemn	-9.47089
▁envoy	-9.47089
▁opportunit	-9.47089
▁regard	-9.47089
oft	-9.47242
▁environmental	-9.47462
▁represent	-9.47609
way	-9.47622
▁attention	-9.47641
▁cancer	-9.47647
▁fac	-9.47674
▁store	-9.47784
im	-9.47874
▁banks	-9.47957
▁mountain	-9.48058
▁propos	-9.48114
▁alliance	-9.48201
▁aircraft	-9.48208
▁born	-9.4828
▁hu	-9.48321
▁convicted	-9.48328
▁engineer	-9.48509
▁schools	-9.48583
▁hop	-9.48735
▁driving	-9.48756
▁significant	-9.4879
▁driver	-9.48979
▁sale	-9.49037
▁questions	-9.49274
▁consumer	-9.49292
▁jump	-9.49319
▁suspect	-9.49334
ham	-9.49484
▁remarks	-9.49509
ley	-9.4959
▁student	-9.49847
▁pennsylvania	-9.49882
▁pacifi	-9.49883
▁usual	-9.49892
▁brain	-9.499
ical	-9.49909
▁issu	-9.49923
▁normal	-9.50066
ritten	-9.50099
▁fil	-9.50189
▁uk	-9.50385
▁marriage	-9.50451
▁queen	-9.50457
▁hurt	-9.5053
▁discussion	-9.50557
li	-9.50644
rote	-9.50657
▁uri	-9.50815
▁song	-9.50865
▁territor	-9.5089
▁whom	-9.51021
▁georgia	-9.51022
▁monitor	-9.51022
▁society	-9.51104
▁da	-9.51107
ah	-9.51189
▁evening	-9.51196
▁admitted	-9.51221
▁class	-9.51303
ca	-9.51448
▁id	-9.51567
▁remains	-9.51571
▁device	-9.51606
▁baby	-9.51617
▁bridge	-9.51632
responsible	-9.51689
▁training	-9.51861
▁ka	-9.51903
▁indonesia	-9.51909
▁independen	-9.51928
kept	-9.51967
▁promis	-9.52123
▁prompt	-9.52175
▁guilt	-9.52175
▁ohio	-9.52176
▁management	-9.52183
▁boost	-9.52203
▁hands	-9.52229
ner	-9.52309
sh	-9.526
▁finance	-9.52636
▁museum	-9.52756
▁performance	-9.52769
▁severe	-9.52836
▁fighter	-9.52858
▁heard	-9.52916
▁con	-9.53166
▁customer	-9.53166
il	-9.53201
▁tibet	-9.53228
ever	-9.53229
me	-9.53266
▁levels	-9.53574
▁shar	-9.53599
▁electric	-9.53791
▁aide	-9.53841
▁bin	-9.53854
▁sides	-9.53942
▁criticism	-9.53953
abe	-9.54047
▁critic	-9.54303
well	-9.54436
▁conflict	-9.54521
▁holiday	-9.54521
▁abbas	-9.54521
▁beginning	-9.54527
▁parliamentar	-9.54762
▁leadership	-9.55157
ship	-9.55162
▁civilian	-9.55281
▁word	-9.55492
▁factor	-9.55512
ized	-9.55535
▁constitution	-9.5556
▁sub	-9.55642
ay	-9.55661
▁art	-9.55698
▁su	-9.55709
▁custody	-9.55715
▁scandal	-9.55715
▁millions	-9.55805
▁ball	-9.561
▁drink	-9.56209
▁changes	-9.56238
▁regime	-9.56317
▁surprise	-9.56317
▁commercial	-9.56322
▁herald	-9.56329
▁impact	-9.5633
▁intend	-9.56401
ul	-9.56474
▁reason	-9.56488
▁ky	-9.5657
▁regional	-9.56594
ling	-9.56644
▁receive	-9.56695
▁mosque	-9.56924
▁suspects	-9.56986
▁effect	-9.57112
▁resume	-9.57153
▁career	-9.57272
▁brief	-9.57355
▁combat	-9.57505
▁opinion	-9.57533
▁corruption	-9.57538
▁communication	-9.57538
▁fair	-9.57549
▁negotiator	-9.5756
▁micros	-9.57717
▁scor	-9.57752
▁reduce	-9.57874
▁environment	-9.57908
▁language	-9.58147
▁adopt	-9.58147
▁everyone	-9.582
▁formal	-9.58538
▁di	-9.58569
▁screen	-9.58582
▁repeated	-9.58691
▁choice	-9.58779
▁richard	-9.58853
▁allies	-9.58958
ka	-9.59184
▁ro	-9.59187
ate	-9.59189
ent	-9.59282
▁panel	-9.59398
▁han	-9.59415
▁author	-9.59478
▁forest	-9.59726
▁seats	-9.59743
▁failure	-9.6001
▁climate	-9.60011
▁fresh	-9.60011
▁specific	-9.60012
▁fifth	-9.60028
▁arab	-9.60168
▁buil	-9.60186
▁traditional	-9.60275
▁mil	-9.60285
▁tie	-9.60306
▁buildings	-9.60368
▁republic	-9.60527
▁recover	-9.60554
▁traffic	-9.60604
▁complex	-9.60639
▁myung	-9.60717
mo	-9.60854
ana	-9.60925
▁polic	-9.61152
▁numbers	-9.61225
ory	-9.61268
▁controll	-9.61286
▁proposal	-9.61368
▁documents	-9.61384
▁fish	-9.61523
▁assault	-9.61909
▁domestic	-9.61909
▁football	-9.61914
▁double	-9.6192
▁spanish	-9.6192
▁surgery	-9.61924
▁pack	-9.61937
▁james	-9.61943
▁corp	-9.62292
ad	-9.62371
▁produce	-9.62425
▁difference	-9.62551
▁sound	-9.62551
▁package	-9.62572
▁tree	-9.62574
▁blam	-9.62613
ack	-9.63058
ru	-9.631
▁cash	-9.63205
▁require	-9.63302
▁figures	-9.63405
▁bombing	-9.63437
▁fine	-9.63462
▁olympics	-9.63582
ke	-9.63729
▁violent	-9.63844
▁possibilit	-9.63913
▁en	-9.63918
▁option	-9.63923
▁lone	-9.6403
▁gar	-9.64226
▁owner	-9.64312
▁itself	-9.6433
ina	-9.6449
▁penalt	-9.64499
▁coach	-9.645
▁van	-9.64621
berg	-9.64797
▁sh	-9.6494
▁responsibilit	-9.65038
▁respect	-9.65139
▁answer	-9.65156
▁recall	-9.65156
▁sleep	-9.65193
▁mobile	-9.65203
▁jong	-9.65244
▁auto	-9.65268
▁protection	-9.65271
ier	-9.65339
▁events	-9.6537
▁abe	-9.65384
▁colombia	-9.65554
▁route	-9.6564
▁withdraw	-9.65733
▁trigger	-9.65818
▁reveal	-9.65819
▁apple	-9.65819
▁disaster	-9.65833
▁shuttle	-9.65835
▁created	-9.65867
▁struggl	-9.65956
▁mine	-9.66025
▁indicat	-9.66069
▁respond	-9.66289
▁addition	-9.66297
▁pa	-9.66387
▁wa	-9.66408
▁astronaut	-9.66485
▁telephone	-9.66485
▁quake	-9.66487
▁miss	-9.66498
lo	-9.66554
mer	-9.66616
▁adviser	-9.66625
▁maker	-9.66764
if	-9.66941
em	-9.6699
▁gates	-9.6702
▁self	-9.67062
▁bear	-9.67089
▁supply	-9.67156
▁profit	-9.67158
▁necessary	-9.67252
ea	-9.67298
▁premier	-9.67417
han	-9.67419
▁holly	-9.67436
tp	-9.67452
▁sunni	-9.67496
▁save	-9.6783
▁individual	-9.67832
▁correspondent	-9.67832
▁francis	-9.67834
▁amount	-9.67834
▁winter	-9.67902
▁powerful	-9.67904
▁cast	-9.67918
▁wave	-9.68067
▁male	-9.68156
▁tests	-9.68355
ence	-9.68484
▁girls	-9.68504
▁adult	-9.68512
▁headquarter	-9.68512
▁wrong	-9.68512
▁neighborhood	-9.68516
▁agent	-9.68518
▁dangerous	-9.68525
▁exist	-9.68547
▁piece	-9.68628
▁seiz	-9.6875
▁beach	-9.68884
▁card	-9.68991
▁stopped	-9.69007
▁affect	-9.69015
▁magazine	-9.69197
▁rocket	-9.692
▁ilbo	-9.69203
▁loan	-9.69269
▁makes	-9.69321
▁flights	-9.69329
▁shown	-9.69402
ani	-9.69448
▁ht	-9.69687
▁wi	-9.69764
▁behavior	-9.69886
▁positive	-9.69887
▁appearance	-9.69959
▁tech	-9.69981
▁forecast	-9.70081
▁et	-9.70172
▁cold	-9.70207
▁chi	-9.70472
▁deadline	-9.70597
▁else	-9.70598
▁planet	-9.7061
▁kids	-9.70617
▁heat	-9.70705
▁page	-9.70721
▁showing	-9.70881
▁measure	-9.71042
▁km	-9.71104
new	-9.71265
▁confidence	-9.7128
▁felt	-9.71281
▁vow	-9.71286
▁affected	-9.71439
▁row	-9.71462
▁rank	-9.71467
▁ongoing	-9.71481
▁words	-9.71812
▁pilot	-9.71985
▁overseas	-9.71985
▁apartment	-9.72
▁location	-9.72029
▁referr	-9.7203
ng	-9.72036
▁agree	-9.72069
▁declin	-9.72071
▁votes	-9.72258
▁mug	-9.72379
▁perform	-9.72382
ju	-9.7247
▁trouble	-9.72496
▁legislati	-9.72583
▁anniversar	-9.72694
putin	-9.72845
▁sometime	-9.7285
lew	-9.72853
▁activists	-9.72909
▁clean	-9.72975
▁remov	-9.73132
▁fears	-9.73259
▁lad	-9.73367
▁brazil	-9.73397
▁crude	-9.73408
▁degree	-9.73408
▁solution	-9.73408
▁ocean	-9.73408
▁shock	-9.73412
▁successful	-9.73427
▁olme	-9.73444
▁arms	-9.73734
▁yang	-9.73805
▁terms	-9.73952
▁jet	-9.74026
▁govern	-9.74064
▁ga	-9.74098
▁learn	-9.74104
▁straight	-9.74127
▁harr	-9.74135
▁blow	-9.74153
▁bay	-9.74242
▁riot	-9.74296
▁winner	-9.7432
▁constitutional	-9.7437
▁drugs	-9.74425
▁flu	-9.74592
town	-9.74682
▁cent	-9.74737
▁content	-9.74849
▁singapore	-9.74852
▁style	-9.74857
▁below	-9.75018
ahoo	-9.75031
▁soldier	-9.75071
▁eye	-9.75157
uters	-9.7517
▁tough	-9.7545
▁hurricane	-9.75582
▁christmas	-9.75582
▁display	-9.75584
▁type	-9.75584
▁controversial	-9.7559
▁assistant	-9.7559
▁sever	-9.7559
▁bag	-9.75621
lin	-9.75663
▁doctor	-9.75825
▁ji	-9.75912
▁reserve	-9.75943
▁improve	-9.76033
▁secure	-9.76106
▁supplie	-9.76152
▁propert	-9.76185
▁seed	-9.76263
▁birth	-9.76317
▁christophe	-9.76317
▁entire	-9.76317
▁regular	-9.76317
▁dress	-9.76327
▁influence	-9.76333
ci	-9.7635
▁bann	-9.76442
▁joined	-9.76461
▁earn	-9.76585
▁model	-9.76643
▁score	-9.76787
▁nor	-9.76918
▁blair	-9.77058
▁madrid	-9.77058
▁channel	-9.7706
▁famous	-9.77081
▁promise	-9.77129
pa	-9.77166
▁surrounding	-9.77175
▁abu	-9.77267
ily	-9.77298
▁victim	-9.77349
▁virus	-9.77407
▁collapse	-9.77448
wa	-9.77468
gi	-9.77614
▁resolve	-9.77664
▁highway	-9.77717
▁je	-9.7779
▁happy	-9.77804
▁resort	-9.77804
▁mount	-9.77807
▁freedom	-9.77814
▁mind	-9.77915
▁touch	-9.77963
▁gone	-9.77971
▁decade	-9.78133
▁band	-9.78158
▁wing	-9.78359
▁extreme	-9.78556
▁twic	-9.78568
▁throw	-9.78569
▁abuse	-9.78673
▁tibetan	-9.78701
▁politic	-9.78761
▁alone	-9.78781
▁treasur	-9.78928
▁burma	-9.78965
▁true	-9.79004
▁cancel	-9.79008
▁transfer	-9.79147
▁hot	-9.79223
▁kidnapped	-9.79234
▁spark	-9.79316
▁hair	-9.7932
▁floor	-9.79323
▁hall	-9.79384
▁trust	-9.79415
▁suit	-9.79491
nel	-9.7956
▁christian	-9.79563
overall	-9.79875
▁decline	-9.7999
▁abandon	-9.80078
▁exile	-9.80092
▁charles	-9.80111
ho	-9.80125
▁witnesses	-9.80203
▁angel	-9.80209
▁names	-9.80276
ester	-9.80317
▁god	-9.80489
ten	-9.80553
▁sw	-9.8056
▁asp	-9.80655
▁ali	-9.80681
▁add	-9.8069
▁activit	-9.80738
▁flow	-9.80812
▁dream	-9.80846
▁oscar	-9.80847
▁competition	-9.80847
▁species	-9.80847
▁sudan	-9.80849
▁qualit	-9.80851
▁malik	-9.80852
▁festival	-9.80858
▁resignation	-9.8089
▁meters	-9.80895
▁singer	-9.80948
▁active	-9.80996
▁pound	-9.81278
▁sa	-9.81288
▁jo	-9.81453
▁door	-9.8147
▁replace	-9.81555
▁dog	-9.81569
iya	-9.81613
▁software	-9.81622
▁frank	-9.81629
▁division	-9.81629
▁enem	-9.8163
▁recession	-9.8163
ado	-9.81884
▁champions	-9.8191
▁producer	-9.82093
▁organiz	-9.82114
▁northeast	-9.82322
▁married	-9.82404
▁doubt	-9.82435
▁winds	-9.8247
▁dark	-9.82484
▁min	-9.82897
▁cooperati	-9.83018
▁studie	-9.83044
▁journal	-9.8313
▁hussein	-9.8319
▁pentagon	-9.8319
▁palace	-9.8319
▁heavi	-9.83191
ated	-9.83199
atomic	-9.83207
▁kick	-9.83253
▁feature	-9.83424
back	-9.83514
▁broad	-9.83565
der	-9.83667
▁zimbabwe	-9.83869
ut	-9.83891
▁imposed	-9.83893
▁dan	-9.83938
▁william	-9.83942
▁concert	-9.83984
▁reflect	-9.83984
▁eventual	-9.83986
▁agenci	-9.83986
▁gord	-9.83991
▁beyon	-9.84046
▁prepared	-9.84258
▁scale	-9.84431
▁kidnapping	-9.84441
▁determine	-9.84471
▁sentenc	-9.84586
▁laws	-9.84623
▁counter	-9.84625
▁advance	-9.84772
▁currenc	-9.84784
▁rush	-9.84793
▁alert	-9.84804
▁setting	-9.84825
▁shop	-9.84835
▁wild	-9.8489
ger	-9.84958
zai	-9.85043
▁leg	-9.85056
▁pope	-9.85064
▁pledg	-9.85305
chi	-9.85325
▁steve	-9.85325
▁tape	-9.85437
▁explod	-9.8559
▁retir	-9.85592
▁gay	-9.85598
▁shari	-9.85605
▁williams	-9.85633
▁oppos	-9.85797
▁table	-9.85819
▁syria	-9.85914
▁bombings	-9.86067
▁fa	-9.86303
▁roll	-9.86361
▁multi	-9.86404
▁ronald	-9.86404
▁survivor	-9.86425
▁photograph	-9.86433
op	-9.86451
▁effective	-9.8646
▁shift	-9.86486
▁presen	-9.865
▁demanding	-9.86845
▁tank	-9.8693
▁euro	-9.87004
ification	-9.87042
eastern	-9.87049
▁condoleez	-9.87223
▁practice	-9.87223
▁draft	-9.87223
▁kosov	-9.87223
▁relief	-9.87224
▁commitment	-9.87243
▁demonstrator	-9.87253
▁declaration	-9.8728
ge	-9.87297
▁halt	-9.87318
▁vi	-9.87424
▁ca	-9.87475
▁martin	-9.87482
over	-9.87491
▁zoo	-9.87547
as	-9.87554
ium	-9.87627
▁hole	-9.87633
▁signal	-9.87658
ches	-9.87811
▁sense	-9.8794
▁economist	-9.88049
▁serving	-9.88049
▁crackdown	-9.88052
▁consumers	-9.8816
▁sports	-9.88309
▁culture	-9.88384
▁damag	-9.88482
do	-9.88502
▁bomber	-9.8864
▁announce	-9.88677
▁extra	-9.88791
▁blame	-9.88813
▁egypt	-9.88872
▁farmer	-9.8888
▁dialogue	-9.88883
▁implement	-9.88883
▁soviet	-9.88883
▁actress	-9.88883
▁various	-9.88886
▁portug	-9.88886
▁pe	-9.88966
▁withdrawal	-9.8899
▁stem	-9.88993
▁foundation	-9.8918
field	-9.89227
▁kurd	-9.89272
▁surge	-9.89453
▁witness	-9.89585
tion	-9.89714
▁fix	-9.89736
▁spear	-9.89743
ino	-9.89762
▁connection	-9.89783
▁wealth	-9.89805
▁stone	-9.89883
ov	-9.89966
▁via	-9.89989
▁las	-9.89993
▁whole	-9.90086
▁losing	-9.90089
▁favor	-9.90183
▁smoke	-9.90246
▁complain	-9.90323
▁jew	-9.90343
▁guy	-9.90415
▁politicians	-9.90433
▁tony	-9.90497
▁picture	-9.9053
▁appoint	-9.90531
▁troop	-9.9055
▁militia	-9.90571
▁religious	-9.90571
▁tournament	-9.90571
▁partner	-9.90587
▁sector	-9.90606
▁pictures	-9.90612
▁violation	-9.9062
▁pain	-9.90644
▁foreigner	-9.90824
▁trail	-9.90943
ig	-9.90991
▁gu	-9.91088
▁convention	-9.911
▁mad	-9.91146
vi	-9.91193
▁defend	-9.91234
▁ru	-9.91234
mp	-9.91281
▁waters	-9.9131
▁deploy	-9.91389
▁wind	-9.91396
▁boycott	-9.91425
▁income	-9.91435
▁version	-9.91444
▁sch	-9.91483
▁torch	-9.91524
▁era	-9.91584
▁flame	-9.91632
▁determined	-9.91784
▁historic	-9.91805
▁suffering	-9.91919
▁traveling	-9.92033
▁apolog	-9.92059
▁academ	-9.9207
▁requir	-9.92095
▁delegation	-9.92287
▁kabul	-9.92287
▁unveil	-9.92287
▁audience	-9.92288
▁beckham	-9.92289
▁ceo	-9.92299
▁cruise	-9.92373
▁brand	-9.92454
▁ending	-9.92491
▁probe	-9.92569
▁gunm	-9.92609
where	-9.92627
▁taxes	-9.92629
▁sky	-9.9264
aks	-9.92694
▁computers	-9.92728
▁minor	-9.92909
▁jur	-9.92978
ud	-9.93106
▁spring	-9.93121
▁alcohol	-9.93126
▁motor	-9.93146
▁danger	-9.93147
▁budget	-9.93157
▁encourage	-9.93157
▁medicine	-9.93161
▁reaction	-9.93199
▁dut	-9.93239
▁ye	-9.93299
▁hous	-9.93349
▁stake	-9.93533
▁speaker	-9.93545
▁works	-9.93652
▁basic	-9.93798
▁spot	-9.93836
▁easi	-9.93853
▁clashe	-9.93865
▁locat	-9.93988
▁fraud	-9.94034
▁rapid	-9.94037
▁hear	-9.94042
▁fellow	-9.94045
▁diana	-9.94065
tts	-9.94152
yone	-9.94199
▁weight	-9.94265
▁lake	-9.94276
har	-9.94304
▁meetings	-9.94345
▁users	-9.94489
▁ways	-9.94894
▁ranking	-9.94916
▁enjoy	-9.94919
▁michigan	-9.94919
▁saddam	-9.94919
▁tehran	-9.94919
▁temperature	-9.94919
▁sister	-9.94935
▁register	-9.94943
▁urani	-9.94952
▁rape	-9.94958
▁contest	-9.94964
▁statu	-9.94979
▁edge	-9.95021
▁standing	-9.95041
▁jan	-9.95166
▁chose	-9.95224
pp	-9.95267
▁arabia	-9.95562
▁gov	-9.95638
▁items	-9.95642
▁slight	-9.95707
▁object	-9.95741
ept	-9.95763
▁ring	-9.95767
▁welcome	-9.95788
▁virtual	-9.95812
▁kennedy	-9.95812
▁favorite	-9.95815
den	-9.95846
▁collapsed	-9.9585
▁tens	-9.95892
▁angr	-9.95942
▁indicate	-9.9616
ren	-9.9616
▁alive	-9.96173
ick	-9.96258
▁mile	-9.96392
▁har	-9.96479
▁ahmadi	-9.96488
▁systems	-9.96539
▁catholic	-9.96713
▁vietnam	-9.96713
▁simpson	-9.96714
▁unlike	-9.96734
▁net	-9.9679
▁inspector	-9.96823
gu	-9.96888
▁inc	-9.96983
▁stoo	-9.97001
▁pledge	-9.97033
▁lose	-9.97034
▁demonstrations	-9.97052
tra	-9.97309
▁im	-9.97313
ev	-9.97405
▁tensions	-9.97442
▁artist	-9.97446
▁mar	-9.97457
▁southeast	-9.97488
hi	-9.97513
▁climb	-9.97522
▁chair	-9.97589
▁box	-9.97603
▁ethnic	-9.97622
▁license	-9.97622
▁orbit	-9.97626
▁assistance	-9.97634
▁ta	-9.97677
▁generation	-9.97689
▁wonder	-9.977
led	-9.97763
▁explosives	-9.97768
ek	-9.97805
▁cb	-9.97817
▁ja	-9.97831
▁violat	-9.97922
▁joong	-9.97933
▁enforce	-9.98054
▁massa	-9.98107
▁organizer	-9.98134
▁possibl	-9.98147
▁broken	-9.98153
▁jose	-9.9826
junta	-9.98268
▁cuba	-9.98341
corporate	-9.9848
▁wolf	-9.98539
▁arizo	-9.9854
itarian	-9.9854
▁machine	-9.98545
▁visa	-9.98545
▁championship	-9.98546
▁speculation	-9.98552
▁accepted	-9.98598
▁sadr	-9.98646
▁hwan	-9.98687
▁decide	-9.98692
ribal	-9.98877
▁pounds	-9.98947
▁liver	-9.98988
▁equal	-9.99047
▁spend	-9.9905
▁demanded	-9.99136
▁sha	-9.99185
▁kenya	-9.99199
▁ha	-9.99315
bo	-9.99434
▁exact	-9.99465
▁nicola	-9.99465
▁liberal	-9.99465
▁stadium	-9.99466
▁islamabad	-9.99466
▁vegas	-9.99467
▁enrich	-9.99468
▁regulation	-9.99471
▁prove	-9.99515
▁bo	-9.99612
▁ang	-9.99617
▁tin	-9.99621
▁fled	-9.99725
▁continu	-9.99825
western	-10.0017
▁rep	-10.0034
▁remote	-10.004
chuse	-10.0043
▁physical	-10.0048
▁debt	-10.006
▁acknowledg	-10.0061
▁warming	-10.0067
▁complaint	-10.0067
▁photos	-10.0076
▁putt	-10.0084
▁path	-10.01
▁wen	-10.0112
▁stars	-10.0117
▁jerusalem	-10.0134
▁obtain	-10.0134
▁purpose	-10.0134
▁googl	-10.0134
▁rallie	-10.0135
▁traveler	-10.0138
▁ensure	-10.0175
▁ten	-10.0179
cient	-10.0227
▁crucial	-10.023
▁equipment	-10.023
▁trillion	-10.023
▁nepal	-10.023
▁surface	-10.023
▁thanks	-10.0232
▁x	-10.0244
▁relative	-10.0269
▁weapon	-10.027
▁commissioner	-10.0283
haps	-10.029
▁cia	-10.0314
▁isn	-10.0324
▁manag	-10.0325
▁celebrit	-10.0326
▁example	-10.0326
▁fashion	-10.0326
▁globe	-10.0326
▁narrow	-10.0326
▁task	-10.0326
▁iowa	-10.0326
▁wake	-10.0327
▁invite	-10.0328
▁alaska	-10.0328
▁jung	-10.0329
▁mars	-10.0338
tor	-10.034
▁plot	-10.0344
▁argu	-10.0358
▁expand	-10.0378
ck	-10.0396
ez	-10.0397
our	-10.0402
▁spy	-10.0404
▁du	-10.0419
▁tight	-10.0421
▁perfect	-10.0423
▁warrant	-10.0423
▁grave	-10.0424
▁bailout	-10.0426
▁leak	-10.0429
▁modern	-10.0436
▁evacuated	-10.0436
▁representatives	-10.047
▁promote	-10.0471
go	-10.0471
▁detail	-10.0471
▁gang	-10.0481
▁captur	-10.0486
ja	-10.0488
▁anger	-10.0492
▁samsun	-10.0498
▁stress	-10.05
▁maca	-10.0505
suu	-10.0512
▁mahmoud	-10.0521
▁subject	-10.0521
▁stall	-10.0521
▁estate	-10.0522
▁carbon	-10.0522
▁strengthen	-10.0526
zi	-10.0534
▁santa	-10.0542
▁discovery	-10.0557
▁exercise	-10.0561
▁dismissed	-10.0571
▁tons	-10.0583
ou	-10.059
▁tim	-10.0609
▁smok	-10.0609
▁nominat	-10.0615
ville	-10.0615
▁tonight	-10.0615
▁guarantee	-10.062
▁invasion	-10.062
▁magnitude	-10.062
▁nevada	-10.062
▁internal	-10.062
▁rough	-10.0621
ap	-10.0622
▁professional	-10.0623
▁mike	-10.0623
▁founder	-10.0624
▁guest	-10.0625
▁runner	-10.0626
▁dutch	-10.063
▁writer	-10.0632
gun	-10.0633
▁calm	-10.064
▁wal	-10.0649
▁pair	-10.0655
▁closer	-10.0676
▁fed	-10.0685
▁lo	-10.0695
▁sp	-10.0697
▁mayb	-10.0704
ified	-10.0709
▁aware	-10.0713
▁agricultur	-10.072
▁detention	-10.072
▁daniel	-10.072
▁mix	-10.0721
▁jackson	-10.0721
▁harm	-10.0722
▁outbreak	-10.0724
▁nobel	-10.0725
▁transition	-10.0735
rew	-10.075
ize	-10.0751
hu	-10.0754
ground	-10.0766
▁provinc	-10.0769
broad	-10.0773
▁electronic	-10.0778
▁chen	-10.0782
▁ski	-10.0805
ization	-10.082
▁memorial	-10.0821
▁offensive	-10.0821
▁suburb	-10.0821
▁temporar	-10.0821
▁colleague	-10.0821
▁attract	-10.0821
▁relay	-10.0821
▁dong	-10.0821
▁lawsuit	-10.0822
▁assassination	-10.0823
▁restriction	-10.0825
▁windows	-10.0837
▁arrival	-10.0846
▁improv	-10.0853
▁dogs	-10.087
▁patrol	-10.0871
aid	-10.0874
surance	-10.0879
▁handed	-10.088
▁tom	-10.0883
▁champion	-10.0885
va	-10.0886
ki	-10.0913
▁identify	-10.0923
▁album	-10.0923
▁sheriff	-10.0923
▁reduction	-10.0923
▁louis	-10.0923
▁monk	-10.0924
▁meant	-10.093
▁theater	-10.0934
▁phones	-10.0944
▁mate	-10.0945
▁remove	-10.095
▁institution	-10.0953
▁reporter	-10.0959
▁none	-10.0965
▁catch	-10.0967
lor	-10.099
que	-10.099
▁presiden	-10.1004
▁advantage	-10.1026
▁strategy	-10.1026
▁suspicion	-10.1026
▁babies	-10.1026
▁dubai	-10.1026
▁counterpart	-10.1026
▁batter	-10.1027
▁remember	-10.1027
▁creat	-10.1033
▁petr	-10.1037
▁te	-10.1037
work	-10.1046
▁dub	-10.1056
▁colombian	-10.1068
▁manch	-10.1102
dai	-10.111
▁rome	-10.1111
▁visiting	-10.1114
▁bell	-10.1122
▁books	-10.1123
▁tear	-10.1124
▁sand	-10.1126
▁permanent	-10.113
▁berlin	-10.1131
▁casualties	-10.1133
ional	-10.1141
▁choose	-10.1149
▁diplomats	-10.1158
▁freed	-10.1162
he	-10.1164
▁projects	-10.1175
erson	-10.1187
pool	-10.1187
▁sport	-10.1193
▁takes	-10.1199
▁reasons	-10.1202
ow	-10.1218
▁coup	-10.1226
▁wood	-10.1232
▁engag	-10.1233
▁mis	-10.1235
▁sudden	-10.1235
▁kingdom	-10.1236
▁offering	-10.1244
▁prepar	-10.1254
▁authoriz	-10.1258
ny	-10.1264
▁sit	-10.1264
ac	-10.1284
▁aboard	-10.1289
▁sydn	-10.1297
▁relatives	-10.1298
▁barr	-10.13
night	-10.1301
med	-10.1311
▁venezuela	-10.1315
▁mohamm	-10.1332
▁bu	-10.1334
▁feeling	-10.134
▁auction	-10.1342
▁anonymity	-10.1342
▁veteran	-10.1342
▁diego	-10.1343
▁exit	-10.1345
▁lady	-10.1347
ron	-10.1347
▁teenager	-10.1349
▁mal	-10.1353
che	-10.1359
▁lay	-10.1366
▁yes	-10.1369
▁princess	-10.1372
ji	-10.1376
▁pose	-10.1376
ican	-10.1398
▁sam	-10.1409
▁forum	-10.1413
▁ray	-10.142
▁passenger	-10.1429
po	-10.143
▁escape	-10.1444
▁technical	-10.1449
▁simple	-10.1449
▁strain	-10.1449
▁nadal	-10.1449
▁entertainment	-10.145
▁tiger	-10.145
▁participat	-10.145
▁hilton	-10.1452
▁label	-10.1452
▁buri	-10.1453
▁die	-10.146
▁split	-10.1461
▁ku	-10.1465
▁recovery	-10.1466
▁johnson	-10.1467
ir	-10.147
▁arrive	-10.1471
▁fit	-10.1474
▁document	-10.1479
oline	-10.148
▁threats	-10.1493
spread	-10.151
▁worse	-10.1518
ious	-10.1519
▁lu	-10.152
ors	-10.1532
▁mc	-10.1549
▁basi	-10.1557
▁ukrain	-10.1557
▁froze	-10.1558
▁tomorrow	-10.1558
▁destruction	-10.156
▁feder	-10.1563
▁electora	-10.1564
▁warm	-10.1566
▁easy	-10.1591
▁landing	-10.1595
▁investigate	-10.163
q	-10.1645
hai	-10.1662
▁compound	-10.1668
▁negative	-10.1668
▁soccer	-10.1668
▁devastat	-10.1668
▁cleric	-10.1668
▁atmospher	-10.1668
▁potter	-10.1668
▁delta	-10.1669
▁detonat	-10.1669
lanta	-10.1669
▁cutting	-10.167
▁highlight	-10.1672
▁conclud	-10.1679
om	-10.168
▁shortage	-10.168
▁heads	-10.1691
▁col	-10.1714
▁par	-10.1717
▁ge	-10.1727
▁dec	-10.173
erry	-10.1744
▁benefits	-10.1749
▁rang	-10.1749
▁mr	-10.1759
▁rod	-10.1762
ett	-10.1767
▁infect	-10.1774
▁rat	-10.1778
▁canadian	-10.1779
▁recruit	-10.1779
▁simply	-10.1779
▁agenda	-10.1779
▁debut	-10.1779
▁alexand	-10.1779
▁emission	-10.178
▁ease	-10.178
bu	-10.1782
▁mention	-10.1784
▁lock	-10.1785
▁renew	-10.1791
▁v	-10.1792
▁lowest	-10.1793
ip	-10.1797
▁schedule	-10.1819
ova	-10.182
▁haven	-10.1827
▁engine	-10.1828
zo	-10.184
▁resources	-10.1841
▁malaysia	-10.1865
▁strip	-10.1868
min	-10.1874
day	-10.1883
▁detect	-10.1883
▁roads	-10.1885
▁erupt	-10.1886
▁zealand	-10.1891
▁profile	-10.1891
▁bureau	-10.1891
▁shelter	-10.1891
▁thomas	-10.1891
▁conspirac	-10.1891
▁shoe	-10.1896
▁complet	-10.1897
▁gap	-10.1899
▁expectation	-10.1901
ersey	-10.1911
bility	-10.1911
▁firefighter	-10.1911
▁clash	-10.1914
gen	-10.1915
▁fata	-10.1917
▁listen	-10.1922
▁trapped	-10.1926
▁manufactur	-10.1933
▁movies	-10.1939
▁percentage	-10.1946
we	-10.1959
enko	-10.1968
▁pet	-10.1972
▁lt	-10.1975
▁struggle	-10.1981
ari	-10.1992
▁seal	-10.2001
▁recommend	-10.2002
▁chelsea	-10.2005
▁frequent	-10.2005
▁element	-10.2005
yongbyon	-10.2005
▁valley	-10.2005
▁cultur	-10.2006
▁plus	-10.2006
▁bullet	-10.2006
▁chemical	-10.2012
▁cool	-10.2013
▁pace	-10.202
▁elder	-10.2022
▁heading	-10.2024
▁nei	-10.2042
▁guards	-10.2047
▁unclea	-10.2047
▁clon	-10.2054
arta	-10.2078
ze	-10.2088
olar	-10.2088
▁eyes	-10.2093
▁scot	-10.2097
▁vessel	-10.212
▁ticket	-10.2121
▁nature	-10.2122
▁expert	-10.2123
▁section	-10.2124
▁thank	-10.2127
▁campus	-10.2128
▁corner	-10.213
▁payment	-10.2138
▁indiana	-10.2159
▁tall	-10.2161
▁rescuer	-10.2162
▁waste	-10.2171
line	-10.2181
▁youth	-10.2196
bb	-10.2205
fare	-10.2222
pped	-10.2228
▁diamond	-10.2236
▁unusual	-10.2236
▁writing	-10.2236
▁identit	-10.2236
▁closing	-10.2239
▁knee	-10.2239
▁assets	-10.2243
▁bull	-10.2243
▁ia	-10.2244
per	-10.2254
▁tru	-10.2259
▁sort	-10.226
▁hung	-10.226
▁ride	-10.2263
ara	-10.2271
▁hub	-10.2301
▁pop	-10.2313
ell	-10.2319
shi	-10.2331
mph	-10.2337
▁fay	-10.2337
▁birds	-10.2338
tic	-10.2341
▁disappoint	-10.235
▁handl	-10.235
▁crack	-10.2354
▁bangkok	-10.2354
▁divorce	-10.2354
▁succeed	-10.2354
▁clinic	-10.2354
▁wedding	-10.2354
▁stretch	-10.2355
▁maryland	-10.2356
▁chrys	-10.2358
▁learned	-10.2358
▁pc	-10.2359
▁lama	-10.2359
▁digital	-10.2359
▁select	-10.2362
▁kang	-10.2368
▁bone	-10.2371
aw	-10.2372
▁khan	-10.2377
▁proper	-10.2382
▁metal	-10.2389
▁observer	-10.24
llah	-10.2402
▁ill	-10.2406
▁woo	-10.241
tar	-10.2411
▁pos	-10.2425
▁farm	-10.2429
▁purchase	-10.2452
▁describe	-10.2453
▁scar	-10.2457
▁yu	-10.2467
▁disappear	-10.2471
▁preliminar	-10.2473
▁mccann	-10.2473
▁ghaz	-10.2473
▁studio	-10.2473
▁bilateral	-10.2473
▁pump	-10.2473
▁shrine	-10.2473
▁dramatic	-10.2473
▁abdullah	-10.2475
▁proud	-10.2475
▁boom	-10.2476
▁execution	-10.2478
▁hopeful	-10.2482
employment	-10.2482
▁ni	-10.2485
▁plead	-10.2494
▁jak	-10.25
▁boe	-10.2503
▁homeland	-10.2516
▁pushing	-10.2517
▁notice	-10.2546
▁bird	-10.2552
▁landed	-10.2566
▁reduced	-10.2567
▁coordinat	-10.2569
▁surround	-10.2574
▁collect	-10.2582
▁controversy	-10.2593
▁tsunami	-10.2593
▁desert	-10.2593
▁yellow	-10.2594
▁balance	-10.2595
▁edition	-10.2595
▁gulf	-10.2596
▁direction	-10.2604
▁hezb	-10.2605
▁boss	-10.2608
▁sponsor	-10.2611
▁inflation	-10.2618
ran	-10.2625
▁soar	-10.2628
▁palm	-10.2629
beth	-10.2649
ib	-10.2667
▁ya	-10.2671
▁fate	-10.2691
▁cheer	-10.2704
azir	-10.2704
▁string	-10.2709
▁alternative	-10.2715
▁darfur	-10.2715
▁error	-10.2715
▁length	-10.2715
▁miami	-10.2715
▁mortgage	-10.2715
▁bottle	-10.2715
▁radical	-10.2716
▁edwards	-10.2718
▁prett	-10.2718
▁ch	-10.272
▁palin	-10.272
▁dala	-10.2722
▁toys	-10.2722
▁bright	-10.2728
harry	-10.273
▁hunt	-10.274
ability	-10.2749
▁opponents	-10.2757
pi	-10.276
ock	-10.2783
▁em	-10.2783
▁teachers	-10.2788
uk	-10.2796
ph	-10.2797
▁southwest	-10.2818
▁rail	-10.2822
head	-10.2823
▁abduct	-10.2832
▁strength	-10.2832
▁bottom	-10.2839
▁journey	-10.2839
▁method	-10.2839
▁ballot	-10.2839
▁firing	-10.2839
▁reading	-10.2843
▁assist	-10.2844
▁entering	-10.2845
▁yoo	-10.2853
fi	-10.2855
▁stepp	-10.2855
▁print	-10.2856
▁restaurant	-10.2867
▁venezuelan	-10.287
au	-10.2879
▁mur	-10.2882
▁hol	-10.2889
▁weak	-10.2912
▁tire	-10.2923
▁marked	-10.2927
▁joe	-10.2933
▁ti	-10.2945
▁roman	-10.2949
ef	-10.296
▁convoy	-10.2964
▁gonzale	-10.2964
▁immigrat	-10.2964
▁margin	-10.2964
▁yonhap	-10.2964
▁youtube	-10.2964
▁sustain	-10.2964
▁lab	-10.2967
taken	-10.2969
▁pen	-10.2973
af	-10.2979
▁belong	-10.2981
▁z	-10.2984
▁flag	-10.2996
▁benefit	-10.2998
▁drew	-10.2998
▁vat	-10.3005
▁stan	-10.3005
▁argentin	-10.3008
▁indonesian	-10.3022
▁battl	-10.3022
▁nas	-10.303
▁jon	-10.3035
body	-10.3036
down	-10.3065
▁weigh	-10.3067
▁mi	-10.3071
▁hospitaliz	-10.3076
ford	-10.3076
▁goods	-10.3078
▁gains	-10.3079
▁northwest	-10.308
▁sean	-10.308
▁captain	-10.309
▁client	-10.309
▁gallon	-10.309
▁shopping	-10.309
▁cloud	-10.3091
▁inspection	-10.3092
▁deployment	-10.3096
agan	-10.3096
▁weaken	-10.3097
▁truth	-10.3109
▁charit	-10.311
▁osam	-10.3123
▁dam	-10.3125
▁steven	-10.3133
ei	-10.3141
com	-10.3151
▁holy	-10.3159
▁gathering	-10.3167
▁effects	-10.3175
▁hat	-10.318
kk	-10.3186
▁patric	-10.3192
▁invest	-10.3204
▁lie	-10.3208
her	-10.3208
▁fatal	-10.3217
ural	-10.3218
▁convince	-10.3219
▁girlfriend	-10.3219
▁vacation	-10.3219
madeleine	-10.322
▁divers	-10.3222
▁innocent	-10.3226
▁afford	-10.3232
▁falling	-10.3238
▁pitch	-10.324
arah	-10.3248
▁predicted	-10.3263
▁ally	-10.3263
nga	-10.3264
▁capture	-10.3266
▁oh	-10.3279
▁delivery	-10.3293
itting	-10.3311
▁promot	-10.3313
▁beating	-10.334
dna	-10.3341
▁experiment	-10.3348
▁landslide	-10.3348
▁vladimir	-10.3348
▁drove	-10.3349
▁corporation	-10.3349
▁boston	-10.3349
▁initiative	-10.3349
▁pursu	-10.3352
▁jesu	-10.3353
▁stability	-10.3359
▁gi	-10.3367
ella	-10.3375
▁scott	-10.3377
▁stores	-10.3378
▁explain	-10.3378
▁chain	-10.338
▁skin	-10.3397
ik	-10.3409
▁celebrat	-10.3414
▁pat	-10.3428
water	-10.3434
▁featur	-10.3441
▁lin	-10.3449
▁meaning	-10.3453
sumption	-10.346
ver	-10.3473
▁rom	-10.3474
▁knowledge	-10.348
▁prospect	-10.348
▁fi	-10.348
▁mont	-10.3481
▁yard	-10.3482
▁rockets	-10.3483
▁eat	-10.3484
aeus	-10.3484
▁grew	-10.3484
▁escap	-10.3486
▁defendant	-10.3491
▁islamist	-10.3493
ff	-10.3505
▁stag	-10.3512
▁jim	-10.3517
▁operate	-10.3518
▁cable	-10.3525
▁teacher	-10.3535
▁dealing	-10.3538
▁carrier	-10.3542
▁structure	-10.3545
▁acre	-10.3547
▁failing	-10.3553
ade	-10.3565
▁pla	-10.3581
▁younger	-10.3585
▁bond	-10.3588
arian	-10.3596
▁survived	-10.3598
▁flee	-10.3602
▁accord	-10.3608
▁dump	-10.3613
▁advertis	-10.3613
▁denounc	-10.3613
▁ultimate	-10.3613
▁wildlife	-10.3613
▁knock	-10.3614
▁temple	-10.3616
▁vast	-10.3616
▁file	-10.3616
▁fox	-10.3617
▁atlantic	-10.362
▁negotiat	-10.3623
▁guns	-10.3624
▁liter	-10.3633
bed	-10.3639
stein	-10.3642
ugh	-10.3642
▁friendly	-10.3647
▁bowl	-10.3649
ehud	-10.365
▁cri	-10.3651
▁introduc	-10.3661
▁fo	-10.3662
▁bound	-10.3668
baki	-10.3673
▁excit	-10.3678
put	-10.3678
▁bal	-10.3683
mb	-10.3685
▁tradition	-10.3691
▁formed	-10.3702
▁planes	-10.3721
▁write	-10.3732
▁connect	-10.3737
▁si	-10.3742
▁typical	-10.3749
▁ear	-10.3752
▁collection	-10.3755
▁blaze	-10.3755
▁replac	-10.3756
qu	-10.3766
▁peru	-10.3788
▁divid	-10.3792
▁shi	-10.3796
evich	-10.3809
▁gore	-10.384
▁pirates	-10.3844
▁whal	-10.3851
▁maxim	-10.3867
▁sect	-10.3874
fer	-10.3876
▁isolat	-10.3883
▁participate	-10.3884
▁michel	-10.3886
▁barcelon	-10.3886
▁conversation	-10.3886
▁eliza	-10.3886
▁pregnant	-10.3886
▁brutal	-10.3886
▁numer	-10.3886
▁delhi	-10.3886
▁plastic	-10.3886
▁maj	-10.3892
▁yi	-10.3895
▁cal	-10.3895
▁sensitiv	-10.3914
▁warnings	-10.3932
istan	-10.3934
▁beef	-10.394
▁worrie	-10.3942
ities	-10.3956
▁symbol	-10.3957
▁representative	-10.3958
con	-10.3973
ber	-10.3984
▁restaurants	-10.3993
▁serbia	-10.3999
rey	-10.4007
▁comfort	-10.4017
▁execut	-10.4017
▁restrict	-10.4019
▁mac	-10.4022
▁abdul	-10.4024
▁revenue	-10.4024
▁superdelegate	-10.4024
▁jordan	-10.4024
▁squad	-10.4024
▁endanger	-10.4024
▁birthday	-10.4025
▁neck	-10.4026
▁memory	-10.4026
ejad	-10.4029
▁drama	-10.403
▁bail	-10.403
▁stimul	-10.4034
▁wheel	-10.4042
▁shang	-10.4057
▁responded	-10.4064
▁islands	-10.4064
▁briefing	-10.4066
▁zar	-10.4072
▁bi	-10.4076
▁restore	-10.4082
▁philippines	-10.4098
▁hiv	-10.4098
▁wish	-10.4104
▁accuse	-10.4108
oney	-10.4119
cia	-10.4132
▁kerr	-10.4136
port	-10.4144
▁buddhist	-10.4165
▁participant	-10.4165
▁peacekeep	-10.4165
▁sovereign	-10.4165
▁surrender	-10.4165
▁ordinar	-10.4165
▁moderate	-10.4165
▁routine	-10.4166
▁genetic	-10.4166
▁stole	-10.4167
▁illness	-10.4167
▁brazilian	-10.4167
▁punishment	-10.4168
▁federation	-10.4169
fa	-10.417
▁character	-10.4176
chuan	-10.4178
cc	-10.418
▁declare	-10.4189
▁resolv	-10.4192
board	-10.4193
▁glass	-10.4198
▁stories	-10.4199
▁runway	-10.4223
house	-10.423
▁paint	-10.4235
▁inform	-10.4237
▁provinces	-10.4241
gh	-10.4243
▁mel	-10.4272
▁uh	-10.4275
▁civi	-10.4297
▁mistake	-10.4299
iro	-10.43
▁televis	-10.4303
▁trains	-10.4306
evin	-10.4307
rac	-10.4308
▁airstrike	-10.4308
▁hampshire	-10.4308
▁hawaii	-10.4308
▁solve	-10.4308
▁arsenal	-10.4309
▁anticipat	-10.431
ippi	-10.4312
▁unity	-10.4313
▁sailor	-10.4314
▁mental	-10.4314
▁veto	-10.4324
daq	-10.4332
▁welcom	-10.4335
▁publicly	-10.4335
▁mart	-10.4337
▁abc	-10.435
▁crop	-10.4352
tti	-10.4357
▁fe	-10.4359
▁pan	-10.4365
ular	-10.4373
vo	-10.4393
▁farc	-10.4398
▁demonstration	-10.4401
▁sample	-10.4413
ists	-10.4417
io	-10.4425
ko	-10.4426
▁str	-10.4428
▁survive	-10.4437
uri	-10.4438
iana	-10.4439
▁cor	-10.444
▁revolutionar	-10.4445
▁photographer	-10.4448
▁obvious	-10.4453
▁watchdog	-10.4453
▁strict	-10.4453
▁urban	-10.4454
▁shirt	-10.4454
▁distance	-10.4457
▁hail	-10.4457
▁peak	-10.4457
▁va	-10.4459
▁appointment	-10.4459
▁successor	-10.4461
▁morgan	-10.4463
▁accusation	-10.4476
▁apologiz	-10.4481
▁hang	-10.4483
▁tool	-10.4487
▁tr	-10.4493
▁kenyan	-10.4495
ants	-10.4501
▁metropoli	-10.4513
▁bob	-10.4529
ota	-10.4534
▁cd	-10.4535
gar	-10.4536
▁fin	-10.4536
▁somali	-10.454
▁striker	-10.4542
▁mor	-10.4544
▁photo	-10.4544
cation	-10.4545
▁undergo	-10.4548
▁commit	-10.4572
pol	-10.4574
hattan	-10.4574
▁sad	-10.4578
▁wins	-10.4578
▁wor	-10.4579
room	-10.4581
▁contests	-10.4583
light	-10.4591
▁cease	-10.46
▁capacity	-10.46
▁scientific	-10.46
▁fortune	-10.4601
▁midnight	-10.4602
▁expensive	-10.4603
▁settlement	-10.4603
▁pr	-10.4604
▁regulator	-10.4606
▁shark	-10.4609
▁text	-10.461
▁comedy	-10.4621
▁dominat	-10.4629
▁lev	-10.4653
▁del	-10.4658
▁worker	-10.466
ite	-10.4695
▁ir	-10.471
▁messages	-10.4727
▁shoot	-10.4738
▁chun	-10.4741
▁employ	-10.4741
▁corps	-10.4741
▁steel	-10.4745
▁blago	-10.4749
▁dispatch	-10.4749
▁surveill	-10.4749
▁switch	-10.4749
▁venue	-10.4749
▁wreck	-10.4749
▁editor	-10.4749
▁trend	-10.475
▁cyclone	-10.475
▁stephen	-10.475
▁jack	-10.475
▁inquir	-10.4751
▁egyptian	-10.4751
▁everybody	-10.4752
▁columbia	-10.4752
▁lung	-10.4755
▁eating	-10.4757
▁chile	-10.476
▁dick	-10.476
▁cloth	-10.4764
▁slipp	-10.4764
▁designat	-10.4766
▁expos	-10.4769
▁greet	-10.4774
▁transferr	-10.4783
oon	-10.479
owitz	-10.4794
ill	-10.4797
dp	-10.4797
▁affiliate	-10.4798
armament	-10.4803
▁ri	-10.481
witz	-10.4818
▁celebrate	-10.4819
▁fame	-10.4851
▁diplomat	-10.4872
▁henr	-10.4876
▁react	-10.4878
▁caucuse	-10.4879
▁fun	-10.4886
pec	-10.4888
▁yo	-10.4891
▁emerged	-10.4894
▁depressi	-10.4901
▁circumstances	-10.4901
▁coffee	-10.4901
▁spirit	-10.4901
▁funeral	-10.4901
▁convert	-10.4901
▁mississ	-10.4901
▁dinner	-10.4901
▁passport	-10.4902
▁harsh	-10.4902
▁congo	-10.4904
▁bitter	-10.4905
▁traffick	-10.4909
▁native	-10.4912
▁fta	-10.4913
▁moham	-10.4916
▁intense	-10.4916
▁operator	-10.4921
bus	-10.4921
the	-10.4921
▁jeff	-10.4924
▁stressed	-10.4936
▁humans	-10.494
▁cave	-10.4942
▁hir	-10.4944
▁deny	-10.4947
▁gmt	-10.4949
▁note	-10.4954
▁chest	-10.4962
▁sick	-10.4971
▁shell	-10.499
war	-10.4993
pe	-10.4994
▁spott	-10.5002
▁fat	-10.5007
▁saving	-10.5015
▁citizen	-10.5019
▁teen	-10.5031
▁organ	-10.5032
▁bro	-10.5035
▁urge	-10.5039
▁intention	-10.5044
▁accounts	-10.5047
pending	-10.5049
▁oppose	-10.5051
▁mexican	-10.5055
▁multiple	-10.5055
▁supposed	-10.5055
▁crown	-10.5055
▁commerc	-10.5055
▁gree	-10.5059
cu	-10.5059
▁achieve	-10.506
▁handle	-10.5062
▁trick	-10.5062
▁debri	-10.5062
▁indication	-10.5067
ott	-10.5074
▁entry	-10.5076
▁apologize	-10.5076
▁mouth	-10.5079
▁aids	-10.5083
iest	-10.5087
▁depend	-10.5088
▁abus	-10.5108
▁prepare	-10.5126
▁jane	-10.5149
▁views	-10.5151
▁hospitals	-10.5165
▁inspir	-10.5173
more	-10.5174
▁loh	-10.5191
lum	-10.5192
tah	-10.5193
▁earning	-10.5195
▁rescued	-10.521
▁breakthrough	-10.5211
▁dvd	-10.5211
▁cafe	-10.5211
▁quiet	-10.5211
▁false	-10.5212
▁powers	-10.5212
▁impeach	-10.5213
▁vital	-10.5215
uc	-10.5215
▁barrier	-10.5216
▁rumor	-10.522
▁mourn	-10.5222
rat	-10.5222
▁castro	-10.5227
▁map	-10.5227
▁musical	-10.5249
▁shape	-10.525
▁ire	-10.5252
▁shoulder	-10.526
▁copie	-10.5269
▁consult	-10.5272
▁kyo	-10.5274
▁bombers	-10.5276
▁appropriate	-10.5289
▁der	-10.5293
▁owners	-10.5306
▁lights	-10.5312
▁wine	-10.5319
▁mas	-10.532
▁combin	-10.5329
sley	-10.5337
▁recognize	-10.5343
▁explosive	-10.5344
▁window	-10.5345
▁parent	-10.5346
▁chart	-10.5362
▁disney	-10.5369
▁benedict	-10.537
▁concrete	-10.537
▁occupation	-10.537
▁testimon	-10.537
▁swiss	-10.537
▁alex	-10.537
▁punish	-10.5372
▁chong	-10.5373
▁preparation	-10.5374
▁gross	-10.5375
▁medal	-10.5376
▁twin	-10.5378
▁approve	-10.5381
▁frame	-10.5382
▁odi	-10.5385
▁cl	-10.5386
col	-10.5387
▁sir	-10.5387
ala	-10.5395
erdog	-10.5406
▁wage	-10.5407
▁torture	-10.5408
▁settle	-10.5423
▁matche	-10.5433
eath	-10.5448
▁gul	-10.5449
ub	-10.5456
▁historical	-10.5465
▁diet	-10.5467
wise	-10.5483
▁christ	-10.5488
oli	-10.5491
▁tri	-10.5491
▁broadcaster	-10.5513
▁escalat	-10.5519
▁ph	-10.5523
▁pitt	-10.5523
▁conservation	-10.5524
erland	-10.5529
▁confident	-10.553
▁faith	-10.553
▁benchmark	-10.5531
▁phoeni	-10.5531
▁tobacco	-10.5531
▁unknown	-10.5531
▁verdict	-10.5531
▁conclusion	-10.5531
▁mir	-10.5531
▁shareholder	-10.5531
▁repair	-10.5531
▁lanka	-10.5531
▁spill	-10.5531
▁beaut	-10.5533
▁apply	-10.5533
▁amnes	-10.5534
▁fierce	-10.5534
▁loyal	-10.5535
▁tower	-10.5536
▁continent	-10.5543
luton	-10.5547
▁attitude	-10.5553
▁correct	-10.556
▁advisor	-10.5561
▁predict	-10.5565
▁shore	-10.5575
▁custom	-10.558
▁tend	-10.5587
iri	-10.5589
▁apart	-10.5594
▁chris	-10.5599
efa	-10.5607
▁floods	-10.5623
▁mon	-10.5628
fp	-10.5629
burg	-10.5636
▁dad	-10.5636
▁restor	-10.5637
ward	-10.5641
cher	-10.5644
▁jin	-10.5647
val	-10.565
▁associate	-10.5666
▁feed	-10.5675
lated	-10.5686
▁ignor	-10.5688
▁disrupt	-10.569
▁pursue	-10.569
▁bangladesh	-10.5695
▁category	-10.5695
▁function	-10.5695
▁boyfriend	-10.5695
▁await	-10.5695
▁mary	-10.5695
▁joseph	-10.5696
▁odd	-10.5697
mumba	-10.5697
▁motion	-10.5697
▁marks	-10.5698
▁communit	-10.57
▁careful	-10.5701
▁maria	-10.571
▁socialist	-10.5723
nke	-10.5729
▁brad	-10.5732
ago	-10.5735
▁overwhelming	-10.5741
▁somalia	-10.5764
▁qu	-10.577
▁ke	-10.5779
▁ab	-10.5805
fire	-10.5819
▁disable	-10.5821
▁chad	-10.5825
▁austria	-10.5835
▁plung	-10.5839
ab	-10.5855
▁concept	-10.5862
▁czech	-10.5862
▁reconciliation	-10.5862
▁sweep	-10.5862
▁unfortunate	-10.5862
▁uniform	-10.5862
▁striking	-10.5862
▁golf	-10.5862
▁clark	-10.5862
▁attach	-10.5862
▁solid	-10.5863
▁sheikh	-10.5863
▁flash	-10.5863
▁stern	-10.5864
▁cargo	-10.5869
▁rebuild	-10.5869
▁compete	-10.5871
▁partners	-10.5872
▁bigge	-10.5875
▁carlo	-10.5878
▁substantial	-10.5888
▁specialist	-10.5889
▁copy	-10.5901
▁classic	-10.5901
▁troubl	-10.5908
▁toxic	-10.5909
▁villager	-10.5921
▁retail	-10.5923
▁cow	-10.5931
▁larr	-10.5946
▁yong	-10.595
▁cleve	-10.5959
▁nak	-10.5959
ral	-10.597
▁wel	-10.5984
ball	-10.5989
sul	-10.5991
▁grant	-10.5996
hood	-10.6
▁negotiate	-10.6004
▁trader	-10.6017
▁disc	-10.6026
▁slave	-10.6029
▁mccorm	-10.6031
▁typhoon	-10.6031
▁tennesse	-10.6031
▁transaction	-10.6031
▁laptop	-10.6031
▁legend	-10.6031
▁petition	-10.6031
▁variet	-10.6032
izu	-10.6033
▁reference	-10.6034
▁hitt	-10.6039
▁antoni	-10.604
▁railway	-10.6045
▁volcano	-10.6048
quo	-10.605
▁shipp	-10.6062
▁ne	-10.6064
▁tackle	-10.6064
▁pav	-10.6069
▁familiar	-10.6081
▁disclose	-10.6082
▁wire	-10.6086
▁kid	-10.6105
▁prayer	-10.6112
ail	-10.6132
▁rd	-10.6137
▁argue	-10.6139
▁priorit	-10.6148
▁nur	-10.6169
▁chao	-10.6177
▁outrage	-10.6185
▁bolt	-10.6193
▁advi	-10.6197
▁priva	-10.6202
▁administrative	-10.6203
▁compensation	-10.6203
▁kuwait	-10.6203
▁platform	-10.6203
▁referendum	-10.6203
▁crush	-10.6203
▁departure	-10.6204
▁sweet	-10.6204
▁latin	-10.6204
▁relocation	-10.6205
▁household	-10.6205
▁separatist	-10.6205
▁confrontation	-10.6206
▁brun	-10.6208
gan	-10.6211
▁infection	-10.6212
nnan	-10.6216
▁absolutely	-10.6222
▁hug	-10.623
▁camps	-10.6232
▁pun	-10.6241
lets	-10.6244
▁kent	-10.6253
▁colon	-10.6254
▁sav	-10.6254
▁cuban	-10.626
ura	-10.6278
▁dust	-10.6282
▁jae	-10.6284
▁regions	-10.6287
▁pool	-10.6288
▁sight	-10.6294
▁doors	-10.6298
▁buyer	-10.6303
▁sung	-10.6304
▁hero	-10.6307
▁phila	-10.6316
▁stands	-10.6321
craft	-10.6327
▁guide	-10.6328
▁miner	-10.6332
court	-10.6334
▁ryan	-10.6335
eh	-10.634
▁thinking	-10.6352
hn	-10.6355
▁except	-10.6373
▁secular	-10.6374
▁rio	-10.6375
▁robot	-10.6376
▁painting	-10.6377
▁novel	-10.6378
▁spa	-10.6379
▁aggressive	-10.6379
▁immigrant	-10.6379
▁vaccine	-10.6379
▁essential	-10.6379
▁muscle	-10.6379
▁sentiment	-10.6379
▁unrest	-10.6379
▁clock	-10.638
▁conviction	-10.638
▁alarm	-10.638
▁contrast	-10.638
▁zero	-10.6381
▁baseball	-10.6381
▁shield	-10.6383
▁worry	-10.6384
▁delegate	-10.6389
▁float	-10.6393
ega	-10.6395
▁slamm	-10.64
▁crossing	-10.64
clusive	-10.6405
▁kate	-10.6405
iv	-10.6407
▁athen	-10.6408
▁stable	-10.6409
▁chant	-10.6411
▁shap	-10.6412
▁drawing	-10.6413
▁plac	-10.6425
▁paulo	-10.6433
▁turnout	-10.6433
▁dat	-10.6439
uff	-10.6461
tv	-10.6464
ila	-10.6468
▁attacker	-10.6483
eng	-10.6486
▁worri	-10.6489
▁oldest	-10.6494
▁soo	-10.6502
▁villa	-10.6502
▁promotion	-10.6518
▁polar	-10.6524
▁libya	-10.6531
mon	-10.6532
▁overcom	-10.6549
▁rac	-10.6554
▁virgin	-10.6554
▁glacier	-10.6558
▁imprison	-10.6558
▁rifle	-10.6558
▁smash	-10.6558
▁breach	-10.6558
▁assessment	-10.656
▁garden	-10.6561
▁rafa	-10.6567
▁graduate	-10.6568
▁submitt	-10.6581
▁moore	-10.6585
▁sole	-10.6588
▁stick	-10.6598
▁endur	-10.6602
▁whale	-10.6604
hal	-10.6609
tu	-10.6614
ob	-10.6621
▁athletes	-10.6626
▁dar	-10.6626
unt	-10.6632
▁fires	-10.6635
▁whit	-10.6637
ential	-10.6647
▁lend	-10.6655
▁counts	-10.6663
▁prais	-10.6663
▁airway	-10.6669
▁sri	-10.6678
▁soil	-10.6705
▁meter	-10.6711
▁fl	-10.6713
cal	-10.6715
▁compet	-10.6729
▁lobby	-10.6734
▁qualify	-10.6739
▁caution	-10.6739
▁retain	-10.6739
▁strand	-10.6739
▁laborator	-10.6739
▁outcome	-10.6739
▁tunnel	-10.674
▁liquid	-10.674
delphi	-10.674
▁orange	-10.674
▁donald	-10.674
▁roger	-10.6741
▁slump	-10.6742
▁duck	-10.6743
▁respective	-10.6744
▁stroke	-10.6746
▁airports	-10.6746
▁timor	-10.6748
▁revolution	-10.6749
▁pad	-10.6751
▁robber	-10.6751
▁residence	-10.6753
▁root	-10.6758
▁ram	-10.676
irai	-10.6762
▁employee	-10.6763
let	-10.6766
▁tsv	-10.6773
▁fleet	-10.6774
ably	-10.6774
▁hawk	-10.6787
▁teens	-10.6791
▁phase	-10.6796
upper	-10.6802
▁laugh	-10.6805
▁dy	-10.6813
▁hills	-10.6816
▁electronics	-10.6817
▁sang	-10.6824
▁classifie	-10.6835
▁sin	-10.6837
ture	-10.6842
▁rum	-10.6848
▁syrian	-10.6851
▁prov	-10.6854
▁retailer	-10.6857
▁inde	-10.6861
▁ousted	-10.6862
▁scan	-10.6867
▁securit	-10.6869
stance	-10.6873
▁banner	-10.6874
shore	-10.6884
▁pray	-10.6898
▁bur	-10.6915
▁impose	-10.6916
▁aren	-10.6917
▁exhibit	-10.6919
▁dictator	-10.6924
▁roof	-10.6924
▁capitol	-10.6925
▁detroit	-10.6925
▁embryo	-10.6925
▁extraordinar	-10.6925
▁guerrilla	-10.6925
▁abortion	-10.6925
▁attribut	-10.6925
▁gyeong	-10.6925
▁pattern	-10.6925
▁darwin	-10.6925
▁checkpoint	-10.6925
▁hamid	-10.6925
▁mohammad	-10.6926
▁strategic	-10.6926
▁curb	-10.6926
▁huck	-10.6927
▁burst	-10.6927
mbled	-10.6929
▁davis	-10.693
▁wrapp	-10.6935
▁freeze	-10.6942
▁breath	-10.6945
▁upset	-10.6955
tz	-10.6956
▁politician	-10.6958
ram	-10.6966
▁towns	-10.6968
▁pleas	-10.6979
▁seconds	-10.6982
nancy	-10.699
ast	-10.6992
▁murr	-10.7012
▁distribut	-10.7017
▁documentar	-10.7032
losi	-10.7033
bar	-10.7043
▁thin	-10.7045
▁extremists	-10.7049
▁ham	-10.705
rut	-10.7053
▁breed	-10.7053
▁andrew	-10.7092
jo	-10.7092
▁clothe	-10.7098
ible	-10.7101
▁transform	-10.711
burgh	-10.711
rk	-10.7113
▁ambush	-10.7113
▁consequence	-10.7113
▁impossible	-10.7113
▁netherlands	-10.7113
▁quarterfinal	-10.7113
▁technique	-10.7113
▁cartoon	-10.7113
▁exposure	-10.7113
▁twenty	-10.7113
▁creature	-10.7113
▁summon	-10.7113
▁seattle	-10.7113
▁orlean	-10.7114
▁greenhouse	-10.7114
▁wireless	-10.7115
▁efficient	-10.7116
▁undermine	-10.7118
▁adam	-10.7119
▁kyu	-10.712
▁keb	-10.7121
▁missou	-10.7122
▁dawn	-10.7123
▁runoff	-10.7124
▁bribe	-10.7127
▁hide	-10.7131
▁portion	-10.7137
pl	-10.7141
▁mall	-10.7142
oil	-10.7151
▁tension	-10.7163
▁gambar	-10.7164
▁volunteers	-10.7165
▁endors	-10.7169
▁minorit	-10.7175
▁pin	-10.7179
▁hon	-10.7184
▁mom	-10.7185
▁worsen	-10.7188
▁impo	-10.7194
▁gate	-10.722
eva	-10.7224
▁hunter	-10.7226
▁acknowledge	-10.7262
pover	-10.7273
ius	-10.7274
▁starr	-10.7278
▁resist	-10.7279
▁submit	-10.728
cha	-10.7284
half	-10.7291
▁complicat	-10.73
▁exploit	-10.7305
▁hybrid	-10.7305
▁minimum	-10.7305
▁semifinal	-10.7305
▁swimming	-10.7306
▁giuli	-10.7306
▁scheme	-10.7306
▁bankruptcy	-10.7306
▁wildfire	-10.7306
▁substance	-10.7306
▁amendment	-10.7307
▁eve	-10.7307
▁toilet	-10.7308
▁panda	-10.7309
▁sau	-10.731
▁flat	-10.7314
▁centre	-10.7315
▁displac	-10.7317
▁grass	-10.7322
▁nice	-10.7327
▁dry	-10.7335
▁realize	-10.7336
▁iron	-10.7336
▁laid	-10.7337
▁homeless	-10.7347
▁offender	-10.7351
▁prior	-10.7354
▁rudd	-10.7356
long	-10.7358
▁legs	-10.7366
▁ger	-10.7366
▁hunting	-10.7368
rod	-10.7384
▁ron	-10.7397
eb	-10.7403
▁discover	-10.7407
▁moral	-10.7409
wright	-10.7427
▁core	-10.7439
▁warner	-10.7441
llo	-10.7445
▁newly	-10.7451
▁div	-10.747
▁bor	-10.7471
▁counsel	-10.7494
cious	-10.7501
▁fulfill	-10.7502
▁voluntar	-10.7502
▁reiterat	-10.7502
▁testify	-10.7502
▁anchor	-10.7502
▁merkel	-10.7502
▁competitive	-10.7502
▁inauguration	-10.7502
▁timetable	-10.7502
▁evacuation	-10.7503
▁panama	-10.7503
▁stuff	-10.7503
▁whales	-10.7505
▁greek	-10.7506
▁celebration	-10.751
▁abduction	-10.751
▁coca	-10.7511
▁jungle	-10.7511
▁gear	-10.7512
▁mer	-10.7513
▁viewers	-10.7514
▁bon	-10.7526
▁ok	-10.7529
▁deadlie	-10.7535
▁emotional	-10.7535
▁stream	-10.7538
▁fever	-10.7549
▁faction	-10.7553
▁dean	-10.7558
▁sat	-10.7562
ating	-10.7571
▁rider	-10.7578
▁mandat	-10.7579
▁feb	-10.7591
▁plate	-10.7598
ink	-10.7598
▁inch	-10.7612
▁bra	-10.7612
▁peer	-10.7622
sfeld	-10.7632
air	-10.7642
ama	-10.7653
identified	-10.7653
▁za	-10.7663
▁kell	-10.7671
▁rev	-10.7674
▁shak	-10.7674
▁kitt	-10.7679
▁imp	-10.7685
aki	-10.7687
▁motors	-10.7688
held	-10.7694
▁proceed	-10.7698
▁denucleariz	-10.7702
▁aftershock	-10.7702
▁consecutive	-10.7702
▁elephant	-10.7702
▁rodrigue	-10.7702
▁clinch	-10.7702
▁swift	-10.7702
▁proof	-10.7702
▁inquest	-10.7702
▁ioc	-10.7702
▁disappearance	-10.7704
▁advanc	-10.7704
▁launder	-10.7706
▁ju	-10.7706
▁albert	-10.7708
▁serb	-10.7715
▁yuan	-10.772
▁simon	-10.7722
▁amounts	-10.7723
obi	-10.7723
▁gaz	-10.7734
responsibility	-10.7738
▁slam	-10.774
▁secur	-10.7741
▁torn	-10.7744
▁gray	-10.7746
ucky	-10.775
▁leftist	-10.775
teen	-10.7753
▁contribute	-10.7762
▁eric	-10.7777
▁bel	-10.778
▁cla	-10.7784
▁gm	-10.7808
▁laho	-10.7813
▁designer	-10.7817
▁defending	-10.7832
▁revive	-10.7845
ux	-10.7852
▁winners	-10.7861
maker	-10.7863
abee	-10.7876
▁achiev	-10.7893
▁yel	-10.7894
▁industri	-10.7897
opec	-10.7902
▁rowl	-10.7903
▁infant	-10.7905
▁luxur	-10.7905
▁concession	-10.7906
▁encounter	-10.7906
▁enterprise	-10.7906
▁landmark	-10.7906
▁spiritual	-10.7906
▁technologies	-10.7906
▁cigarette	-10.7906
▁offense	-10.7906
▁terminal	-10.7906
▁hint	-10.7906
▁constant	-10.7906
▁mortar	-10.7906
▁obligation	-10.7907
▁hindu	-10.7907
▁colonial	-10.7907
▁drill	-10.7907
▁bow	-10.7909
▁frontier	-10.7913
▁reward	-10.7915
▁arabic	-10.7916
▁meat	-10.7923
▁ambition	-10.7924
▁denie	-10.7924
▁shots	-10.7931
▁kansa	-10.7932
▁chole	-10.7935
▁reli	-10.7937
▁icon	-10.794
ida	-10.795
▁appli	-10.7958
▁granted	-10.7966
via	-10.7967
▁detainees	-10.7969
▁compromise	-10.7972
▁stead	-10.7995
▁lion	-10.7997
▁euros	-10.8025
▁investigations	-10.8032
▁tropica	-10.8032
hand	-10.8032
▁reduc	-10.8045
▁sons	-10.8054
mond	-10.8061
▁indicted	-10.8067
standing	-10.8068
▁oversee	-10.8077
▁killer	-10.8088
▁regret	-10.8088
uz	-10.8093
▁cheap	-10.81
▁bang	-10.8101
▁prohibit	-10.8108
▁trained	-10.8113
▁deficit	-10.8114
▁precaution	-10.8114
▁suspicious	-10.8114
▁chapter	-10.8114
▁relax	-10.8114
▁deteriorat	-10.8114
▁postpone	-10.8114
▁ballistic	-10.8114
▁admission	-10.8114
▁blanket	-10.8114
▁sta	-10.8117
▁barbara	-10.8117
▁houston	-10.8118
drew	-10.8121
▁emphasiz	-10.8121
▁marc	-10.8121
▁turm	-10.8122
▁thick	-10.8127
▁hud	-10.8129
▁pole	-10.8139
▁equit	-10.8143
▁wales	-10.8144
▁bri	-10.8162
▁malaysian	-10.8164
fk	-10.8167
▁cooper	-10.8181
▁clip	-10.8189
▁broker	-10.8191
▁hi	-10.8191
phy	-10.82
▁blog	-10.8203
▁employment	-10.8205
▁victor	-10.8208
▁influ	-10.8212
gged	-10.8218
▁capabilit	-10.8225
▁coal	-10.8229
▁dop	-10.824
▁inmate	-10.8244
▁introduce	-10.8251
▁bio	-10.8253
▁habitat	-10.8253
kin	-10.8257
▁flags	-10.8267
ita	-10.8267
latter	-10.8268
erial	-10.8287
▁sao	-10.8299
ntao	-10.8302
east	-10.8303
▁lov	-10.831
▁confess	-10.8324
▁vessels	-10.8326
▁expansion	-10.8327
▁migrant	-10.8327
▁oklahoma	-10.8327
▁transplant	-10.8327
▁belief	-10.8327
judicial	-10.8327
▁bloom	-10.8327
▁pipeline	-10.8327
▁tornado	-10.8327
▁insult	-10.8327
▁salmon	-10.8328
▁respondent	-10.8329
▁engage	-10.8329
▁priest	-10.833
▁prominent	-10.8332
▁instance	-10.8332
▁spray	-10.8333
▁musician	-10.8333
▁occasion	-10.8337
▁kun	-10.8339
▁pour	-10.8345
▁universal	-10.8351
▁vien	-10.8357
▁presumpti	-10.836
arctic	-10.8362
dev	-10.8371
ehouse	-10.8373
viation	-10.8374
▁om	-10.8398
hdi	-10.8399
bama	-10.8402
▁decid	-10.8404
▁principle	-10.8414
low	-10.8415
ini	-10.8417
cut	-10.8421
ox	-10.8422
▁experienc	-10.8426
▁pra	-10.8452
att	-10.8465
▁contribut	-10.8465
bur	-10.8467
▁follower	-10.8478
▁centur	-10.8478
▁kath	-10.8479
▁rob	-10.848
▁pointed	-10.8481
▁jam	-10.8494
precedent	-10.8495
▁shah	-10.8506
ax	-10.8519
▁beer	-10.8521
▁canal	-10.8521
bel	-10.8535
▁desire	-10.8537
▁confront	-10.8542
ullah	-10.8543
▁tickets	-10.8543
▁ecuador	-10.8544
▁empty	-10.8544
▁vitamin	-10.8544
▁massacre	-10.8544
▁tragedy	-10.8544
▁lewis	-10.8544
▁telecom	-10.8544
▁libert	-10.8545
▁imagine	-10.8545
▁ibrahim	-10.8546
▁medication	-10.8547
iscons	-10.8549
▁urgent	-10.8549
▁proceedings	-10.8549
▁knight	-10.8552
rich	-10.8552
▁vision	-10.8554
▁fake	-10.8558
▁background	-10.8559
▁tighten	-10.8559
away	-10.8561
▁loud	-10.8567
▁buck	-10.8567
▁tay	-10.8572
kovic	-10.8572
dari	-10.8573
▁stepping	-10.8574
refore	-10.8578
▁load	-10.8579
▁cards	-10.8583
▁victoria	-10.8591
ew	-10.8605
▁publication	-10.8606
▁deliberate	-10.8607
▁holder	-10.8609
▁mag	-10.8612
tsin	-10.8613
▁woods	-10.8613
▁decisions	-10.8616
▁ramo	-10.8624
ua	-10.8631
▁revis	-10.8634
▁examin	-10.864
▁generate	-10.8644
ica	-10.8646
udh	-10.8647
▁bei	-10.8652
ament	-10.8658
▁masters	-10.8661
▁polan	-10.8662
ative	-10.8675
▁tale	-10.8681
ato	-10.8685
ego	-10.8688
▁clo	-10.8694
▁divide	-10.8696
▁geologic	-10.8705
math	-10.8707
▁rad	-10.872
▁refuse	-10.8739
▁consum	-10.8746
▁grab	-10.8754
▁wrap	-10.8756
▁yemen	-10.8757
▁fr	-10.8759
▁challeng	-10.876
▁ruler	-10.8761
▁interpret	-10.8763
▁congratulat	-10.8766
▁consensu	-10.8766
▁craig	-10.8766
▁disorder	-10.8766
▁dissident	-10.8766
▁evolution	-10.8766
▁tribute	-10.8766
▁unfair	-10.8766
▁evil	-10.8766
▁extensive	-10.8766
▁telescope	-10.8766
▁definite	-10.8767
▁instant	-10.8767
▁pepper	-10.8767
▁guideline	-10.8767
▁oct	-10.8768
▁kanda	-10.8769
▁dragg	-10.8769
▁uncover	-10.877
▁idol	-10.877
▁sweden	-10.8772
▁insurgenc	-10.8773
▁dealers	-10.8773
▁chamber	-10.8775
▁amazon	-10.8775
▁replacement	-10.8777
▁pollut	-10.8785
him	-10.8794
▁bb	-10.88
can	-10.8802
▁personally	-10.8813
ison	-10.8818
▁hye	-10.8821
die	-10.8828
▁opt	-10.8832
▁pm	-10.8861
▁characters	-10.8866
▁ker	-10.8872
▁philippine	-10.8875
▁berna	-10.8877
▁wash	-10.8879
▁lender	-10.8885
▁master	-10.8888
▁unna	-10.8889
▁bars	-10.8915
▁cooperate	-10.8923
▁chase	-10.8926
▁philip	-10.8927
▁hike	-10.8933
▁circle	-10.8934
ft	-10.8939
most	-10.8946
▁happening	-10.8949
▁wav	-10.8966
▁diploma	-10.8968
▁conclude	-10.8971
▁tho	-10.8973
▁yan	-10.8981
▁persuade	-10.899
▁bargain	-10.8994
▁economies	-10.8994
▁genocid	-10.8994
▁predecessor	-10.8994
▁religion	-10.8994
▁tabloid	-10.8994
▁unexpected	-10.8994
▁accompani	-10.8994
▁overturn	-10.8994
▁uganda	-10.8994
▁twist	-10.8994
▁extension	-10.8994
▁consistent	-10.8994
▁autonom	-10.8994
▁nicole	-10.8994
▁tactic	-10.8994
▁entrance	-10.8994
▁destination	-10.8994
▁snake	-10.8994
▁exclusive	-10.8995
▁circulat	-10.8997
▁spectac	-10.8997
▁outlook	-10.8998
▁sacr	-10.8998
ook	-10.8998
▁recommendation	-10.9
▁legitimate	-10.9
▁milk	-10.9006
▁creation	-10.9008
▁visibl	-10.901
ide	-10.9011
▁afr	-10.9013
▁theft	-10.9021
▁spur	-10.9025
▁harv	-10.9034
▁arrang	-10.9034
▁suggestion	-10.904
▁mountains	-10.9044
▁contractor	-10.9045
▁tomb	-10.9047
▁chip	-10.9048
▁plent	-10.9049
▁diya	-10.9057
▁craft	-10.9057
▁nov	-10.9083
▁emi	-10.9092
▁kurdis	-10.9118
▁taxi	-10.9119
▁para	-10.9124
▁dropping	-10.9129
▁universit	-10.913
▁shara	-10.9133
▁qua	-10.9137
▁ash	-10.9138
▁resum	-10.9142
▁rodd	-10.9151
▁models	-10.9152
▁mu	-10.9159
nder	-10.9179
▁statue	-10.9195
ology	-10.9196
▁nigeria	-10.92
▁fla	-10.9208
▁marking	-10.9209
▁occur	-10.9209
▁teenage	-10.9213
▁chan	-10.9217
ribe	-10.9218
▁goalkeep	-10.9226
▁ambulance	-10.9226
▁discount	-10.9226
▁embarrass	-10.9226
▁grenade	-10.9226
▁steep	-10.9226
▁tissue	-10.9226
▁emirate	-10.9226
▁fault	-10.9226
▁zawah	-10.9226
▁volume	-10.9226
▁prosper	-10.9226
▁dedicat	-10.9227
▁jolie	-10.9227
▁suspension	-10.9227
▁lord	-10.9227
ken	-10.9227
▁partnership	-10.9228
▁pal	-10.9228
verish	-10.9229
▁possession	-10.923
▁brick	-10.923
ola	-10.923
▁occupie	-10.923
▁resistance	-10.9231
▁rent	-10.9231
▁download	-10.9231
▁rebound	-10.9232
▁contribution	-10.9232
▁pardon	-10.9232
▁grace	-10.9234
▁brook	-10.9237
▁improvement	-10.9238
▁jobless	-10.9241
▁forget	-10.9241
▁pig	-10.9244
▁gerr	-10.9244
▁galaxy	-10.9248
▁flower	-10.9258
▁ze	-10.9264
rous	-10.9267
▁publisher	-10.9267
▁purchas	-10.9268
▁hidd	-10.9276
▁ahmad	-10.9285
onna	-10.9286
▁ranch	-10.9299
▁phil	-10.9301
omar	-10.9302
▁sheet	-10.9304
kov	-10.9307
stone	-10.9312
▁nazi	-10.9318
▁rains	-10.932
▁seo	-10.9337
ode	-10.9339
▁riding	-10.9345
harto	-10.9346
▁cab	-10.935
▁automaker	-10.9355
▁recognized	-10.9372
▁penn	-10.9389
▁q	-10.9393
▁silence	-10.9403
bow	-10.9428
▁joy	-10.9436
▁eas	-10.9437
▁luc	-10.945
▁manufacturers	-10.9454
ok	-10.9459
▁scrap	-10.946
▁pilgrim	-10.9462
▁desperate	-10.9464
▁infrastructure	-10.9464
▁judiciar	-10.9464
▁statistical	-10.9464
▁unacceptabl	-10.9464
▁skull	-10.9464
▁pyeong	-10.9464
▁videotape	-10.9464
▁brigade	-10.9465
▁tea	-10.9465
▁maritime	-10.9465
▁katrin	-10.9465
▁vermont	-10.9465
▁burden	-10.9465
▁registration	-10.9465
▁puert	-10.9465
▁shutdown	-10.9466
▁assassinat	-10.9466
▁interrogation	-10.9466
▁billionaire	-10.9467
▁dirt	-10.9469
▁kyung	-10.947
▁matters	-10.947
▁everywhere	-10.9471
munition	-10.9472
▁analysi	-10.9472
▁torre	-10.9473
▁tumbl	-10.9477
▁airplane	-10.9478
▁zoe	-10.9479
▁dismantl	-10.9481
gt	-10.9482
ean	-10.9488
▁charter	-10.9488
▁bark	-10.9488
▁fred	-10.9492
▁dun	-10.9498
nic	-10.9499
▁confirmation	-10.9502
▁melt	-10.9507
▁hasn	-10.9509
▁advis	-10.9511
▁gil	-10.952
▁surg	-10.952
far	-10.9529
▁recording	-10.9534
▁permissi	-10.9543
bon	-10.9547
lick	-10.9567
▁generat	-10.9572
▁uni	-10.9575
▁wip	-10.9576
skirt	-10.9577
▁medic	-10.9583
▁pf	-10.9598
▁reverse	-10.9602
▁glas	-10.9608
▁procedure	-10.9609
▁principles	-10.961
▁kidnapp	-10.9613
cent	-10.9624
awat	-10.9631
▁abuses	-10.9636
▁praise	-10.9638
tten	-10.9641
▁factors	-10.9657
▁primari	-10.9659
▁classe	-10.966
tada	-10.9669
bor	-10.9669
▁sink	-10.9675
▁guan	-10.9676
▁jewel	-10.9682
▁vulnerab	-10.9696
▁defect	-10.9696
▁sail	-10.9698
▁nin	-10.97
▁amaz	-10.9701
▁kh	-10.9701
▁button	-10.9701
▁fundamental	-10.9703
▁component	-10.9708
▁legislature	-10.9708
▁marathon	-10.9708
▁restructur	-10.9708
▁taxpayer	-10.9708
▁incredibl	-10.9708
▁regain	-10.9708
▁absence	-10.9708
▁pornograph	-10.9708
▁monarch	-10.9708
▁steal	-10.9709
▁chicken	-10.971
▁moneta	-10.971
▁endorsement	-10.9711
▁principal	-10.9712
▁archaeologist	-10.9712
▁walter	-10.9712
▁remarkable	-10.9716
hook	-10.9718
▁plain	-10.9722
▁sack	-10.9723
▁height	-10.9728
och	-10.973
▁repeat	-10.9737
▁afterward	-10.974
▁libyan	-10.9745
▁commuter	-10.9751
wi	-10.9761
▁burg	-10.9764
▁expire	-10.9766
▁cape	-10.978
olla	-10.9787
▁habit	-10.9793
▁shake	-10.9796
▁tanker	-10.98
▁procedures	-10.9814
ppp	-10.9821
▁tu	-10.9824
iling	-10.9837
indi	-10.9839
try	-10.9843
▁suk	-10.9861
hou	-10.9865
▁magic	-10.9866
▁hun	-10.9867
▁nurse	-10.9869
▁orchestra	-10.9875
▁hack	-10.9877
ku	-10.9881
▁tae	-10.9883
ampa	-10.9895
▁terr	-10.9897
▁manage	-10.9901
▁jay	-10.9909
cheon	-10.9927
▁shim	-10.9927
▁rivers	-10.9928
▁radi	-10.9933
▁ala	-10.9935
▁chancell	-10.9938
▁wan	-10.9951
liberation	-10.9954
▁depart	-10.9957
▁curfew	-10.9958
▁landscape	-10.9958
▁spaniard	-10.9958
▁statistics	-10.9958
▁gradual	-10.9958
▁reopen	-10.9958
▁drown	-10.9958
▁midfielder	-10.9958
▁superior	-10.9958
▁patriot	-10.9958
▁distress	-10.9958
▁ahmed	-10.9958
▁covering	-10.9959
▁graham	-10.9959
▁mirror	-10.9959
▁wilson	-10.9959
▁balloon	-10.9959
▁toyota	-10.9961
▁mask	-10.9962
▁myspace	-10.9963
▁combination	-10.9963
inho	-10.9963
▁honest	-10.9963
▁pronounce	-10.9964
▁unique	-10.9964
▁poison	-10.9965
▁guang	-10.9966
▁vol	-10.9969
▁populat	-10.9969
▁passage	-10.9969
▁filmmaker	-10.997
▁ruin	-10.9971
▁matt	-10.9974
▁headline	-10.9974
▁mice	-10.9975
sburg	-10.9976
▁please	-10.9978
anamo	-10.9978
▁rigg	-10.9984
▁astronomer	-10.9989
▁comfortabl	-10.9989
▁gambl	-10.9989
won	-10.9989
▁nair	-10.9991
▁parade	-10.9992
▁cheong	-10.9992
▁arth	-10.9995
▁partial	-10.9996
▁val	-10.9999
oma	-11.0002
ware	-11.0022
▁slash	-11.0029
ington	-11.0029
▁mud	-11.003
som	-11.0031
▁reviv	-11.0036
dong	-11.0046
▁pur	-11.0046
▁clay	-11.0048
▁raped	-11.0049
kara	-11.005
▁tam	-11.0052
prom	-11.0055
▁lean	-11.006
▁rap	-11.0068
nver	-11.0069
▁rubb	-11.0072
▁plea	-11.0073
▁supervis	-11.0083
▁remark	-11.0094
arachi	-11.0094
▁emerg	-11.0097
▁lunch	-11.0113
row	-11.0118
▁fatalit	-11.0124
▁wy	-11.0126
▁opponent	-11.0126
▁tai	-11.013
tta	-11.0133
▁jud	-11.0143
▁roma	-11.0146
▁chat	-11.0153
▁ads	-11.0155
ssett	-11.0155
ologist	-11.0161
▁rein	-11.0168
went	-11.017
top	-11.0178
▁mus	-11.018
ioxid	-11.0183
sky	-11.0185
rry	-11.0186
▁gus	-11.0188
van	-11.0192
▁launching	-11.0192
suf	-11.0197
▁branch	-11.0203
▁univers	-11.0207
▁determin	-11.0211
▁bacteria	-11.0215
▁descend	-11.0215
▁enormous	-11.0215
▁exhaust	-11.0215
▁indefinite	-11.0215
▁buzz	-11.0215
▁expell	-11.0215
▁guild	-11.0215
▁gesture	-11.0215
▁volatil	-11.0215
▁composite	-11.0215
▁clue	-11.0215
rin	-11.0215
▁gunshot	-11.0215
▁prestig	-11.0215
▁loose	-11.0215
vili	-11.0217
▁prolong	-11.0217
▁biologist	-11.0219
▁proliferat	-11.0219
▁iphone	-11.0221
▁distribution	-11.0222
waz	-11.0225
▁closure	-11.0227
▁brian	-11.0228
▁finger	-11.0231
▁coverage	-11.0231
▁burial	-11.0237
▁reliev	-11.0244
▁toppl	-11.0246
▁ripp	-11.0249
▁audit	-11.0255
nell	-11.0271
▁refusal	-11.0271
▁kaes	-11.0273
▁mrs	-11.0275
▁hiding	-11.0289
▁trace	-11.0291
▁demonstrate	-11.0294
ello	-11.0295
▁guid	-11.0302
▁mat	-11.032
awi	-11.0328
▁cher	-11.0329
▁plays	-11.0359
▁pri	-11.036
▁mut	-11.0367
▁hijack	-11.037
nne	-11.0376
orry	-11.0377
▁tent	-11.0385
▁au	-11.0386
▁bat	-11.0387
▁micro	-11.0395
▁skills	-11.0399
▁programm	-11.0399
▁activist	-11.0402
▁defin	-11.0405
▁christians	-11.0406
fall	-11.0427
stream	-11.0429
▁danc	-11.0431
▁kiss	-11.0435
▁tip	-11.0436
▁cur	-11.044
▁flo	-11.044
ood	-11.0441
▁thus	-11.0446
▁fare	-11.0446
▁vo	-11.0448
▁slip	-11.0453
▁dismantle	-11.046
ition	-11.0464
▁belgi	-11.0469
▁campbell	-11.0478
▁counterfeit	-11.0478
▁encouraging	-11.0478
▁oxygen	-11.0478
▁prophet	-11.0478
▁sacrifice	-11.0478
▁surprising	-11.0478
▁unanimous	-11.0478
▁dolphin	-11.0478
▁escort	-11.0478
▁mutual	-11.0478
▁scrambl	-11.0478
▁thirty	-11.0478
▁widow	-11.0478
▁bahama	-11.0478
remlin	-11.0478
▁teeth	-11.0478
▁oregon	-11.0478
▁optimistic	-11.0478
▁venture	-11.0478
▁comply	-11.0478
▁presum	-11.0478
▁romantic	-11.0479
▁exceed	-11.0479
▁mercur	-11.0479
▁audio	-11.048
▁biolog	-11.0481
▁examination	-11.0481
▁engagement	-11.0482
▁gender	-11.0484
▁minne	-11.0485
▁guess	-11.0485
▁fence	-11.049
▁selection	-11.049
mat	-11.0492
dc	-11.0494
▁subway	-11.0497
▁shutt	-11.0497
▁refuge	-11.0497
▁accidental	-11.05
▁log	-11.05
▁smart	-11.05
▁alan	-11.05
▁chill	-11.05
▁miller	-11.0501
▁alien	-11.0503
▁confus	-11.0506
▁kha	-11.0508
▁sevill	-11.0518
▁theory	-11.052
▁pitts	-11.0522
▁deepen	-11.0523
▁dig	-11.0524
▁publicist	-11.0524
▁wo	-11.0529
egger	-11.0529
▁serbian	-11.0531
▁dallas	-11.0531
vin	-11.0549
▁harris	-11.056
▁deserve	-11.0565
▁jets	-11.0566
my	-11.0569
▁mega	-11.0573
▁ideal	-11.0575
▁mistakes	-11.0579
▁eggs	-11.0581
▁mood	-11.0584
▁mere	-11.0596
▁eliminat	-11.0611
▁personalit	-11.062
cker	-11.0627
acas	-11.0628
▁fift	-11.0638
ven	-11.0648
▁spect	-11.0654
▁burm	-11.066
▁ken	-11.0662
ula	-11.0664
▁volunteer	-11.0673
allah	-11.0677
▁argument	-11.0681
▁cre	-11.0685
dom	-11.0689
▁lover	-11.0692
hem	-11.0696
space	-11.0697
some	-11.0697
▁swing	-11.0716
▁swor	-11.0717
▁theme	-11.072
▁permit	-11.0723
itz	-11.0727
ise	-11.0737
elite	-11.0738
▁hanging	-11.074
▁manipulat	-11.0743
wine	-11.0743
▁adjust	-11.0744
▁beautiful	-11.0748
▁benjamin	-11.0748
▁cautious	-11.0748
▁citigroup	-11.0748
▁incumbent	-11.0748
▁lieutenant	-11.0748
▁retreat	-11.0748
▁shrink	-11.0748
▁deadlock	-11.0748
▁yield	-11.0748
▁twel	-11.0748
▁ibm	-11.0748
▁talent	-11.0748
▁intervention	-11.0748
▁coincide	-11.0748
▁harbor	-11.0749
▁admir	-11.0749
▁reconstruction	-11.0749
▁excessive	-11.0749
▁probation	-11.0749
▁preserv	-11.0749
▁elevator	-11.075
▁installation	-11.0751
▁luis	-11.0752
▁acid	-11.0752
▁manipulation	-11.0753
▁albanian	-11.0757
▁widen	-11.0757
▁din	-11.0758
▁provok	-11.0759
▁captor	-11.0759
▁ferg	-11.0759
tsu	-11.0764
▁castle	-11.0767
▁bind	-11.0768
▁usa	-11.0769
▁dispos	-11.0773
uma	-11.0778
fax	-11.0779
ebay	-11.078
▁smile	-11.0795
▁bears	-11.0798
▁mill	-11.0804
▁spare	-11.0813
pat	-11.0815
▁ward	-11.0815
▁slim	-11.082
▁wu	-11.0821
illa	-11.0828
▁ak	-11.0831
▁geu	-11.0835
▁armor	-11.0859
▁hostil	-11.0861
▁elaborate	-11.0863
▁sept	-11.0871
tting	-11.088
kat	-11.0884
▁shame	-11.0894
hau	-11.0899
▁origin	-11.0908
ugher	-11.0914
wal	-11.0922
mao	-11.0928
▁zan	-11.0943
mun	-11.0945
▁contenders	-11.0945
▁forecaster	-11.0947
▁colli	-11.0954
▁signing	-11.0954
▁kn	-11.0954
fish	-11.0954
▁kil	-11.0974
prime	-11.0978
▁reserved	-11.098
▁grade	-11.0992
▁opera	-11.0993
▁prostitute	-11.0994
iers	-11.0997
▁cambodia	-11.0999
henin	-11.0999
▁temp	-11.1
▁admit	-11.1
▁mp	-11.1003
▁portray	-11.1017
▁comprehensive	-11.1026
▁consolidat	-11.1026
▁crocodile	-11.1026
▁dakota	-11.1026
▁dinosaur	-11.1026
▁episode	-11.1026
▁expense	-11.1026
▁recycl	-11.1026
▁rhetoric	-11.1026
▁schwarz	-11.1026
▁sympath	-11.1026
▁triumph	-11.1026
▁unpopular	-11.1026
▁exclud	-11.1026
▁reputation	-11.1026
▁nichol	-11.1026
▁bolster	-11.1026
▁fertil	-11.1026
▁haiti	-11.1026
▁casino	-11.1026
▁blind	-11.1026
▁eligib	-11.1026
▁abolish	-11.1026
▁aspect	-11.1026
▁pirac	-11.1027
▁surf	-11.1027
▁stewar	-11.1027
▁classroom	-11.1027
▁kidney	-11.1027
▁basket	-11.1028
▁linds	-11.1029
▁propell	-11.1031
▁objective	-11.1031
▁moga	-11.1032
▁disruption	-11.1035
▁silver	-11.1039
▁defector	-11.1039
▁attraction	-11.1041
▁pl	-11.1041
▁taste	-11.1041
▁juan	-11.1042
▁hank	-11.1042
▁racial	-11.1043
going	-11.1043
▁grabb	-11.1044
▁yourself	-11.1054
▁nose	-11.1056
▁manner	-11.1058
ishu	-11.1065
▁lim	-11.1069
▁tap	-11.1075
▁formula	-11.1077
▁bold	-11.1082
▁financ	-11.1085
▁cats	-11.1086
▁indict	-11.1089
▁academic	-11.1097
mura	-11.1098
▁kam	-11.1106
▁measur	-11.1111
▁noon	-11.1119
how	-11.112
▁gre	-11.1133
▁sprint	-11.1133
apping	-11.1133
▁mode	-11.1139
log	-11.1139
band	-11.1156
▁rid	-11.1157
▁rash	-11.116
▁defender	-11.1167
ological	-11.1176
▁minds	-11.119
oid	-11.1201
▁cult	-11.1202
athrow	-11.1205
▁alli	-11.1207
▁argentine	-11.1211
ore	-11.1239
▁opposit	-11.1239
ette	-11.1239
▁diseases	-11.1244
▁motivat	-11.125
person	-11.1254
▁vin	-11.1266
▁jenni	-11.1268
ria	-11.1271
▁smil	-11.1271
lisa	-11.1273
russel	-11.1277
▁aero	-11.1278
▁gran	-11.1286
▁deposit	-11.1296
▁freez	-11.1297
▁embrace	-11.1304
▁frustrat	-11.1306
▁approximate	-11.1312
▁discriminat	-11.1312
▁greenpeace	-11.1312
▁mammal	-11.1312
▁motorcycle	-11.1312
▁asteroid	-11.1312
▁hydro	-11.1312
▁motive	-11.1312
▁ultra	-11.1312
▁eager	-11.1312
▁crocker	-11.1312
▁loot	-11.1312
▁slogan	-11.1312
▁automatic	-11.1312
▁animated	-11.1312
▁serge	-11.1312
▁strategist	-11.1312
▁nikk	-11.1312
▁borrow	-11.1313
▁rampage	-11.1314
▁ivor	-11.1314
▁madoff	-11.1314
▁teaching	-11.1316
ronto	-11.1316
▁extinction	-11.1316
mpson	-11.1318
▁revision	-11.132
like	-11.1328
▁requirement	-11.1328
▁lit	-11.1329
▁connecti	-11.1329
▁ratings	-11.133
▁observation	-11.1333
▁publish	-11.1334
▁wool	-11.1349
▁bot	-11.1353
▁fisher	-11.1356
rov	-11.136
station	-11.1361
▁tries	-11.1362
▁belt	-11.1363
▁nud	-11.1374
for	-11.1384
▁joke	-11.1399
▁disabl	-11.1405
▁alter	-11.1407
▁anne	-11.1425
lie	-11.144
▁cel	-11.1455
▁violate	-11.1455
▁challenger	-11.1458
lm	-11.1463
▁decrease	-11.1472
▁amy	-11.1472
ima	-11.1472
▁arti	-11.1481
▁cook	-11.1494
tun	-11.1502
una	-11.1505
▁fal	-11.152
obe	-11.1522
▁installed	-11.1527
▁rocky	-11.1537
▁dish	-11.1539
cio	-11.1547
▁plott	-11.1549
olo	-11.1552
▁gift	-11.1552
▁application	-11.1555
front	-11.1558
▁pus	-11.1559
tified	-11.1582
▁ci	-11.1583
▁swed	-11.1592
▁antarctic	-11.1593
mate	-11.1594
▁atlanti	-11.1598
hen	-11.16
▁phenomen	-11.1606
▁administrator	-11.1606
▁cathedral	-11.1606
▁crunch	-11.1606
▁denmark	-11.1606
▁epicenter	-11.1606
▁equivalent	-11.1606
▁instrument	-11.1606
▁intimidat	-11.1606
▁revenge	-11.1606
▁bruce	-11.1606
▁cardinal	-11.1606
▁outdoor	-11.1606
▁carpet	-11.1606
▁wrongdoing	-11.1606
▁incentive	-11.1606
▁fruit	-11.1606
▁strait	-11.1606
▁saint	-11.1606
▁cyber	-11.1606
▁pension	-11.1606
oprah	-11.1606
▁bedroom	-11.1606
▁divert	-11.1607
▁assess	-11.1607
▁subsid	-11.1607
▁bernard	-11.1607
droe	-11.1608
▁foster	-11.1608
▁legislator	-11.1608
▁tripoli	-11.1608
sterol	-11.1609
▁detective	-11.161
▁utilit	-11.1612
▁survival	-11.1612
▁rawal	-11.1614
horta	-11.1615
▁zap	-11.1616
▁anybody	-11.1618
▁pride	-11.1622
▁ethiopian	-11.1622
▁objection	-11.1624
▁posting	-11.1628
▁assured	-11.163
▁useful	-11.1636
▁update	-11.1644
▁musa	-11.1648
▁boxes	-11.1652
utt	-11.1652
▁pure	-11.1655
▁slaughter	-11.1662
▁marry	-11.1663
▁stripp	-11.1669
▁hy	-11.1672
▁install	-11.1678
▁therap	-11.168
xi	-11.1684
▁shouted	-11.1692
right	-11.1694
izing	-11.1696
▁lan	-11.1698
▁devot	-11.1708
ife	-11.1716
▁rada	-11.1716
▁slide	-11.1719
▁rub	-11.172
▁khali	-11.1724
▁coin	-11.1724
rotti	-11.1736
▁expanding	-11.1743
▁laser	-11.1748
thy	-11.1749
▁panic	-11.1755
▁limb	-11.176
pper	-11.177
▁nu	-11.1799
▁allen	-11.1799
▁cole	-11.1804
iff	-11.1805
wai	-11.1809
▁stalin	-11.181
▁brave	-11.1814
▁trac	-11.1814
▁till	-11.1824
▁stopp	-11.1824
ido	-11.1839
▁sum	-11.1841
break	-11.1854
piece	-11.1861
▁realiz	-11.1862
▁integrat	-11.1868
▁dai	-11.187
▁richards	-11.1875
▁remind	-11.1876
bank	-11.1876
▁rec	-11.1878
▁sala	-11.1879
▁ambitio	-11.1882
▁parker	-11.1884
▁nationalist	-11.19
▁intercept	-11.1905
▁adapt	-11.1906
▁disagree	-11.1906
▁preserve	-11.1907
▁exam	-11.1907
bourne	-11.1909
▁accompany	-11.1909
▁acquitt	-11.1909
▁anonymous	-11.1909
▁breakfast	-11.1909
▁candidacy	-11.1909
▁contaminat	-11.1909
▁guitar	-11.1909
▁imminent	-11.1909
▁pyramid	-11.1909
▁scenario	-11.1909
▁sprawl	-11.1909
▁subsequent	-11.1909
▁suppress	-11.1909
▁confine	-11.1909
▁contra	-11.1909
▁overhaul	-11.1909
▁estonia	-11.1909
▁incursion	-11.1909
▁empir	-11.1909
▁anthem	-11.1909
▁hamper	-11.1909
▁troph	-11.1909
▁toddler	-11.1909
▁boast	-11.1909
▁bride	-11.1909
▁random	-11.191
▁broadway	-11.1912
tanbu	-11.1912
▁assertion	-11.1914
▁smooth	-11.1914
▁leap	-11.1914
▁invad	-11.1914
▁pregnancy	-11.1921
▁springs	-11.1922
▁ramp	-11.1923
▁eruption	-11.1923
▁nick	-11.1926
▁branches	-11.1926
▁hometown	-11.1931
▁yasu	-11.1934
mann	-11.1941
uck	-11.1947
▁shooter	-11.1956
unk	-11.1962
▁applications	-11.1962
ire	-11.1963
▁jean	-11.1971
▁lucky	-11.1975
▁hate	-11.1988
▁hip	-11.1991
iness	-11.1991
lmand	-11.1994
taking	-11.1995
▁bre	-11.1997
ski	-11.2003
▁intent	-11.2015
care	-11.2016
▁fur	-11.2018
▁tears	-11.2021
▁lesson	-11.2028
▁cub	-11.2031
▁lure	-11.2031
▁humiliat	-11.2032
▁lane	-11.2034
▁examine	-11.2035
▁user	-11.204
▁tut	-11.2041
wear	-11.2042
▁automakers	-11.2052
▁characteriz	-11.2059
▁patroll	-11.2068
▁provider	-11.2069
▁mini	-11.2074
▁donations	-11.2083
▁bidd	-11.2093
▁flexib	-11.2101
▁qui	-11.2106
lit	-11.2107
vy	-11.2109
▁settl	-11.2115
▁cry	-11.2122
▁pi	-11.2125
▁aig	-11.2125
▁immun	-11.2129
▁gad	-11.2135
▁carl	-11.2144
take	-11.2152
▁cu	-11.2163
bound	-11.2166
▁stabilize	-11.2168
load	-11.2169
mouth	-11.2173
world	-11.2173
▁tan	-11.2175
titude	-11.2178
▁slum	-11.2179
▁pile	-11.2179
▁mul	-11.2191
▁cop	-11.2198
car	-11.2204
▁prefer	-11.2206
▁op	-11.2206
▁digit	-11.2208
▁eld	-11.2211
▁depict	-11.2216
▁drunk	-11.2216
▁jihad	-11.2217
▁menu	-11.2218
▁appreciate	-11.2221
▁automobile	-11.2221
▁caribbean	-11.2221
▁explanation	-11.2221
▁infiltrat	-11.2221
▁invitation	-11.2221
▁mammoth	-11.2221
▁pichushkin	-11.2221
▁surpass	-11.2221
▁symptoms	-11.2221
▁thorough	-11.2221
▁tragic	-11.2221
▁travolta	-11.2221
▁unsuccessful	-11.2221
▁crater	-11.2221
▁squeez	-11.2221
▁diabet	-11.2221
▁nixon	-11.2221
▁restart	-11.2221
▁depth	-11.2221
▁echo	-11.2221
▁blitz	-11.2221
▁fingerprint	-11.2221
▁website	-11.2221
▁textbook	-11.2221
▁tumor	-11.2221
akash	-11.2222
▁autops	-11.2222
▁physician	-11.2222
▁expedition	-11.2222
▁spell	-11.2222
▁refer	-11.2223
▁graphic	-11.2223
▁stronghold	-11.2223
▁implication	-11.2223
▁facebook	-11.2223
▁rove	-11.2223
▁haul	-11.2224
▁tribunal	-11.2225
▁matsu	-11.2225
▁arson	-11.2227
▁gibbon	-11.2227
▁achievement	-11.2229
▁consultation	-11.2229
▁operative	-11.2232
▁mumm	-11.2234
▁adventure	-11.2234
▁merger	-11.2235
fo	-11.2236
▁petrole	-11.2242
▁lifetime	-11.2242
▁bae	-11.2244
▁extradit	-11.2244
nold	-11.2247
▁wayne	-11.2248
ira	-11.2255
zhei	-11.2255
▁surgeon	-11.2256
▁rick	-11.2261
▁ol	-11.2262
▁fif	-11.2265
▁consideration	-11.2273
▁hui	-11.2277
▁shouting	-11.228
tuck	-11.2287
▁punch	-11.229
▁cooperat	-11.229
▁intensifie	-11.2292
▁supplier	-11.2292
▁denial	-11.2294
▁tala	-11.2294
▁enable	-11.2295
pot	-11.2301
▁prostitut	-11.2301
▁rud	-11.2303
▁electrical	-11.2306
apped	-11.2309
▁gra	-11.2311
▁winf	-11.2313
▁petro	-11.2316
▁topic	-11.2319
▁java	-11.2321
▁pit	-11.2329
▁identifi	-11.2329
▁canne	-11.2331
▁amin	-11.2333
▁rag	-11.2336
▁donat	-11.2337
▁shia	-11.2341
▁fisc	-11.2343
▁smuggling	-11.2346
enberg	-11.2346
▁zu	-11.2346
lice	-11.2348
hill	-11.235
▁jun	-11.2351
dale	-11.2363
kins	-11.2364
yodo	-11.2372
ose	-11.2381
▁coat	-11.2388
ark	-11.2392
▁polluti	-11.2402
chum	-11.241
▁bonds	-11.2418
▁dim	-11.2421
▁mob	-11.2428
▁kle	-11.2434
▁collide	-11.2435
▁bath	-11.244
asha	-11.2444
▁explained	-11.2449
▁briton	-11.2485
▁pot	-11.2486
▁exporter	-11.2486
▁captiv	-11.2491
children	-11.2496
▁evacuate	-11.2499
▁provision	-11.2502
ique	-11.2512
witt	-11.2513
▁advocate	-11.252
▁endeavo	-11.2527
▁strange	-11.2527
arity	-11.2534
▁asset	-11.2537
▁extinct	-11.2538
dium	-11.254
▁inaugura	-11.2543
▁aquarium	-11.2544
▁automotive	-11.2544
▁falluja	-11.2544
▁fossil	-11.2544
▁margaret	-11.2544
▁norwegian	-11.2544
▁practical	-11.2544
▁shepherd	-11.2544
▁swallow	-11.2544
▁lynch	-11.2544
▁throat	-11.2544
▁equipp	-11.2544
▁protein	-11.2544
▁reunit	-11.2544
▁silent	-11.2544
▁paralyz	-11.2544
▁pact	-11.2544
▁steam	-11.2544
▁compil	-11.2544
▁tentative	-11.2544
▁copyright	-11.2544
▁bathroom	-11.2544
▁developer	-11.2544
▁quell	-11.2545
abao	-11.2545
▁households	-11.2545
▁archive	-11.2545
▁citizenship	-11.2545
▁mccart	-11.2545
▁bryan	-11.2546
▁swim	-11.2547
▁kofi	-11.2547
▁pursuit	-11.2547
▁cristian	-11.2547
▁lamp	-11.2547
▁jeong	-11.2549
▁painful	-11.2549
▁outpost	-11.255
▁silv	-11.2552
▁warehouse	-11.2553
▁reluctant	-11.2555
▁mous	-11.2557
▁belgian	-11.2558
▁hyp	-11.2558
▁luna	-11.2559
▁hal	-11.2561
▁sim	-11.2562
▁rahm	-11.2564
▁lance	-11.2568
▁mitt	-11.2569
▁medit	-11.257
▁unp	-11.2571
▁favorable	-11.2571
▁proto	-11.2573
▁stones	-11.258
▁belonging	-11.2586
▁deck	-11.26
▁johnsto	-11.2621
▁meh	-11.2629
▁passes	-11.2634
▁arguments	-11.2637
▁defi	-11.2639
▁screening	-11.264
▁aging	-11.2653
rop	-11.2658
atic	-11.2665
▁intervene	-11.2666
▁raj	-11.2672
▁tropic	-11.2674
▁soul	-11.2675
▁oust	-11.2682
▁beside	-11.2691
bro	-11.2693
old	-11.2695
▁julie	-11.27
▁swat	-11.2703
lene	-11.2705
▁eliminate	-11.271
▁tenn	-11.2724
nnie	-11.2724
cef	-11.2748
amine	-11.2755
▁demonstrat	-11.2758
qui	-11.2769
disclos	-11.2779
▁fu	-11.2782
residential	-11.2785
▁assume	-11.279
▁captives	-11.2791
▁educat	-11.2797
hor	-11.2803
▁joon	-11.2806
lando	-11.2809
wc	-11.2813
▁hay	-11.2819
▁emotion	-11.2819
▁ethic	-11.2827
power	-11.2829
bani	-11.2829
▁cy	-11.2843
▁cm	-11.2849
▁thrill	-11.2855
rbil	-11.2863
▁horse	-11.2864
▁mun	-11.287
▁monkey	-11.287
▁assert	-11.2872
▁edward	-11.2873
▁psycholog	-11.2873
▁recogni	-11.2873
▁initiat	-11.2875
▁artificial	-11.2877
▁epidemic	-11.2877
▁hazard	-11.2877
▁homosexual	-11.2877
▁judgment	-11.2877
▁okinawa	-11.2877
▁samarra	-11.2877
▁scream	-11.2877
▁sophisticat	-11.2877
▁surplus	-11.2877
▁purported	-11.2877
▁enact	-11.2877
▁propagand	-11.2877
▁scatter	-11.2877
▁verify	-11.2877
▁retirement	-11.2877
▁ceiling	-11.2877
▁epic	-11.2877
▁mitchell	-11.2877
▁polish	-11.2877
▁subsidiar	-11.2877
▁mercedes	-11.2877
▁grim	-11.2877
▁prescription	-11.2878
▁beatles	-11.2879
▁shopper	-11.2879
▁kwang	-11.2879
▁layoff	-11.288
▁legac	-11.288
erald	-11.2881
▁disagreement	-11.2881
▁desk	-11.2882
▁rita	-11.2882
▁hom	-11.2883
▁brush	-11.2883
▁communicate	-11.2884
▁stamp	-11.2885
▁tayyi	-11.2887
▁pipe	-11.289
▁modest	-11.289
▁rings	-11.2891
▁ignore	-11.2892
▁sideline	-11.2892
▁fisherm	-11.2892
▁fujimo	-11.2893
▁presid	-11.2894
▁nah	-11.2905
▁wheat	-11.291
▁donor	-11.2913
▁conscious	-11.2918
▁embezzle	-11.292
▁plunge	-11.2924
▁caucus	-11.2926
▁tube	-11.2927
▁wag	-11.2932
▁projection	-11.2933
▁russe	-11.2935
▁grandm	-11.2937
▁expression	-11.2939
rmal	-11.294
▁ross	-11.2942
▁keen	-11.2948
▁rating	-11.2953
▁supervisor	-11.2955
llery	-11.2958
▁shattered	-11.2966
enhei	-11.2977
ider	-11.2981
▁tips	-11.2987
aro	-11.2989
mble	-11.2995
▁gro	-11.3003
▁sway	-11.3004
▁gh	-11.3013
▁soft	-11.3016
▁ethan	-11.3022
▁den	-11.3028
▁bever	-11.3039
print	-11.3044
▁mandate	-11.3088
▁pond	-11.3096
ario	-11.3109
lli	-11.3116
arade	-11.3117
▁visual	-11.313
▁jaz	-11.313
▁fernand	-11.313
teria	-11.3132
bre	-11.3136
▁armi	-11.3147
ospi	-11.315
▁enhance	-11.315
▁format	-11.315
▁geit	-11.3157
bin	-11.3162
▁luck	-11.3164
▁dies	-11.3166
aho	-11.3169
▁transit	-11.317
▁sued	-11.3181
▁bog	-11.3182
▁vers	-11.3192
vian	-11.3192
▁kidnap	-11.3195
▁fle	-11.3205
▁inspect	-11.3206
▁productiv	-11.3209
ility	-11.3211
itive	-11.3216
▁addict	-11.3217
▁disturb	-11.322
▁vigil	-11.3221
▁categori	-11.3222
elecommunication	-11.3222
▁aborigin	-11.3222
▁consortium	-11.3222
▁crystal	-11.3222
▁grandfather	-11.3222
▁nervous	-11.3222
▁obstacle	-11.3222
▁substitute	-11.3222
▁dignity	-11.3222
▁atrocit	-11.3222
▁bishop	-11.3222
▁croatia	-11.3222
▁fahr	-11.3222
▁conceal	-11.3222
▁humor	-11.3222
▁nelson	-11.3222
▁consent	-11.3222
▁convey	-11.3222
▁nfl	-11.3222
▁uprising	-11.3222
▁sierra	-11.3222
▁glen	-11.3222
▁muq	-11.3223
▁hormone	-11.3223
▁candle	-11.3224
▁lope	-11.3225
▁steer	-11.3226
▁flick	-11.3227
▁susan	-11.3227
▁creative	-11.3228
▁impression	-11.323
▁heighten	-11.3231
▁ignit	-11.3231
▁ferry	-11.3233
▁symbolic	-11.3235
▁wazir	-11.3235
▁setback	-11.3241
▁terra	-11.3241
quba	-11.3243
▁gala	-11.3243
cna	-11.3246
▁presentation	-11.3248
▁drum	-11.3249
▁linda	-11.325
▁dense	-11.325
▁permitt	-11.3256
▁removal	-11.3264
▁wang	-11.3271
▁jiang	-11.3275
▁sank	-11.3277
rank	-11.3278
▁austrian	-11.3278
▁guin	-11.3285
▁ethical	-11.3286
▁pastor	-11.3287
▁patt	-11.3294
▁slot	-11.3294
▁marie	-11.3296
▁bron	-11.3302
▁territories	-11.3303
▁antibiotics	-11.3305
▁pants	-11.3309
eong	-11.3309
vu	-11.331
▁choi	-11.3311
▁fernando	-11.3314
▁observ	-11.3326
cantil	-11.3345
nba	-11.335
▁stunning	-11.3352
▁jab	-11.336
▁informal	-11.3389
▁cro	-11.3394
▁trans	-11.3395
▁zi	-11.3396
▁harmon	-11.3397
▁arena	-11.3401
▁treasure	-11.3402
mus	-11.3411
▁swap	-11.3411
▁gangs	-11.3417
hasa	-11.3424
nnis	-11.3425
▁smuggl	-11.3438
▁anna	-11.3442
▁slid	-11.3448
raul	-11.3454
ili	-11.3458
▁folks	-11.3459
nebr	-11.3471
ico	-11.3471
▁corn	-11.3472
▁balti	-11.3473
▁tat	-11.3476
▁ghan	-11.3482
eta	-11.3488
▁anim	-11.3491
▁rem	-11.3499
▁impos	-11.3499
▁dave	-11.3522
▁skeptic	-11.3529
jiang	-11.3534
▁bust	-11.3538
▁geo	-11.354
▁feeding	-11.354
▁farms	-11.3544
▁brac	-11.3549
▁dive	-11.3557
▁propose	-11.356
stock	-11.3565
▁eva	-11.3565
▁tur	-11.3565
▁fines	-11.3566
▁spots	-11.357
scribe	-11.3571
aska	-11.3571
▁construct	-11.3572
▁files	-11.3573
▁gwan	-11.3575
▁niger	-11.3578
▁aggravat	-11.3579
▁blockbuster	-11.3579
▁brothel	-11.3579
▁chronic	-11.3579
▁condolence	-11.3579
▁conglomerate	-11.3579
▁discharge	-11.3579
▁mcdonald	-11.3579
▁municipal	-11.3579
▁paparazz	-11.3579
▁pistol	-11.3579
▁plummet	-11.3579
▁applicant	-11.3579
▁dissolv	-11.3579
▁pioneer	-11.3579
▁reaffirm	-11.3579
▁douglas	-11.3579
▁mystery	-11.3579
▁reign	-11.3579
▁trash	-11.3579
▁throne	-11.3579
▁railroad	-11.3579
▁impass	-11.3579
▁knife	-11.3579
▁aziz	-11.3579
▁deutsch	-11.3579
▁ankle	-11.358
▁predominant	-11.358
▁evaluation	-11.358
▁laureate	-11.358
▁rattl	-11.3581
▁glori	-11.3581
manuel	-11.3581
▁ownership	-11.3583
▁phillip	-11.3585
▁happiness	-11.3585
▁aggression	-11.3585
▁calculat	-11.3587
▁meals	-11.3587
▁scrapp	-11.3588
▁aug	-11.3589
▁rever	-11.359
▁stirr	-11.359
▁prefecture	-11.3591
▁outlaw	-11.3592
▁pink	-11.3593
kdo	-11.3596
▁span	-11.3596
▁charl	-11.3597
▁oak	-11.36
ustin	-11.36
▁massage	-11.3601
▁transparent	-11.3602
▁greenland	-11.3602
▁reasonable	-11.3605
▁cheaper	-11.3606
specifi	-11.3607
▁rover	-11.3607
▁gram	-11.361
▁inventor	-11.3611
▁cambodian	-11.3614
▁stemm	-11.3614
dwin	-11.3615
▁passion	-11.3617
▁nigerian	-11.3622
▁entitl	-11.3623
▁drought	-11.3623
▁jacque	-11.3632
enos	-11.3636
viel	-11.3639
wan	-11.3639
furt	-11.3644
itis	-11.3646
▁dance	-11.3647
▁gill	-11.3649
ket	-11.3666
shire	-11.3673
▁rear	-11.368
cla	-11.3683
attle	-11.3683
pei	-11.3688
▁mild	-11.3706
erran	-11.3707
ito	-11.3708
▁cage	-11.3734
▁rib	-11.3753
onia	-11.3754
▁hart	-11.3754
▁rak	-11.3755
▁nis	-11.3757
▁bok	-11.3757
▁raz	-11.3781
▁medi	-11.3806
▁criticize	-11.381
▁heir	-11.3812
▁julia	-11.3815
▁nest	-11.3825
onica	-11.3826
abo	-11.383
▁kara	-11.3835
▁disarm	-11.384
chon	-11.3845
▁easter	-11.385
▁tun	-11.3854
▁wat	-11.3868
▁christi	-11.3877
▁mcc	-11.3878
ancy	-11.3886
▁qualifi	-11.3892
intend	-11.3897
nati	-11.3902
napoli	-11.3907
▁roots	-11.3911
▁prop	-11.3913
▁instruct	-11.3917
cular	-11.3925
▁patien	-11.3927
tearn	-11.3927
▁pelo	-11.3928
▁speculat	-11.3933
active	-11.3934
▁prosecut	-11.3934
▁columb	-11.3943
bala	-11.3944
roll	-11.3944
▁possess	-11.3944
▁assign	-11.3946
▁catastroph	-11.3949
▁constitute	-11.3949
▁contradict	-11.3949
▁distinct	-11.3949
▁guatemala	-11.3949
▁johannes	-11.3949
▁lecture	-11.3949
▁mastermind	-11.3949
▁pocket	-11.3949
▁respirator	-11.3949
▁servant	-11.3949
▁simultaneous	-11.3949
▁slush	-11.3949
▁starbuck	-11.3949
▁disciplin	-11.3949
▁historian	-11.3949
▁junior	-11.3949
▁refrain	-11.3949
▁relevan	-11.3949
▁jirga	-11.3949
▁segment	-11.3949
▁script	-11.3949
▁thwart	-11.3949
▁frost	-11.3949
▁crippl	-11.3949
▁domain	-11.3949
▁sibling	-11.3949
▁yankee	-11.3949
▁oath	-11.395
▁transmission	-11.395
▁ftse	-11.395
▁bosnia	-11.395
▁lodge	-11.395
▁logistic	-11.395
▁breast	-11.395
▁lenno	-11.395
▁spitz	-11.395
▁circuit	-11.395
▁milestone	-11.3951
▁extract	-11.3951
▁intensive	-11.3951
▁sugar	-11.3951
▁sensation	-11.3952
▁cinc	-11.3952
▁bump	-11.3952
▁editorial	-11.3952
▁faithful	-11.3953
▁flaw	-11.3953
▁trademark	-11.3953
▁decree	-11.3953
▁memorab	-11.3953
▁stud	-11.3953
▁weakness	-11.3955
▁carmaker	-11.3957
▁holland	-11.3958
▁poul	-11.3959
▁exhibition	-11.396
▁mediator	-11.3961
▁dementi	-11.3962
▁minus	-11.3962
▁antarctica	-11.3966
grid	-11.3966
▁restraint	-11.3967
▁elb	-11.3967
▁dug	-11.3968
▁genes	-11.397
gow	-11.397
▁donors	-11.3971
▁brig	-11.3973
▁rig	-11.3973
▁hassan	-11.3986
▁dominica	-11.3986
soo	-11.3987
▁formation	-11.3988
▁maru	-11.3992
nshine	-11.3997
▁ub	-11.4002
works	-11.4006
▁annually	-11.4007
chu	-11.4009
▁matte	-11.4009
▁flare	-11.4011
▁digg	-11.4012
▁capt	-11.4015
▁surviv	-11.4016
▁popp	-11.4023
▁shelves	-11.4039
▁manufacturer	-11.4042
▁chess	-11.4045
▁gonn	-11.4047
▁ranger	-11.4048
etic	-11.4052
▁inner	-11.407
▁sai	-11.4085
ich	-11.4097
▁raw	-11.4101
▁behead	-11.4102
pov	-11.4112
nom	-11.4119
▁revers	-11.4131
▁retaliat	-11.4138
▁anthr	-11.4151
▁romania	-11.4168
▁bil	-11.4181
▁premiere	-11.4184
▁gene	-11.4184
▁stunn	-11.4192
ulu	-11.4208
▁cle	-11.4209
lateral	-11.421
▁shipments	-11.422
ovic	-11.422
▁acquire	-11.4224
▁feli	-11.4225
▁tribes	-11.4234
▁endorse	-11.4239
▁intens	-11.424
▁dominate	-11.4258
▁sighting	-11.4259
▁semi	-11.4264
▁nori	-11.4267
▁choos	-11.4268
▁scare	-11.4275
▁sponsors	-11.4279
play	-11.429
chang	-11.4298
▁harve	-11.4299
▁arch	-11.43
▁transparen	-11.4309
kansa	-11.4313
▁yog	-11.4313
lain	-11.4315
ndra	-11.4315
ature	-11.4327
▁impressi	-11.4328
▁doubl	-11.4328
▁dili	-11.433
▁neil	-11.433
▁sund	-11.4331
caust	-11.4332
▁acquisition	-11.4334
▁brilliant	-11.4334
▁commodit	-11.4334
▁decisive	-11.4334
▁downturn	-11.4334
▁drastic	-11.4334
▁franchise	-11.4334
▁homicide	-11.4334
▁kuznetsov	-11.4334
▁nightclub	-11.4334
▁peanut	-11.4334
▁penguin	-11.4334
▁premium	-11.4334
▁rhode	-11.4334
▁fiction	-11.4334
▁frighten	-11.4334
▁kazakhstan	-11.4334
▁shadow	-11.4334
▁libby	-11.4334
▁cousin	-11.4334
▁memories	-11.4334
▁mikh	-11.4334
▁monster	-11.4334
▁smell	-11.4334
▁consist	-11.4334
▁martyr	-11.4334
▁nerve	-11.4334
▁vocal	-11.4334
▁indoor	-11.4335
▁curious	-11.4335
▁knut	-11.4335
▁sketch	-11.4335
▁leonard	-11.4335
▁cairo	-11.4336
▁parole	-11.4336
▁transcript	-11.4336
▁bread	-11.4337
▁spice	-11.4337
▁gravit	-11.4338
▁psychologist	-11.4338
▁awake	-11.4338
▁coerc	-11.434
▁kwon	-11.434
▁pageant	-11.434
ahn	-11.4341
▁attractive	-11.4341
▁robotic	-11.4341
▁terrible	-11.4341
▁pul	-11.4343
▁hammer	-11.4344
ight	-11.4347
▁honey	-11.4347
▁progressive	-11.4349
▁isolation	-11.435
▁rotat	-11.4351
▁representation	-11.4356
▁contestant	-11.4361
▁lag	-11.4362
ograph	-11.4362
▁romance	-11.4363
▁ourselves	-11.4375
▁roy	-11.4377
▁comb	-11.4377
▁inhal	-11.438
idge	-11.4381
▁sooner	-11.4385
▁antho	-11.4394
ponte	-11.4394
▁deb	-11.4395
tech	-11.4398
▁pois	-11.4401
▁sars	-11.4404
▁cove	-11.4414
▁roar	-11.4423
▁reunifi	-11.4431
▁tuck	-11.4438
▁separat	-11.4445
▁cycle	-11.4448
▁couch	-11.4451
cat	-11.4464
jeon	-11.4464
rine	-11.447
▁pak	-11.4472
vacu	-11.4473
▁mess	-11.4488
▁suv	-11.4503
▁filing	-11.451
state	-11.4516
▁uncertaint	-11.4517
dian	-11.4553
▁bench	-11.456
lom	-11.4561
▁hut	-11.4563
▁ugl	-11.4574
▁lotte	-11.4586
▁exten	-11.4589
elo	-11.4591
aire	-11.4639
▁spin	-11.4641
place	-11.4648
▁hurl	-11.4653
rap	-11.4654
▁bobb	-11.4654
▁container	-11.4656
suit	-11.4661
▁fitt	-11.4667
▁substanti	-11.4671
▁sensitivit	-11.468
point	-11.4682
conscious	-11.4685
appropriate	-11.4686
unch	-11.4687
cliff	-11.4687
▁dom	-11.469
▁contend	-11.4714
rell	-11.4714
▁neutral	-11.4714
rome	-11.4719
chen	-11.4725
▁espi	-11.4728
▁psychiatr	-11.473
▁elevat	-11.4731
▁excess	-11.4732
▁architect	-11.4734
▁companion	-11.4734
▁contingent	-11.4734
▁counterterroris	-11.4734
▁diagnosed	-11.4734
▁gadget	-11.4734
▁kilogram	-11.4734
▁lincoln	-11.4734
▁monument	-11.4734
▁orthodox	-11.4734
▁premature	-11.4734
▁sufficient	-11.4734
▁tattoo	-11.4734
▁tremendous	-11.4734
▁vegetable	-11.4734
▁fitzg	-11.4734
▁griffi	-11.4734
▁pearl	-11.4734
▁overthrow	-11.4734
▁frog	-11.4734
▁irregularities	-11.4734
▁tenure	-11.4734
▁excuse	-11.4734
▁absent	-11.4734
▁distort	-11.4734
▁ravag	-11.4734
▁vista	-11.4734
▁inhabit	-11.4734
▁outfit	-11.4734
▁donkey	-11.4734
▁grammy	-11.4734
▁disgrace	-11.4734
▁notorious	-11.4734
▁rift	-11.4735
▁psychological	-11.4735
▁blogger	-11.4735
▁streak	-11.4735
▁belov	-11.4735
▁ideolog	-11.4736
▁tomato	-11.4736
saka	-11.4736
▁laura	-11.4736
▁boris	-11.4738
▁copper	-11.4738
▁irresponsible	-11.4739
▁amend	-11.474
▁unchang	-11.4741
▁eta	-11.4742
▁mechanical	-11.4743
ncy	-11.4743
▁sensor	-11.4744
▁devil	-11.4745
mandu	-11.4745
▁deport	-11.4745
▁santi	-11.4746
▁employers	-11.4747
▁obes	-11.475
▁accurate	-11.4752
xvi	-11.4753
▁graz	-11.4758
▁philli	-11.476
uki	-11.4761
▁dock	-11.4771
▁warship	-11.4775
▁horn	-11.4776
▁explorer	-11.4776
▁ratio	-11.4779
▁ramad	-11.478
▁bearing	-11.4786
▁tipp	-11.4792
▁zimbabwean	-11.4793
▁cliff	-11.4795
▁bloc	-11.4796
▁pic	-11.4799
▁mobiliz	-11.4803
▁scholar	-11.4803
▁bash	-11.4808
▁vest	-11.4811
▁tail	-11.4817
▁portal	-11.4817
▁comic	-11.4818
▁inspire	-11.4825
cca	-11.4834
▁duk	-11.4845
▁mong	-11.485
▁salt	-11.4863
▁fog	-11.4866
▁slain	-11.4873
lena	-11.4896
ilo	-11.4901
▁truc	-11.4913
▁sincere	-11.4927
▁stat	-11.493
▁marin	-11.4932
▁chips	-11.4949
meter	-11.4951
▁circu	-11.4961
▁chok	-11.4967
gm	-11.4978
▁outlets	-11.4985
▁uncle	-11.4997
oster	-11.4998
▁steadi	-11.5001
penh	-11.5002
▁karl	-11.5009
▁cott	-11.5015
▁difficulty	-11.5022
zel	-11.5029
▁por	-11.5038
▁barry	-11.5041
xel	-11.5047
mal	-11.505
win	-11.5066
▁kt	-11.5077
▁assembl	-11.5079
cute	-11.5089
▁bother	-11.5093
uster	-11.5094
strong	-11.5103
borne	-11.5103
▁equ	-11.5104
battle	-11.5107
zak	-11.5116
rav	-11.5125
▁alleg	-11.5128
bee	-11.5132
▁depos	-11.5132
▁hur	-11.5136
fc	-11.5142
▁midwest	-11.5145
▁roug	-11.5147
▁polit	-11.5147
▁orient	-11.5148
▁laurea	-11.5149
▁avenue	-11.5151
▁bizarre	-11.5151
▁certificate	-11.5151
▁competitor	-11.5151
▁default	-11.5151
▁genuine	-11.5151
▁intellectual	-11.5151
▁maradona	-11.5151
▁negro	-11.5151
▁satisfie	-11.5151
▁vault	-11.5151
▁whistle	-11.5151
▁bonuses	-11.5151
▁bruis	-11.5151
▁fortress	-11.5151
▁reckless	-11.5151
▁bmw	-11.5151
▁kashmir	-11.5151
▁qassam	-11.5151
▁maoist	-11.5151
▁misdemeanor	-11.5151
▁coroner	-11.5151
▁drain	-11.5151
▁seizure	-11.5151
▁lyric	-11.5151
▁venus	-11.5151
▁reinstate	-11.5151
▁potato	-11.5151
rogge	-11.5151
▁stumbl	-11.5151
▁ismail	-11.5151
▁fantas	-11.5151
▁hamburg	-11.5151
▁cinema	-11.5151
▁veterinarian	-11.5152
▁bund	-11.5152
▁profound	-11.5152
▁tamil	-11.5152
▁hatred	-11.5152
▁introduction	-11.5152
▁harper	-11.5152
▁hire	-11.5153
▁sheep	-11.5153
▁hawa	-11.5153
▁fuku	-11.5154
▁signature	-11.5154
▁confidential	-11.5154
nsu	-11.5154
▁infantry	-11.5155
▁colonel	-11.5155
▁concentration	-11.5155
▁collective	-11.5157
▁addiction	-11.5157
▁jamie	-11.5157
▁robb	-11.516
▁barak	-11.5162
▁tolerate	-11.5163
▁precise	-11.5164
▁thriv	-11.5165
▁kph	-11.5165
▁bulgarian	-11.5167
▁distan	-11.517
▁strapp	-11.5171
▁flin	-11.5172
▁loom	-11.5172
▁prodi	-11.5173
▁iceland	-11.5175
▁beam	-11.5175
▁dire	-11.5177
▁zhang	-11.5178
▁spurr	-11.5182
▁liu	-11.5185
scus	-11.519
law	-11.5192
▁liga	-11.5193
▁hend	-11.5195
▁optimis	-11.5195
ference	-11.5198
▁dama	-11.5202
▁jen	-11.5205
▁nash	-11.5207
assi	-11.5215
▁emerge	-11.5217
▁garb	-11.5218
ika	-11.5219
▁gp	-11.5222
▁browne	-11.5226
▁enhanc	-11.5239
▁maha	-11.5239
▁bart	-11.5239
▁blessing	-11.524
▁neo	-11.5241
▁tooth	-11.5243
▁explor	-11.5244
bal	-11.5244
ochi	-11.5246
▁kay	-11.525
▁countryside	-11.5253
▁arl	-11.5262
iffe	-11.5284
▁pave	-11.5302
▁von	-11.5308
ilia	-11.5327
due	-11.5332
iko	-11.5336
▁crying	-11.5345
▁dismiss	-11.5355
▁math	-11.5369
uous	-11.5376
istic	-11.5381
▁grat	-11.5383
▁fre	-11.5386
▁disperse	-11.5401
▁sequence	-11.5407
▁dipp	-11.5414
▁tense	-11.5414
stice	-11.5424
▁cleaner	-11.5425
▁foe	-11.5428
▁bran	-11.5442
uda	-11.5445
▁cac	-11.5458
▁hell	-11.5479
esco	-11.548
▁hae	-11.5481
▁retrieve	-11.5487
▁bodyguards	-11.5489
cade	-11.5506
kuni	-11.5518
▁item	-11.5529
▁mori	-11.5534
ctic	-11.5535
direct	-11.5537
amount	-11.5538
▁thi	-11.5538
cheong	-11.555
ulous	-11.5553
rosa	-11.5553
trust	-11.5557
▁dav	-11.5559
▁marr	-11.556
▁extremis	-11.556
▁innocen	-11.5561
folk	-11.5571
▁archaeolog	-11.5579
▁accomplish	-11.5582
▁courage	-11.5584
▁recep	-11.5584
▁authentic	-11.5585
▁arroyo	-11.5585
▁bicycle	-11.5585
▁caretaker	-11.5585
▁chocolate	-11.5585
▁cricket	-11.5585
▁glimpse	-11.5585
▁ingredient	-11.5585
▁kitchen	-11.5585
▁minneapolis	-11.5585
▁powder	-11.5585
▁stomach	-11.5585
▁umbrella	-11.5585
▁erect	-11.5585
▁bulk	-11.5586
▁fidel	-11.5586
▁dwindl	-11.5586
▁array	-11.5586
▁blunt	-11.5586
▁glad	-11.5586
▁slugg	-11.5586
▁junichi	-11.5586
▁craz	-11.5586
▁alfred	-11.5586
▁harass	-11.5586
▁taint	-11.5586
▁ridicul	-11.5586
▁cecil	-11.5586
▁definition	-11.5586
▁ipod	-11.5586
▁mysterious	-11.5586
▁chuck	-11.5586
▁oversight	-11.5586
▁squid	-11.5586
▁gib	-11.5586
▁budd	-11.5586
lihood	-11.5587
▁contentious	-11.5588
▁cancellation	-11.5588
▁dorm	-11.5588
▁cluster	-11.5588
▁exploration	-11.5589
▁glow	-11.5589
▁lugg	-11.559
▁stunt	-11.559
▁injection	-11.559
▁titan	-11.5591
▁linger	-11.5591
▁mem	-11.5591
▁comedian	-11.5591
▁click	-11.5592
▁rico	-11.5593
▁vent	-11.5593
▁jok	-11.5593
▁grain	-11.5594
▁unite	-11.5594
▁plagu	-11.5594
▁seize	-11.5595
▁drunken	-11.5595
▁consultant	-11.5595
▁skinn	-11.5596
▁harvest	-11.5596
▁chunk	-11.5596
▁guardian	-11.5597
▁organic	-11.5598
▁generator	-11.5599
▁ledger	-11.56
▁delight	-11.5601
▁monkeys	-11.5601
▁laute	-11.5601
▁horses	-11.5603
▁siege	-11.5604
▁adequate	-11.5606
ywhere	-11.5608
▁measurement	-11.5609
▁desp	-11.5618
▁deem	-11.562
▁ufo	-11.5622
▁dual	-11.5624
are	-11.5626
▁emitt	-11.5626
▁monte	-11.5627
▁bible	-11.5636
▁lp	-11.5638
▁rejection	-11.5641
▁furni	-11.5641
▁pill	-11.5643
▁veni	-11.5647
▁prof	-11.5648
▁sach	-11.5649
▁examiner	-11.5662
▁nasr	-11.5665
▁quote	-11.5665
▁gifts	-11.5666
athan	-11.5673
▁bodyguard	-11.5683
iband	-11.5685
will	-11.5689
▁heath	-11.5691
holm	-11.5691
▁drag	-11.5693
▁stok	-11.57
pate	-11.5704
▁acquir	-11.5712
▁commemorate	-11.5717
rkele	-11.5718
▁baker	-11.5722
ouf	-11.5736
hk	-11.5737
adilla	-11.5749
▁observe	-11.5752
▁bore	-11.5768
ww	-11.5774
▁dann	-11.5775
▁farming	-11.5798
▁cooking	-11.5803
yama	-11.581
ahi	-11.5814
▁repli	-11.5816
▁unemploy	-11.5818
bol	-11.5831
otic	-11.584
matic	-11.5845
▁nk	-11.5858
▁dell	-11.5859
▁bern	-11.5868
▁affiliat	-11.589
▁bout	-11.5905
▁beard	-11.5921
▁tortur	-11.5931
▁pills	-11.5939
▁tag	-11.5941
▁gust	-11.5943
afa	-11.5958
▁fann	-11.5959
▁commut	-11.5961
▁normaliz	-11.5961
afford	-11.5963
▁scholars	-11.5964
▁ministr	-11.5968
▁beck	-11.597
▁henri	-11.5976
▁disma	-11.5979
▁cord	-11.5987
worth	-11.5992
decided	-11.5992
lary	-11.5992
bert	-11.5993
▁optim	-11.5993
▁lak	-11.5999
about	-11.6004
▁compos	-11.601
▁rehabilitati	-11.6017
▁quarte	-11.6024
▁imperial	-11.6035
evel	-11.6035
rmed	-11.6036
▁recess	-11.6036
▁column	-11.6037
▁compris	-11.604
▁depriv	-11.604
nprofit	-11.604
▁abrupt	-11.604
▁database	-11.604
▁fragil	-11.604
▁frontrunner	-11.604
▁greenspan	-11.604
▁illicit	-11.604
▁irritat	-11.604
▁librar	-11.604
▁magistrate	-11.604
▁millenni	-11.604
▁multinational	-11.604
▁perception	-11.604
▁pharmaceutical	-11.604
▁portrait	-11.604
▁provocative	-11.604
▁recount	-11.604
▁levinson	-11.604
▁negligen	-11.604
▁scratch	-11.604
▁diminish	-11.604
▁intensify	-11.604
▁sumatra	-11.604
▁rehab	-11.604
▁anxious	-11.604
▁serena	-11.604
▁wield	-11.604
▁solomon	-11.604
▁volcani	-11.6041
▁fantastic	-11.6041
▁reception	-11.6041
▁federline	-11.6042
▁collins	-11.6042
▁interstate	-11.6042
▁dependent	-11.6042
▁derail	-11.6043
▁interaction	-11.6044
immer	-11.6044
▁ukrainian	-11.6045
▁interrupt	-11.6045
▁workplace	-11.6046
▁informant	-11.6046
▁overweight	-11.6046
▁slavery	-11.6046
▁simulat	-11.6047
▁lump	-11.6047
▁hick	-11.6048
▁handgun	-11.6048
▁intel	-11.6049
▁frustration	-11.6049
▁hover	-11.605
▁cabin	-11.6052
▁mccon	-11.6053
rway	-11.6053
▁creator	-11.6054
▁disappointment	-11.6054
scope	-11.6056
▁vari	-11.6056
▁yale	-11.6058
▁showdown	-11.606
schne	-11.6061
▁nail	-11.6062
▁playoff	-11.6063
▁preferr	-11.6065
▁neal	-11.6067
▁rack	-11.6067
▁nutrition	-11.6072
▁instruction	-11.6073
▁concentrat	-11.6075
▁conceded	-11.6076
▁priorities	-11.6076
▁marco	-11.6078
rgen	-11.6079
▁explaining	-11.6081
▁costume	-11.6082
▁keat	-11.6083
▁barely	-11.609
▁climber	-11.6091
▁economically	-11.6095
eera	-11.6105
▁melan	-11.611
▁sharon	-11.6112
▁wii	-11.6112
bane	-11.6121
▁leone	-11.6132
▁procession	-11.6142
▁gorillas	-11.6151
uart	-11.6156
▁batch	-11.6168
▁shre	-11.6185
▁casualt	-11.6194
▁sag	-11.6197
▁tribe	-11.62
▁barb	-11.6203
▁assum	-11.6207
cover	-11.6213
▁ark	-11.622
kel	-11.622
▁performer	-11.6235
▁arrangements	-11.6237
▁addresses	-11.6241
▁underst	-11.6243
▁koo	-11.6247
▁vanco	-11.6248
▁edit	-11.6253
▁allege	-11.6258
▁advise	-11.6258
▁owe	-11.6263
▁smoker	-11.6271
eira	-11.6277
▁seller	-11.6291
▁ashle	-11.6292
▁uncertain	-11.6293
unes	-11.6293
▁basin	-11.6295
▁bp	-11.6296
▁cannon	-11.6297
▁goh	-11.6309
rick	-11.6332
lash	-11.6339
▁kg	-11.634
azar	-11.6346
▁ferrer	-11.6349
▁proven	-11.635
bun	-11.6352
ethane	-11.6366
▁kal	-11.6366
mir	-11.6369
zone	-11.6373
lam	-11.6374
▁xu	-11.6375
▁franc	-11.639
itu	-11.6392
▁offend	-11.6404
tact	-11.6414
▁tian	-11.6416
▁arrange	-11.6427
▁poster	-11.6427
odor	-11.6429
▁beache	-11.6433
ith	-11.644
oul	-11.6441
▁valid	-11.6447
▁meteorolog	-11.6448
shima	-11.6448
▁observat	-11.6454
▁xian	-11.6458
▁lang	-11.646
▁triple	-11.6463
sibility	-11.6465
▁scrutin	-11.6468
shift	-11.6469
claren	-11.6469
▁bend	-11.6469
book	-11.647
aker	-11.6474
▁greg	-11.6484
▁outline	-11.6486
italia	-11.6488
▁ethiopia	-11.6489
▁occasional	-11.6494
▁boot	-11.6511
▁grip	-11.6512
▁locate	-11.6513
▁artifact	-11.6516
▁battalion	-11.6516
▁cosmonaut	-11.6516
▁efficienc	-11.6516
▁evacu	-11.6516
▁excavat	-11.6516
▁excerpt	-11.6516
▁hispanic	-11.6516
▁inflict	-11.6516
▁merchant	-11.6516
▁mislead	-11.6516
▁pediatric	-11.6516
▁quarantine	-11.6516
▁seafood	-11.6516
▁supplement	-11.6516
▁tycoon	-11.6516
▁blake	-11.6516
▁dentist	-11.6516
▁evolv	-11.6516
▁oxford	-11.6516
▁philosoph	-11.6516
▁reinforcement	-11.6516
▁workforce	-11.6516
▁stockpile	-11.6516
▁anxiet	-11.6516
▁brink	-11.6516
▁implant	-11.6516
▁himalaya	-11.6516
▁piano	-11.6516
▁staple	-11.6516
▁freight	-11.6516
▁boulder	-11.6516
▁unilateral	-11.6516
▁keith	-11.6517
▁persistent	-11.6517
▁malawi	-11.6517
▁gallery	-11.6517
▁neuro	-11.6517
▁headache	-11.6517
rbach	-11.6517
▁utter	-11.6517
▁flock	-11.6518
▁dictatorship	-11.6518
▁lucas	-11.6518
▁wander	-11.6519
▁horrifi	-11.6519
▁foley	-11.6519
▁popul	-11.6519
pollo	-11.6519
▁liais	-11.6519
osa	-11.652
▁deportation	-11.652
▁emanuel	-11.652
▁gibb	-11.652
▁shwe	-11.6523
▁quest	-11.6523
▁salarie	-11.6523
▁stabb	-11.6523
einfeld	-11.6524
▁kumar	-11.6524
▁scam	-11.6524
▁overlook	-11.6524
▁atleti	-11.6525
▁continuous	-11.6525
▁verification	-11.6525
▁dragon	-11.6526
▁soften	-11.6526
▁facial	-11.6527
▁franco	-11.6529
▁basque	-11.6531
▁prediction	-11.6532
aware	-11.6534
▁fried	-11.6537
▁auditor	-11.6539
▁logo	-11.654
▁noise	-11.654
berra	-11.6544
▁owen	-11.6544
▁rubber	-11.6548
▁establishment	-11.6551
▁hak	-11.6559
▁fold	-11.656
▁merc	-11.6564
▁tender	-11.6567
horn	-11.6568
▁claren	-11.657
▁lap	-11.6576
mmy	-11.6578
▁staffer	-11.658
▁nec	-11.6584
▁valen	-11.6584
▁juror	-11.6587
▁qualifier	-11.6591
▁fier	-11.6595
▁helpful	-11.6596
▁citi	-11.6604
▁campaigner	-11.6612
▁devi	-11.6618
▁seasonal	-11.662
▁caffein	-11.6621
▁yell	-11.6623
▁superb	-11.6629
tano	-11.667
▁stalinis	-11.6676
▁orchestrat	-11.6678
▁planner	-11.6679
▁contender	-11.6681
▁tongue	-11.6682
▁hacker	-11.6688
ichi	-11.6688
▁define	-11.669
▁debat	-11.6692
▁analyz	-11.6693
▁outlin	-11.6699
nbar	-11.67
▁pirate	-11.6706
▁conscien	-11.6711
map	-11.6712
▁dodg	-11.6718
▁airliner	-11.6719
▁shipment	-11.6722
▁assurance	-11.6724
▁captive	-11.6724
▁hik	-11.6726
▁winger	-11.6726
▁collaps	-11.673
ndrome	-11.6736
▁distribute	-11.6743
▁skill	-11.6744
oming	-11.6748
▁layer	-11.6754
▁commun	-11.6758
iora	-11.6785
▁mari	-11.6786
eigh	-11.6801
▁jimm	-11.6803
▁trailer	-11.6806
▁brow	-11.6807
mz	-11.6814
▁hid	-11.6829
▁interven	-11.6831
kto	-11.6832
▁liqu	-11.6841
▁combine	-11.6845
hold	-11.6854
▁cran	-11.6858
▁overwhelm	-11.6875
▁watcher	-11.6879
alban	-11.6893
▁lett	-11.6908
▁slope	-11.6929
uso	-11.6933
▁necessar	-11.6943
▁societ	-11.6944
planes	-11.6948
▁juli	-11.6963
ories	-11.6965
onga	-11.6966
▁pric	-11.6966
wealth	-11.6968
▁applau	-11.697
qi	-11.6978
ecd	-11.6986
▁algeria	-11.6989
▁resemble	-11.699
▁significan	-11.6992
arov	-11.6998
ehr	-11.7003
▁inject	-11.7011
▁albatross	-11.7016
▁abraham	-11.7016
▁biofuel	-11.7016
▁calendar	-11.7016
▁confiscat	-11.7016
▁cruel	-11.7016
▁curator	-11.7016
▁disguis	-11.7016
▁juvenile	-11.7016
▁keynote	-11.7016
▁lesbian	-11.7016
▁predator	-11.7016
▁prototype	-11.7016
▁scuffle	-11.7016
▁stalemate	-11.7016
▁wheelchair	-11.7016
▁barricade	-11.7016
▁contemporar	-11.7016
▁demilitariz	-11.7016
▁eleven	-11.7016
▁engulf	-11.7016
▁newcastle	-11.7016
▁rogue	-11.7016
▁chapel	-11.7016
▁crumbl	-11.7016
▁exxon	-11.7016
▁gossip	-11.7016
▁reinforc	-11.7016
▁whipp	-11.7016
▁nickname	-11.7016
▁pretend	-11.7016
▁ferrar	-11.7016
▁wrist	-11.7016
bhumi	-11.7017
▁bypass	-11.7017
▁spouse	-11.7017
▁zheng	-11.7017
▁disclosure	-11.7017
▁plume	-11.7017
▁conceiv	-11.7017
▁galla	-11.7017
▁collar	-11.7017
▁stricke	-11.7017
▁fiber	-11.7017
▁revelation	-11.7018
▁youngster	-11.7018
▁avert	-11.7019
▁glove	-11.7019
▁snack	-11.7019
▁gator	-11.7019
▁micke	-11.702
▁evans	-11.702
▁beverage	-11.702
▁collaboration	-11.702
▁calorie	-11.7022
▁cartel	-11.7023
▁instructor	-11.7024
▁bias	-11.7024
▁djo	-11.7026
▁kiev	-11.7026
▁andrea	-11.7026
▁inspiration	-11.7026
▁preach	-11.7027
▁cordon	-11.7027
▁barrage	-11.7027
▁torrent	-11.7027
▁confession	-11.7029
▁referee	-11.7032
▁township	-11.7035
▁acceptance	-11.7036
gang	-11.7036
▁tenor	-11.7037
▁trap	-11.7039
▁bleed	-11.7043
▁conservationist	-11.7043
▁thriller	-11.705
face	-11.7055
▁spann	-11.7055
▁applaud	-11.7063
▁accelerate	-11.7068
▁hwa	-11.7069
oke	-11.707
oka	-11.7072
kind	-11.7077
luster	-11.7078
▁composer	-11.7082
nintend	-11.7097
hrai	-11.7098
▁rust	-11.71
▁stabiliz	-11.7103
▁rim	-11.7103
ati	-11.7105
▁spike	-11.7106
▁cycl	-11.7112
▁napoli	-11.7112
▁kor	-11.7113
▁coordinate	-11.7122
▁hook	-11.7124
▁bol	-11.7128
▁org	-11.7132
▁vincen	-11.7142
▁yun	-11.7164
▁prest	-11.7169
▁porn	-11.7176
▁arabian	-11.7182
diane	-11.7186
sule	-11.7187
▁wie	-11.7202
▁vil	-11.7214
▁jp	-11.7217
▁extremist	-11.722
▁cancell	-11.7225
inous	-11.7228
▁pub	-11.723
aved	-11.7232
▁verifi	-11.7237
▁cope	-11.7237
rative	-11.7238
▁swear	-11.7238
▁adj	-11.7244
▁folk	-11.7246
ugg	-11.7246
feld	-11.7251
▁alma	-11.7254
▁dealer	-11.7255
▁wise	-11.7256
jani	-11.7269
▁hoi	-11.7273
aria	-11.7277
▁chased	-11.7277
▁retaliati	-11.7278
hwa	-11.7283
▁claus	-11.7286
▁unhapp	-11.7288
hallow	-11.7298
▁server	-11.7302
▁equaliz	-11.7306
caul	-11.7307
mission	-11.7317
▁sanit	-11.732
anda	-11.7324
▁ensur	-11.7325
qaw	-11.733
▁keeper	-11.7333
▁finalize	-11.7334
part	-11.7357
▁lander	-11.7359
▁deco	-11.7366
▁explore	-11.7367
▁ruth	-11.7377
▁const	-11.7389
gye	-11.7391
gb	-11.7399
▁gamba	-11.74
▁daw	-11.7403
taek	-11.7406
ears	-11.7424
eparation	-11.7435
▁intelligent	-11.7444
▁kan	-11.7468
▁entr	-11.7471
▁upgrade	-11.7482
▁absolute	-11.7486
▁accelerat	-11.7488
▁physic	-11.749
rimp	-11.7492
course	-11.7495
lima	-11.7501
imo	-11.7503
▁emm	-11.7506
▁jamaica	-11.7515
▁restrain	-11.7517
achi	-11.7519
gio	-11.7525
what	-11.7528
▁hostilit	-11.7529
▁bounce	-11.7529
spoke	-11.7533
tent	-11.7533
▁stir	-11.7534
▁convene	-11.7535
▁hano	-11.7535
▁phu	-11.754
▁colomb	-11.7541
▁differ	-11.7541
egu	-11.7542
▁enthusias	-11.7542
▁unauthori	-11.7543
▁bipartisan	-11.7543
▁blackmail	-11.7543
▁bubble	-11.7543
▁confederation	-11.7543
▁convincing	-11.7543
▁destabilize	-11.7543
▁embargo	-11.7543
▁emperor	-11.7543
▁evangelical	-11.7543
▁external	-11.7543
▁extinguish	-11.7543
▁fractur	-11.7543
▁gorbachev	-11.7543
▁kangaroo	-11.7543
▁lifestyle	-11.7543
▁mechanism	-11.7543
▁miracle	-11.7543
▁pancreati	-11.7543
▁parachute	-11.7543
▁parallel	-11.7543
▁perspective	-11.7543
▁proclaim	-11.7543
▁rwanda	-11.7543
▁solving	-11.7543
▁supermarket	-11.7543
▁technician	-11.7543
▁unconditional	-11.7543
▁unlawful	-11.7543
▁unofficial	-11.7543
▁valuable	-11.7543
▁eacute	-11.7543
▁hectare	-11.7543
▁helmet	-11.7543
▁jacob	-11.7543
▁rhino	-11.7543
▁whisk	-11.7543
▁maneuver	-11.7543
▁mujah	-11.7543
▁robust	-11.7543
▁spiral	-11.7543
▁snatch	-11.7543
▁monaster	-11.7543
▁steroid	-11.7543
▁spree	-11.7543
▁cameroon	-11.7543
▁forensic	-11.7543
▁thunder	-11.7543
▁spiel	-11.7543
▁storage	-11.7543
▁evasion	-11.7543
▁antiquit	-11.7543
▁clerk	-11.7543
▁trump	-11.7543
▁consulate	-11.7543
▁charr	-11.7543
▁premise	-11.7543
▁manual	-11.7543
▁spider	-11.7543
▁lauren	-11.7543
▁sneak	-11.7544
▁perceiv	-11.7544
lloy	-11.7544
▁cream	-11.7545
▁comparison	-11.7545
▁lugo	-11.7545
▁constructive	-11.7545
▁meteorologist	-11.7546
▁leather	-11.7547
sphere	-11.7547
▁brake	-11.7547
▁policymaker	-11.7547
▁kasp	-11.7548
▁induc	-11.7548
▁vick	-11.7548
▁cram	-11.7548
▁chadian	-11.7549
▁salary	-11.7549
▁garner	-11.7549
▁unbeat	-11.7549
▁leaf	-11.755
sterda	-11.7551
▁coastline	-11.7551
▁therapist	-11.7552
▁privilege	-11.7552
▁downplay	-11.7552
▁cough	-11.7553
▁foil	-11.7554
▁allocat	-11.7555
▁bounc	-11.7556
▁machi	-11.7558
▁exo	-11.7558
▁picket	-11.7559
▁lobbyist	-11.756
▁drift	-11.756
▁trek	-11.7561
▁leno	-11.7561
▁courthouse	-11.7561
▁plug	-11.7561
▁mullah	-11.7563
▁adel	-11.7569
▁warhead	-11.7569
▁readers	-11.7572
▁doom	-11.7572
▁uncomm	-11.7574
▁lyon	-11.7575
made	-11.7578
▁interfer	-11.7578
▁qala	-11.7582
▁deter	-11.7583
▁soap	-11.7583
▁carve	-11.7585
▁usher	-11.7595
▁jang	-11.7596
▁borne	-11.76
▁buyout	-11.7607
▁pont	-11.7615
▁gigg	-11.7619
ague	-11.7619
▁carla	-11.7632
▁forgot	-11.7632
▁gem	-11.7636
gel	-11.7644
abel	-11.7644
▁soda	-11.7651
▁memo	-11.7663
▁bayer	-11.7664
▁logg	-11.7686
▁cheat	-11.7688
versh	-11.7698
▁helen	-11.7703
▁hood	-11.7703
thic	-11.7704
iquit	-11.7717
▁bent	-11.7718
▁scho	-11.772
▁amuse	-11.772
▁hyper	-11.7734
▁hag	-11.7743
▁tick	-11.7748
▁conventional	-11.7757
▁karim	-11.7758
▁costa	-11.7761
▁disk	-11.7781
▁pale	-11.7782
gne	-11.7784
▁lac	-11.7792
napped	-11.7802
▁funn	-11.7824
▁ivanov	-11.783
▁kissing	-11.7838
niste	-11.7867
▁winston	-11.7869
▁solo	-11.7879
aq	-11.7883
▁clippe	-11.79
▁compli	-11.7921
▁tune	-11.7926
▁satisfact	-11.7927
▁levi	-11.7928
▁shaf	-11.7943
grade	-11.7947
▁pil	-11.7957
▁munic	-11.796
▁snap	-11.7961
ateur	-11.7968
arch	-11.7969
▁activat	-11.7971
▁hoon	-11.7985
asco	-11.7994
▁exception	-11.7994
position	-11.7999
▁bamb	-11.8019
▁influen	-11.8021
▁acr	-11.8022
▁doll	-11.8029
▁breathe	-11.8036
wn	-11.8039
bright	-11.804
▁sore	-11.805
▁assure	-11.8053
jab	-11.8064
box	-11.8068
fre	-11.807
▁haa	-11.8073
▁metro	-11.8075
nstein	-11.8085
▁loya	-11.8086
▁festiv	-11.8091
▁comput	-11.8091
aron	-11.8094
▁veterinar	-11.8097
▁blank	-11.8097
▁athletic	-11.8098
▁beneficia	-11.8098
▁centimeter	-11.8098
▁compatriot	-11.8098
▁crawford	-11.8098
▁fatigue	-11.8098
▁immense	-11.8098
▁intrigu	-11.8098
▁machete	-11.8098
▁messenger	-11.8098
▁mismanage	-11.8098
▁obstruct	-11.8098
▁pandemic	-11.8098
▁precinct	-11.8098
▁reprocess	-11.8098
▁ritual	-11.8098
▁tikrit	-11.8098
▁translator	-11.8098
▁adjourn	-11.8098
▁baggage	-11.8098
▁bahrain	-11.8098
▁defence	-11.8098
▁embark	-11.8098
▁gauge	-11.8098
▁subpoena	-11.8098
▁translation	-11.8098
▁appall	-11.8098
▁deplor	-11.8098
▁ounce	-11.8098
▁miserable	-11.8098
▁cultivat	-11.8098
▁newborn	-11.8098
▁partisan	-11.8098
▁heaven	-11.8098
▁wholesale	-11.8098
▁jerem	-11.8098
▁lehman	-11.8098
▁repressi	-11.8098
▁staunch	-11.8098
lroo	-11.8098
▁fabio	-11.8098
▁cigar	-11.8098
▁litvin	-11.8099
▁weird	-11.8099
▁splash	-11.8099
▁ailment	-11.8099
▁norris	-11.8099
▁seminar	-11.8099
▁brent	-11.8099
▁jefferson	-11.81
▁reservation	-11.81
▁feud	-11.81
▁sadden	-11.81
▁cruz	-11.8101
▁horror	-11.8101
▁landfall	-11.8101
▁nike	-11.8101
▁vacan	-11.8102
dorf	-11.8102
▁chimp	-11.8102
onym	-11.8102
▁floren	-11.8103
▁francois	-11.8103
▁outrageous	-11.8104
nction	-11.8104
▁ancestor	-11.8104
▁lavish	-11.8104
▁burk	-11.8104
▁stiff	-11.8105
▁considerably	-11.8105
▁transformation	-11.8107
▁persuad	-11.8108
▁distributor	-11.811
▁blu	-11.811
uver	-11.8112
▁vary	-11.8112
▁khala	-11.8113
▁speculate	-11.8114
▁complication	-11.8114
▁hari	-11.8115
▁nabi	-11.8116
▁hardship	-11.8116
▁desir	-11.8118
▁alcoholic	-11.8118
▁undermin	-11.812
▁backward	-11.8121
▁sicken	-11.8124
oppo	-11.8124
▁behav	-11.8127
believ	-11.8128
▁marij	-11.8129
▁unifi	-11.8129
▁jaw	-11.8129
▁detector	-11.8134
▁cure	-11.8134
▁kyong	-11.814
▁thu	-11.8146
▁lynn	-11.8146
capri	-11.8148
▁stair	-11.8148
▁kean	-11.8151
▁seeker	-11.8151
▁decorat	-11.8151
▁flip	-11.8167
▁pap	-11.8168
▁transmitt	-11.8169
▁xp	-11.8171
action	-11.8172
▁bare	-11.8176
cast	-11.8177
descent	-11.8178
▁abdel	-11.8183
▁cam	-11.8193
adic	-11.8199
▁nim	-11.82
▁trauma	-11.8202
▁roller	-11.821
kawa	-11.8212
▁balk	-11.8219
▁capitalist	-11.8221
▁haniy	-11.8232
▁dear	-11.8234
▁dome	-11.8234
yushch	-11.8242
▁lucian	-11.8257
▁sampl	-11.8259
▁qud	-11.8261
mont	-11.8273
rgency	-11.8274
▁persi	-11.8282
▁gue	-11.8287
▁klo	-11.8295
▁lah	-11.831
▁roj	-11.832
▁pir	-11.8322
oria	-11.8329
▁rout	-11.8345
▁mai	-11.8349
phis	-11.8364
uana	-11.8367
▁trainer	-11.8376
▁mobil	-11.8385
▁bir	-11.8391
▁excite	-11.8398
kia	-11.8399
▁ivan	-11.8417
▁timo	-11.8433
▁skipp	-11.8435
▁revise	-11.8435
▁dodge	-11.8451
rou	-11.8462
▁analyze	-11.8471
▁crist	-11.8488
tract	-11.8493
achel	-11.8502
▁stre	-11.8502
▁justifi	-11.8509
▁yea	-11.8528
▁dose	-11.855
▁starv	-11.8552
▁wil	-11.8556
▁clan	-11.8567
▁buff	-11.858
▁clap	-11.8606
▁infringe	-11.8627
▁entit	-11.864
▁concede	-11.864
walk	-11.8642
dero	-11.8643
▁domini	-11.8643
scale	-11.8644
▁xi	-11.8646
▁mour	-11.8649
boat	-11.8651
graph	-11.866
▁clemen	-11.8662
▁unfor	-11.8681
▁compass	-11.8685
▁dissatisf	-11.8686
▁absorb	-11.8686
▁archipelag	-11.8686
▁console	-11.8686
▁delicate	-11.8686
▁depressed	-11.8686
▁filipino	-11.8686
▁gloom	-11.8686
▁hamilton	-11.8686
▁homeowner	-11.8686
▁humpback	-11.8686
▁hutchins	-11.8686
▁improper	-11.8686
▁integrity	-11.8686
▁jupiter	-11.8686
▁oppress	-11.8686
▁pedestrian	-11.8686
▁quebec	-11.8686
▁reconsider	-11.8686
▁rhythm	-11.8686
▁safeguard	-11.8686
▁skyscraper	-11.8686
▁technological	-11.8686
▁clutch	-11.8686
▁dynast	-11.8686
▁mbeki	-11.8686
▁noodle	-11.8686
▁renown	-11.8686
▁syndicat	-11.8686
▁tariff	-11.8686
▁dignitar	-11.8686
▁yacht	-11.8686
▁dormitor	-11.8686
▁firearm	-11.8686
convenient	-11.8686
▁armenian	-11.8686
▁blade	-11.8686
▁carriage	-11.8686
▁grappl	-11.8686
▁necessit	-11.8686
▁renovat	-11.8686
▁commentator	-11.8686
▁advertisement	-11.8686
▁cemeter	-11.8686
▁dmitr	-11.8686
▁sultan	-11.8686
▁foreclosure	-11.8687
solicit	-11.8687
▁clown	-11.8687
▁slaying	-11.8687
▁definitive	-11.8687
▁liberia	-11.8687
▁glamo	-11.8687
▁spawn	-11.8687
▁stint	-11.8687
▁forbidd	-11.8687
▁fritz	-11.8687
▁dip	-11.8687
▁forthcoming	-11.8687
▁buoy	-11.8687
▁davyd	-11.8687
▁ditch	-11.8687
▁globo	-11.8687
▁luft	-11.8687
orenst	-11.8687
▁theatre	-11.8688
▁disband	-11.8688
▁forgive	-11.8688
▁preced	-11.8688
▁dora	-11.8689
▁feat	-11.8689
▁uneas	-11.8689
▁yoko	-11.8689
▁magnetic	-11.8689
▁maure	-11.8689
▁darling	-11.8689
▁falter	-11.869
▁gangster	-11.869
▁litter	-11.869
▁floodwater	-11.869
▁jacket	-11.869
ngdu	-11.8691
▁gripp	-11.8691
▁todd	-11.8694
▁installment	-11.8694
▁mandel	-11.8694
▁alvar	-11.8694
▁retract	-11.8694
▁christin	-11.8695
▁persist	-11.8695
▁kaka	-11.8695
▁canyon	-11.8695
▁waiver	-11.8696
▁genom	-11.8698
▁allerg	-11.8699
▁nano	-11.8699
▁scorch	-11.8701
vinen	-11.8701
▁checkup	-11.8701
▁canoe	-11.8703
▁kook	-11.8704
▁scientolog	-11.8705
▁defiant	-11.8705
▁render	-11.8706
▁nap	-11.8707
▁passionate	-11.871
rasmus	-11.8713
hmer	-11.8713
▁roland	-11.8715
▁stranger	-11.8717
▁arise	-11.8719
▁fledg	-11.8719
▁woke	-11.8721
▁reef	-11.8723
▁cake	-11.8723
▁charm	-11.8724
acent	-11.8733
▁baton	-11.8734
▁regulate	-11.8735
▁temper	-11.8736
▁cred	-11.8738
▁coupon	-11.874
▁vanish	-11.8748
▁perch	-11.8748
▁boil	-11.8748
▁sheik	-11.8749
▁tab	-11.8755
▁lawless	-11.8759
wadd	-11.8763
▁zahi	-11.8764
▁meteor	-11.8767
▁mona	-11.8774
▁berk	-11.8778
▁merit	-11.8783
ylan	-11.8784
▁alg	-11.8786
▁blackout	-11.8788
glasses	-11.8796
riel	-11.8798
▁incit	-11.8802
▁samba	-11.8808
▁jem	-11.8808
▁buffet	-11.8816
▁precedent	-11.8825
▁downsiz	-11.8837
fold	-11.886
▁josh	-11.8866
▁moss	-11.8867
▁devo	-11.8868
wind	-11.8879
▁hog	-11.8897
▁gard	-11.8931
▁lunche	-11.8931
veral	-11.8936
▁bury	-11.8942
gate	-11.8958
napp	-11.8958
▁resource	-11.896
▁jav	-11.8963
▁morocc	-11.8965
▁eco	-11.8965
▁pett	-11.8965
▁serie	-11.8965
▁corpse	-11.8966
▁sue	-11.8986
▁mint	-11.899
rwin	-11.9006
▁hungar	-11.9012
yuz	-11.9036
teau	-11.9043
▁kb	-11.905
▁corre	-11.905
libu	-11.9051
▁masa	-11.9057
▁fuse	-11.9073
irna	-11.9075
ruz	-11.9077
▁prob	-11.9081
▁credibl	-11.9089
▁specializ	-11.9094
▁donation	-11.9098
▁relocate	-11.91
▁renounce	-11.9103
▁underscore	-11.9111
▁pu	-11.9118
hart	-11.913
▁robe	-11.9135
anana	-11.9142
▁lighter	-11.9142
▁admitt	-11.9149
ngue	-11.9154
▁abd	-11.9163
▁tackl	-11.9189
▁correction	-11.9199
glo	-11.9205
▁enabl	-11.9207
cb	-11.9217
igat	-11.9221
▁accessor	-11.9237
▁skip	-11.9239
hang	-11.9255
▁concentrate	-11.9255
beat	-11.9256
zvo	-11.9258
continent	-11.9263
constitutional	-11.9263
▁holm	-11.9266
deal	-11.9268
▁pine	-11.9272
▁refin	-11.9281
▁fundrais	-11.9284
lude	-11.9285
▁capita	-11.9301
▁terminat	-11.9308
stair	-11.9309
▁conspir	-11.9311
▁abnormal	-11.9311
▁archbishop	-11.9311
▁azerbaijan	-11.9311
▁censor	-11.9311
▁centrifuge	-11.9311
▁compensate	-11.9311
▁corridor	-11.9311
▁defensive	-11.9311
▁deterrent	-11.9311
▁dynamic	-11.9311
▁eagle	-11.9311
▁exaggerat	-11.9311
▁excellent	-11.9311
▁explicit	-11.9311
▁fragment	-11.9311
▁mosquito	-11.9311
▁nutrient	-11.9311
▁obsess	-11.9311
▁paramilitar	-11.9311
▁provocation	-11.9311
▁roadblock	-11.9311
▁sabotage	-11.9311
▁sculpture	-11.9311
▁skeleton	-11.9311
▁standstill	-11.9311
▁stipulat	-11.9311
▁submarine	-11.9311
▁surname	-11.9311
▁temblor	-11.9311
▁tremor	-11.9311
▁diarrhea	-11.9311
▁halloween	-11.9311
▁mogul	-11.9311
▁overshadow	-11.9311
▁sanctuar	-11.9311
▁unearth	-11.9311
▁vendor	-11.9311
▁wizard	-11.9311
▁rebuke	-11.9311
▁rejoin	-11.9311
▁resurgen	-11.9311
▁zambia	-11.9311
▁hurdle	-11.9311
▁elegan	-11.9311
▁chemist	-11.9311
▁reunion	-11.9311
▁textile	-11.9311
▁stump	-11.9311
▁leverage	-11.9311
▁siberia	-11.9311
▁coloss	-11.9311
▁inherit	-11.9311
▁overheat	-11.9311
▁overdose	-11.9311
▁felon	-11.9312
▁psycho	-11.9312
▁justify	-11.9312
▁sweat	-11.9312
▁inflammat	-11.9312
▁pupp	-11.9312
▁feather	-11.9312
▁rooftop	-11.9312
▁showcase	-11.9312
▁ferri	-11.9312
▁heavyweight	-11.9312
▁meltdown	-11.9312
▁valentin	-11.9312
▁annul	-11.9312
▁abram	-11.9313
▁notify	-11.9313
▁valeri	-11.9313
▁robinson	-11.9313
▁courageous	-11.9314
▁navigat	-11.9314
▁estrange	-11.9314
ternate	-11.9314
▁stil	-11.9314
▁disturbance	-11.9314
errill	-11.9314
▁zhu	-11.9315
▁gerald	-11.9315
▁interactive	-11.9315
▁description	-11.9316
▁enron	-11.9316
▁kirk	-11.9316
▁blacksburg	-11.9316
▁orientation	-11.9316
▁shortfall	-11.9317
▁duja	-11.9317
▁breakdown	-11.932
▁receiver	-11.932
▁conner	-11.9321
▁maul	-11.9321
▁hanaro	-11.9323
zawa	-11.9323
▁moroccan	-11.9323
▁dismissal	-11.9324
diaz	-11.9325
▁silic	-11.9325
▁collud	-11.9325
▁frig	-11.9325
pisco	-11.9327
▁ryo	-11.9328
▁foul	-11.9331
▁portrayal	-11.9331
ieu	-11.9332
▁pleasure	-11.9332
atero	-11.9332
▁anymore	-11.9334
▁slapp	-11.9335
▁nile	-11.9336
▁wrestl	-11.9338
▁ventilat	-11.9341
▁fisheries	-11.9342
▁hilar	-11.9342
▁blo	-11.9343
▁yemeni	-11.9344
▁algerian	-11.9346
fraction	-11.9347
▁bike	-11.9348
▁horribl	-11.9352
endo	-11.9352
▁translate	-11.9353
▁aspir	-11.9355
▁max	-11.9358
liga	-11.9359
▁crest	-11.9361
▁ramm	-11.9363
▁affection	-11.9363
▁plantation	-11.9364
▁reap	-11.9364
▁intentional	-11.9369
▁yass	-11.9375
▁leon	-11.9377
▁wishes	-11.9377
▁repatriat	-11.938
▁pie	-11.9387
▁papa	-11.9391
▁qara	-11.9395
▁facto	-11.9397
▁walkout	-11.9403
coni	-11.9404
▁zin	-11.9406
▁joan	-11.9407
rada	-11.941
▁gome	-11.9414
▁offset	-11.9419
▁patch	-11.9423
▁underline	-11.9424
▁poet	-11.9441
▁soak	-11.9446
▁mineral	-11.945
▁motivation	-11.945
▁exceptional	-11.9452
▁bernie	-11.9456
wick	-11.9461
▁naga	-11.9462
▁periodic	-11.9462
▁emergenc	-11.9463
▁bite	-11.948
onso	-11.9487
▁peta	-11.9487
brew	-11.9496
▁esta	-11.9505
▁kat	-11.9506
▁nett	-11.9536
▁reel	-11.9538
shmi	-11.9546
▁zay	-11.9549
▁sword	-11.9549
▁cheon	-11.9551
▁myth	-11.9553
▁waterway	-11.9573
drop	-11.9584
▁credi	-11.9588
▁manufacture	-11.9594
▁facilitate	-11.9598
related	-11.9599
▁naf	-11.9606
▁mock	-11.9609
tick	-11.9611
lett	-11.963
▁relation	-11.9633
▁mario	-11.9637
bali	-11.9644
▁outlet	-11.9672
▁recogniz	-11.9681
confirmed	-11.9683
stitution	-11.9685
▁exercis	-11.9698
eller	-11.9713
▁imag	-11.9729
▁parr	-11.9738
heim	-11.9742
tious	-11.9756
hansa	-11.9756
▁tier	-11.9776
oven	-11.978
lumin	-11.979
word	-11.9796
▁applie	-11.9803
▁dependenc	-11.9806
alkati	-11.9819
▁hawkin	-11.9827
▁olive	-11.9832
▁interfere	-11.9852
reze	-11.9852
ushi	-11.9866
▁lav	-11.9873
medic	-11.9874
▁maid	-11.9874
rw	-11.9876
uiz	-11.9884
agar	-11.9896
riza	-11.9902
▁finaliz	-11.9906
zemi	-11.9926
found	-11.9928
secretary	-11.993
▁inevitabl	-11.9936
▁wilder	-11.994
▁fuji	-11.9946
▁bulgaria	-11.9951
▁communicat	-11.9959
enne	-11.9972
▁interrogat	-11.9973
▁orphan	-11.9976
▁charisma	-11.9978
▁appreciati	-11.9978
▁disapprov	-11.9978
▁accommodate	-11.9978
▁accumulate	-11.9978
▁affidavit	-11.9978
▁bystander	-11.9978
▁charlotte	-11.9978
▁flavor	-11.9978
▁infuriat	-11.9978
▁johansson	-11.9978
▁malfunction	-11.9978
▁nephew	-11.9978
▁paraguay	-11.9978
▁precondition	-11.9978
▁reshuffl	-11.9978
▁sanchez	-11.9978
▁unleash	-11.9978
▁unnecessar	-11.9978
▁barclay	-11.9978
▁fascinat	-11.9978
▁vomit	-11.9978
▁bennett	-11.9978
▁coffin	-11.9978
▁enlist	-11.9978
▁pneum	-11.9978
▁blacklist	-11.9978
▁lawrence	-11.9978
▁gorge	-11.9978
▁bureaucrat	-11.9978
▁warlord	-11.9978
▁impressed	-11.9978
▁sherpa	-11.9978
▁minimiz	-11.9978
▁minimal	-11.9978
▁grocer	-11.9978
▁thumb	-11.9978
▁brewer	-11.9979
▁memoir	-11.9979
▁shank	-11.9979
▁regiment	-11.9979
▁biograph	-11.9979
▁redeployment	-11.9979
dysse	-11.9979
▁vinci	-11.9979
▁compress	-11.9979
▁email	-11.9979
▁clamp	-11.998
▁classmate	-11.998
▁garrison	-11.998
crates	-11.998
▁chopper	-11.998
▁orphanage	-11.998
▁gallu	-11.998
▁spotlight	-11.998
▁morris	-11.998
▁pillar	-11.9981
▁stroll	-11.9981
▁gentle	-11.9981
▁verbal	-11.9981
▁spacewalk	-11.9981
▁hinder	-11.9982
▁swamp	-11.9982
▁migration	-11.9982
▁roos	-11.9982
▁adolescent	-11.9982
▁snu	-11.9983
▁huddl	-11.9983
▁cramp	-11.9983
▁braun	-11.9983
▁jogg	-11.9984
▁accomplishment	-11.9984
▁martial	-11.9984
▁scout	-11.9984
▁derby	-11.9985
▁pilgrimage	-11.9985
▁worship	-11.9986
▁ameli	-11.9987
▁roam	-11.9987
▁pha	-11.9988
▁amber	-11.9988
▁casp	-11.9989
▁stray	-11.9989
▁battlefield	-11.9989
▁barney	-11.999
▁lenient	-11.9991
▁hideout	-11.9993
▁peel	-11.9995
▁insect	-11.9995
▁farmland	-11.9996
▁misus	-11.9996
▁raft	-11.9998
▁wagon	-11.9999
▁matchup	-12
▁refiner	-12.0001
▁cull	-12.0001
vasive	-12.0003
▁rental	-12.0004
▁bless	-12.0005
ffen	-12.0006
▁thorn	-12.0007
▁swam	-12.0008
▁luther	-12.0008
▁dill	-12.0009
▁prescrib	-12.0011
▁rupe	-12.0011
diac	-12.0012
▁grove	-12.0012
▁benoi	-12.0014
▁tenth	-12.0015
▁meyer	-12.0016
▁zeb	-12.0019
▁dash	-12.0022
fayette	-12.0028
▁hugh	-12.0032
▁tele	-12.0036
▁tide	-12.0039
▁decent	-12.004
▁gag	-12.0044
▁mason	-12.0049
▁reminder	-12.0051
▁angle	-12.0053
hiko	-12.0062
▁yama	-12.0064
▁provisional	-12.0067
reva	-12.0073
▁cox	-12.0076
▁pesh	-12.0076
▁mono	-12.008
dominant	-12.0084
irming	-12.0089
glio	-12.0094
▁freezer	-12.0099
▁rena	-12.01
▁reminiscen	-12.01
▁reproducti	-12.0106
▁drinker	-12.0106
lund	-12.0109
▁lou	-12.0111
▁reassure	-12.0111
moto	-12.0113
▁vai	-12.0115
▁pedr	-12.0119
▁masse	-12.0128
oros	-12.0147
▁industrializ	-12.0147
▁stam	-12.0155
▁paradi	-12.0155
▁vit	-12.0168
ussi	-12.0186
▁incorporat	-12.0195
pal	-12.0196
aah	-12.0199
wf	-12.0209
▁vip	-12.0227
▁arche	-12.0234
▁lava	-12.0241
▁builder	-12.0262
▁hijacker	-12.0263
▁bhut	-12.0294
laughter	-12.0303
lab	-12.0304
vac	-12.0304
▁finn	-12.0309
rose	-12.0314
▁rage	-12.032
▁clause	-12.0324
▁quantit	-12.0325
▁lexi	-12.033
▁lago	-12.0331
▁kati	-12.0335
▁kana	-12.0338
nix	-12.034
▁enforc	-12.0348
▁reliabl	-12.0354
▁relat	-12.0366
▁stimulate	-12.0376
mitt	-12.038
▁lashe	-12.0383
▁lash	-12.0403
▁norm	-12.0408
▁gum	-12.041
rdin	-12.0411
mbo	-12.0422
▁casual	-12.0432
bei	-12.0444
▁grad	-12.045
otto	-12.045
hir	-12.0471
▁mesh	-12.0484
▁viag	-12.0487
mara	-12.0488
▁tran	-12.0488
▁blend	-12.0492
aiss	-12.0504
ggle	-12.0515
▁expir	-12.052
schle	-12.0521
▁morale	-12.0521
▁trapp	-12.0531
guet	-12.0536
oom	-12.0542
▁viru	-12.0546
lynn	-12.056
▁firefight	-12.0563
▁curv	-12.058
▁embezzl	-12.0599
▁vir	-12.0601
▁proportion	-12.0604
▁salam	-12.061
eads	-12.0613
voi	-12.0619
scription	-12.063
morgan	-12.0644
frame	-12.0644
text	-12.0644
roads	-12.0644
model	-12.0644
together	-12.0644
morning	-12.0644
develop	-12.0644
▁gere	-12.0648
bek	-12.0655
stability	-12.066
▁reluctan	-12.0667
▁collaborat	-12.0674
▁laund	-12.0677
gomer	-12.0682
▁corrupt	-12.0687
▁abdulla	-12.0688
emptive	-12.0691
▁inflat	-12.0692
▁gabriel	-12.0692
▁jurisdiction	-12.0692
▁multimillion	-12.0692
▁penetrat	-12.0692
▁revitaliz	-12.0692
▁acclaim	-12.0692
▁baptist	-12.0692
▁blanchett	-12.0692
▁clarify	-12.0692
▁convenience	-12.0692
▁curtain	-12.0692
▁evident	-12.0692
▁frantic	-12.0692
▁fugitive	-12.0692
▁gondola	-12.0692
▁hajj	-12.0692
▁imagination	-12.0692
▁jaguar	-12.0692
▁lithuania	-12.0692
▁malign	-12.0692
▁mathematic	-12.0692
▁motorbike	-12.0692
▁ossuar	-12.0692
▁puzzl	-12.0692
▁rainforest	-12.0692
▁redistribut	-12.0692
▁rendition	-12.0692
▁ritchie	-12.0692
▁salvador	-12.0692
▁specify	-12.0692
▁thieves	-12.0692
▁utiliz	-12.0692
▁eduard	-12.0692
▁fortunate	-12.0692
▁dupre	-12.0692
▁bolivar	-12.0692
▁crab	-12.0692
▁shunn	-12.0692
▁discourag	-12.0692
aewoo	-12.0692
misunderstanding	-12.0692
▁jitter	-12.0692
▁ascend	-12.0692
▁relegat	-12.0692
▁motel	-12.0692
▁throng	-12.0692
▁erotic	-12.0692
▁phrase	-12.0692
▁superstar	-12.0692
▁telegraph	-12.0693
▁muhammad	-12.0693
▁gilbert	-12.0693
▁cyberspace	-12.0693
▁envision	-12.0693
▁extort	-12.0693
▁enthusiastic	-12.0693
▁thigh	-12.0693
▁pizz	-12.0693
▁expulsion	-12.0693
▁bjor	-12.0693
▁emmanuel	-12.0693
▁tread	-12.0693
▁nightmare	-12.0693
▁mubar	-12.0693
▁glid	-12.0693
▁surrogate	-12.0693
▁freud	-12.0693
▁molest	-12.0693
▁ceasefire	-12.0694
▁ideological	-12.0694
▁skidd	-12.0694
▁sulli	-12.0694
▁kwan	-12.0695
▁exert	-12.0695
▁swimmer	-12.0695
▁volley	-12.0695
▁aisle	-12.0695
▁footprint	-12.0695
▁trench	-12.0696
▁elbow	-12.0696
▁preference	-12.0696
▁condon	-12.0696
▁physicist	-12.0696
▁annoy	-12.0696
▁ridge	-12.0697
▁nickel	-12.0697
▁fool	-12.0697
▁invention	-12.0697
▁peek	-12.0698
▁perpetrator	-12.0698
▁fayya	-12.0698
▁systematic	-12.0698
▁hoop	-12.0699
▁cubic	-12.07
▁imam	-12.07
▁adaptation	-12.07
▁hobb	-12.07
▁zebra	-12.0701
▁interpretation	-12.0703
▁jihadist	-12.0703
▁normalization	-12.0703
▁racist	-12.0703
▁collaborator	-12.0705
▁billboard	-12.0705
▁refineries	-12.0707
▁fundamentalist	-12.0707
▁finalists	-12.0708
▁oblig	-12.0708
▁foment	-12.0713
▁shootout	-12.0713
▁libi	-12.0715
metric	-12.0716
▁steelers	-12.0717
▁nasir	-12.0717
▁jessi	-12.072
▁kenne	-12.072
▁candid	-12.072
▁deaf	-12.0721
▁wrestler	-12.0722
bola	-12.0722
ritis	-12.0723
▁authoritarian	-12.0723
▁defuse	-12.0724
▁secretari	-12.0726
▁spaceship	-12.0728
▁tile	-12.073
▁jamaican	-12.073
▁paw	-12.0731
▁hogan	-12.0732
▁fend	-12.0737
▁everton	-12.0739
▁drac	-12.0742
culate	-12.0747
▁irra	-12.0747
▁robin	-12.0747
▁adventurer	-12.0754
▁gotte	-12.0756
▁champ	-12.076
▁conductor	-12.0762
erber	-12.0767
▁combatant	-12.077
▁succession	-12.0772
▁regrett	-12.0784
▁resistan	-12.0787
▁banker	-12.0793
▁coll	-12.0793
▁degrad	-12.0797
pur	-12.0807
▁harle	-12.0808
amba	-12.0816
▁crane	-12.0822
plan	-12.0823
▁rafi	-12.0824
▁watt	-12.0844
mise	-12.0846
errez	-12.0852
▁alme	-12.0872
▁mediate	-12.0878
anxi	-12.0883
▁ump	-12.0889
▁bong	-12.0894
▁hatch	-12.0906
▁philipp	-12.0908
▁estra	-12.0921
▁creditor	-12.0922
▁dancer	-12.0924
hita	-12.0925
▁underscor	-12.0927
▁solan	-12.0934
▁lai	-12.0961
post	-12.0962
▁envelope	-12.0965
▁pier	-12.0976
▁qin	-12.0977
cak	-12.0978
uez	-12.1
pine	-12.1014
▁glu	-12.1016
elli	-12.1028
▁junk	-12.1052
bili	-12.1053
▁uphold	-12.1059
▁publicize	-12.1061
▁demo	-12.1068
▁replica	-12.108
chai	-12.108
gone	-12.1106
heddin	-12.1108
▁messi	-12.1119
ghi	-12.1125
▁claudi	-12.1132
▁shout	-12.1146
ngal	-12.1172
▁lal	-12.118
jaf	-12.1186
oval	-12.1187
▁exchang	-12.1187
▁webb	-12.1199
asso	-12.1216
uku	-12.1246
▁boundar	-12.1262
▁hab	-12.1294
vani	-12.1324
effer	-12.1343
▁darre	-12.1386
▁invent	-12.1387
▁galax	-12.1393
phone	-12.14
▁bibl	-12.1406
▁messag	-12.141
chemical	-12.1413
bridge	-12.1413
around	-12.1413
eille	-12.1414
▁versa	-12.1414
look	-12.1433
▁emphasi	-12.1434
jong	-12.1434
hurt	-12.1435
grow	-12.1439
four	-12.1443
mill	-12.1448
workers	-12.1451
▁tribun	-12.1453
▁enroll	-12.1459
▁bankrupt	-12.146
▁happi	-12.146
▁legitima	-12.146
▁khu	-12.1461
▁aggregate	-12.1462
▁anglican	-12.1462
▁bachelor	-12.1462
▁barroso	-12.1462
▁bodlander	-12.1462
▁bulldozer	-12.1462
▁chimpanzee	-12.1462
▁delinquent	-12.1462
▁eclips	-12.1462
▁eyewitness	-12.1462
▁identical	-12.1462
▁insufficient	-12.1462
▁intimate	-12.1462
▁leopard	-12.1462
▁mauritania	-12.1462
▁meghani	-12.1462
▁namdaemu	-12.1462
▁neglect	-12.1462
▁plaintiff	-12.1462
▁quadruple	-12.1462
▁rabbit	-12.1462
▁refund	-12.1462
▁reptile	-12.1462
▁resettle	-12.1462
▁resurrect	-12.1462
▁samuel	-12.1462
▁satisfy	-12.1462
▁scooter	-12.1462
▁scowcroft	-12.1462
▁sporadic	-12.1462
▁tarmac	-12.1462
▁turbulen	-12.1462
▁tyrann	-12.1462
▁ultimatum	-12.1462
▁upheaval	-12.1462
▁administer	-12.1462
▁compell	-12.1462
▁frequenc	-12.1462
▁geographic	-12.1462
▁persecut	-12.1462
▁rehears	-12.1462
▁smurf	-12.1462
▁workshop	-12.1462
▁overflow	-12.1462
▁adolf	-12.1462
▁bulb	-12.1462
▁comrade	-12.1462
▁embroi	-12.1462
▁voyage	-12.1462
▁feminin	-12.1462
▁affirm	-12.1462
▁inundat	-12.1462
▁cypr	-12.1462
▁krug	-12.1462
▁ecosystem	-12.1462
▁sindh	-12.1462
▁intrude	-12.1462
▁warrior	-12.1462
▁analog	-12.1462
▁jalal	-12.1462
▁complicit	-12.1462
▁bimbo	-12.1462
▁schult	-12.1462
▁delaware	-12.1462
▁petrol	-12.1462
▁characteristic	-12.1462
▁fetch	-12.1462
▁vague	-12.1462
▁knox	-12.1462
▁polanski	-12.1462
▁lynd	-12.1462
▁resemblance	-12.1462
▁astonish	-12.1462
ussain	-12.1462
▁sermon	-12.1462
▁primate	-12.1463
▁celtic	-12.1463
▁faint	-12.1463
▁frenz	-12.1463
▁salute	-12.1463
▁quinn	-12.1463
▁sniff	-12.1463
▁mixture	-12.1463
▁canister	-12.1463
▁cedar	-12.1464
▁caval	-12.1464
▁snowfall	-12.1464
▁yoshi	-12.1464
▁reconn	-12.1464
▁flatten	-12.1465
rjee	-12.1465
▁hydra	-12.1465
▁enrollment	-12.1465
▁calder	-12.1466
▁void	-12.1466
▁rope	-12.1467
▁abdomen	-12.1468
llusion	-12.1468
▁montrea	-12.1469
▁elvi	-12.1469
▁gown	-12.1469
▁assignment	-12.1469
▁modifie	-12.1469
▁psychiatrist	-12.1469
▁discard	-12.147
▁unfold	-12.1471
▁downgrade	-12.1472
elhof	-12.1472
▁calculation	-12.1474
▁ginger	-12.1474
▁burri	-12.1474
▁gwang	-12.1474
▁revel	-12.1474
▁marble	-12.1474
▁insight	-12.1475
▁feast	-12.1475
▁shotgun	-12.1475
▁trev	-12.1476
ukov	-12.1476
▁disneyland	-12.1477
▁kennel	-12.1477
▁berl	-12.1477
▁heroic	-12.1478
▁weightless	-12.1478
▁uncla	-12.1479
▁purse	-12.1481
▁tangib	-12.1482
▁embrac	-12.1482
▁deliberation	-12.1482
▁prohibition	-12.1483
▁ober	-12.1483
▁coward	-12.1483
▁stack	-12.1484
▁alleviat	-12.1487
▁dogged	-12.1487
▁blanc	-12.1488
▁thaw	-12.149
▁collector	-12.1492
▁hillside	-12.1493
▁fabricat	-12.1494
▁realistic	-12.1495
▁grind	-12.1497
▁lars	-12.1502
▁wow	-12.1502
tikh	-12.1506
uli	-12.1508
▁clarifi	-12.1511
pinning	-12.1511
▁entertainer	-12.1511
▁chef	-12.1512
▁ripple	-12.1513
ellen	-12.1514
▁scrub	-12.1514
kanit	-12.1515
▁overture	-12.1519
▁flies	-12.152
▁vik	-12.1521
▁originat	-12.1521
▁lari	-12.1522
▁hallway	-12.1523
▁startup	-12.1526
▁snag	-12.1529
life	-12.1532
▁motorist	-12.1534
▁lament	-12.1536
mul	-12.1538
▁infring	-12.154
▁unsc	-12.1545
▁advocat	-12.1545
itte	-12.155
▁gong	-12.1556
▁rename	-12.1557
▁proportional	-12.1558
▁barbar	-12.1561
▁fab	-12.1576
▁merg	-12.158
asia	-12.1582
▁spen	-12.1586
decent	-12.1588
issan	-12.1591
reau	-12.1592
▁lime	-12.1609
▁abn	-12.1612
▁camill	-12.1613
▁saba	-12.1621
▁roche	-12.1626
▁rip	-12.1633
▁snub	-12.1635
▁destructi	-12.1638
▁retriev	-12.1642
retz	-12.1654
▁balco	-12.166
oper	-12.1703
▁freeway	-12.1728
▁luz	-12.1733
▁hyo	-12.1739
taka	-12.1747
▁fabr	-12.1798
▁evaluate	-12.181
▁decreas	-12.183
awar	-12.1884
▁legaliz	-12.1906
comb	-12.1912
▁taj	-12.1921
riano	-12.1925
▁compuls	-12.1938
▁missionar	-12.1942
▁arrangement	-12.1944
▁rewrit	-12.1945
▁vera	-12.1951
▁boni	-12.1975
ahab	-12.1977
▁shaha	-12.1984
▁eisen	-12.2044
▁quant	-12.2059
▁chatt	-12.206
bbie	-12.2063
▁shatter	-12.2071
ashi	-12.2081
wp	-12.2107
▁reassur	-12.2142
▁spik	-12.2148
acio	-12.2168
▁dominan	-12.2171
▁confe	-12.2194
▁regulat	-12.2201
clusion	-12.2204
marked	-12.2209
▁updat	-12.2219
vp	-12.2223
▁nia	-12.2223
lley	-12.2224
harmonic	-12.2227
▁wacho	-12.224
▁extraditi	-12.2241
nutrition	-12.2245
conduct	-12.2247
avoid	-12.2247
foot	-12.2247
sexual	-12.2247
sleep	-12.2247
master	-12.2248
steps	-12.2249
cini	-12.2251
▁jeopard	-12.2251
lift	-12.2255
▁rug	-12.2264
▁advoca	-12.2267
▁albania	-12.2268
▁graduat	-12.2269
media	-12.2275
▁roth	-12.2276
▁mechanic	-12.2276
mpact	-12.2277
▁strategi	-12.2284
▁clint	-12.2286
▁migrat	-12.2289
▁abdom	-12.2291
▁correspond	-12.2294
▁palestin	-12.2294
▁rockefeller	-12.2295
▁accomplice	-12.2295
▁alejandr	-12.2295
▁aurora	-12.2295
▁avalanche	-12.2295
▁awkward	-12.2295
▁cantaloupe	-12.2295
▁carnival	-12.2295
▁cockpit	-12.2295
▁compatible	-12.2295
▁constituenc	-12.2295
▁culminat	-12.2295
▁deflect	-12.2295
▁discontent	-12.2295
▁disqualifi	-12.2295
▁dynamit	-12.2295
▁enclave	-12.2295
▁fertilizer	-12.2295
▁grylls	-12.2295
▁juventu	-12.2295
▁leisure	-12.2295
▁madagascar	-12.2295
▁marshall	-12.2295
▁memorandum	-12.2295
▁outnumber	-12.2295
▁paleontologist	-12.2295
▁panmunj	-12.2295
▁pavilion	-12.2295
▁prevail	-12.2295
▁preview	-12.2295
▁skyrocket	-12.2295
▁specimen	-12.2295
▁suitcase	-12.2295
▁superjumbo	-12.2295
▁trinidad	-12.2295
▁unhcr	-12.2295
▁wrangl	-12.2295
▁abolition	-12.2295
▁brawl	-12.2295
▁futurist	-12.2295
▁sequel	-12.2295
▁architecture	-12.2295
▁cheetah	-12.2295
▁caesar	-12.2295
▁grill	-12.2295
▁backpack	-12.2295
▁illuminat	-12.2295
▁namibia	-12.2295
▁thymus	-12.2295
▁stalk	-12.2295
▁glory	-12.2295
▁connor	-12.2295
▁refrigerator	-12.2295
eutic	-12.2295
▁flank	-12.2295
▁guti	-12.2295
▁patern	-12.2295
▁ricard	-12.2295
▁unreasonabl	-12.2295
▁blackberr	-12.2295
▁desktop	-12.2295
▁horm	-12.2295
▁qualification	-12.2296
▁unify	-12.2296
▁boulo	-12.2296
▁intoxicat	-12.2296
▁cesar	-12.2296
▁gym	-12.2296
▁morici	-12.2296
▁muddy	-12.2296
▁recreat	-12.2296
ratchet	-12.2296
▁forehand	-12.2296
▁creek	-12.2296
▁straw	-12.2297
▁zhe	-12.2297
wash	-12.2298
▁ayres	-12.2298
ceptive	-12.2298
▁patron	-12.2298
▁galv	-12.2298
▁celesti	-12.2298
▁commemoration	-12.2298
▁cascad	-12.2298
▁resent	-12.2298
▁cement	-12.2298
▁betray	-12.2299
▁headphone	-12.2299
▁bradley	-12.2299
▁feline	-12.2299
▁touchdown	-12.23
▁molecul	-12.23
▁dimensional	-12.23
▁revoke	-12.23
▁columnist	-12.23
▁nuts	-12.23
▁chungchon	-12.23
▁patent	-12.2301
▁meddl	-12.2301
▁clima	-12.2301
omaha	-12.2302
▁gaul	-12.2303
▁mcqu	-12.2303
▁pegg	-12.2303
▁innovation	-12.2304
▁fabrication	-12.2304
▁flush	-12.2305
rgis	-12.2305
▁abductee	-12.2305
▁iceberg	-12.2306
▁crouch	-12.2306
▁hernan	-12.2306
▁unsur	-12.2307
▁sunny	-12.2307
▁electorate	-12.2308
▁claw	-12.2308
▁gins	-12.2309
▁groom	-12.231
▁conven	-12.231
▁lame	-12.231
cheema	-12.231
▁depiction	-12.231
▁sniper	-12.2311
▁balkan	-12.2313
▁solt	-12.2313
▁turkmen	-12.2315
▁mountainside	-12.2315
ollea	-12.2316
▁stride	-12.2318
▁colorful	-12.2318
▁worm	-12.2319
▁windsor	-12.2319
▁sreb	-12.232
▁hoff	-12.232
▁woodland	-12.2321
▁helms	-12.2322
▁parliamentarian	-12.2322
▁purge	-12.2324
▁hardline	-12.2327
▁hopkin	-12.2328
▁counselor	-12.2329
▁garri	-12.2329
▁casa	-12.233
▁unfit	-12.2331
▁downward	-12.2331
▁zhi	-12.2336
▁barber	-12.2337
▁glea	-12.2338
▁rehabilitat	-12.2338
▁chore	-12.2338
▁wax	-12.2339
▁hospitalization	-12.234
▁couri	-12.234
▁endeavor	-12.234
▁clement	-12.2341
▁nikola	-12.2349
lula	-12.2353
▁escalator	-12.2358
▁rajas	-12.236
oise	-12.2363
▁relate	-12.2372
▁ironic	-12.2373
etcher	-12.2375
pache	-12.2384
aimi	-12.2391
▁fou	-12.2394
liot	-12.2398
▁hugg	-12.2405
oir	-12.2407
▁saga	-12.2409
ndell	-12.2412
▁skeptical	-12.2417
▁indicator	-12.2431
▁processor	-12.2432
riq	-12.2432
▁verifiabl	-12.2433
abad	-12.2439
▁corona	-12.2445
▁saber	-12.2447
emory	-12.2472
▁oliver	-12.2487
▁banda	-12.249
gaz	-12.2497
lender	-12.2508
ariya	-12.2572
▁moussa	-12.2576
▁relocat	-12.2582
kill	-12.2593
andel	-12.261
▁horr	-12.2617
▁fig	-12.2618
wau	-12.2646
▁burt	-12.2646
▁egg	-12.2672
vich	-12.2673
rau	-12.2675
▁heroin	-12.2676
leban	-12.268
hafi	-12.2684
▁pessimist	-12.2697
▁carre	-12.2744
▁wade	-12.275
▁hotte	-12.2768
lissa	-12.2778
▁diwa	-12.2832
▁kerch	-12.2836
▁albe	-12.2844
▁athlete	-12.2852
▁bois	-12.2853
riyad	-12.2871
▁kazu	-12.2894
shiro	-12.2901
holder	-12.2919
▁deliberat	-12.2931
embe	-12.2941
▁eurosta	-12.2946
nnah	-12.2948
▁ruba	-12.2949
▁convict	-12.2978
▁destruct	-12.2982
▁hamm	-12.2984
▁plen	-12.3018
flation	-12.302
▁scr	-12.3066
▁ratifi	-12.3069
lusive	-12.3088
▁bou	-12.3102
▁relian	-12.311
uddin	-12.3118
week	-12.3153
connect	-12.3155
speak	-12.3157
smith	-12.3158
▁fabric	-12.316
league	-12.3164
▁prim	-12.3174
visibl	-12.3178
▁profession	-12.3178
▁interact	-12.3182
▁matur	-12.3185
▁americ	-12.3185
▁snipe	-12.3189
▁innovati	-12.3195
▁implicat	-12.3199
▁divisi	-12.3199
▁astro	-12.3199
▁registr	-12.3201
▁advers	-12.3203
atorium	-12.3204
▁kazakh	-12.3204
▁demographic	-12.3204
▁erratic	-12.3204
▁meadow	-12.3204
▁olympia	-12.3204
▁abstain	-12.3204
▁appetite	-12.3204
▁audiotape	-12.3204
▁autobiograph	-12.3204
▁ayurved	-12.3204
▁berezovsky	-12.3204
▁clergy	-12.3204
▁conciliat	-12.3204
▁contagio	-12.3204
▁crawl	-12.3204
▁culprit	-12.3204
▁curtail	-12.3204
▁disregard	-12.3204
▁djamena	-12.3204
▁encrypt	-12.3204
▁eyebrow	-12.3204
▁fluctuat	-12.3204
▁fowler	-12.3204
▁fraudulent	-12.3204
▁housekeeper	-12.3204
▁indiscriminate	-12.3204
▁loophole	-12.3204
▁mistreat	-12.3204
▁module	-12.3204
▁obscur	-12.3204
▁ordinance	-12.3204
▁physiolog	-12.3204
▁portfolio	-12.3204
▁rebuff	-12.3204
▁salvage	-12.3204
▁steadfast	-12.3204
▁tanzania	-12.3204
▁yugoslav	-12.3204
▁rethink	-12.3204
▁souvenir	-12.3204
▁cogniti	-12.3204
▁cowboy	-12.3204
▁crescent	-12.3204
▁demolish	-12.3204
▁ecsta	-12.3204
▁edmund	-12.3204
▁hondura	-12.3204
▁outflow	-12.3204
▁seismic	-12.3204
▁submerg	-12.3204
▁defamat	-12.3204
▁goddess	-12.3204
▁impatien	-12.3204
▁jetliner	-12.3204
▁mafia	-12.3204
▁birthrate	-12.3204
▁churn	-12.3204
▁dreamliner	-12.3204
▁swirl	-12.3204
▁realign	-12.3204
▁bourse	-12.3204
▁converg	-12.3204
▁degener	-12.3204
▁gwen	-12.3204
▁snapshot	-12.3204
▁crematori	-12.3204
▁diaries	-12.3204
▁antenna	-12.3204
▁strangl	-12.3204
▁fetus	-12.3204
▁liberate	-12.3204
▁juice	-12.3204
▁unwilling	-12.3204
▁kraus	-12.3204
▁scoop	-12.3204
▁biometric	-12.3204
▁destin	-12.3204
dispens	-12.3204
▁ericsson	-12.3204
▁cadet	-12.3204
▁grasp	-12.3204
brant	-12.3204
▁mutilat	-12.3204
▁charismatic	-12.3204
▁minivan	-12.3204
▁generous	-12.3205
▁sleeve	-12.3205
▁mortal	-12.3205
▁evict	-12.3205
▁tusk	-12.3205
▁arrow	-12.3205
▁empower	-12.3205
▁trunk	-12.3205
▁categorical	-12.3205
▁furious	-12.3205
▁certifi	-12.3205
▁elliot	-12.3205
▁grape	-12.3205
▁jelly	-12.3205
▁mauric	-12.3205
▁adversari	-12.3205
▁recip	-12.3206
▁maldiv	-12.3206
▁breez	-12.3206
▁kampu	-12.3206
▁lieber	-12.3206
▁hedge	-12.3207
▁freak	-12.3207
▁spoil	-12.3207
▁mcnam	-12.3207
▁tanner	-12.3207
▁hosseini	-12.3207
▁latitude	-12.3207
▁cardiov	-12.3207
▁calib	-12.3207
▁gaill	-12.3208
▁racket	-12.3208
▁airlift	-12.3208
▁recit	-12.3208
▁mimic	-12.3208
▁rational	-12.3209
▁boob	-12.3209
▁infra	-12.3209
▁yuko	-12.3209
▁luke	-12.3209
▁flourish	-12.3209
▁sophi	-12.321
▁graduation	-12.321
▁variation	-12.321
▁summar	-12.3211
▁amass	-12.3211
▁marketplace	-12.3211
▁stoppage	-12.3211
▁thoms	-12.3213
▁kiku	-12.3213
▁gand	-12.3214
▁elisa	-12.3215
▁interruption	-12.3215
▁thankful	-12.3216
▁loung	-12.3216
▁artwork	-12.3216
▁lapse	-12.3216
▁crusader	-12.3216
▁interceptor	-12.3217
▁adjustment	-12.3217
▁kinne	-12.3219
▁tigr	-12.3219
▁bandit	-12.322
▁sylv	-12.3222
▁chew	-12.3224
choles	-12.323
▁educator	-12.323
▁pierce	-12.3231
▁pew	-12.3232
▁secularist	-12.3233
▁incur	-12.3233
▁perez	-12.3235
▁terrifi	-12.3238
▁jorge	-12.3242
▁equalise	-12.3243
▁heller	-12.3244
▁banana	-12.3245
▁jamm	-12.3245
▁fundraiser	-12.3245
▁mcle	-12.3246
▁ecolog	-12.3248
▁ruben	-12.3249
▁jeopardize	-12.3252
▁fein	-12.3259
▁flagg	-12.3263
nourishe	-12.3265
lamin	-12.3273
wage	-12.3274
▁fluor	-12.3275
otherap	-12.328
▁verge	-12.3288
▁ngo	-12.3291
▁lagg	-12.3295
awful	-12.3297
▁poke	-12.3306
▁nurtur	-12.3319
▁violator	-12.3322
▁ryd	-12.3334
▁valve	-12.3353
▁hammon	-12.3365
bok	-12.3376
▁lamb	-12.3413
▁giro	-12.3414
▁withstand	-12.345
▁porch	-12.3458
▁germ	-12.3469
▁seab	-12.3497
habi	-12.3499
▁tutori	-12.3533
kow	-12.3533
macho	-12.3539
▁shade	-12.3567
▁abilit	-12.3567
yongsan	-12.3627
raged	-12.37
▁doug	-12.3701
ducat	-12.3703
cube	-12.3706
▁zab	-12.3707
▁gia	-12.3711
▁barad	-12.3718
zuma	-12.3723
▁birdie	-12.3748
ulsa	-12.3767
young	-12.3768
clara	-12.3775
▁bait	-12.3816
▁hyde	-12.3827
▁reserv	-12.3861
▁expo	-12.3863
▁muha	-12.3865
▁deserv	-12.3867
▁defian	-12.3871
▁zem	-12.3873
▁rile	-12.3875
▁burre	-12.3884
▁homi	-12.3934
▁milita	-12.3957
▁duc	-12.3976
bouc	-12.3985
▁begg	-12.4007
mitag	-12.4027
nso	-12.4032
▁fonda	-12.4056
▁astronom	-12.4078
▁facilitat	-12.4081
jord	-12.4085
terrestrial	-12.4091
paste	-12.4094
evic	-12.4108
▁divin	-12.4117
▁residenc	-12.4125
▁entertain	-12.4135
stands	-12.4136
▁nikol	-12.4139
▁mosle	-12.4141
weight	-12.4142
▁vill	-12.4146
adequate	-12.4155
blaze	-12.4156
parents	-12.4156
technology	-12.4156
committee	-12.4156
watch	-12.4157
wanted	-12.4158
▁rebuil	-12.4159
thura	-12.4162
jean	-12.4162
storm	-12.4163
reconcil	-12.4163
shot	-12.4167
sense	-12.4167
ollen	-12.4174
make	-12.4176
▁prominen	-12.418
▁pardo	-12.4183
▁stampede	-12.4188
nsei	-12.4191
▁grin	-12.4192
▁ensu	-12.4195
▁pharmac	-12.4197
▁arsen	-12.4198
▁conserv	-12.4198
▁magnet	-12.4199
▁distract	-12.42
▁griev	-12.4202
pilla	-12.4203
▁slap	-12.4203
tilin	-12.4203
▁mitch	-12.4204
▁absurd	-12.4204
▁amphibi	-12.4204
▁anorexi	-12.4204
▁arraignment	-12.4204
▁basilica	-12.4204
▁belarus	-12.4204
▁blizzard	-12.4204
▁cremation	-12.4204
▁cuisine	-12.4204
▁deforest	-12.4204
▁disadvantage	-12.4204
▁dysfunction	-12.4204
▁eavesdropp	-12.4204
▁eject	-12.4204
▁emphatic	-12.4204
▁enlarg	-12.4204
▁incompeten	-12.4204
▁inconvenience	-12.4204
▁jockey	-12.4204
▁malicious	-12.4204
▁marlboro	-12.4204
▁matthew	-12.4204
▁merchandise	-12.4204
▁mudslide	-12.4204
▁netscape	-12.4204
▁obscen	-12.4204
▁pacify	-12.4204
▁pharaoh	-12.4204
▁precarious	-12.4204
▁receipt	-12.4204
▁recharge	-12.4204
▁reclaim	-12.4204
▁relentless	-12.4204
▁rupture	-12.4204
▁shrunk	-12.4204
▁slovakia	-12.4204
▁soprano	-12.4204
▁spontaneous	-12.4204
▁surcharge	-12.4204
▁theoretical	-12.4204
▁thirteen	-12.4204
▁tsuyo	-12.4204
▁unfreez	-12.4204
▁vigorous	-12.4204
▁alligator	-12.4204
▁complement	-12.4204
▁effig	-12.4204
▁gymnast	-12.4204
▁lifeguard	-12.4204
▁lizard	-12.4204
▁revamp	-12.4204
▁transgender	-12.4204
▁turbine	-12.4204
▁detach	-12.4204
▁elysee	-12.4204
▁purple	-12.4204
▁sandbag	-12.4204
▁shrugg	-12.4204
▁tasmania	-12.4204
▁ghost	-12.4204
▁pelvi	-12.4204
▁rutger	-12.4204
▁senegal	-12.4204
▁temptation	-12.4204
▁solemn	-12.4204
▁congesti	-12.4204
▁landlord	-12.4204
▁ravine	-12.4204
▁unlock	-12.4204
▁humid	-12.4204
▁inviting	-12.4204
▁wrinkle	-12.4204
▁bolivia	-12.4204
▁cambridge	-12.4204
▁panoram	-12.4204
▁twitter	-12.4204
▁cosmetic	-12.4204
▁telecast	-12.4204
▁reneg	-12.4204
▁kashiwa	-12.4204
▁wrack	-12.4204
▁itinerar	-12.4204
▁tgv	-12.4204
werp	-12.4204
▁prevalen	-12.4204
▁czar	-12.4204
▁osbourne	-12.4204
▁espan	-12.4204
▁commend	-12.4204
▁dispel	-12.4204
▁abundan	-12.4204
▁arrowhead	-12.4204
▁zhao	-12.4204
▁pinpoint	-12.4205
▁dweller	-12.4205
▁solace	-12.4205
▁disconnect	-12.4205
▁kirch	-12.4205
▁newcomer	-12.4205
▁unnerv	-12.4205
▁screw	-12.4205
▁narco	-12.4205
▁thrust	-12.4205
▁preemptive	-12.4205
▁screenplay	-12.4206
▁riddle	-12.4206
▁intermedia	-12.4206
▁drummer	-12.4206
▁emigra	-12.4206
idf	-12.4206
▁spew	-12.4206
ngchon	-12.4206
▁stymie	-12.4207
▁dangl	-12.4207
▁taunt	-12.4207
▁condom	-12.4207
▁surgical	-12.4207
▁sidewalk	-12.4208
▁vigilant	-12.4208
▁sitcom	-12.4208
▁zahar	-12.4208
▁distraction	-12.421
▁pleasant	-12.421
▁newsweek	-12.4211
▁dumpling	-12.4211
▁triang	-12.4211
▁haq	-12.4211
▁paek	-12.4212
▁ritz	-12.4212
▁funnel	-12.4212
▁pinch	-12.4212
closure	-12.4212
▁hamza	-12.4212
▁invok	-12.4213
▁shove	-12.4214
▁katz	-12.4214
▁jamestown	-12.4214
▁decoration	-12.4214
▁merck	-12.4214
▁chiap	-12.4215
▁booth	-12.4215
ynov	-12.4215
varna	-12.4216
▁teres	-12.4218
▁swindl	-12.4218
▁fluid	-12.4218
▁hush	-12.422
▁improvis	-12.4221
▁chinook	-12.4221
▁derive	-12.4221
▁rhe	-12.4223
▁handset	-12.4224
▁taji	-12.4225
▁brisk	-12.4226
▁waive	-12.4227
▁marx	-12.4228
ratify	-12.4229
▁baek	-12.423
dental	-12.4231
etsk	-12.4231
▁mansion	-12.4231
▁stain	-12.4238
▁spam	-12.4239
▁pluck	-12.4241
▁contributor	-12.4241
▁cosmo	-12.4245
culty	-12.4248
pinal	-12.4265
ameter	-12.4285
▁bashir	-12.4292
gawa	-12.4302
quille	-12.4302
▁kau	-12.4306
▁pause	-12.4309
wha	-12.4312
villain	-12.4318
▁sicil	-12.4332
▁fume	-12.4341
▁subsidiz	-12.4358
▁lens	-12.4403
▁gregor	-12.4403
▁sooth	-12.4407
▁lemon	-12.4416
▁merv	-12.4419
▁palat	-12.4431
tractor	-12.4481
▁branc	-12.4541
desta	-12.455
irah	-12.457
▁confusi	-12.4605
▁mirr	-12.4608
▁pix	-12.4612
flexibilit	-12.4615
▁reveren	-12.4627
vara	-12.4637
predictabl	-12.465
pulsion	-12.4653
▁claud	-12.4657
▁natali	-12.4659
▁fade	-12.4699
▁ferre	-12.4702
oxid	-12.4708
▁terroriz	-12.4746
▁chamb	-12.4747
culin	-12.4751
assa	-12.4756
▁structur	-12.4757
eij	-12.4759
▁gale	-12.4768
cyclist	-12.4769
wich	-12.4774
mosh	-12.4782
comfortabl	-12.4824
▁fond	-12.4832
▁xiao	-12.4833
▁natal	-12.4836
▁zub	-12.4851
▁kost	-12.4909
prk	-12.4909
rail	-12.4933
▁compromis	-12.4946
▁detainee	-12.4966
zhn	-12.5006
▁disabilit	-12.5011
▁stab	-12.5028
▁yush	-12.505
▁corpora	-12.5059
▁caffe	-12.5068
▁krist	-12.5071
▁libe	-12.5078
▁tenzin	-12.5101
▁indecen	-12.5124
elect	-12.5139
▁skylin	-12.5143
▁moderniz	-12.5155
accessib	-12.5172
modo	-12.5208
lange	-12.5218
▁nativ	-12.5254
▁suicid	-12.5257
ready	-12.5258
friend	-12.5264
▁defus	-12.5266
government	-12.5266
accurate	-12.5266
effective	-12.5267
doubt	-12.5267
affected	-12.5267
economic	-12.5267
season	-12.5268
daughter	-12.5269
badi	-12.527
diari	-12.5273
match	-12.5273
help	-12.5281
▁flam	-12.5282
rief	-12.5285
▁cosm	-12.5286
heard	-12.5287
▁toleran	-12.5291
▁numb	-12.5297
▁distr	-12.5304
▁ancest	-12.531
▁conservat	-12.5311
▁daimler	-12.5315
prehensi	-12.5315
▁consequent	-12.5315
▁conspirator	-12.5315
▁entrepreneur	-12.5315
▁narcissis	-12.5315
▁polygam	-12.5315
▁accommodation	-12.5315
▁acquaintance	-12.5315
▁aeronautic	-12.5315
▁apprehend	-12.5315
▁boulevard	-12.5315
▁demolition	-12.5315
▁denominat	-12.5315
▁derelict	-12.5315
▁detergent	-12.5315
▁dictate	-12.5315
▁doctrine	-12.5315
▁encircl	-12.5315
▁evaporat	-12.5315
▁exacerbat	-12.5315
▁favour	-12.5315
▁friction	-12.5315
▁gharial	-12.5315
▁grizzl	-12.5315
▁illustrate	-12.5315
▁imbalance	-12.5315
▁immoral	-12.5315
▁involuntar	-12.5315
▁kilowatt	-12.5315
▁liechtenstein	-12.5315
▁lodging	-12.5315
▁microwave	-12.5315
▁mushroom	-12.5315
▁nonviolen	-12.5315
▁occupy	-12.5315
▁octopus	-12.5315
▁organisation	-12.5315
▁recipient	-12.5315
▁remittance	-12.5315
▁screenwrit	-12.5315
▁straddl	-12.5315
▁unravel	-12.5315
▁uruguay	-12.5315
▁vicinity	-12.5315
▁alessandr	-12.5315
▁cynical	-12.5315
▁handcuff	-12.5315
▁hemorrhag	-12.5315
▁pupil	-12.5315
▁stereotyp	-12.5315
▁suffocat	-12.5315
▁whirl	-12.5315
▁manhunt	-12.5315
▁susceptib	-12.5315
▁entail	-12.5315
▁hamstr	-12.5315
▁injustice	-12.5315
▁gartner	-12.5315
▁mcclinto	-12.5315
▁turtle	-12.5315
▁discord	-12.5315
▁pundit	-12.5315
▁banteng	-12.5315
▁magoni	-12.5315
▁avatar	-12.5315
▁classify	-12.5315
▁indulg	-12.5315
▁procure	-12.5315
rshad	-12.5315
▁curricul	-12.5315
▁diaper	-12.5315
▁essay	-12.5315
▁mound	-12.5315
▁revolv	-12.5315
▁mongolia	-12.5315
▁butterfl	-12.5315
▁gaffe	-12.5315
▁graveyard	-12.5315
▁gigabyte	-12.5315
▁vindicat	-12.5315
▁wiretapp	-12.5315
▁mukas	-12.5315
▁indigen	-12.5315
hygien	-12.5315
▁queu	-12.5315
nthia	-12.5315
▁wilkins	-12.5315
▁manifest	-12.5315
▁penaliz	-12.5315
▁aviv	-12.5315
▁smear	-12.5315
▁fioren	-12.5316
▁marriot	-12.5316
▁dissent	-12.5316
rogba	-12.5316
▁impersonat	-12.5316
▁worshipper	-12.5316
▁masterpiece	-12.5316
▁quirk	-12.5316
▁nongovernment	-12.5316
▁snowstorm	-12.5316
▁marvel	-12.5316
▁chipmaker	-12.5316
▁minibus	-12.5316
▁graff	-12.5316
▁carving	-12.5316
▁obeid	-12.5316
▁tamper	-12.5317
dolph	-12.5317
▁scour	-12.5317
▁grievance	-12.5317
▁idris	-12.5317
▁overreact	-12.5317
▁corral	-12.5317
▁luxurious	-12.5317
choa	-12.5318
▁hague	-12.5318
▁haircut	-12.5318
▁sarco	-12.5318
opoul	-12.5318
▁barbour	-12.5319
▁fiji	-12.5319
▁roast	-12.5319
▁contemplat	-12.5319
▁entice	-12.5319
▁exemption	-12.5319
▁santos	-12.532
▁flour	-12.532
▁rainbow	-12.532
▁maggi	-12.532
lastic	-12.532
▁embed	-12.532
▁attire	-12.532
▁traitor	-12.5321
▁clover	-12.5321
▁smol	-12.5321
▁flawless	-12.5321
▁aspiration	-12.5321
▁chick	-12.5321
▁stutt	-12.5322
orrow	-12.5323
▁sunlight	-12.5323
▁jaip	-12.5323
▁milos	-12.5324
▁composition	-12.5324
▁frederic	-12.5325
▁toxin	-12.5325
▁gravitation	-12.5325
▁termination	-12.5325
▁sift	-12.5326
▁benze	-12.5327
okou	-12.5327
▁matri	-12.5328
▁tenet	-12.5329
▁novelist	-12.5331
▁fringe	-12.5332
▁trinit	-12.5332
▁kurt	-12.5334
▁okay	-12.5334
▁corte	-12.5334
▁yuca	-12.5335
ilja	-12.5337
▁ellis	-12.5337
▁abide	-12.5339
▁bonsa	-12.5342
▁bragg	-12.5347
▁congregation	-12.5347
▁bolsh	-12.5348
▁insert	-12.5351
wire	-12.5352
▁hosh	-12.5357
▁knot	-12.5364
▁vulnerabilit	-12.5373
▁vander	-12.5384
▁mccle	-12.5386
▁cache	-12.5397
▁conscript	-12.5398
▁humble	-12.5432
▁scrutiniz	-12.5433
niels	-12.5446
▁francesc	-12.5447
avaro	-12.5457
▁upgrad	-12.5481
▁paralysi	-12.5518
▁moai	-12.5529
▁scarlet	-12.5537
▁emili	-12.555
▁robbi	-12.5554
▁lea	-12.5554
▁kristin	-12.5566
vision	-12.5588
cock	-12.5654
afsha	-12.5655
▁giz	-12.5672
▁complian	-12.5694
▁kingsto	-12.5729
▁stimulat	-12.5753
▁dispers	-12.5819
cursor	-12.5892
oslo	-12.5981
mposition	-12.5998
▁unsee	-12.6002
science	-12.6005
fusion	-12.6018
▁douse	-12.6078
▁kaz	-12.6155
glia	-12.6155
▁tallie	-12.6176
▁pontif	-12.6208
▁ridde	-12.6256
eaten	-12.6294
▁audi	-12.632
▁responsibl	-12.6347
▁reproduc	-12.6366
bahn	-12.6397
▁euthan	-12.6422
▁cruis	-12.6435
rubb	-12.6442
▁yasuhi	-12.6459
▁chul	-12.6464
realistic	-12.6515
tooth	-12.6516
stroke	-12.6517
shoot	-12.6517
historic	-12.6517
graduate	-12.6517
reason	-12.6517
brook	-12.6517
leader	-12.6518
passionate	-12.6518
fried	-12.6522
hawk	-12.6525
▁precis	-12.6525
▁secre	-12.6531
▁obli	-12.6532
surge	-12.6534
▁lenien	-12.654
▁disast	-12.6541
swam	-12.6545
siege	-12.6547
▁crusade	-12.6548
mpress	-12.6557
usnes	-12.6559
▁reconstruct	-12.656
▁expedit	-12.656
▁inflam	-12.6564
cussion	-12.6564
trayal	-12.6564
funct	-12.6565
accredit	-12.6565
▁dazzl	-12.6565
▁dharams	-12.6565
▁encroach	-12.6565
▁uninhabit	-12.6565
odynamic	-12.6565
▁arrogan	-12.6565
▁assailant	-12.6565
▁bikini	-12.6565
▁blatant	-12.6565
▁chechnya	-12.6565
▁conversion	-12.6565
▁crisscross	-12.6565
▁cylinder	-12.6565
▁deception	-12.6565
▁dilemma	-12.6565
▁electrocut	-12.6565
▁evangelist	-12.6565
▁fountain	-12.6565
▁humbert	-12.6565
▁incorrect	-12.6565
▁irreversibl	-12.6565
▁kiosk	-12.6565
▁linguistic	-12.6565
▁modify	-12.6565
▁montenegr	-12.6565
▁nanotube	-12.6565
▁nicaragua	-12.6565
▁nullify	-12.6565
▁orangutan	-12.6565
▁outsourc	-12.6565
▁pablo	-12.6565
▁permafrost	-12.6565
▁pesticide	-12.6565
▁prejudice	-12.6565
▁refuel	-12.6565
▁reprimand	-12.6565
▁reschedul	-12.6565
▁rheumato	-12.6565
▁rigorous	-12.6565
▁sapien	-12.6565
▁scapegoat	-12.6565
▁schoolgirl	-12.6565
▁secession	-12.6565
▁semiconductor	-12.6565
▁subtitle	-12.6565
▁tarnish	-12.6565
▁torchbearer	-12.6565
▁trampled	-12.6565
▁tumult	-12.6565
▁underestimat	-12.6565
▁unpleasant	-12.6565
▁entrench	-12.6565
▁mahmud	-12.6565
▁mattress	-12.6565
▁mishandl	-12.6565
▁qantas	-12.6565
▁remorse	-12.6565
▁stupid	-12.6565
,	-14.2493
.	-14.2494
