<pad>	0
<start>	0
<end>	0
<unk>	0
▁.	-3.30612
▁	-3.46099
을	-3.69141
의	-3.80556
는	-3.82689
은	-4.06906
를	-4.17244
에	-4.18424
이	-4.30812
가	-4.3833
▁,	-4.51796
고	-4.80835
에서	-4.9481
한	-5.06345
로	-5.10124
인	-5.25583
▁일	-5.29706
▁이	-5.30339
▁그	-5.39981
과	-5.4086
으로	-5.42222
와	-5.54624
▁있다	-5.55675
▁고	-5.62075
도	-5.65557
▁수	-5.69838
할	-5.73016
지	-5.73335
▁밝혔다	-5.80503
▁말했다	-5.82859
했다	-5.86906
하고	-5.87475
▁년	-5.95081
▁있는	-6.00719
다	-6.05264
하는	-6.05953
기	-6.10862
▁전	-6.12415
스	-6.25295
해	-6.28881
▁대한	-6.30992
▁위해	-6.32645
리	-6.34288
▁미국	-6.36726
▁이번	-6.38197
▁월	-6.38684
▁전했다	-6.40762
▁한	-6.40957
된	-6.41245
나	-6.42271
▁미	-6.42923
자	-6.47066
▁지난	-6.47353
▁정부	-6.48987
▁중	-6.50846
▁현지시간	-6.51007
며	-6.56922
▁명	-6.58039
▁대해	-6.58309
s	-6.60435
에게	-6.63205
▁며	-6.63364
던	-6.63659
▁것	-6.64576
▁것으로	-6.66319
▁명이	-6.69906
▁것이라고	-6.71291
들	-6.7514
사	-6.75916
라	-6.76076
트	-6.77717
게	-6.77891
▁있다고	-6.78011
히	-6.78157
으며	-6.79202
▁그러나	-6.80106
▁것을	-6.80678
▁이라크	-6.82789
▁더	-6.836
드	-6.84606
하기	-6.88187
상	-6.88188
▁주	-6.88198
들이	-6.89394
시	-6.91008
어	-6.92027
운	-6.92089
▁다른	-6.9374
하게	-6.94194
▁대통령	-6.94236
▁중국	-6.94391
이다	-6.94673
▁명의	-6.97456
만	-6.98677
▁만	-6.98778
하지	-6.99038
주	-7.01031
적인	-7.0107
▁북한	-7.03091
▁내	-7.03252
수	-7.04998
▁한편	-7.05218
▁세	-7.05454
▁오바마	-7.07255
▁등	-7.07827
▁또	-7.08368
▁약	-7.08964
▁이라고	-7.09077
서	-7.09107
▁경찰	-7.09932
▁후	-7.11092
지만	-7.12129
장	-7.13807
▁총리	-7.14636
▁가	-7.14859
▁대변인	-7.16191
▁한국	-7.17005
르	-7.17168
성	-7.17353
▁영국	-7.17813
했다고	-7.18719
▁대	-7.18986
아	-7.193
▁통해	-7.19639
▁많은	-7.19694
▁우리	-7.19785
▁이후	-7.19798
▁바	-7.19852
▁위한	-7.20736
▁부시	-7.20751
▁말	-7.21669
까지	-7.2207
하며	-7.22414
▁두	-7.22609
됐다	-7.2533
▁대통령은	-7.2535
일	-7.26411
▁가장	-7.26638
니	-7.27775
▁개	-7.28116
했으며	-7.28267
▁에	-7.28348
치	-7.28762
될	-7.28904
▁동안	-7.29819
면	-7.29832
▁시	-7.29894
▁같은	-7.30173
크	-7.30587
▁것이다	-7.31691
비	-7.31756
▁않았다	-7.32546
대	-7.34964
적	-7.35523
원	-7.35546
▁문제	-7.37056
▁알	-7.37682
소	-7.37967
부	-7.3976
▁있	-7.39974
▁세계	-7.415
▁비	-7.41523
▁달러	-7.41817
▁영화	-7.41933
▁주장했다	-7.4272
▁때	-7.42843
진	-7.43344
▁아	-7.43379
▁될	-7.43942
▁현재	-7.44558
▁조사	-7.44719
간	-7.44888
정	-7.45412
▁한다	-7.457
▁이들	-7.45786
▁후보	-7.46095
▁지역	-7.4628
▁할	-7.46371
▁관련	-7.46376
▁것은	-7.46821
▁최근	-7.47242
▁또한	-7.47477
거	-7.47478
▁일부	-7.49518
▁이상	-7.50304
▁the	-7.50611
▁일본	-7.50804
화	-7.50999
보	-7.51015
하	-7.5223
야	-7.52237
으나	-7.52487
▁경우	-7.52617
▁보도했다	-7.52908
선	-7.53168
▁제	-7.53586
▁덧붙였다	-7.53795
▁로	-7.53959
및	-7.54051
▁사	-7.55217
▁오	-7.55323
미	-7.55396
▁뒤	-7.55733
▁있었다	-7.56132
▁경제	-7.57392
▁자	-7.57419
▁s	-7.57492
▁것이	-7.57812
▁국가	-7.57886
▁시간	-7.58046
했던	-7.58257
즈	-7.58712
▁계획	-7.59137
▁자신의	-7.5931
들을	-7.59501
세	-7.59553
바	-7.59561
▁공격	-7.59633
▁모든	-7.59724
당	-7.5996
▁부	-7.60219
국	-7.60677
▁위	-7.61008
마	-7.61479
▁마	-7.61641
프	-7.62029
전	-7.62068
▁나	-7.62687
▁분	-7.63034
▁새로	-7.63327
▁미군	-7.63444
▁함께	-7.63888
▁했다	-7.64077
▁당시	-7.64423
▁결과	-7.65038
한다	-7.65423
파	-7.65645
▁지	-7.65879
▁라고	-7.66078
▁파키스탄	-7.68228
명	-7.6831
적으로	-7.68494
▁그리고	-7.6866
디	-7.69583
에따르면	-7.70149
▁차	-7.71162
▁안	-7.71238
▁프랑스	-7.71983
▁러시아	-7.72086
▁cnn	-7.72188
▁반	-7.72581
레	-7.72588
▁당국	-7.73147
▁조	-7.73737
▁to	-7.73762
d	-7.7391
해야	-7.74086
▁수도	-7.74158
오	-7.74255
▁계속	-7.74381
▁예정이다	-7.7465
우	-7.74778
▁이란	-7.75238
▁라	-7.75267
▁처음	-7.75438
▁모두	-7.75803
▁설명했다	-7.75926
▁몇	-7.76295
관	-7.76322
었다	-7.76407
러	-7.76701
▁있습니다	-7.76762
했	-7.76935
하다	-7.76972
▁있으며	-7.7753
▁유엔	-7.77595
타	-7.77709
▁정	-7.7805
라고	-7.7813
에서는	-7.78158
▁사실	-7.78374
티	-7.78741
▁보	-7.78971
▁a	-7.79137
제	-7.7917
단	-7.7917
용	-7.79287
▁하	-7.79442
▁거	-7.79467
보다	-7.79844
이라고	-7.79857
▁이스라엘	-7.80725
도록	-7.80999
▁무	-7.81145
▁아직	-7.81171
▁사고	-7.81472
때문에	-7.81773
▁민주당	-7.81867
▁없다	-7.81961
▁경기	-7.82833
▁큰	-7.83458
▁기	-7.83947
▁클린턴	-7.84112
▁신	-7.85071
려	-7.85351
e	-7.86429
조	-7.86494
▁초	-7.86959
▁그녀	-7.87104
▁발표	-7.87351
안	-7.87356
▁여성	-7.87434
했습니다	-7.87904
▁결정	-7.88558
▁회담	-7.88569
▁달	-7.88869
▁사건	-7.8907
▁지원	-7.89439
▁지난해	-7.89743
계	-7.89761
▁억	-7.89879
▁올해	-7.90045
식	-7.90409
▁테러	-7.90578
▁않을	-7.90627
됐	-7.90672
▁열린	-7.90886
▁연구	-7.91127
▁군	-7.91229
▁대통령이	-7.91305
모	-7.91386
▁하는	-7.91797
위	-7.92254
c	-7.92255
▁사람들	-7.92363
카	-7.92733
▁불	-7.93109
▁해	-7.93197
구	-7.933
le	-7.93349
▁데	-7.93995
코	-7.94425
u	-7.94563
▁이날	-7.94986
▁다	-7.95013
에도	-7.95215
▁살	-7.95423
▁성명	-7.95727
▁카	-7.95741
권	-7.96081
▁핵	-7.96087
내	-7.9613
▁구	-7.96409
린	-7.96427
▁강	-7.96444
▁유	-7.96764
브	-7.97109
실	-7.97243
▁발생한	-7.97375
물	-7.98077
y	-7.98234
▁도	-7.98323
▁번째	-7.98572
질	-7.99028
▁발표했다	-7.99359
▁원	-7.9937
차	-7.9939
▁국제	-7.99677
▁사망	-8.0014
▁받고	-8.00633
p	-8.0072
▁받았다	-8.01152
▁재	-8.01206
▁장관	-8.01647
▁상	-8.0179
▁존	-8.02055
▁관계자	-8.02307
▁미국의	-8.02374
▁채	-8.03045
▁사람	-8.03265
였다	-8.03279
▁다시	-8.03396
▁번	-8.03397
▁줄	-8.03786
신	-8.03914
▁m	-8.03945
▁모	-8.03979
▁선거	-8.04338
노	-8.04356
▁노	-8.04395
▁있을	-8.04624
▁그들	-8.0475
▁관계	-8.04768
면서	-8.04864
▁of	-8.05075
▁조치	-8.053
▁된다	-8.05882
이며	-8.06126
▁배	-8.0615
▁가운데	-8.06228
▁유럽	-8.06442
▁성	-8.06519
되는	-8.06822
▁파	-8.0699
▁이라	-8.07338
▁w	-8.07652
였	-8.07687
하여	-8.07693
하면서	-8.07842
이나	-8.07871
입니다	-8.08154
▁방문	-8.08282
▁사람들이	-8.08301
길	-8.08455
점	-8.08615
▁에서	-8.09063
▁주요	-8.09241
산	-8.09676
▁의해	-8.0981
유	-8.09917
▁아프간	-8.09936
▁사망했다	-8.10038
부터	-8.10137
토	-8.1104
회	-8.11666
법	-8.11803
▁총	-8.12077
군	-8.12183
▁시위	-8.12307
▁첫	-8.12495
▁타	-8.12692
▁승리	-8.1301
▁공	-8.13213
▁보고	-8.13386
o	-8.13448
▁인해	-8.13531
들에게	-8.13594
에따라	-8.13823
▁피	-8.14032
호	-8.14122
▁있었	-8.14182
▁하고	-8.14262
▁점	-8.14265
▁대부분	-8.14442
▁인도	-8.14624
자들	-8.1489
하지만	-8.15016
▁비난	-8.15583
▁간	-8.15763
문	-8.15829
습니다	-8.15849
▁여	-8.16156
▁않은	-8.16297
▁정보	-8.16979
▁회사	-8.17184
▁이에	-8.17231
▁기록	-8.17356
루	-8.17522
▁독일	-8.17745
처럼	-8.1806
ing	-8.18108
직	-8.18112
▁기자	-8.18186
▁팔레스타인	-8.18215
▁양	-8.18275
▁탈레반	-8.1833
들의	-8.18334
▁활동	-8.18745
▁예정	-8.19116
▁tv	-8.19238
▁혐의로	-8.19242
방	-8.19302
키	-8.19472
▁됐다	-8.1949
되고	-8.19747
▁소	-8.1986
▁지금	-8.19907
터	-8.20014
▁in	-8.20138
▁매	-8.2037
▁지지	-8.20408
▁이미	-8.20469
▁프로그램	-8.20489
피	-8.2049
▁당	-8.20861
되어	-8.21479
▁리	-8.2148
▁대선	-8.21728
▁호주	-8.22377
력	-8.22387
설	-8.22454
▁주장	-8.22534
▁뉴욕	-8.22745
▁아이	-8.22778
▁요구	-8.22949
란	-8.23385
▁이슬람	-8.23462
▁시작	-8.23503
▁감독	-8.23542
중	-8.23633
▁스	-8.23734
▁어	-8.23752
▁위치한	-8.24118
체	-8.24201
▁협상	-8.24236
▁대학	-8.24248
▁매우	-8.24318
▁인터넷	-8.24446
▁우려	-8.24829
▁물	-8.24859
▁의원	-8.24901
▁선	-8.25139
▁우주	-8.25225
더	-8.25387
▁반대	-8.25408
되었다	-8.25532
동	-8.256
함	-8.25609
ed	-8.25627
▁호	-8.25826
▁피해	-8.2611
▁매케인	-8.26199
라는	-8.26301
학	-8.26328
여	-8.26663
▁생각	-8.26674
▁언론	-8.27138
로부터	-8.27189
▁저	-8.27223
▁투표	-8.27305
감	-8.27488
▁잘	-8.27578
▁소속	-8.27647
▁새	-8.27673
▁없는	-8.28011
▁내용	-8.28166
▁전쟁	-8.28206
▁추가	-8.28207
b	-8.28487
▁km	-8.2872
위원회	-8.28971
▁있다는	-8.29077
▁적	-8.29084
▁보도	-8.29453
▁대표	-8.29497
▁방송	-8.29643
했지만	-8.29793
▁오늘	-8.30338
▁시장	-8.3046
▁않고	-8.30612
▁발	-8.30704
돼	-8.31031
공	-8.31406
▁위협	-8.31463
▁혐의	-8.31686
난	-8.31707
심	-8.31795
▁노력	-8.31817
측	-8.31847
▁한다고	-8.31943
▁조지	-8.3219
▁기술	-8.32939
▁합의	-8.32975
▁최고	-8.33035
▁발생	-8.33082
재	-8.33549
▁동	-8.33699
▁joins	-8.33916
▁어떤	-8.33916
▁코	-8.33953
▁년간	-8.33976
▁장	-8.33981
n	-8.34018
▁관리	-8.34022
▁상원의원	-8.34151
▁정도	-8.34174
임	-8.34268
▁차량	-8.3429
▁지적했다	-8.34549
박	-8.34598
▁올림픽	-8.34825
▁이용	-8.34842
이었다	-8.35071
▁포함	-8.3523
r	-8.35618
▁곳	-8.35792
든	-8.35889
al	-8.35934
▁개발	-8.36123
▁집	-8.3616
되지	-8.36395
▁원문기사보기	-8.36627
m	-8.37056
버	-8.37222
연	-8.37551
됐다고	-8.37631
포	-8.37648
경	-8.37665
했었다	-8.37835
▁입장	-8.37994
▁개의	-8.38178
형	-8.38211
▁정책	-8.38308
무	-8.38382
▁열	-8.38484
그	-8.38512
▁부상	-8.3857
츠	-8.38608
▁서	-8.38999
▁자동차	-8.3931
▁판매	-8.39565
▁외	-8.40194
▁석방	-8.40431
▁실	-8.40481
들과	-8.40482
▁없다고	-8.40691
네	-8.40789
▁사용	-8.40843
▁여러	-8.41036
종	-8.4127
씨	-8.41375
워	-8.41508
▁않는다	-8.41659
행	-8.41664
▁받은	-8.41792
금	-8.41816
▁보고서	-8.41861
품	-8.41901
▁중단	-8.42169
▁때문	-8.42554
▁생산	-8.42705
▁못했다	-8.4313
요	-8.43663
▁개월	-8.437
▁도시	-8.43744
▁산	-8.43767
▁발생했다	-8.43929
▁날	-8.44365
합니다	-8.44984
▁이름	-8.44994
▁의회	-8.45049
▁폭탄	-8.45165
▁하지	-8.45177
▁박사	-8.45189
▁미얀마	-8.4523
▁사이	-8.45329
▁검찰	-8.45658
▁해결	-8.45828
▁c	-8.45934
▁단체	-8.45947
▁치	-8.46033
▁오후	-8.46336
▁김	-8.46403
▁변화	-8.46496
▁경	-8.47114
▁남부	-8.47176
▁입	-8.4728
▁볼	-8.47291
▁포	-8.47714
판	-8.47784
▁n	-8.47926
▁평화	-8.4801
▁폭발	-8.48122
▁모습	-8.48405
▁지도자	-8.48421
▁연	-8.48495
속	-8.48513
▁않았	-8.4861
▁다음	-8.48634
릴	-8.48869
▁차례	-8.48959
▁ap	-8.49165
하는데	-8.49218
류	-8.49227
▁북한이	-8.49366
▁금융	-8.49545
▁안전	-8.49849
▁행사	-8.49899
▁우	-8.50022
er	-8.50139
발	-8.50183
▁건물	-8.50424
▁힐러리	-8.505
▁남자	-8.50531
▁인터뷰에서	-8.50561
▁심	-8.50667
▁아시아	-8.50973
작	-8.50979
▁표	-8.50992
▁천	-8.51015
▁지구	-8.51116
▁인	-8.51139
▁보호	-8.5118
▁병원	-8.5135
▁준비	-8.51368
교	-8.51445
론	-8.5157
▁이어	-8.5163
▁공화당	-8.51639
▁주지사	-8.51711
▁컴퓨터	-8.52091
▁현지	-8.52096
▁팀	-8.52325
▁앞서	-8.52401
▁앞으로	-8.52464
▁있어	-8.52531
▁학교	-8.5261
▁특	-8.52647
▁치료	-8.52812
는데	-8.52815
▁정치	-8.52827
된다	-8.52884
온	-8.53017
▁이러	-8.53017
하기로	-8.53357
▁교수	-8.53372
▁터키	-8.53407
▁백악관	-8.53491
너	-8.53653
▁갖고	-8.53655
▁의사	-8.53761
▁나는	-8.54065
데	-8.54124
▁마지막	-8.54174
▁여행	-8.54455
▁강조했다	-8.54536
민	-8.5498
▁것에	-8.55415
▁반군	-8.55517
▁오전	-8.55531
▁떨어진	-8.55825
▁인쇄	-8.55825
▁레	-8.55843
▁상황	-8.5592
▁p	-8.55941
▁상태	-8.56081
▁경찰이	-8.56101
▁가진	-8.56428
스트	-8.56595
급	-8.56771
었던	-8.56928
▁루	-8.5698
개	-8.57065
▁않	-8.57256
▁확인	-8.57271
▁건강	-8.57273
▁증가	-8.57602
▁논의	-8.57751
▁연기	-8.58083
t	-8.58191
▁비난했다	-8.58295
설명	-8.58374
▁연방	-8.58529
▁독해	-8.58798
▁미국과	-8.58934
▁스페인	-8.58966
▁드	-8.58976
▁야당	-8.59008
▁요청	-8.59216
▁납치	-8.59464
▁버락	-8.59467
▁은행	-8.59506
▁없	-8.59544
▁규모	-8.59641
▁북부	-8.59751
출	-8.59794
▁자신이	-8.59825
▁원문	-8.60007
▁최대	-8.60251
▁하나	-8.60284
▁법	-8.60529
▁오는	-8.60563
▁행동	-8.60714
▁불법	-8.60757
▁방	-8.61003
▁금지	-8.61113
▁국민	-8.6133
▁살해	-8.61342
▁골	-8.61575
▁인근	-8.61686
져	-8.61793
▁판결	-8.61963
▁마리	-8.62154
음	-8.62202
▁지난달	-8.62285
량	-8.62388
▁자금	-8.62741
▁방법	-8.62895
g	-8.62915
▁없었다	-8.62966
▁된	-8.63206
하도록	-8.63408
으로부터	-8.63444
▁미국이	-8.63466
반	-8.63483
▁이탈리아	-8.63483
하자	-8.63709
▁좋은	-8.63998
▁자신	-8.64222
▁무샤라프	-8.64256
▁비행기	-8.64408
▁돈	-8.64592
석	-8.64612
통	-8.64618
▁있지만	-8.65101
▁최소	-8.6521
▁e	-8.65237
▁관한	-8.65287
▁이를	-8.65294
졌다	-8.65442
▁서울	-8.65485
▁영향	-8.65493
▁for	-8.65648
다고	-8.65666
l	-8.65738
▁지역에서	-8.65908
래	-8.65987
▁베	-8.66051
▁아무	-8.66165
▁단	-8.6617
▁공개	-8.66401
▁전문가들	-8.66454
▁올	-8.66749
▁보인다	-8.66854
▁발사	-8.66886
▁이런	-8.67096
▁사망자	-8.67124
▁주둔	-8.67175
▁없이	-8.67185
▁회장	-8.67309
a	-8.67372
▁사태	-8.67465
해서	-8.67627
▁공동	-8.67724
병	-8.67739
▁가지	-8.67926
▁수사	-8.68047
▁친	-8.68216
▁미사일	-8.68671
▁정치적	-8.68675
▁검사	-8.6874
▁하루	-8.68826
▁전망	-8.68905
▁공식	-8.69046
친	-8.69083
건	-8.69115
▁무기	-8.69258
두	-8.69366
▁미국은	-8.6938
▁진	-8.69387
▁상승	-8.69406
f	-8.69434
or	-8.69445
▁d	-8.69475
▁선수	-8.6953
▁가격	-8.69594
▁않다	-8.69661
w	-8.69679
청	-8.69724
▁가족	-8.69745
▁런던	-8.69794
복	-8.69893
▁가능성	-8.69999
▁관심	-8.70138
았다	-8.70366
▁소식	-8.70374
k	-8.70431
▁게임	-8.70688
▁출신	-8.70709
▁b	-8.70818
▁동영상	-8.70943
▁환경	-8.71174
지는	-8.71185
▁f	-8.71275
▁문	-8.7142
▁이전	-8.71451
▁행위	-8.71491
▁역사	-8.71566
슨	-8.71633
▁중요한	-8.71677
▁막	-8.7183
▁밤	-8.7192
영	-8.72169
▁시위대	-8.72203
▁박	-8.72384
분	-8.72418
▁언급	-8.72427
▁메	-8.72547
▁빌	-8.72582
▁보다	-8.72599
▁artic	-8.72617
▁유지	-8.72723
▁조직	-8.72747
▁최초	-8.72778
▁애	-8.72856
▁페	-8.72927
▁종	-8.72955
▁군사	-8.73024
팀	-8.73113
저	-8.73306
생	-8.73371
색	-8.73422
▁못	-8.73618
처	-8.7368
▁공급	-8.7378
▁까지	-8.73797
울	-8.73903
▁알카에다	-8.73925
▁난	-8.73968
▁위험	-8.74049
▁코리아	-8.74052
▁앞	-8.74241
▁거래	-8.74258
▁알려졌다	-8.74339
열	-8.7462
▁관계자들	-8.74736
▁포인트	-8.74894
▁com	-8.74894
▁들	-8.75067
▁필요	-8.75079
▁발언	-8.75258
▁투자	-8.75272
▁지방	-8.7528
▁아이들	-8.75378
역	-8.75453
▁법안	-8.75469
▁운동	-8.75707
▁만명	-8.7577
▁벌이	-8.75833
▁발견	-8.75942
▁k	-8.75975
▁만에	-8.76117
▁교	-8.76188
▁손	-8.76252
▁성공	-8.76353
▁돌	-8.76355
▁대통령과	-8.76487
▁용의자	-8.76578
▁바그다드	-8.76653
▁법원	-8.7677
날	-8.76998
▁속	-8.76999
▁사회	-8.77094
▁말했습니다	-8.77113
▁남성	-8.77121
▁씨	-8.77204
▁병력	-8.77217
▁이야기	-8.77227
▁충돌	-8.7742
▁반면	-8.77712
▁남	-8.77813
▁인용	-8.77908
▁변	-8.77935
▁뉴스	-8.77966
▁년에	-8.78054
▁것입니다	-8.78075
▁고위	-8.78102
▁보안	-8.78123
▁역할	-8.78254
▁담	-8.78272
런	-8.7831
i	-8.78387
st	-8.78394
▁폐쇄	-8.78407
▁아버지	-8.78408
es	-8.78479
▁부토	-8.78508
▁범죄	-8.78563
▁딸	-8.78623
▁주민들	-8.78683
▁통과	-8.78847
▁사망한	-8.78964
▁회의	-8.7916
▁직접	-8.79307
▁강화	-8.79344
▁g	-8.79379
▁진행	-8.79485
▁부족	-8.79638
▁여부	-8.79792
시켰다	-8.79893
▁인질	-8.7996
▁기업	-8.79983
혀	-8.80204
▁대해서	-8.80252
▁자신들	-8.80283
▁서비스	-8.8035
▁본	-8.80375
하면	-8.80381
▁통	-8.80405
한다고	-8.8042
▁토	-8.80434
▁독립	-8.80523
▁일간	-8.80531
▁부인	-8.80568
▁생	-8.8074
▁보내	-8.80829
▁나라	-8.80875
▁우승	-8.8118
▁워싱턴	-8.81192
▁편	-8.81321
▁h	-8.81389
▁불구하	-8.81521
▁인정	-8.81766
절	-8.82098
탄	-8.82271
▁것이라는	-8.82318
▁한나라당	-8.82359
▁길	-8.82379
▁들어	-8.82493
정부	-8.82588
▁높은	-8.8267
▁하마스	-8.8267
▁버	-8.82682
▁국경	-8.82791
▁상원	-8.82822
이라는	-8.82841
▁사진	-8.82987
긴	-8.83012
▁위기	-8.8305
▁기간	-8.83098
▁통신	-8.83103
양	-8.83167
▁야	-8.83298
시킬	-8.83383
▁시도	-8.83436
▁감소	-8.83499
테	-8.83557
사전	-8.83567
▁지난주	-8.83631
▁의하면	-8.83679
▁팔	-8.83978
▁비행	-8.84027
▁재판	-8.8405
되었	-8.84119
▁되	-8.84262
▁의견	-8.8427
▁강력	-8.84303
▁가능성이	-8.84408
본	-8.84578
▁자살	-8.84591
었	-8.84829
▁확보	-8.84871
▁전화	-8.85078
▁사업	-8.85124
쳐	-8.85135
▁더욱	-8.85197
▁뜻	-8.85215
하겠다고	-8.8527
▁공항	-8.85471
▁전체	-8.85595
▁예	-8.85675
an	-8.85942
업	-8.86159
▁건	-8.86162
▁알고	-8.86231
▁감	-8.86305
▁이제	-8.86439
▁신문	-8.86442
▁것이며	-8.86644
▁호텔	-8.8667
▁현	-8.86869
▁베이징	-8.8704
▁왔다	-8.87049
▁와	-8.87143
메	-8.87243
▁맥	-8.87369
▁구조	-8.87571
강	-8.87579
▁캘리포니아	-8.87639
▁re	-8.8766
▁각	-8.87816
▁지역에	-8.8785
약	-8.87913
증	-8.88052
▁그것	-8.88133
▁제안	-8.88164
▁특별	-8.88329
▁마련	-8.88443
▁전에	-8.88478
▁아니다	-8.88699
▁주택	-8.8874
▁필요한	-8.88825
하려	-8.88865
▁어제	-8.88885
▁핵무기	-8.89093
립	-8.89434
▁korea	-8.8982
▁la	-8.89838
▁하락	-8.89859
▁철수	-8.89867
언	-8.90025
하던	-8.9026
▁사르코지	-8.90428
▁내년	-8.90515
on	-8.90713
▁결혼	-8.90732
▁자유	-8.90828
▁않는	-8.90864
▁이와	-8.91031
▁티베트	-8.91103
▁국회	-8.91187
▁라이스	-8.91213
표	-8.91271
▁받았	-8.91315
▁남편	-8.91455
▁석유	-8.91463
▁결국	-8.91491
▁예상	-8.915
▁아들	-8.91514
▁되는	-8.91613
▁시작했다	-8.91689
▁만달러	-8.918
회사	-8.9186
있는	-8.91988
▁이유	-8.92048
▁아프가니스탄	-8.92066
▁폭탄테러	-8.92074
▁아침	-8.92153
▁온	-8.92223
년	-8.92399
▁관련된	-8.92488
▁증거	-8.92493
▁해외	-8.92507
▁기자회견에서	-8.92763
▁콜롬비아	-8.9281
▁건설	-8.92823
렌	-8.92843
▁헤	-8.92863
▁사람이	-8.92983
▁국방부	-8.93168
▁시신	-8.93327
이자	-8.93425
▁이같	-8.93538
▁년대	-8.93569
▁도로	-8.93689
▁보였다	-8.93758
▁패	-8.93775
▁협력	-8.93847
▁결	-8.93849
▁생활	-8.93862
▁관	-8.93959
▁j	-8.9398
▁아니라	-8.94094
외	-8.94133
▁브라운	-8.94197
▁이동	-8.94224
있다	-8.94295
▁노무현	-8.94545
v	-8.94643
▁t	-8.94722
▁폴	-8.94867
▁and	-8.94931
▁작전	-8.94994
투	-8.95289
▁eu	-8.95329
료	-8.95332
▁억원	-8.95432
▁받을	-8.95555
▁에너지	-8.95602
▁재개	-8.95734
▁위해서	-8.9574
▁co	-8.95791
ar	-8.95866
았	-8.95943
▁있고	-8.95947
▁키	-8.96091
▁타고	-8.96154
▁항	-8.9628
커	-8.96324
▁연설	-8.9669
▁주변	-8.9674
받	-8.96842
▁시설	-8.96873
▁친구	-8.97316
▁변호사	-8.97321
▁아니	-8.97368
▁별	-8.97472
▁목표	-8.97647
▁역시	-8.97802
▁인권	-8.97834
▁대화	-8.98085
집	-8.98172
▁체포	-8.9818
▁힘	-8.9824
ra	-8.98331
▁네	-8.98437
▁어떻게	-8.98474
▁정상	-8.98514
자가	-8.9866
▁체	-8.98732
하라	-8.98802
렸다	-8.98819
▁동물	-8.98894
▁의장	-8.98917
합	-8.99233
▁회	-8.99265
▁년까지	-8.99271
▁경쟁	-8.99272
▁디	-8.99356
▁영	-8.99379
▁수준	-8.99411
▁산업	-8.99433
▁눈	-8.99454
▁위원회	-8.99554
▁음악	-8.99555
▁열리는	-8.99747
▁이유로	-8.99872
후	-9.00048
범	-9.00238
h	-9.00364
▁곧	-9.00402
▁대사	-9.00628
▁출전	-9.00632
▁아프리카	-9.00953
▁인도네시아	-9.01058
▁국무부	-9.0107
목	-9.01105
▁시스템	-9.01288
▁제작	-9.0152
▁측	-9.01556
▁사건에	-9.01715
▁숨졌다	-9.01749
인들	-9.01816
▁타임즈	-9.01818
▁알리	-9.01826
단체	-9.01933
▁제공	-9.02023
기도	-9.02056
로서	-9.02126
먼	-9.02185
▁데이비드	-9.02185
▁멕시코	-9.02185
▁태국	-9.02258
지역	-9.02395
▁지명	-9.02404
▁훈련	-9.02423
추	-9.02455
▁레바논	-9.02457
▁문제에	-9.02577
▁경선	-9.02633
▁한국인	-9.02668
▁경고	-9.02752
▁회복	-9.02963
▁해안	-9.03155
림	-9.03166
en	-9.03377
등	-9.03612
▁대회	-9.03624
▁여객기	-9.03709
▁기회	-9.03855
▁있게	-9.03912
었다고	-9.04058
▁대선후보	-9.041
▁개인	-9.04141
▁원인	-9.04158
하려는	-9.04217
각	-9.04439
편	-9.0446
▁방안	-9.04585
▁성장	-9.04708
▁과학자들	-9.04741
▁말하는	-9.04782
▁배우	-9.04962
▁인구	-9.04976
리아	-9.05032
▁같다	-9.05098
▁승인	-9.05172
입	-9.05177
▁지도자들	-9.05187
▁대신	-9.0547
케	-9.05623
층	-9.05655
▁수술	-9.05688
▁양국	-9.0571
▁있기	-9.05754
▁전세계	-9.0603
갈	-9.06036
▁투	-9.06071
▁왕	-9.06157
▁잠	-9.06187
▁만나	-9.06193
▁선택	-9.06213
▁너무	-9.0627
▁어린이	-9.06381
▁대규모	-9.0645
▁임무	-9.06451
망	-9.06576
▁무장	-9.06734
▁연합	-9.06803
▁폭력	-9.06856
▁교육	-9.06991
락	-9.07099
율	-9.07101
▁추	-9.07104
▁생각한다	-9.07355
▁마을	-9.07688
▁제품	-9.07701
▁주말	-9.07704
센터	-9.07741
머	-9.07784
▁월에	-9.07936
▁요구했다	-9.08068
▁발견했다	-9.08075
▁일정	-9.08139
했을	-9.08231
겨	-9.0828
▁받아	-9.08294
격	-9.08316
▁스타	-9.08326
▁구성	-9.08339
장을	-9.0835
▁약속	-9.08427
▁비디오	-9.08441
▁저장	-9.08606
례	-9.08634
▁만원	-9.08962
▁화재	-9.09134
▁부분	-9.09167
▁놓	-9.09231
▁나타났다	-9.09305
▁출연	-9.09374
▁바로	-9.09435
▁누	-9.09603
▁약어표	-9.0964
▁앞두고	-9.0964
▁전투	-9.09665
졌	-9.09776
▁잡	-9.09871
▁대사관	-9.1002
▁정당	-9.10035
▁비롯	-9.10054
회의	-9.10097
▁참가	-9.10102
▁지수	-9.10109
▁포함한	-9.10152
▁민간인	-9.10349
▁지나	-9.10533
▁개최	-9.10598
▁un	-9.10624
▁인간	-9.10643
▁도움	-9.10704
▁심각한	-9.10766
▁수행	-9.10803
▁us	-9.10836
▁로버트	-9.10883
▁행정부	-9.10906
▁쿠	-9.11084
▁거리	-9.11172
▁항공	-9.11232
▁죽	-9.11269
▁관할	-9.11287
▁억달러	-9.11291
▁예정이라	-9.1142
▁넘	-9.11492
른	-9.11521
▁걸	-9.11641
▁것이라	-9.11707
▁아닌	-9.11715
탈	-9.11734
▁판사	-9.11764
태	-9.1181
▁앤	-9.1193
▁당신	-9.11955
퍼	-9.11964
▁수치	-9.11999
▁게	-9.12044
▁작품	-9.12129
업체	-9.12139
▁여전	-9.12245
레이	-9.12542
▁수단	-9.12558
으로써	-9.12581
▁만들어	-9.12619
▁위원장	-9.12635
▁용	-9.12643
▁태	-9.12694
▁국가들	-9.1284
▁주도	-9.12941
th	-9.12942
▁참석	-9.12988
▁못하	-9.13011
▁즉	-9.1304
▁그런	-9.13173
주의	-9.1326
ch	-9.13304
ation	-9.13352
de	-9.13417
▁요	-9.13427
▁북	-9.13759
▁가자지구	-9.13798
▁온라인	-9.13799
▁라디오	-9.13811
살	-9.13869
ri	-9.13922
▁부대	-9.13929
결	-9.14073
▁부부	-9.14092
▁갈	-9.14108
▁실시	-9.14113
▁총선	-9.14134
▁관리들	-9.14183
▁경기에서	-9.14295
▁부통령	-9.14651
▁홍콩	-9.14652
▁샤	-9.14725
▁운영	-9.14978
▁수입	-9.15021
▁촉구했다	-9.15088
▁계약	-9.1509
▁국내	-9.15136
록	-9.15253
▁얼마	-9.15442
▁찾아	-9.15477
▁퍼센트	-9.15512
▁무장세력	-9.15516
▁질	-9.15516
▁밝혀졌다	-9.15524
▁연료	-9.15538
▁가지고	-9.15568
매	-9.15657
▁살고	-9.15659
▁내려	-9.15672
▁암	-9.15694
▁작은	-9.15828
▁명과	-9.15856
기로	-9.15904
자들이	-9.15935
▁안에	-9.15977
▁행	-9.1622
▁그들의	-9.16232
자인	-9.16288
▁담당	-9.16328
▁마이클	-9.1638
▁헬기	-9.16559
엔	-9.16728
▁기대	-9.16746
▁규정	-9.16817
▁푸틴	-9.16818
▁최종	-9.16837
▁파업	-9.16861
▁안보	-9.16884
▁열차	-9.16891
▁과거	-9.16891
▁인기	-9.16992
▁웹사이트	-9.17017
링	-9.17244
▁여자	-9.17266
▁백	-9.1727
▁제재	-9.17376
▁이상이	-9.175
▁입은	-9.17641
독	-9.17858
▁주민	-9.18023
스타	-9.18034
▁아기	-9.18058
▁시험	-9.18173
해왔다	-9.18225
▁국민들	-9.18346
▁입었다	-9.1851
리는	-9.18639
▁미국에서	-9.18692
▁기소	-9.18774
되기	-9.18792
▁개선	-9.18944
▁브라질	-9.19029
▁광고	-9.19081
▁증시	-9.19092
▁문화	-9.19144
▁파괴	-9.19254
▁사임	-9.19362
▁세금	-9.19666
되	-9.19695
리스	-9.19772
▁주식	-9.19805
▁중동	-9.19881
▁캐나다	-9.19928
▁메시지	-9.19928
▁말한다	-9.19951
배	-9.20407
광	-9.20463
▁이라크에서	-9.20481
장관	-9.20554
▁이것	-9.20578
▁플로리다	-9.20675
▁미국인	-9.20751
맨	-9.20833
▁밝힌	-9.20834
▁어머니	-9.20834
▁대의원	-9.20958
예	-9.21102
▁가치	-9.21123
▁통제	-9.21147
▁추락	-9.21217
대로	-9.21345
▁r	-9.21411
▁만약	-9.21424
▁환자	-9.21432
▁경고했다	-9.21453
▁힐	-9.21497
▁be	-9.21506
▁청	-9.2157
▁필요하다	-9.21571
▁대만	-9.21648
▁암살	-9.21761
▁다양	-9.21813
▁외국인	-9.21833
▁그들이	-9.21874
▁했다고	-9.21996
▁올라	-9.22112
▁책임	-9.22135
ro	-9.22202
▁외국	-9.22229
▁자회담	-9.22232
▁테	-9.22269
▁갖	-9.2227
현	-9.22271
▁단계	-9.2228
▁화요일	-9.22545
▁나오	-9.22635
▁움직임	-9.22679
▁식량	-9.22698
re	-9.22723
하겠다	-9.22741
▁케	-9.22799
기구	-9.22898
it	-9.2297
▁의원들	-9.2297
▁동부	-9.22979
▁서로	-9.22982
▁반응	-9.23002
▁프로	-9.23106
▁직원	-9.23128
▁on	-9.23128
▁임명	-9.23171
베	-9.23295
▁나이	-9.23322
▁케냐	-9.23613
▁크	-9.23717
▁발표한	-9.23754
▁밝혔	-9.23795
▁병	-9.238
▁섬	-9.23804
▁벌였다	-9.23855
▁중인	-9.23864
▁벌	-9.23894
▁비해	-9.23949
▁국무장관	-9.24078
▁관계자가	-9.24125
▁도착	-9.24274
▁u	-9.24487
줄	-9.24568
ic	-9.24684
▁강제	-9.24697
▁총격	-9.24954
▁스미스	-9.25022
▁소송	-9.25035
▁커	-9.25046
▁없을	-9.25069
근	-9.251
▁장소	-9.25194
▁여명	-9.25331
▁선언	-9.25357
▁사과	-9.25455
▁시즌	-9.25488
▁짐바브웨	-9.25497
▁감시	-9.25505
▁실험	-9.2551
▁쇼	-9.25538
▁금	-9.25591
▁수출	-9.25682
▁진압	-9.25729
턴	-9.25925
▁같이	-9.25962
▁기관	-9.25971
▁공연	-9.26049
▁국영	-9.26091
▁가스	-9.26119
사는	-9.26121
▁제한	-9.26238
습	-9.26305
▁허	-9.26322
▁하원	-9.2634
▁전달	-9.26393
▁사무총장	-9.26456
▁위반	-9.26552
▁살인	-9.2661
▁내렸다	-9.26749
▁상당	-9.26899
▁시아파	-9.26941
▁여름	-9.26963
한다는	-9.27012
▁머리	-9.27034
▁비용	-9.27067
▁기록했다	-9.27177
▁밖에	-9.27333
▁목적	-9.27433
▁추진	-9.275
▁빈	-9.27599
들에	-9.2777
▁인수	-9.27824
인한	-9.27904
▁귀	-9.27955
때	-9.27985
▁감염	-9.28123
액	-9.28385
▁접근	-9.28411
▁각각	-9.28421
▁여론조사	-9.28497
▁권리	-9.28584
▁퍼	-9.2864
▁정권	-9.28691
▁평균	-9.28713
▁년부터	-9.28767
왔다	-9.28861
▁음식	-9.28914
▁서부	-9.28928
▁악	-9.28932
▁무역	-9.28966
거리	-9.29084
▁해군	-9.29117
혈	-9.29354
힌	-9.2939
시키는	-9.29411
축	-9.29449
▁신고	-9.29469
▁위성	-9.29517
족	-9.29517
ion	-9.29547
▁다리	-9.29667
별	-9.29682
▁일본의	-9.29689
▁텍사스	-9.29736
쉬	-9.29778
▁인상	-9.29785
▁사원	-9.29886
▁이수지	-9.29905
▁않아	-9.29905
▁학생들	-9.30113
시켜	-9.30259
▁버스	-9.30263
▁선정	-9.30264
▁헌법	-9.30398
▁소녀	-9.30404
▁처리	-9.30543
▁숨	-9.30629
▁배치	-9.30667
▁소식통	-9.30724
▁수상	-9.30786
달	-9.30897
▁구속	-9.30972
▁나온	-9.31009
▁학생	-9.31286
▁파병	-9.31458
▁삼	-9.31494
▁과정에서	-9.31519
사를	-9.31563
▁책	-9.31597
▁사이에	-9.31868
▁내무부	-9.31903
▁결의안	-9.31906
▁걸쳐	-9.31921
▁시리아	-9.31997
▁거부	-9.32021
까	-9.32103
▁자리	-9.32104
▁사건이	-9.32175
▁칼	-9.32212
▁의미	-9.32344
▁석	-9.32353
▁차이	-9.32406
▁전국	-9.32447
▁몰	-9.32597
▁평가	-9.32626
▁희망	-9.32652
▁합의했다	-9.32746
▁발견됐다	-9.32834
▁완전	-9.32835
앞서	-9.32916
▁설립	-9.32928
령	-9.32934
▁설명	-9.3297
▁설치	-9.33105
▁아내	-9.33165
▁자료	-9.33205
▁미래	-9.33246
▁항공사	-9.33289
in	-9.33348
튼	-9.33395
▁집중	-9.33513
ce	-9.33629
▁이곳	-9.33637
▁긴장	-9.33641
▁상황이	-9.33669
▁센터	-9.33815
▁것과	-9.33852
▁대가	-9.33945
▁파견	-9.33986
▁폭	-9.34084
▁글	-9.34178
▁유일	-9.34241
▁안정	-9.34259
말	-9.34324
▁외교	-9.34349
▁고려	-9.34356
▁기사	-9.34447
▁북핵	-9.34482
▁허용	-9.34527
▁교회	-9.34557
▁발전	-9.34575
▁작업	-9.34683
▁그룹	-9.34738
▁대상으로	-9.34741
▁주재	-9.3477
▁국	-9.34816
사건	-9.34858
▁온몸	-9.35004
▁논쟁	-9.35005
▁후세인	-9.35007
▁죽음	-9.35027
▁사퇴	-9.35031
▁수요일	-9.35037
▁인물	-9.35242
▁밀	-9.35362
니다	-9.35484
▁이집트	-9.35531
▁시카고	-9.35533
▁혼란	-9.35547
▁축구	-9.35565
빌	-9.35585
▁선고	-9.3565
▁개국	-9.3567
▁촬영	-9.35728
중인	-9.35874
▁되어	-9.35879
▁수감	-9.35986
▁바이러스	-9.36062
▁바란다	-9.36062
▁마약	-9.36141
장이	-9.36165
▁포기	-9.36275
었습니다	-9.36328
변	-9.36395
▁주가	-9.36451
규	-9.36507
▁베네수엘라	-9.36592
▁성폭행	-9.36592
▁익명	-9.36593
▁압력	-9.36593
▁대응	-9.36609
▁야후	-9.36615
▁알려진	-9.36622
▁구매	-9.36636
▁불만	-9.36728
환	-9.36825
▁항의	-9.36872
장에서	-9.36895
▁결정했다	-9.37061
남	-9.371
▁공습	-9.3716
▁집회	-9.37239
▁주간	-9.37309
▁발견된	-9.3741
하였다	-9.37457
▁일반	-9.37499
▁기상캐스터	-9.37664
▁기지	-9.37695
▁질문	-9.377
▁상대로	-9.37737
올	-9.37741
잡	-9.37816
▁곳에서	-9.37915
▁탈	-9.37986
동안	-9.37988
▁마치	-9.38072
▁나가	-9.3812
▁차베스	-9.38213
▁집단	-9.38322
▁슈	-9.38363
▁제기	-9.38397
▁캐	-9.38432
하다고	-9.38453
▁로마	-9.3846
▁극	-9.38579
술	-9.38582
클	-9.3863
▁해리	-9.38639
▁부상했다	-9.38683
▁끝	-9.38712
▁팬들	-9.38733
▁is	-9.38736
▁민주주의	-9.38755
▁표현	-9.38772
▁일까지	-9.38783
▁여론	-9.38814
렸	-9.38831
▁남한	-9.38836
▁교전	-9.38906
시키기	-9.38921
협회	-9.38928
랜	-9.39048
us	-9.39164
▁l	-9.39205
▁이래	-9.39324
▁받는	-9.39361
▁임시	-9.39401
▁목	-9.39461
쿠	-9.39471
엘	-9.39502
▁신원	-9.396
▁왕자	-9.39759
▁크게	-9.40008
시키고	-9.4014
▁받지	-9.4018
▁되었다	-9.40192
▁대변인이	-9.40232
▁유명	-9.40358
▁요청했다	-9.40409
▁밝혔습니다	-9.4043
▁예상된다	-9.40524
페	-9.4059
향	-9.40684
▁판	-9.40728
▁사이트	-9.40749
▁보여주	-9.40757
앙	-9.40789
▁유로	-9.40796
▁내리	-9.40808
책	-9.40911
▁근	-9.40939
▁이해	-9.40942
흐	-9.40949
▁복귀	-9.40956
▁접	-9.40981
▁변호사는	-9.40998
으로서	-9.41101
승	-9.41116
쳤다	-9.41121
초	-9.41122
▁사령관	-9.41153
▁때까지	-9.41181
랜드	-9.41195
▁유권자들	-9.41203
▁사랑	-9.41328
▁출	-9.41424
▁폭력사태	-9.41515
▁누구	-9.41561
▁사형	-9.41668
▁자체	-9.41693
▁선수들	-9.41771
▁허가	-9.41875
▁탑승	-9.41911
▁인터뷰	-9.41921
▁목요일	-9.42072
▁모델	-9.42097
킨	-9.42113
▁쿠바	-9.42142
il	-9.42165
▁밝히	-9.42189
▁비밀	-9.42207
플	-9.42266
▁시민	-9.42276
하기도	-9.42298
▁경찰에	-9.42342
▁분쟁	-9.4246
▁붕괴	-9.42542
풍	-9.42571
▁가정	-9.42585
▁한반도	-9.42639
▁최악	-9.42643
▁무장단체	-9.42655
▁권력	-9.42686
▁있지	-9.42741
li	-9.42823
▁정신	-9.42839
▁고용	-9.42933
이었	-9.4303
▁마크	-9.4306
▁강한	-9.43124
▁부모	-9.43174
▁따른	-9.43217
▁의료	-9.43258
지도	-9.43263
▁o	-9.43335
▁교통	-9.43402
랑	-9.4349
▁아니라고	-9.43497
빈	-9.43522
▁일부터	-9.436
▁슬	-9.43633
▁남북	-9.4373
째	-9.43735
▁바다	-9.43752
▁거대	-9.43804
▁연결	-9.43806
▁급	-9.43817
▁따	-9.43878
다면	-9.44037
▁도움이	-9.44048
▁장면	-9.44059
▁엘	-9.44084
창	-9.44128
▁지불	-9.44263
▁검토	-9.44352
▁탄	-9.44374
▁세력	-9.44379
▁받게	-9.44454
▁수색	-9.44456
▁당선	-9.44559
▁임기	-9.44571
▁상대	-9.44604
채	-9.44685
되었습니다	-9.44688
▁여사	-9.44719
▁명령	-9.44858
▁칸	-9.44902
▁높이	-9.4493
▁필리핀	-9.4493
▁흑인	-9.4493
▁한다는	-9.44937
▁과정	-9.45001
리자	-9.45036
▁비판	-9.4517
▁동료	-9.45224
압	-9.45326
ly	-9.4534
▁쓰	-9.45478
▁nasa	-9.45511
▁제임스	-9.45512
▁일요일	-9.45512
▁사무실	-9.45525
▁적어	-9.45555
▁매년	-9.45558
▁예측	-9.45562
▁월요일	-9.45605
▁상원의원이	-9.45668
▁전시	-9.45802
▁승	-9.45852
▁내부	-9.45998
▁중국은	-9.46045
▁소년	-9.46146
▁파리	-9.46151
▁있음	-9.46237
▁사실이	-9.46258
▁평	-9.46391
▁벤	-9.4652
▁달리	-9.46524
▁가능한	-9.46583
▁들어가	-9.46656
▁사우디	-9.46684
▁못한	-9.46715
▁정부와	-9.46715
▁브	-9.46726
▁선박	-9.4677
▁두고	-9.4679
▁대중	-9.46947
폭	-9.47001
▁적이	-9.47006
▁밝혀	-9.47121
▁지진	-9.47155
▁가졌다	-9.4719
▁되고	-9.4724
▁항공기	-9.47244
▁긴급	-9.4729
은행	-9.47296
▁어느	-9.47303
▁진출	-9.47321
▁전기	-9.47326
▁시기	-9.47327
▁선출	-9.47427
▁나왔다	-9.47518
▁시간이	-9.47612
▁자세	-9.47644
▁고통	-9.4766
갔다	-9.47708
▁언급했다	-9.47756
▁형	-9.47782
▁병사	-9.47805
▁오른	-9.47933
▁뇌	-9.47937
▁떠나	-9.47986
▁사람들을	-9.48029
▁확인했다	-9.48123
냈다	-9.48232
▁밝히지	-9.48242
샤	-9.48286
▁노동	-9.4832
▁개혁	-9.48328
▁사항	-9.48383
▁군대	-9.484
▁오르	-9.4846
▁작년	-9.48483
▁공격으로	-9.48489
▁인질들	-9.48518
천	-9.48577
▁권	-9.48597
▁위치	-9.48687
▁수익	-9.48759
▁보냈다	-9.4876
번	-9.49008
름	-9.4902
▁나머지	-9.49073
▁이끄는	-9.49078
▁빨	-9.49115
▁사는	-9.4918
준	-9.49195
▁영어	-9.49239
▁희생자	-9.4936
평	-9.49516
▁종교	-9.49551
▁독	-9.49574
백	-9.49694
▁구체적	-9.49695
se	-9.49697
▁순간	-9.49724
▁참여	-9.49785
▁향해	-9.49815
▁중앙	-9.49831
▁하기	-9.49886
블	-9.49912
▁사람들에게	-9.49919
▁이라크전	-9.49934
겠다	-9.49979
▁명으로	-9.50013
착	-9.50123
▁부상자	-9.50139
▁직원들	-9.50246
▁국립	-9.50307
▁전력	-9.50389
am	-9.50393
▁북한에	-9.50397
▁관해	-9.50442
▁올랐다	-9.50519
▁제거	-9.50704
▁비슷	-9.50902
▁넘어	-9.50919
▁정말	-9.50953
▁일자리	-9.51183
▁관광객	-9.51268
움	-9.51462
센	-9.51499
▁싶다	-9.51519
▁잘못	-9.5152
▁충격	-9.51527
el	-9.51557
ti	-9.51586
▁소재	-9.51615
누	-9.51689
슬	-9.51761
▁현대	-9.51798
▁노조	-9.51832
▁취	-9.51863
▁감사	-9.51982
▁도쿄	-9.5214
▁다음달	-9.52165
▁양측	-9.52255
것	-9.52419
염	-9.52462
▁환영	-9.52498
▁농	-9.52536
▁막기	-9.52618
▁처	-9.52632
▁후에	-9.52652
▁창	-9.52659
▁소리	-9.52743
▁목숨	-9.52766
▁정상회담	-9.52772
▁중심	-9.52848
▁착륙	-9.52972
▁올리	-9.53059
▁만든	-9.53073
▁심장	-9.53219
▁제출	-9.53286
만이	-9.53335
랄	-9.5339
▁숨지고	-9.53397
▁만큼	-9.53432
▁업체	-9.53688
▁주장하고	-9.53807
▁터	-9.53831
▁미군이	-9.53835
▁총기	-9.53858
람	-9.53876
욕	-9.53985
마다	-9.54014
▁계획이	-9.54018
▁허리케인	-9.54027
▁국방장관	-9.54031
▁수천명	-9.54071
▁동의	-9.54099
▁자연	-9.54208
담	-9.54216
드는	-9.54237
▁합	-9.54266
항	-9.54266
스터	-9.54451
북	-9.5463
▁소말리아	-9.54664
▁어떠한	-9.54664
▁질문에	-9.54685
ne	-9.54702
▁id	-9.5474
▁플	-9.54935
▁유권자	-9.55017
▁제시	-9.55109
id	-9.55225
느	-9.55268
▁경찰관	-9.5535
▁왜	-9.55351
▁분기	-9.55386
▁마음	-9.55433
x	-9.55725
▁위로	-9.55788
▁소비자	-9.5582
기간	-9.55866
▁장기	-9.55874
되면서	-9.5589
▁절	-9.55946
▁확대	-9.5595
tal	-9.55972
▁출발	-9.55974
▁물론	-9.56027
▁자국	-9.56066
▁최	-9.56344
▁부정	-9.56351
▁보수	-9.56376
▁대비	-9.56443
▁끝에	-9.56593
▁외무부	-9.56599
▁패배	-9.56618
▁따라	-9.56632
▁뛰어	-9.56639
▁선두	-9.56665
▁보장	-9.56722
▁당선인	-9.56763
국가	-9.56807
이지만	-9.56865
션	-9.57002
당국	-9.5705
▁작업을	-9.57098
▁공장	-9.57107
▁전자	-9.57123
▁약물	-9.57175
냐	-9.57182
불	-9.57231
스러운	-9.57233
딘	-9.57253
▁보건	-9.57288
▁여당	-9.57464
▁뿐	-9.57516
▁사장	-9.57688
▁중에	-9.57745
▁기념	-9.57804
▁공공	-9.57827
▁가까	-9.57899
▁접촉	-9.57915
▁곳에	-9.57951
▁주의	-9.5798
봉	-9.58044
▁뉴	-9.58052
손	-9.58079
▁넘는	-9.58103
▁시행	-9.58129
▁존스	-9.58147
시아	-9.58233
is	-9.58237
▁수천	-9.58237
▁되지	-9.58251
한다면	-9.58298
▁화	-9.58382
▁달러에	-9.58412
▁끌어	-9.58573
▁베컴	-9.5858
▁로켓	-9.58593
▁의혹	-9.58599
견	-9.58608
▁찰스	-9.5862
▁동결	-9.58632
▁지배	-9.58657
▁수십	-9.58665
▁유명한	-9.5867
겼다	-9.58984
▁여성이	-9.59029
▁입고	-9.59092
▁레이	-9.59164
▁울	-9.59186
▁프로젝트	-9.5924
▁압박	-9.59241
▁fbi	-9.59245
▁제조	-9.59251
관계	-9.59265
▁이달	-9.59285
레스	-9.5932
▁유죄	-9.5933
사가	-9.59334
et	-9.5969
▁발생해	-9.5976
총	-9.59774
▁방문한	-9.59824
씩	-9.59911
▁신뢰	-9.59913
▁목소리	-9.59914
▁어려움	-9.59917
▁엔	-9.59929
성이	-9.59938
▁출마	-9.60003
▁아베	-9.60046
볼	-9.6019
▁전문가	-9.60202
▁자녀	-9.6021
▁관광	-9.60233
▁세기	-9.60351
▁인사	-9.60371
▁이란이	-9.60408
수가	-9.60415
▁능력	-9.6042
▁프리	-9.60483
ta	-9.60491
▁사상	-9.60552
▁듯	-9.6056
컵	-9.60581
▁외무장관	-9.60587
▁휴대폰	-9.60589
기관	-9.60617
▁관련해	-9.60637
▁바람	-9.60669
▁작성	-9.60673
▁완화	-9.60706
▁아주	-9.60723
▁유세	-9.60851
허	-9.6086
▁모르	-9.60865
▁아마	-9.61035
▁연구소	-9.61101
▁승객	-9.61119
▁korean	-9.6114
▁콜	-9.6115
▁피해자	-9.61243
▁사진을	-9.61333
la	-9.61359
시키	-9.61379
▁구호	-9.61389
▁지도자인	-9.61531
자는	-9.61582
▁연장	-9.61658
인지	-9.61744
겠다고	-9.61757
▁경제적	-9.61778
▁최고의	-9.61839
me	-9.61856
춘	-9.61924
▁취임	-9.61941
▁시상식	-9.61952
▁국제사회	-9.61968
▁여왕	-9.61973
▁경험	-9.62041
▁동원	-9.62188
▁an	-9.62367
▁일어나	-9.62437
▁사기	-9.62464
▁병원에	-9.62518
폰	-9.62611
이어	-9.6263
▁평양	-9.62659
▁망명	-9.62671
▁총재	-9.62751
▁오래	-9.62784
▁끝나	-9.62849
취	-9.62956
▁여명이	-9.63088
▁대법원	-9.63108
▁불리	-9.63109
▁현장	-9.63127
▁해야	-9.63141
▁기자들	-9.63151
▁받	-9.63176
▁주민들이	-9.63185
▁작	-9.63323
▁작가	-9.63334
▁걱정	-9.63336
▁게이츠	-9.63337
▁기억	-9.63354
▁절차	-9.63375
▁고문	-9.63426
▁ac	-9.63435
▁존재	-9.63457
▁적용	-9.63508
▁것인지	-9.63525
▁공군	-9.63601
▁폐	-9.63669
칠	-9.63732
▁차지	-9.63734
▁카메라	-9.63795
▁취소	-9.63822
at	-9.63881
▁가질	-9.63949
▁젊은	-9.63966
▁청와대	-9.64036
▁머물	-9.64066
▁보여	-9.64097
▁그리스	-9.64156
▁이라크에	-9.64196
밀	-9.64226
▁전문	-9.64253
해졌다	-9.64257
릭	-9.64284
지에	-9.64373
▁없었	-9.64402
섬	-9.64441
▁사망하	-9.64519
침	-9.64531
익	-9.64533
몬	-9.64566
▁붙	-9.64645
▁정부에	-9.64684
▁소비	-9.6471
납	-9.64722
펠	-9.64732
▁말레이시아	-9.64739
▁트럭	-9.64741
▁애플	-9.6476
▁월부터	-9.64827
▁카운티	-9.64854
▁등록	-9.64879
관리	-9.64945
▁목표로	-9.64957
▁체포됐다	-9.64996
톤	-9.65094
j	-9.65178
▁선거에서	-9.65275
▁해제	-9.65298
틀	-9.65311
텔	-9.65337
▁촉구	-9.65414
▁힐튼	-9.65463
▁아랍	-9.65464
▁없어	-9.65501
있	-9.65514
▁숨진	-9.65535
▁격	-9.65539
na	-9.65629
▁반대하는	-9.65688
능	-9.6579
▁이전에	-9.65864
통신	-9.65909
▁역	-9.65946
▁만들	-9.65976
럼	-9.66103
▁느끼	-9.66163
싼	-9.66163
▁투입	-9.66185
▁효과	-9.66197
▁연속	-9.66232
▁군인	-9.6629
▁as	-9.66328
자로	-9.66347
▁수석	-9.6638
▁식	-9.66529
시장	-9.66795
슈	-9.66829
했는데	-9.66854
▁실패	-9.66864
▁추정	-9.66875
▁코소보	-9.66882
▁마드리드	-9.66883
▁법률	-9.66912
▁상징	-9.66912
▁de	-9.66956
▁자주	-9.66959
글	-9.66974
sa	-9.67028
▁부문	-9.67114
▁티	-9.67131
▁비상	-9.67166
▁st	-9.6717
▁단지	-9.67171
▁전략	-9.67339
아니라	-9.67414
▁맺	-9.67428
▁수용	-9.67603
▁스포츠	-9.67607
▁크리스마스	-9.67607
▁스위스	-9.67607
▁나타나	-9.67608
▁최신	-9.67644
▁bo	-9.67647
▁보기	-9.67652
▁한미	-9.67691
▁집행	-9.6772
적이	-9.67758
▁세트	-9.6776
순	-9.67984
▁박물관	-9.68016
찬	-9.68054
▁술	-9.681
ment	-9.68145
활동	-9.68174
▁오픈	-9.6819
lo	-9.68249
곤	-9.68297
▁그러	-9.6832
▁잉글랜드	-9.68337
▁몇몇	-9.68337
▁신화통신	-9.68339
럽	-9.68352
▁약간	-9.68387
▁i	-9.68401
▁홍보	-9.68407
시간	-9.68462
▁넣	-9.68543
▁계	-9.68549
▁가량	-9.68555
▁지지자들	-9.68579
ve	-9.68637
▁매일	-9.68648
▁복	-9.68658
▁입원	-9.68692
▁굴	-9.68721
철	-9.68853
tp	-9.69001
롭	-9.69033
▁휴	-9.69037
▁보이는	-9.69052
▁수니파	-9.69074
▁해당	-9.69079
▁부패	-9.69109
▁판단	-9.69132
▁소장	-9.69137
▁시작된	-9.6914
▁마무리	-9.69153
▁신청	-9.6918
▁직	-9.69186
문제	-9.69215
▁도중	-9.69264
▁영상	-9.69284
▁수백	-9.69346
▁들고	-9.69441
▁동시	-9.69469
▁시대	-9.69525
▁윌리엄	-9.69552
애	-9.69558
▁거주하	-9.69603
▁피트	-9.69629
▁마일	-9.69644
▁확산	-9.69656
▁도전	-9.69671
해진	-9.69705
▁세르비아	-9.69813
▁밝혀지지	-9.69814
▁bbc	-9.69818
▁운행	-9.69824
▁고양이	-9.69831
▁증	-9.69857
▁위에	-9.69882
인들이	-9.69939
▁차기	-9.69977
▁연합군	-9.69988
▁본부	-9.70049
▁대형	-9.70101
시설	-9.70161
골	-9.70329
▁강조	-9.70374
▁회담에서	-9.70389
▁버지니아	-9.70389
▁임	-9.7042
▁가수	-9.70468
▁다이애나	-9.70492
▁베이	-9.70493
▁블레어	-9.70559
▁얼굴	-9.7056
▁대피	-9.70621
▁찬성	-9.70634
▁집계	-9.70705
▁나토	-9.70708
▁조건	-9.70752
▁민	-9.70803
드리	-9.70808
돌	-9.71111
▁new	-9.71175
연합	-9.71233
쇼	-9.71242
▁운전	-9.71296
▁올메르트	-9.71311
▁스스로	-9.71317
▁무사	-9.71342
▁집권	-9.71398
▁노래	-9.71406
▁푸	-9.7143
▁억류	-9.71438
▁물질	-9.7147
▁수정	-9.71475
▁대처	-9.71501
▁여성들	-9.71503
이라	-9.71506
되며	-9.71519
▁분노	-9.71572
▁군부	-9.7161
불어	-9.71683
▁전까지	-9.71718
로써	-9.71723
낸	-9.71898
▁사라	-9.71968
ver	-9.7197
갑	-9.71981
▁오랫동안	-9.72069
▁협정	-9.72069
▁할리우드	-9.72069
▁탁신	-9.72069
▁비상사태	-9.72072
▁임신	-9.72106
▁연설에서	-9.7212
▁구입	-9.72139
▁외교부	-9.72158
하였	-9.72209
▁핵심	-9.72211
▁수반	-9.72314
▁홀	-9.72331
▁실수	-9.72505
▁at	-9.72578
▁전통	-9.72626
▁가능	-9.72649
▁있는지	-9.72712
▁분석	-9.7279
엄	-9.72819
▁과학	-9.72827
▁학	-9.7283
▁빠른	-9.72832
▁아파트	-9.72833
▁난민	-9.72836
▁나무	-9.72861
▁확실히	-9.72898
▁pa	-9.72924
시킨	-9.72997
▁축하	-9.73057
▁옷	-9.73066
▁사상자	-9.7307
▁묻	-9.73079
▁이와같	-9.73126
검	-9.73135
▁병원에서	-9.73178
▁저지	-9.73421
악	-9.7343
만한	-9.73437
▁전반	-9.73576
▁빠져	-9.736
▁겪고	-9.73601
▁그렇게	-9.73601
▁성인	-9.73602
▁클럽	-9.73606
▁직후	-9.73616
지수	-9.73664
▁필	-9.73696
▁쥐	-9.73712
▁경계	-9.73737
▁백만	-9.73787
▁체포했다	-9.73848
놓고	-9.73927
▁영국의	-9.73948
▁돌아가	-9.73991
▁cat	-9.74337
▁웨	-9.74339
델	-9.74354
낼	-9.74355
▁협의	-9.74376
▁담배	-9.74403
▁수백명	-9.74425
▁개봉	-9.74458
▁모여	-9.74523
▁깨	-9.74589
▁늘	-9.74624
▁놀라	-9.74647
▁실제	-9.74712
▁마감	-9.7473
▁광	-9.74747
운동	-9.74841
▁문서	-9.74844
▁당했다	-9.74902
▁분야	-9.75019
황	-9.75031
▁크리스	-9.75145
젤	-9.75158
▁맞아	-9.75158
▁크리스토퍼	-9.75158
▁감축	-9.75181
▁산불	-9.75185
방송	-9.75194
ational	-9.75201
▁오랜	-9.75235
▁화성	-9.75285
▁풀	-9.75309
▁조작	-9.75313
▁원조	-9.75394
▁악화	-9.75491
▁깊	-9.75542
▁나와	-9.75596
▁선포	-9.75609
벨	-9.75616
▁근무	-9.75628
▁유사	-9.75864
▁이밖에	-9.75945
▁샤리프	-9.75945
▁업무	-9.75947
▁처벌	-9.75952
▁원자로	-9.7599
▁송	-9.76079
▁조금	-9.76115
▁라이	-9.76118
했는지	-9.76141
▁mo	-9.76183
▁의심	-9.76205
대한	-9.76236
▁장군	-9.76282
▁알게	-9.76394
▁대책	-9.76415
지르	-9.76445
▁현상	-9.76637
만에	-9.76678
▁ms	-9.76725
▁떨어져	-9.76739
▁민병대	-9.76739
▁스피어스	-9.76739
▁우크라이나	-9.76739
▁빠르	-9.76739
▁지지율	-9.76794
행위	-9.76821
▁차지했다	-9.76881
▁알려지	-9.76892
▁성적	-9.769
▁내각	-9.76923
▁소지	-9.76933
왔	-9.76977
▁윌리엄스	-9.77019
서는	-9.77051
▁실시된	-9.77105
ia	-9.77276
▁북한과	-9.7731
▁팬	-9.77311
▁개정	-9.77382
▁순	-9.77424
▁폭풍	-9.77508
겐	-9.77539
▁iaea	-9.77539
▁절반	-9.77562
▁됐	-9.77574
▁나타냈다	-9.77614
▁보이고	-9.77632
▁가족들	-9.77705
▁초기	-9.77781
▁주년	-9.77785
▁민간	-9.77803
▁고래	-9.77922
▁보좌관	-9.77991
▁조정	-9.77993
▁불안	-9.77994
▁완	-9.78013
하길	-9.78085
▁소유	-9.78086
▁ba	-9.78183
▁목사	-9.78202
으면	-9.78245
▁만명이	-9.78282
빙	-9.78289
▁공원	-9.78298
▁높다	-9.78345
▁무가베	-9.78346
▁일어난	-9.78347
▁집에서	-9.7835
▁cia	-9.78368
▁배럴	-9.78374
▁날씨	-9.78432
▁개입	-9.7849
▁기반	-9.78493
▁고속도로	-9.78524
▁보안관	-9.78561
▁실종	-9.78582
▁블로그에	-9.786
▁부인했다	-9.78622
▁둔	-9.78627
▁받기	-9.78677
▁이혼	-9.7873
해지	-9.78765
▁그래	-9.78847
▁위기에	-9.78881
▁의원이	-9.78901
▁발생할	-9.78925
▁월드컵	-9.78935
▁힘들	-9.79036
ca	-9.79044
▁네덜란드	-9.79158
▁찾기	-9.79158
▁비자	-9.79214
▁예산	-9.79238
▁상황에서	-9.79335
▁치안	-9.79346
▁부르	-9.79347
곡	-9.79352
▁중이다	-9.79375
▁한국은	-9.79511
▁이미지	-9.79587
▁잔	-9.79618
▁그중	-9.79663
▁월까지	-9.79735
킬	-9.79745
다른	-9.79797
자금	-9.79855
었고	-9.79863
▁면	-9.799
롤	-9.79969
▁펜실베이니아	-9.79978
▁스티브	-9.79979
▁먼저	-9.79987
▁그에게	-9.80002
▁진정	-9.80034
스가	-9.80035
스와	-9.80069
▁말하고	-9.80176
▁범인	-9.80184
자와	-9.8027
▁주에서	-9.80337
▁않겠다	-9.80464
▁보낸	-9.80509
▁벨	-9.80564
▁속에	-9.80564
▁후보에	-9.80587
ge	-9.80645
▁제외	-9.80649
▁미국인들	-9.8067
▁구성된	-9.80679
ut	-9.80731
▁교황	-9.80734
▁쿠르드	-9.80795
▁어려	-9.80804
▁엄마	-9.80806
▁하워드	-9.80823
▁증가했다	-9.80836
▁프라이머리	-9.80843
▁희생	-9.80852
▁kg	-9.80857
ea	-9.80885
▁ht	-9.80889
▁기후	-9.80908
▁경찰과	-9.80924
▁기자회견	-9.80924
▁돌아	-9.80932
▁위험한	-9.80988
▁법적	-9.81033
▁후반	-9.81071
베이	-9.81079
▁손상	-9.81101
▁약속했다	-9.81117
기에	-9.81232
▁참	-9.81302
ol	-9.8135
un	-9.81354
▁방해	-9.81452
▁보이	-9.81499
▁이용해	-9.81593
셔	-9.81606
▁고든	-9.81634
▁north	-9.81638
▁나섰다	-9.81638
젠	-9.81638
▁규제	-9.81643
▁네팔	-9.81644
▁파악	-9.81674
▁asp	-9.81676
▁증명	-9.81693
▁추방	-9.81698
▁조종사	-9.81709
▁대표팀	-9.81713
▁연루	-9.81748
▁사례	-9.81754
▁보이지	-9.81797
▁원유	-9.81838
▁지급	-9.8184
▁어린	-9.81897
▁사용하는	-9.81962
장에	-9.81967
▁빅	-9.81974
▁숙	-9.82009
거래	-9.82033
ll	-9.82109
전에	-9.82129
▁이행	-9.82178
▁휴가	-9.82248
▁재정	-9.82293
▁심각	-9.82439
▁장애	-9.8244
하려고	-9.82471
▁찾는	-9.82478
▁확정	-9.82478
▁마이크	-9.82486
▁노대통령	-9.82488
▁태풍	-9.82495
▁센트	-9.82536
▁떠	-9.82577
▁생명	-9.82582
▁다수	-9.82663
▁대표단	-9.82671
▁다쳤다	-9.82851
▁대체	-9.82854
▁시점	-9.8288
라도	-9.82924
pe	-9.82997
▁참석한	-9.83005
▁대단	-9.8307
▁크기	-9.83186
▁남성이	-9.83198
▁않기	-9.83207
들도	-9.83296
▁진술	-9.83313
학자	-9.83323
▁캠프	-9.83325
▁스티븐	-9.83326
▁침체	-9.83326
▁알려져	-9.83334
▁철회	-9.83355
▁진입	-9.83366
▁교체	-9.83405
▁헬	-9.83407
▁쉬	-9.83408
▁현장에	-9.83415
▁못할	-9.83437
▁왔	-9.83522
▁흔들	-9.83543
▁영향력	-9.83557
▁충분	-9.83561
▁인식	-9.8357
z	-9.83572
줬다	-9.83614
▁시민들	-9.83654
▁충	-9.83674
▁최소한	-9.83689
▁연구진	-9.83734
▁후보로	-9.83756
▁홍수	-9.8377
트리	-9.83847
▁대통령에게	-9.8387
▁증언	-9.83911
스코	-9.84064
▁십	-9.84091
▁킹	-9.84102
ir	-9.84164
▁프	-9.84172
웰	-9.84174
▁모하메드	-9.8418
▁아바스	-9.84244
▁실시한	-9.84433
웠다	-9.84435
▁있는데	-9.84464
▁머	-9.84478
▁신용	-9.84486
▁기타	-9.84548
▁긴	-9.84553
▁웹사이트에	-9.84647
ts	-9.84717
▁시작됐다	-9.84736
ers	-9.84798
▁향	-9.84814
▁중국이	-9.8487
▁요구한	-9.84871
▁아부	-9.8489
▁태도	-9.84921
▁장난감	-9.85042
▁부동산	-9.85043
▁분위기	-9.85064
▁구글	-9.85085
▁해변	-9.85111
▁예방	-9.85119
상태	-9.85137
▁토니	-9.85253
▁명단	-9.85279
주의자	-9.85376
▁의한	-9.85422
▁만드는	-9.85446
▁니콜라	-9.85452
▁시리즈	-9.85531
ies	-9.8565
▁테러로	-9.85729
▁수가	-9.85751
ate	-9.85768
탕	-9.85805
▁함	-9.85806
징	-9.85846
ter	-9.85868
닝	-9.85878
▁farc	-9.85912
▁정확한	-9.85912
렛	-9.85912
▁자살폭탄테러	-9.85916
▁휴전	-9.85916
▁질병	-9.85949
▁점령	-9.85963
▁지도부	-9.85971
▁없습니다	-9.86014
▁손실	-9.86016
▁소방	-9.86024
▁벌인	-9.86065
▁얻었다	-9.86076
▁며칠	-9.86083
▁응	-9.86115
▁지하	-9.86359
▁주일	-9.86444
▁확신	-9.86501
▁파타	-9.86575
▁색	-9.86578
▁실제로	-9.86599
▁황	-9.86601
▁무시	-9.86701
스크	-9.86706
▁서명	-9.86712
▁추정되	-9.86729
▁저녁	-9.86789
쯤	-9.86789
팅	-9.86789
▁쉽게	-9.86791
fi	-9.86793
▁국왕	-9.86798
▁피터	-9.86847
▁당선자	-9.8692
▁이웃	-9.86929
▁인정했다	-9.86951
갔	-9.87038
▁하락했다	-9.87054
둔	-9.87071
▁들었다	-9.87095
▁혼	-9.87134
▁방어	-9.87155
▁의문	-9.87169
헌	-9.87181
험	-9.87426
원들	-9.87464
▁특사	-9.87487
들로	-9.87597
▁con	-9.87615
럴	-9.87642
▁south	-9.87674
▁아르헨티나	-9.87674
▁김정일	-9.87674
▁테이프	-9.87675
▁남북한	-9.87769
로운	-9.87858
어야	-9.87912
▁철	-9.87915
▁경찰서	-9.88035
▁통치	-9.88037
벌	-9.88085
힐	-9.88146
충	-9.88154
▁육	-9.88261
▁자신들이	-9.88419
ma	-9.88443
▁말한	-9.88494
▁층	-9.88528
▁토요일	-9.88567
▁말리키	-9.88567
▁콘돌	-9.88572
▁부활	-9.88593
▁선거운동	-9.88604
▁결론	-9.88619
달하는	-9.88633
▁직면	-9.8866
▁역사적	-9.88662
버그	-9.88726
▁세대	-9.8882
▁중요하다	-9.88873
▁떨어졌다	-9.8888
스키	-9.88947
▁법정	-9.88964
▁가격이	-9.89023
숙	-9.89066
쓰	-9.89071
▁사용할	-9.89096
▁재산	-9.89115
항공	-9.89117
▁강도	-9.89198
치를	-9.89233
▁주로	-9.89398
렉	-9.89468
씬	-9.89468
▁나타내	-9.89468
▁with	-9.89468
▁활용	-9.89468
▁침해	-9.89475
▁총장	-9.89496
▁어린이들	-9.89512
▁타격	-9.89537
▁도착했다	-9.89571
▁한번	-9.89614
▁신속	-9.89631
▁fa	-9.89644
▁반발	-9.89648
▁근처	-9.89658
▁대상	-9.8966
▁입국	-9.89676
조치	-9.89733
▁살해한	-9.89821
▁만들었다	-9.89921
▁견	-9.89942
▁문제로	-9.89979
정책	-9.90079
▁오하이오	-9.90189
▁지휘	-9.90345
▁징역	-9.90354
▁시위자들	-9.90403
▁연락	-9.90426
▁화산	-9.90428
▁추측	-9.90444
▁그린	-9.90458
▁상황에	-9.90486
▁통화	-9.90548
▁지출	-9.90594
▁웹	-9.90595
▁우주선	-9.90657
▁관광객들	-9.90756
▁짐	-9.90798
▁한국과	-9.90859
폐	-9.90923
▁당한	-9.9093
제를	-9.90981
겠	-9.91
▁바라	-9.91139
▁이곳에서	-9.91276
▁않으면	-9.91285
▁엘리자베스	-9.91294
▁드라마	-9.91297
▁기준	-9.91365
▁축제	-9.91369
▁검색어	-9.91372
▁결혼식	-9.91396
▁영국군	-9.91439
▁승무원	-9.91442
▁신경	-9.91481
▁우선	-9.91529
▁없다는	-9.91534
▁장치	-9.91539
▁자산	-9.91642
▁구제	-9.91689
▁살아	-9.91844
궁	-9.91847
▁매장	-9.91888
▁su	-9.9191
ent	-9.91988
▁근거	-9.92015
▁복제	-9.9209
▁내린	-9.92205
좌	-9.92208
▁토론	-9.92215
텐	-9.92217
▁긍정적	-9.9222
▁협조	-9.9222
▁페일린	-9.9222
▁페르베	-9.92227
▁fta	-9.92244
▁유럽연합	-9.92259
▁복용	-9.92277
▁감행	-9.92288
▁모른다	-9.92323
▁대북	-9.92333
▁등이	-9.92343
▁형성	-9.92352
▁상품	-9.92383
▁진행되	-9.92611
▁지적	-9.9268
린다	-9.92777
ial	-9.92784
▁환	-9.92849
▁민주	-9.92861
▁혹	-9.92892
▁기독교	-9.93155
▁소프트웨어	-9.93155
▁열린우리당	-9.93155
▁끝난	-9.93197
▁ha	-9.93199
▁준	-9.93301
선수	-9.93337
▁요구하는	-9.93361
▁경기에	-9.93399
스카	-9.93433
▁의도	-9.93439
▁대출	-9.93453
녀	-9.93496
▁돼	-9.93678
▁해고	-9.93724
▁하며	-9.93745
▁영국에서	-9.93746
▁가져	-9.93815
▁속에서	-9.93914
▁공화당의	-9.93928
▁방식	-9.93949
▁일환	-9.94049
▁언제	-9.94078
려고	-9.94082
▁싱가포르	-9.94098
▁잭슨	-9.94098
▁매들린	-9.94098
▁iraq	-9.94099
▁리버풀	-9.94099
▁벌금	-9.9412
▁갖추	-9.94123
▁기구	-9.94125
▁귀국	-9.94209
당한	-9.94225
▁현장에서	-9.94348
국장	-9.94398
▁동맹	-9.94495
▁체포된	-9.94531
ld	-9.94542
니아	-9.94558
▁유리	-9.94701
▁국장	-9.94733
man	-9.94769
몰	-9.94812
귀	-9.94832
필드	-9.94872
▁주고	-9.94912
▁포함되어	-9.94959
▁핵실험	-9.95051
픽	-9.95051
▁사이클론	-9.95059
▁노출	-9.95075
▁변경	-9.95127
▁조각	-9.95162
▁자격	-9.95184
▁걸어	-9.95215
▁동물원	-9.95218
학교	-9.95287
ig	-9.95393
▁지켜	-9.95496
▁찬	-9.95499
들어	-9.95503
▁go	-9.95539
월	-9.95582
▁이틀	-9.95718
왕	-9.95733
암	-9.95806
▁총선에서	-9.95855
덕	-9.96009
꺼	-9.96011
▁뉴질랜드	-9.96012
▁맨체스터	-9.96012
▁베트남	-9.96012
▁우라늄	-9.96012
▁케네디	-9.96012
▁cbs	-9.96012
▁론스타	-9.96013
▁루이스	-9.96025
▁ceo	-9.96045
▁통합	-9.96052
슨은	-9.96057
▁의료진	-9.96113
▁나달	-9.96115
▁공식적으로	-9.96176
우스	-9.9619
▁무력	-9.96294
▁성화	-9.96407
▁지연	-9.96415
▁심리	-9.9642
송	-9.9642
▁데이	-9.96422
▁금리	-9.96428
▁이것이	-9.9643
▁명에	-9.9655
▁타이	-9.96665
막	-9.96666
▁되면	-9.96699
▁조사하고	-9.96798
닐	-9.96921
▁블랙	-9.96982
▁캠페인	-9.96983
▁헤럴드	-9.96983
▁사드르	-9.96984
▁에이즈	-9.97
▁했	-9.97002
▁수용소	-9.97068
▁압둘라	-9.97086
▁실행	-9.97095
▁아래	-9.97211
▁상점	-9.9722
▁경매	-9.97314
▁터키군	-9.97318
▁심슨	-9.97322
니스	-9.97357
▁지지하는	-9.97391
▁빛	-9.97438
해주	-9.9748
사인	-9.9765
da	-9.97709
효	-9.97883
▁일본은	-9.97908
▁포르투갈	-9.97963
▁일으키	-9.97963
▁웨스트	-9.98005
▁힘든	-9.98028
▁투자자들	-9.98038
▁관여	-9.98042
▁행진	-9.98107
보호	-9.98115
▁강경	-9.98139
한영	-9.98169
▁분명	-9.98208
▁이르는	-9.98249
▁중이라고	-9.98317
▁인하	-9.9833
비아	-9.98422
▁안보리	-9.98556
▁중요	-9.98572
▁지시	-9.98631
개발	-9.9865
▁지진으로	-9.98698
rt	-9.98732
▁지도	-9.98759
공격	-9.98851
▁곳으로	-9.98941
ba	-9.98944
▁드러났다	-9.98953
▁외곽	-9.98953
▁휘발유	-9.98953
▁반기문	-9.98954
▁육군	-9.98991
▁민주화	-9.99011
▁벗어나	-9.99051
브라	-9.99063
▁용의자들	-9.99098
제도	-9.99117
▁올렸다	-9.9912
om	-9.99159
자들에게	-9.99175
▁지지자	-9.9925
▁좋아	-9.99389
대학	-9.994
▁스테	-9.99435
▁당선인은	-9.99606
▁남아	-9.99619
▁달성	-9.99631
▁영화제	-9.99657
산업	-9.99658
▁실망	-9.99677
▁ma	-9.99689
▁총리와	-9.99727
▁길이	-9.99758
▁포드	-9.99794
▁무엇	-9.99906
딩	-9.99936
혜	-9.99947
▁믿고	-9.99953
▁좋지	-9.99953
▁첼시	-9.99958
▁로봇	-9.99965
▁나쁜	-9.99967
▁향후	-9.99968
▁ppp	-9.9997
▁학살	-9.9997
▁주인공	-9.9998
▁폭행	-9.99998
▁차관보	-10
▁일반적	-10.0001
▁리비아	-10.0002
▁소개	-10.0008
▁테러가	-10.0012
▁즐기	-10.0012
▁감정	-10.0014
▁한국군	-10.0023
▁학대	-10.0023
▁가입	-10.0026
▁의무	-10.0033
▁주석	-10.0036
▁성공했다	-10.0041
▁중국과	-10.0044
▁경기장	-10.0061
▁병사들	-10.0062
▁척	-10.0072
▁워싱턴에서	-10.0075
대회	-10.0079
ist	-10.0085
만큼	-10.0091
생활	-10.0094
▁얘기	-10.0096
몽	-10.0096
▁답변	-10.0097
▁음반	-10.0098
▁보험	-10.0099
▁등장	-10.0102
▁무대	-10.0103
▁입양	-10.0103
▁경선에서	-10.0103
웨이	-10.0104
▁수백만	-10.0104
국인	-10.0111
▁시드	-10.0113
▁개월간	-10.0124
▁외부	-10.0128
▁해결하기	-10.0133
ill	-10.0135
▁중에는	-10.0144
▁희생자들	-10.0144
▁목격자들	-10.0149
▁이들이	-10.0149
▁회사들	-10.0152
▁포함해	-10.0153
▁유가	-10.0161
▁기본	-10.0172
존	-10.0177
▁끼	-10.0178
▁미국에	-10.0193
▁맞서	-10.0198
▁해리포터	-10.0198
훨	-10.0198
▁국제유가	-10.0199
▁벌어진	-10.0199
▁덮	-10.02
▁불참	-10.0202
▁음모	-10.0202
▁노벨	-10.0203
▁아카데미	-10.0213
▁반정부	-10.0213
▁학생들이	-10.022
▁예비	-10.022
▁장식	-10.0221
▁하다	-10.0222
▁잔해	-10.0222
▁전면	-10.0225
네스	-10.0231
▁이사	-10.0233
▁회담에	-10.0247
▁이하	-10.0263
▁거절	-10.0268
리그	-10.0269
▁소니	-10.0275
▁수영	-10.028
리오	-10.0282
패	-10.0283
필	-10.0285
▁목격	-10.0288
컨	-10.0301
▁샌프란시스코	-10.0301
▁콘서트	-10.0301
▁운항	-10.0302
▁앨범	-10.0302
계획	-10.0303
▁질환	-10.0304
▁dna	-10.0304
▁방침	-10.0304
▁행복	-10.0306
▁가득	-10.0308
▁잡지	-10.0317
▁편지	-10.0319
▁거주	-10.032
▁고객	-10.0321
▁체니	-10.0323
▁신체	-10.0325
▁선물	-10.0329
ho	-10.033
겼	-10.0336
▁내용이	-10.0337
▁노동자	-10.0337
안에	-10.034
▁주인	-10.0348
▁폐지	-10.0352
▁존슨	-10.0354
▁랭킹	-10.0357
▁장비	-10.0357
▁광장	-10.0366
대표	-10.0376
▁충분한	-10.0379
▁국제적	-10.0385
극	-10.0386
▁공개했다	-10.0394
▁유치	-10.0399
육	-10.0401
희	-10.0403
죠	-10.0406
▁얼음	-10.0407
률	-10.0407
▁중부	-10.0407
듯	-10.041
칸	-10.0411
▁소환	-10.0411
▁성향	-10.0412
▁영토	-10.0414
▁블	-10.0415
되면	-10.0419
▁집에	-10.0423
▁추적	-10.0426
조사	-10.0443
▁궁	-10.0444
웠	-10.0446
▁레이스	-10.0449
▁니	-10.0451
▁여기	-10.046
▁정부군	-10.0468
▁요구하고	-10.0473
▁조사에서	-10.0476
▁협회	-10.0476
▁회담이	-10.0478
▁알아	-10.0481
▁지정	-10.0483
▁방법으로	-10.0484
▁중재	-10.0489
▁평화적	-10.0491
군이	-10.0494
▁언급하지	-10.0497
▁수집	-10.0504
검사	-10.0505
▁속도	-10.0507
▁중국에서	-10.0508
푸	-10.0509
완	-10.0511
▁무릎	-10.0511
▁붉은	-10.0511
▁페더러	-10.0511
켄	-10.0511
▁맨유	-10.0511
▁묘사	-10.0511
▁진행된	-10.0513
▁who	-10.0515
▁분리	-10.0515
▁토론회	-10.0515
▁밀란	-10.0516
▁기능	-10.0518
▁지목	-10.0527
▁것보다	-10.053
스톤	-10.0532
▁시절	-10.0535
▁주장하는	-10.0537
▁특정	-10.0537
법원	-10.0545
▁회원국	-10.0553
▁이르	-10.0556
▁친구들	-10.0563
찰	-10.0578
드라	-10.059
진다	-10.0592
▁이익	-10.0593
▁멜	-10.0602
▁전개	-10.0608
▁바그다드에서	-10.0611
▁보상	-10.0611
켈	-10.0617
▁획득	-10.0617
▁모스크바	-10.0617
▁이메일	-10.0617
▁다르푸르	-10.0617
▁특파원	-10.0617
▁대다수	-10.0618
▁접속	-10.0621
잔	-10.0633
▁밑	-10.0633
▁사용되	-10.0635
드로	-10.0637
▁대결	-10.0637
▁방문할	-10.0639
▁행성	-10.0647
▁린	-10.0649
▁다니	-10.0649
▁치르	-10.0659
▁철도	-10.0661
▁방지	-10.0661
ac	-10.0662
려는	-10.0664
쳤	-10.0664
▁봉	-10.0676
▁놀	-10.0686
으	-10.0698
어진	-10.0704
▁시작한	-10.0706
탁	-10.0711
ck	-10.0715
멘	-10.0723
▁president	-10.0725
▁다이아몬드	-10.0725
▁밖으로	-10.0725
▁태평양	-10.0725
▁헤즈볼라	-10.0725
▁세계대전	-10.0725
▁이스라엘과	-10.0726
▁리콜	-10.0727
▁영변	-10.0727
▁측근	-10.0728
▁둘러	-10.0729
▁야생	-10.0731
▁폭우	-10.0734
▁생존	-10.0735
▁윌	-10.0737
▁주식시장	-10.0738
조직	-10.074
▁공중	-10.0744
▁성과	-10.076
▁기업들	-10.0762
▁적절한	-10.0763
▁잃었다	-10.0764
▁니콜	-10.0782
▁생각하고	-10.0787
▁생존자	-10.0793
▁향하	-10.0795
▁도달	-10.0796
▁주문	-10.0796
▁소비자들	-10.0798
므로	-10.0808
▁원하는	-10.0817
지역에서	-10.0823
베리	-10.0831
더라	-10.0832
▁사살	-10.0833
▁멸종	-10.0833
▁금요일	-10.0834
▁알래스카	-10.0834
▁온난화	-10.0834
틸	-10.0834
▁plan	-10.0834
▁허락	-10.0836
▁will	-10.0837
▁마틴	-10.0837
▁자기	-10.0837
▁저항	-10.0838
▁전해	-10.0839
▁지키	-10.0844
▁모양	-10.0845
참	-10.0848
▁진실	-10.0849
▁마르	-10.085
▁출시	-10.0854
▁밖에서	-10.0854
척	-10.0856
▁교사	-10.0857
▁잠시	-10.0861
▁주목	-10.0864
▁에드	-10.0875
도시	-10.0878
▁모습이	-10.0884
▁아일랜드	-10.0885
▁취할	-10.0892
▁폭발물	-10.09
▁다우	-10.0905
▁sp	-10.0905
▁이스라엘군	-10.0916
▁상어	-10.0919
▁no	-10.0923
옥	-10.0929
▁협상이	-10.094
▁현지시각	-10.0943
▁아이오와	-10.0944
▁nbc	-10.0944
▁카페	-10.0951
▁식당	-10.0952
▁발표된	-10.0954
▁심문	-10.0958
▁버마	-10.0962
윈	-10.0964
▁시청	-10.0969
▁경찰서장	-10.0972
▁나서	-10.0973
▁목격자	-10.0976
▁방문했다	-10.0976
▁말합니다	-10.0982
사항	-10.0989
▁부근	-10.099
▁논란	-10.0994
▁이번주	-10.0997
one	-10.0998
▁마시	-10.1006
▁전투기	-10.1006
▁클	-10.1008
▁바라고	-10.101
▁올랐	-10.1012
▁아이들이	-10.1023
▁음	-10.1025
▁내전	-10.1033
퇴	-10.1033
▁보였	-10.1038
놓	-10.105
덴	-10.105
▁세상	-10.1052
▁챔피언	-10.1054
▁te	-10.1054
▁옮겨	-10.1055
▁유나이티드	-10.1055
▁쿠데타	-10.1055
▁갑자	-10.1055
▁봄	-10.1057
▁체결	-10.1061
짜리	-10.1065
결과	-10.1066
▁서방	-10.1072
▁보면	-10.1082
▁예상했다	-10.1087
▁장관이	-10.1087
▁계획에	-10.1089
뉴스	-10.1102
▁차드	-10.1107
▁경보	-10.1113
▁tr	-10.1114
없이	-10.112
▁사건과	-10.1135
조차	-10.1156
켓	-10.1158
▁여자친구	-10.1167
▁찾고	-10.1167
램	-10.1167
롱	-10.1167
▁일주일	-10.1168
▁바꾸	-10.1169
▁기상	-10.1171
▁핵시설	-10.1172
▁물건	-10.1178
작업	-10.1184
▁보통	-10.1186
웨	-10.1195
▁파티	-10.1201
혔다	-10.1203
▁장악	-10.1204
▁중독	-10.1206
▁사건으로	-10.1207
쪽	-10.1209
▁절대	-10.1212
▁열리	-10.1213
▁lo	-10.1215
스티	-10.122
▁의식	-10.1231
▁대의	-10.1233
▁휘	-10.1244
났다	-10.126
▁못했	-10.1262
념	-10.1264
대에	-10.1268
▁유대인	-10.1273
▁사실상	-10.1273
▁현재까지	-10.1274
▁달라이라마	-10.1281
▁떨어지	-10.1281
▁이렇게	-10.1281
▁장례식	-10.1281
▁훌륭	-10.1281
▁파운드	-10.1281
▁겨울	-10.1281
▁북극	-10.1282
▁가까이	-10.1286
▁격차	-10.1286
▁복구	-10.1287
▁커피	-10.1287
▁행정	-10.129
▁일리노이주	-10.1292
▁담당자	-10.1293
▁pro	-10.1294
▁불과	-10.13
▁콘	-10.1301
▁명예	-10.1316
▁둘	-10.1316
▁만날	-10.1318
▁원제	-10.1318
▁가자	-10.1319
▁달라	-10.1321
▁cm	-10.1322
▁예상되	-10.134
▁수요	-10.1342
▁답	-10.1343
▁대부분이	-10.1349
▁줄어들	-10.1352
ke	-10.1355
▁기도	-10.1357
혼	-10.1362
했기	-10.1366
▁강타	-10.1368
▁보고했다	-10.1377
영화	-10.1378
▁주는	-10.1379
▁말라	-10.139
탑	-10.1395
▁흡연	-10.1395
컬	-10.1395
▁나이지리아	-10.1395
▁카르자이	-10.1396
▁교환	-10.1399
▁걸릴	-10.1401
▁교도소	-10.1402
▁추산	-10.1405
▁최선	-10.1405
▁나누	-10.1405
▁동반	-10.1407
▁치러진	-10.1409
▁배출	-10.1411
▁몰아	-10.1413
칭	-10.1416
end	-10.1418
▁신임	-10.142
▁파산	-10.1421
▁수감자	-10.1424
▁신호	-10.1425
▁제도	-10.1431
으려	-10.1444
te	-10.1446
▁사인	-10.145
▁업계	-10.145
▁벽	-10.1456
력이	-10.148
pa	-10.1484
▁싸	-10.1487
된다고	-10.1488
▁대통령에	-10.1503
업자	-10.151
▁다우존스	-10.1512
▁스리랑카	-10.1512
▁아메리칸	-10.1512
▁얻어	-10.1512
▁에드워즈	-10.1512
▁설득	-10.1512
▁라운드	-10.1512
▁쇼핑	-10.1512
▁재무장관	-10.1512
▁가구	-10.1513
▁요원	-10.1513
▁폭락	-10.1514
ry	-10.1515
▁합동	-10.1517
▁폭동	-10.1518
▁광산	-10.1518
im	-10.1522
▁오염	-10.1522
▁증권	-10.1522
▁탐사	-10.1524
▁외교적	-10.1527
▁각국	-10.153
▁인류	-10.153
▁투어	-10.1542
▁세워	-10.1562
▁있어서	-10.1576
▁된다고	-10.1577
▁제안했다	-10.1578
▁검색	-10.1579
았던	-10.1582
▁노동자들	-10.1582
택	-10.1583
▁이송	-10.1586
▁의회의	-10.1591
해왔	-10.1593
ain	-10.1594
▁지점	-10.1597
▁요인	-10.1602
▁수상자	-10.1612
닉	-10.1629
▁노스캐롤라이나	-10.1629
▁덴마크	-10.1629
▁오스트리아	-10.1629
▁복잡	-10.1631
▁발굴	-10.1631
▁내에	-10.1631
▁단순	-10.1632
▁바이	-10.1633
▁강요	-10.1649
▁인종	-10.165
했음	-10.1652
▁차전	-10.1654
▁오브	-10.1662
▁호세	-10.1664
▁폐기	-10.1664
▁지상	-10.1665
▁톤	-10.1665
자리	-10.1667
부대	-10.1673
▁노력하고	-10.1689
▁본사	-10.169
▁소수	-10.17
▁스키	-10.1708
▁환자들	-10.1709
▁결승	-10.173
묘	-10.1747
덩	-10.1748
▁누군가	-10.1749
▁목적으로	-10.1749
▁se	-10.175
▁일본에서	-10.1752
▁출석	-10.1752
▁식품	-10.1753
▁기존	-10.1754
▁성관계	-10.1755
▁매각	-10.1757
▁부담	-10.1758
▁셀	-10.1761
▁북측	-10.1762
▁화학	-10.1765
▁비율	-10.1767
▁소설	-10.1769
▁실시되	-10.177
▁삼성	-10.1771
▁방영	-10.1772
▁지진이	-10.1774
▁보유	-10.1776
tor	-10.1782
▁움직이	-10.179
▁아동	-10.179
▁차관	-10.1795
▁연주	-10.1799
▁조합	-10.1799
걸	-10.1799
싱	-10.18
▁공격이	-10.1801
▁천만	-10.1801
▁골드	-10.1804
경찰	-10.1806
▁늘어	-10.1807
▁잇	-10.182
▁그것이	-10.1824
▁원한다	-10.1826
▁망	-10.1834
▁군인들	-10.1836
▁야기	-10.1842
▁시장에서	-10.1847
▁꾸	-10.1847
▁계속되고	-10.1849
▁청소년	-10.1851
co	-10.1854
▁웃	-10.1856
▁japan	-10.1869
▁됩니다	-10.1869
▁많다	-10.1869
▁방글라데시	-10.1869
▁주한미군	-10.1869
떼	-10.1869
렐	-10.1869
▁고등학교	-10.1869
▁훼손	-10.1869
▁마카오	-10.1869
▁엄청	-10.1869
▁칠레	-10.1869
▁새끼	-10.1871
▁농축	-10.1871
▁넓	-10.1871
▁하늘	-10.1871
▁합류	-10.1873
▁취재	-10.1874
▁공산당	-10.1876
▁의존	-10.1877
▁시드니	-10.1877
▁대답	-10.188
▁도입	-10.1883
되어야	-10.1884
후드	-10.1886
▁거두	-10.1888
전에서	-10.1888
▁피난	-10.1889
▁측정	-10.1889
빠진	-10.1907
▁테러리스트	-10.1907
▁되기	-10.1911
▁수송	-10.1911
▁국회의원	-10.1913
▁홈	-10.1917
▁내릴	-10.1918
회담	-10.1923
▁이주	-10.1928
▁내놓	-10.193
▁입었	-10.1932
▁시위에	-10.1937
▁책임자	-10.194
▁당신이	-10.194
est	-10.1941
▁부근에서	-10.1952
물이	-10.1956
▁회원	-10.197
▁모인	-10.1973
▁이루	-10.1977
▁나아	-10.1978
닥	-10.1983
▁카드	-10.1985
▁서울에서	-10.1986
▁로한	-10.199
▁네트워크	-10.1991
▁스웨덴	-10.1991
▁인디애나	-10.1991
튜	-10.1991
▁검거	-10.1991
▁베르	-10.1992
▁남아공	-10.1994
▁일본이	-10.1994
▁건축	-10.1995
▁순방	-10.1995
▁해병대	-10.1998
▁화물	-10.1999
▁사담	-10.2002
▁발병	-10.2002
▁현실	-10.2004
▁상처	-10.2006
시키려	-10.2007
▁따라서	-10.2008
났	-10.2008
▁후원	-10.2009
▁만화	-10.201
▁그림	-10.2014
▁점차	-10.2018
하고자	-10.2021
▁의학	-10.2023
▁부여	-10.2026
▁헌	-10.204
▁대기	-10.204
ha	-10.2057
ni	-10.2057
▁벌였	-10.2066
▁본선	-10.2068
▁그와	-10.2069
▁맡	-10.207
▁북쪽	-10.2071
▁상승했다	-10.2071
▁곡	-10.2077
▁표시	-10.208
▁전날	-10.2084
▁조성	-10.2084
▁세우	-10.2094
▁연관	-10.2098
▁탐	-10.2099
▁플레이	-10.2103
▁순찰	-10.2107
▁왕세자	-10.2108
▁즉각적	-10.2112
멸	-10.2114
▁봉쇄	-10.2114
▁혜택	-10.2114
▁습격	-10.2114
▁카스트로	-10.2114
닷컴	-10.2115
▁전통적	-10.2115
▁낸	-10.2115
▁다니엘	-10.2115
▁극복	-10.2118
▁so	-10.2126
▁그래서	-10.2127
▁분명히	-10.2129
▁대항	-10.213
▁나갈	-10.2131
▁이뤄지	-10.2134
▁보복	-10.2134
▁증가하고	-10.2135
▁말까지	-10.2138
▁유감	-10.2139
주에서	-10.214
▁방화	-10.2143
▁털	-10.2156
▁개방	-10.2167
▁기다리고	-10.2176
새	-10.2177
▁자리에서	-10.2178
그룹	-10.2178
량이	-10.2178
▁체제	-10.2179
▁시내	-10.2181
▁경쟁자	-10.2191
▁공항에서	-10.2193
▁보관	-10.2195
▁의지	-10.2199
▁nu	-10.2216
▁클라	-10.2218
▁하이	-10.2225
▁이끌어	-10.2236
훈	-10.2239
▁uefa	-10.2239
▁얻기	-10.2239
▁예루살렘	-10.2239
▁챔피언스리그	-10.2239
▁펼치	-10.2239
▁디즈니	-10.2239
▁ioc	-10.2239
▁이재민	-10.2239
▁부과	-10.2241
▁목록	-10.2242
▁출판	-10.2244
▁조사에	-10.2245
▁페루	-10.2252
▁가옥	-10.2253
▁무료	-10.2254
▁모색	-10.2254
▁항소	-10.2255
▁구출	-10.2258
▁건의	-10.2259
▁대량	-10.2278
▁올린	-10.2291
▁후보들	-10.2294
▁주제	-10.2297
삼	-10.2308
▁이민	-10.2312
▁승리했다	-10.2315
▁주기	-10.2317
▁국경지역	-10.2323
▁고발	-10.2333
아야	-10.2341
▁그동안	-10.2346
▁수감자들	-10.2354
균	-10.2355
데이	-10.2359
▁원문기사	-10.2366
▁그렇지	-10.2366
▁정확히	-10.2366
릿	-10.2366
▁북동부	-10.2366
▁외교통상부	-10.2366
▁파예드	-10.2366
▁완벽	-10.2366
▁운송	-10.2366
ga	-10.237
▁출동	-10.2372
▁노예	-10.2375
▁의회에	-10.2375
▁못하는	-10.2379
연맹	-10.2379
▁봉사	-10.2383
▁경영	-10.2392
▁해산	-10.2399
▁초점	-10.2399
▁열대	-10.2408
▁불러	-10.2409
해줄	-10.2416
▁트리	-10.2417
▁워	-10.2419
러스	-10.242
▁예수	-10.2423
um	-10.2435
타르	-10.2437
세력	-10.2437
▁동성애자	-10.2438
▁앨	-10.2439
입어	-10.2441
▁조원	-10.2446
▁반군이	-10.2447
▁사전	-10.2455
▁의회에서	-10.2457
져야	-10.2473
▁권한	-10.2479
잉	-10.2488
경제	-10.2488
▁패션	-10.2493
▁주최	-10.2494
▁활주로	-10.2494
▁거뒀다	-10.2494
▁크루즈	-10.2494
▁숫자	-10.2494
▁심지어	-10.2494
▁메이	-10.2496
▁철저	-10.2497
▁페이지	-10.2497
▁합병	-10.2498
▁과격	-10.2499
▁민감	-10.2499
▁자극	-10.2501
드시	-10.2501
▁진전	-10.2502
▁펜	-10.251
▁해양	-10.2512
▁연구원	-10.2513
▁노인	-10.2514
▁골프	-10.252
▁유력	-10.2521
▁남아있	-10.2522
▁승객들	-10.2524
▁소식이	-10.2525
▁고소	-10.2527
▁가졌	-10.2527
▁베이징에서	-10.2528
▁형태	-10.2533
▁달려	-10.2536
▁풀어	-10.2542
▁인사들	-10.2542
▁선언했다	-10.2543
▁진화	-10.2552
▁만일	-10.2553
▁상업	-10.2555
▁탈출	-10.256
▁유전자	-10.256
접	-10.2565
들로부터	-10.2568
▁작동	-10.2574
객	-10.2582
▁고향	-10.2585
▁있다면	-10.2589
▁제공하는	-10.2589
▁이중	-10.259
우드	-10.2606
정보	-10.2618
밍	-10.2624
▁마찬가지	-10.2624
▁nato	-10.2624
▁폴란드	-10.2624
▁frb	-10.2625
▁레알	-10.2626
▁커플	-10.2626
▁응급	-10.2627
▁철군	-10.263
▁입증	-10.2632
ard	-10.2633
▁빙하	-10.2633
▁소매	-10.2633
▁크레	-10.2634
▁현금	-10.2638
경기	-10.2638
▁공화국	-10.2638
▁지속	-10.2641
▁보석	-10.2643
▁분열	-10.2646
▁체계	-10.2652
▁거부했다	-10.2656
▁it	-10.2673
▁돼지	-10.2682
슬리	-10.2707
▁세포	-10.2708
둘	-10.2708
▁실패했다	-10.2711
어스	-10.2713
▁방향	-10.2715
▁고대	-10.2717
클리	-10.2719
▁윈	-10.2726
▁수퍼	-10.2731
▁축	-10.2731
▁pc	-10.2732
께	-10.2743
▁델	-10.2744
▁군정	-10.2744
▁시에	-10.2745
▁보고서에서	-10.2746
꾼	-10.2755
▁사우디아라비아	-10.2756
▁성화봉송	-10.2756
▁청문회	-10.2756
웬	-10.2756
▁에어버스	-10.2756
▁싸움	-10.2756
▁보여줬다	-10.2757
▁보잉	-10.276
▁임금	-10.276
시티	-10.2764
장치	-10.2765
▁무죄	-10.2767
ang	-10.2767
▁보인다고	-10.2769
▁소요	-10.2774
▁선발	-10.2775
▁공포	-10.2776
▁배경	-10.2777
▁의사들	-10.2778
▁서신	-10.278
▁생각하는	-10.2782
▁공유	-10.2782
▁견해	-10.2784
▁제조업체	-10.279
▁보안군	-10.2801
▁외교관	-10.2805
▁낙	-10.2807
마리	-10.281
▁캘리포니아주	-10.2811
▁위조	-10.2812
▁만난	-10.2824
알	-10.2841
▁혁명	-10.2848
값	-10.2848
▁다가	-10.285
▁대선에서	-10.2852
▁이양	-10.2853
▁뼈	-10.2865
▁폭격	-10.2867
▁영장	-10.2869
▁이곳에	-10.287
ap	-10.2881
▁주지	-10.2881
됐었다	-10.2883
▁납치된	-10.2886
촌	-10.2887
▁태양	-10.2888
넷	-10.2889
▁크라이슬러	-10.2889
▁남동부	-10.2889
▁토마스	-10.2889
▁아이디어	-10.2891
▁멀	-10.2891
▁관찰	-10.2891
▁코커스	-10.2891
po	-10.2895
▁출산	-10.2896
▁연행	-10.2903
장인	-10.2906
▁따르	-10.2907
▁신발	-10.2913
▁실종된	-10.2916
▁폭탄이	-10.2924
▁확실	-10.2924
ns	-10.293
▁발간	-10.2932
▁성공적	-10.2934
▁sh	-10.2935
▁클레	-10.2939
▁gm	-10.2947
▁달간	-10.2954
▁말해	-10.2954
시위	-10.2955
age	-10.2957
달라고	-10.2959
▁즐	-10.2961
▁공격에	-10.2965
뿐	-10.2972
▁기대하고	-10.2976
가격	-10.298
und	-10.2982
얼	-10.2982
전문	-10.2994
▁뉴욕에서	-10.2997
ff	-10.2997
ft	-10.2999
시대	-10.3004
수록	-10.3024
▁협박	-10.3024
▁동티모르	-10.3024
▁라스베이거스	-10.3024
▁쓰나미	-10.3024
▁리조트	-10.3024
▁삭제	-10.3024
▁타이틀	-10.3025
▁콩고	-10.3026
▁빈곤	-10.3026
▁ho	-10.3027
▁생긴	-10.3031
▁수업	-10.3031
pp	-10.3032
▁대회에서	-10.3035
▁청구	-10.3035
▁부서	-10.3035
▁착용	-10.3038
▁세계은행	-10.3039
▁형제	-10.3039
▁인생	-10.3041
▁피해가	-10.3042
▁고립	-10.3047
▁발생하지	-10.3049
▁방송국	-10.305
▁런던에서	-10.305
▁중순	-10.3052
▁테러범	-10.3059
▁받아야	-10.3063
▁재단	-10.3066
▁듀	-10.3079
▁이사회	-10.3085
ity	-10.3086
▁무선	-10.309
적이고	-10.3093
▁중지	-10.3103
▁하면	-10.3105
▁분간	-10.311
어져	-10.3114
▁생물	-10.3119
▁v	-10.3128
연구소	-10.3129
▁수상했다	-10.3132
▁에어	-10.3134
▁알라	-10.3138
▁안전한	-10.3141
▁일리노이	-10.3147
▁중간	-10.3149
▁라이트	-10.3154
웅	-10.316
▁바르셀로나	-10.3161
▁첫번째	-10.3161
▁김대중	-10.3161
▁파트너	-10.3161
▁엄격	-10.3161
▁논평	-10.3162
▁두바이	-10.3163
느냐	-10.3163
▁하원의원	-10.3163
▁빼	-10.3163
▁모기지	-10.3165
▁복무	-10.3166
▁은퇴	-10.3168
▁돌아오	-10.3168
▁보낼	-10.3169
▁회동	-10.3172
▁죄	-10.3175
▁예전	-10.3183
nd	-10.3184
▁구금	-10.3185
▁시각	-10.3186
▁총격전	-10.3188
▁기금	-10.3192
▁갖게	-10.3195
▁높아지	-10.3196
▁값	-10.3203
▁실적	-10.3203
▁이루어지	-10.3209
▁운영하	-10.3211
▁한때	-10.3214
▁기계	-10.3214
▁누리	-10.3224
▁만족	-10.3229
▁난사	-10.3232
▁것이고	-10.3233
▁봤다	-10.3235
▁신부	-10.3235
▁케리	-10.3244
▁솔	-10.3244
다시	-10.3254
▁선거에	-10.3254
▁주차	-10.3269
▁명에게	-10.3275
▁과학자	-10.3277
대사	-10.328
▁전반적	-10.3282
▁do	-10.3286
▁시장에	-10.3289
tv	-10.3295
▁결정에	-10.3299
넬	-10.33
▁태어난	-10.33
▁케이블	-10.33
▁베를린	-10.33
▁시작되	-10.33
▁헨리	-10.33
▁외환은행	-10.33
▁우리나라	-10.3301
▁채택	-10.3304
▁부정적	-10.3304
▁데이터	-10.3304
▁디자인	-10.3305
▁하와이	-10.3307
▁카불	-10.3308
▁전역	-10.3308
▁단속	-10.3312
▁공약	-10.3313
▁불편	-10.3313
▁거쳐	-10.3319
측에	-10.3322
스타인	-10.3326
▁보유하고	-10.3333
▁불길	-10.3334
▁안에서	-10.3335
▁코트	-10.3344
▁같	-10.3353
▁만들어진	-10.3354
▁치러	-10.3361
▁지역으로	-10.3363
▁책임이	-10.3364
준다	-10.3364
▁승리한	-10.3369
▁처해	-10.3375
▁사용한	-10.3376
▁회의에서	-10.3377
▁지시했다	-10.3382
▁한국에서	-10.3386
▁ex	-10.3388
▁감독이	-10.34
▁표했다	-10.3402
▁앞에	-10.3403
짜	-10.3409
폴	-10.3412
콘	-10.3414
▁대학교	-10.3417
▁월드	-10.342
▁사회적	-10.342
뿐만	-10.3425
▁의미한다	-10.343
▁유전	-10.3438
▁요르단	-10.3439
▁시티	-10.3439
콤	-10.3441
▁스코틀랜드	-10.3441
▁애리조나	-10.3441
▁휴대전화	-10.3441
▁흥분	-10.3441
▁섹스	-10.3441
▁바스라	-10.3441
▁면담	-10.3443
▁abc	-10.3443
▁실질적	-10.3444
▁해결책	-10.3446
▁작용	-10.345
▁보트	-10.3451
▁오늘날	-10.3453
▁마쳤다	-10.3454
▁초대	-10.3455
영한	-10.3459
ong	-10.3459
▁유출	-10.3462
▁초래	-10.3462
▁유발	-10.3463
▁재난	-10.3467
▁개표	-10.347
▁여권	-10.3473
▁신중	-10.3474
타운	-10.3479
▁의석	-10.3479
▁간단	-10.348
▁이라크와	-10.3483
▁고객들	-10.3488
안전	-10.3492
▁뿐만	-10.3494
▁공간	-10.3495
tu	-10.35
▁호텔에서	-10.3502
▁응답자	-10.3517
▁지켜보	-10.3521
▁요리	-10.3531
브레	-10.3546
헤	-10.355
▁이스라엘이	-10.3558
카운티	-10.356
비치	-10.3565
닌	-10.3572
▁클린턴이	-10.3572
기지	-10.3573
되자	-10.3573
룬	-10.3579
틴	-10.3581
첸	-10.3582
디아	-10.3583
▁펼쳐	-10.3584
춤	-10.3584
▁불능화	-10.3584
끈	-10.3584
▁콜로라도	-10.3584
▁천주교	-10.3584
▁격렬	-10.3584
▁불구	-10.3584
더스	-10.3584
▁사망했	-10.3586
▁급등	-10.3587
▁his	-10.3589
▁달러로	-10.3589
▁비교	-10.359
▁경영진	-10.359
▁과도	-10.3594
▁종류	-10.3595
▁도시에서	-10.3595
▁중심부	-10.3598
▁칼리	-10.3598
▁발전소	-10.3601
▁북미	-10.3602
▁발생하는	-10.3602
▁계속되	-10.3603
▁리그	-10.3609
과정	-10.3611
▁존중	-10.3611
▁추정된다	-10.3616
▁중대	-10.3628
▁크리스티	-10.3629
▁다이	-10.363
▁사법	-10.363
▁특수	-10.3638
▁상태에	-10.364
▁국민들에게	-10.3644
▁논란이	-10.3664
리스트	-10.3665
▁간주	-10.3671
▁미국측	-10.3678
▁표명	-10.3688
▁백인	-10.3693
▁자원	-10.3698
▁우리당	-10.3702
▁빚	-10.371
펜	-10.371
▁코미디	-10.3727
상황	-10.3728
짝	-10.3728
▁두번째	-10.3729
▁일으킨	-10.3729
▁와인하우스	-10.3729
▁송환	-10.373
▁저지른	-10.3731
▁여학생	-10.3731
▁당수	-10.3731
▁슈퍼	-10.3731
▁순위	-10.3735
ive	-10.3737
▁바닥	-10.3738
▁기밀	-10.3738
▁것이었다	-10.3738
▁참석했다	-10.3741
▁낸시	-10.3741
▁비용이	-10.3742
▁펼쳤다	-10.3743
▁나올	-10.3743
▁영국인	-10.3744
▁요소	-10.3752
련	-10.3756
▁벗	-10.3759
▁발생했	-10.3762
▁녹	-10.3764
작전	-10.3766
▁자문	-10.378
▁만개	-10.3787
▁하던	-10.3791
▁폭스	-10.3794
위원장	-10.3811
▁못한다	-10.3812
▁경제에	-10.3825
▁불가능	-10.3828
▁방법이	-10.3828
▁싶어	-10.3832
▁마비	-10.3838
셀	-10.3843
▁프로그램에	-10.3844
▁전쟁에	-10.3854
ine	-10.3856
농	-10.3861
칼	-10.3861
ag	-10.3864
▁국방	-10.3866
▁리처드	-10.3868
▁사무	-10.3872
▁곤잘레스	-10.3876
▁레스토랑	-10.3876
▁블라고예비치	-10.3876
▁블라디미	-10.3876
▁오사마빈라덴	-10.3876
▁이루어졌다	-10.3877
▁자유롭	-10.3878
▁출입	-10.3879
▁고위관리	-10.3879
▁이후로	-10.3879
▁대륙	-10.3879
안보	-10.388
▁테스트	-10.3882
▁vi	-10.3885
▁검은	-10.3886
▁전원	-10.3887
▁체중	-10.3887
본부	-10.3887
▁쓴	-10.3897
사태	-10.3898
▁죽은	-10.3898
▁못해	-10.3899
▁돌파	-10.39
▁벌어지	-10.3901
ant	-10.3902
▁사망자수	-10.3902
▁예술	-10.3902
▁법원에	-10.3905
▁록	-10.3905
▁사용자	-10.3906
▁생일	-10.3911
▁메일	-10.3914
▁di	-10.3923
돼있다	-10.3926
▁답했다	-10.3929
▁지질	-10.394
▁주한	-10.3952
▁제기했다	-10.3955
▁혐의에	-10.3957
▁정전	-10.3967
없는	-10.397
▁지속적	-10.3974
▁높아	-10.3985
▁이라크군	-10.3986
▁x	-10.3993
▁마감했다	-10.3996
▁주장에	-10.3999
▁회견	-10.4004
▁분석가	-10.4005
▁시기에	-10.4006
맥	-10.4013
our	-10.4013
로우	-10.4022
뜨	-10.4023
촉	-10.4024
▁government	-10.4025
▁선거캠프	-10.4025
▁월스트리트	-10.4025
▁북서부	-10.4025
▁탄핵	-10.4025
▁방콕	-10.4026
▁화장실	-10.4027
▁숀	-10.4028
▁아르	-10.4029
▁부총리	-10.4029
▁블루	-10.4029
▁받아들이	-10.403
▁사막	-10.4034
▁산림	-10.4034
▁이내	-10.4035
▁성격	-10.4037
▁노동당	-10.4038
▁도망	-10.4042
▁상공	-10.4054
▁다루	-10.4065
▁단체들	-10.4067
▁만났다	-10.4075
▁화해	-10.4076
▁고어	-10.4081
▁물가	-10.4082
▁파손	-10.4084
ight	-10.4085
▁전환	-10.4088
기록	-10.4095
▁재건	-10.4099
냈	-10.4112
디스	-10.4114
▁독도	-10.4116
mb	-10.4122
▁우주비행사	-10.4123
트라	-10.4128
버렸다	-10.4129
바르	-10.4142
▁개장	-10.4144
포드	-10.4156
▁비판했다	-10.4157
▁로스	-10.4158
▁압둘	-10.416
▁프레스	-10.4163
▁적극적	-10.4167
끄	-10.4175
▁맞추	-10.4176
▁미시시피	-10.4176
▁샤라포바	-10.4176
틱	-10.4176
▁나스닥	-10.4176
▁리히터	-10.4176
▁리차드	-10.4176
▁침입	-10.4176
▁from	-10.4177
▁스탠	-10.4177
▁패트릭	-10.4177
▁핵프로그램	-10.4177
q	-10.4178
▁언어	-10.4178
▁직업	-10.418
▁다윈	-10.4182
▁즉각	-10.4183
▁강풍	-10.4186
▁진영	-10.4186
▁구축	-10.4187
▁왕실	-10.419
▁편집	-10.419
▁연금	-10.4192
히려	-10.4193
▁전세계적으로	-10.4194
▁화면	-10.4195
▁돌려	-10.4197
▁아프가니스탄에서	-10.4202
▁들어갔다	-10.4204
▁스타일	-10.4204
▁직전	-10.4205
▁해임	-10.421
▁보지	-10.4214
▁아니었다	-10.4227
▁단어	-10.423
▁차단	-10.424
보기	-10.4245
▁시민들이	-10.4248
▁선전	-10.4258
▁구역	-10.426
해질	-10.4266
▁걸리	-10.4296
▁리드	-10.43
▁발언에	-10.4301
▁짓	-10.4302
으면서	-10.4307
▁자사	-10.4309
▁농장	-10.4309
▁포로	-10.4314
▁백악관에서	-10.432
▁캄보디아	-10.433
clear	-10.433
▁남서부	-10.433
▁받아들일	-10.433
▁촉발	-10.433
▁둘러싸	-10.4331
놀	-10.4331
▁성직자	-10.4331
▁state	-10.4331
▁후임	-10.4331
▁영웅	-10.4332
▁붙잡	-10.4332
▁원칙	-10.4332
▁케빈	-10.4333
▁법무부	-10.4334
베나	-10.4334
▁전역에	-10.4336
▁축소	-10.4338
▁끝내	-10.434
▁수십명	-10.4341
▁자제	-10.4351
▁공개적으로	-10.4357
▁조기	-10.4357
▁천명	-10.4362
▁산타	-10.4363
국으로	-10.4365
▁완전한	-10.4367
▁공모	-10.4368
▁레드	-10.437
▁논	-10.4371
▁생각했다	-10.4379
▁맡은	-10.4387
▁해적	-10.4396
▁보호하기	-10.4398
▁거리에	-10.44
▁논의하기	-10.4401
▁가능하다	-10.4403
▁자랑	-10.4404
▁리치	-10.4408
▁개시	-10.4412
▁자신에게	-10.4412
▁일어났	-10.4415
▁열어	-10.4418
▁소득	-10.4445
뉴	-10.4457
▁공개된	-10.4457
▁숨졌	-10.4465
▁법안이	-10.4465
▁여러분	-10.448
핑	-10.448
▁공정	-10.4482
▁올려	-10.4483
님	-10.4484
▁가택연금	-10.4486
▁궤도	-10.4486
▁디지털	-10.4486
▁마이애미	-10.4486
▁유튜브	-10.4486
▁이끌었	-10.4486
됨	-10.4486
▁알코올	-10.4486
▁중앙일보	-10.4486
▁비타민	-10.4486
한글뉴스	-10.4486
▁활약	-10.4487
▁호랑이	-10.4487
▁봉송	-10.4487
▁압수	-10.4487
▁거듭	-10.4487
▁상하이	-10.4487
▁다우지수	-10.4487
▁라이벌	-10.4488
▁자치정부	-10.4488
▁새벽	-10.4488
▁산사태	-10.4489
휴	-10.4489
▁채널	-10.4489
▁대상이	-10.449
▁황금	-10.4491
▁급증	-10.4491
▁환호	-10.4492
▁제대	-10.4492
▁빈민	-10.4493
▁진술했다	-10.4494
라스	-10.4495
▁취임식	-10.4495
▁감지	-10.4496
▁감금	-10.4498
▁게재	-10.4499
▁비치	-10.4499
▁천재	-10.4503
▁들여	-10.4504
▁윤	-10.4506
▁떠났다	-10.4512
▁쌀	-10.4514
▁만들고	-10.4515
▁조류	-10.4518
▁우리에게	-10.4521
같은	-10.4524
▁타임스	-10.4526
▁sc	-10.4527
▁애도	-10.4529
pr	-10.4532
▁오바마와	-10.4534
▁연안	-10.4534
▁맥주	-10.4534
▁날아	-10.4544
▁선보	-10.4546
▁대치	-10.4548
▁소문	-10.4551
▁지내	-10.4556
▁근로자	-10.4558
▁전부터	-10.4564
▁인원	-10.4565
▁주연	-10.4571
ice	-10.4579
▁감염된	-10.4581
▁시장이	-10.4587
▁직장	-10.459
▁무리	-10.4596
▁공항에	-10.4602
▁평가했다	-10.461
사회	-10.4613
▁도착한	-10.4616
▁주위	-10.4619
원들이	-10.4619
▁가했다	-10.4619
▁들어있	-10.4625
▁프레	-10.4626
▁경비	-10.4628
▁앉아	-10.4631
▁회사가	-10.4636
▁정신적	-10.4638
롬	-10.4644
▁인근에	-10.4645
핀	-10.4645
▁세인	-10.4645
▁minister	-10.4645
▁쌍둥이	-10.4645
▁토네이도	-10.4645
▁겨냥	-10.4645
▁아름다	-10.4645
▁치열한	-10.4645
▁천연가스	-10.4645
▁졸업	-10.4645
▁화이트	-10.4646
▁법무장관	-10.4646
▁로이터	-10.4646
▁수석대표	-10.4646
▁근육	-10.4646
▁out	-10.4647
▁over	-10.4647
▁위안부	-10.4651
▁무엇보다	-10.4652
▁벨기에	-10.4653
▁관영	-10.4653
▁사생활	-10.4654
▁잡고	-10.4656
▁결심	-10.4657
폭탄	-10.4658
▁폭파	-10.466
▁체코	-10.4662
▁연구팀	-10.4666
be	-10.4666
▁증가한	-10.4666
▁마무	-10.4668
▁증상	-10.4669
스케	-10.4669
▁초반	-10.4669
▁나토군	-10.467
▁묵	-10.4673
▁것인가	-10.4675
▁어디	-10.4684
ot	-10.4685
쟁	-10.4689
▁공사	-10.4689
ty	-10.4693
▁다르	-10.4693
▁형사	-10.4702
▁동쪽	-10.4703
▁이론	-10.4707
▁up	-10.4708
제품	-10.4728
디오	-10.4734
▁상태로	-10.474
금지	-10.4741
▁나에게	-10.4742
▁가상	-10.4749
▁가족과	-10.475
▁딕	-10.4751
▁시사	-10.4755
▁나왔	-10.4769
▁분석가들	-10.4771
십	-10.4773
▁걸린	-10.4781
▁호수	-10.4797
▁키스	-10.4798
해야만	-10.48
▁world	-10.4806
▁결선투표	-10.4806
▁뿌리	-10.4806
▁쓰촨성	-10.4806
▁아메리카	-10.4806
슐	-10.4806
▁원숭이	-10.4806
▁은신처	-10.4806
▁보스턴	-10.4807
▁침몰	-10.4807
▁흥미	-10.4807
▁합법적	-10.4807
▁다섯	-10.4808
▁지하철	-10.4808
▁사찰단	-10.4808
▁소련	-10.481
▁재무부	-10.481
답	-10.4813
킹	-10.4813
▁로비	-10.4814
▁종합	-10.4814
▁부채	-10.4821
특	-10.4821
▁엔진	-10.4822
▁물품	-10.4828
▁구조대	-10.4829
▁서쪽	-10.4829
▁들어오	-10.4829
▁주었다	-10.4829
▁눈에	-10.483
▁하락세	-10.4831
▁뛰	-10.4836
▁상승세	-10.4837
▁악어	-10.484
▁카터	-10.4842
▁국민들이	-10.4844
▁미칠	-10.4845
받았다	-10.4848
▁겸	-10.4851
▁약화	-10.4852
no	-10.4855
▁경력	-10.4856
프레	-10.4865
▁알카에다와	-10.4868
▁한국인들	-10.4876
▁조약	-10.4878
▁조명	-10.488
▁사람에게	-10.4883
▁던지	-10.4885
▁공기	-10.4895
▁세계적	-10.4903
▁칭	-10.4913
▁변호인	-10.4919
to	-10.4925
▁결승전	-10.4926
▁동기	-10.4928
▁밴드	-10.4933
ure	-10.494
▁자치	-10.495
▁최저	-10.4952
▁경험이	-10.4953
▁범	-10.4959
럭	-10.4967
컴	-10.4968
▁이루어	-10.4969
▁pkk	-10.497
▁늦게	-10.497
▁마이크로소프트	-10.497
▁브라이언	-10.497
▁비핵화	-10.497
▁알렉산더	-10.497
▁왼쪽	-10.497
▁이산화탄소	-10.497
▁좋다	-10.497
▁킬로미터	-10.497
넨	-10.497
▁키바키	-10.497
▁할머니	-10.497
▁득점	-10.497
▁오딩가	-10.4971
▁time	-10.4971
▁거짓말	-10.4971
▁남극	-10.4973
▁날짜	-10.4973
▁급격	-10.4974
▁경호	-10.4977
▁영업	-10.4977
▁아이폰	-10.4977
▁돌입	-10.4977
▁벗어	-10.4981
▁포경	-10.4983
▁여행객	-10.4983
▁플라	-10.4984
콜	-10.4985
▁젊은이들	-10.4987
싸	-10.4989
돼야	-10.499
▁기각	-10.499
▁초청	-10.4994
▁자본	-10.4999
▁분류	-10.5007
▁대립	-10.5009
▁문제들	-10.5012
▁살아있	-10.5013
▁밥	-10.5016
인데	-10.5018
▁유대	-10.5033
▁입법	-10.5035
▁노선	-10.5035
▁참여한	-10.5036
▁간부	-10.5039
▁원화	-10.5043
▁기다리	-10.5056
▁투표에서	-10.5059
▁후보자	-10.5059
▁근로자들	-10.5062
차량	-10.5064
▁보일	-10.5079
▁수위	-10.5082
▁가동	-10.5083
▁총상	-10.5083
렌스	-10.5083
▁가해	-10.5086
▁정치인	-10.5102
▁상상	-10.5105
한번	-10.5107
▁신문사	-10.5108
▁아프간에서	-10.5119
▁장면이	-10.5121
min	-10.5126
▁미국인들이	-10.5131
흘	-10.5136
▁뉴햄프셔	-10.5137
▁인플레이션	-10.5137
▁필라델피아	-10.5137
큐	-10.5137
▁스캔들	-10.5137
▁택시	-10.5138
▁전용	-10.5138
▁테니스	-10.5139
▁탄압	-10.514
▁그대로	-10.514
▁라이언	-10.514
▁사냥	-10.514
▁통일부	-10.514
▁피해자들	-10.5148
▁다음날	-10.5149
▁미디어	-10.5149
▁와인	-10.515
▁소집	-10.5151
▁호소	-10.5153
▁이뤄졌다	-10.5161
멜	-10.5161
햄	-10.5162
▁양국간	-10.5162
팔	-10.5163
홀	-10.5163
캐	-10.5163
▁반복	-10.5165
▁에릭	-10.5166
▁만남	-10.5167
▁테러와	-10.5167
국들	-10.5169
▁상호	-10.5176
▁소위	-10.5177
▁이란과	-10.5182
▁화재로	-10.5186
▁보내는	-10.5187
▁셰	-10.5193
▁구조대원들	-10.5204
▁방식으로	-10.5218
▁정지	-10.5224
지역에	-10.5227
기업	-10.523
처분	-10.5234
▁반영	-10.5236
▁홍수로	-10.5237
▁나오지	-10.5237
▁만들기	-10.5247
▁dis	-10.5248
▁투쟁	-10.525
▁것임	-10.5252
▁급속	-10.5253
ml	-10.5254
▁차량에	-10.5255
▁배가	-10.5259
포트	-10.5261
▁전복	-10.5274
▁입수	-10.5275
▁월요일에	-10.5279
맹	-10.5281
▁극장	-10.5291
▁ro	-10.5295
▁기록한	-10.5297
얀	-10.5302
▁코스	-10.5302
▁통계	-10.5303
▁골키퍼	-10.5307
▁남자친구	-10.5307
▁무슬림	-10.5307
▁에베레스트	-10.5307
▁이슬라마바드	-10.5307
쌍	-10.5307
톱	-10.5307
▁china	-10.5308
마자	-10.5308
▁구멍	-10.5308
▁주최측	-10.5311
▁정치인들	-10.5311
▁포럼	-10.5312
▁소탕	-10.5312
▁지휘관	-10.5315
▁단어장	-10.5315
▁폭설	-10.5316
▁po	-10.5316
후보	-10.5318
▁비행사	-10.5319
▁물러나	-10.532
▁관중	-10.5321
▁브랜드	-10.5321
▁날개	-10.5322
▁음주	-10.5323
▁가족들이	-10.5323
▁여론조사에서	-10.5327
▁수상한	-10.533
끼	-10.5331
▁소형	-10.5332
짓	-10.5334
▁진단	-10.5335
▁재임	-10.5337
▁권고	-10.5338
▁들어간	-10.5338
▁보고서에	-10.5339
시킨다	-10.5344
▁예를들	-10.5345
슬러	-10.5345
▁로저	-10.5351
▁군사적	-10.5362
▁기대한다	-10.5363
▁일간지	-10.5365
▁부산	-10.5366
▁쓸	-10.537
▁이식	-10.5375
▁수사관들	-10.5375
▁분만	-10.5378
▁차량이	-10.5379
▁공대	-10.5385
▁구간	-10.5385
▁표명했다	-10.539
▁말했	-10.5393
페이스	-10.5395
▁알려	-10.5397
▁일제	-10.5403
▁not	-10.5416
▁브리	-10.5424
▁시한	-10.5431
▁먼	-10.5432
▁사람들과	-10.5435
ell	-10.5442
▁미군과	-10.5443
▁가리	-10.5443
비용	-10.5443
▁제공할	-10.5453
▁해병	-10.5459
▁미니	-10.5463
▁세력이	-10.5474
둥	-10.5474
▁사우스캐롤라이나	-10.5479
▁코끼리	-10.5479
▁후진타오	-10.5479
꽃	-10.5479
▁균형	-10.5479
▁펀드	-10.5479
▁hiv	-10.5479
▁카라	-10.5479
▁프라	-10.5481
▁감옥	-10.5481
▁징역형	-10.5483
립니다	-10.5484
▁출생	-10.5484
▁종결	-10.5486
▁라덴	-10.5486
속도로	-10.5488
▁부상으로	-10.549
▁결함	-10.5492
▁배후	-10.5494
라이트	-10.5505
▁성장률	-10.5505
▁비교적	-10.5506
▁보여준다	-10.5507
▁기온	-10.5514
논	-10.5515
동맹	-10.552
투표	-10.5521
▁피랍	-10.5536
달러	-10.5536
▁아난	-10.5536
▁기소됐다	-10.5537
기술	-10.5539
▁토지	-10.5541
▁정식	-10.5541
▁day	-10.5543
▁내일	-10.5544
▁일본과	-10.5547
▁시체	-10.555
▁마리아	-10.5555
ance	-10.5555
▁이에따라	-10.5566
▁진행자	-10.5569
사업	-10.5573
▁위안	-10.5575
▁받는다	-10.5576
커스	-10.5577
▁주장한	-10.5578
재판소	-10.5585
널	-10.5588
▁용기	-10.5591
▁맡고	-10.5593
▁기원	-10.5594
스럽게	-10.5598
병원	-10.5603
▁언론에	-10.5604
ary	-10.5605
요원	-10.5605
ish	-10.5606
▁자신과	-10.561
▁초안	-10.562
▁제작한	-10.5622
레나	-10.5624
활	-10.5629
ger	-10.5631
버스	-10.5635
ci	-10.5639
▁하나로	-10.5642
▁중이었다	-10.5645
퀴	-10.5647
섭	-10.565
랭	-10.5654
객들	-10.5654
▁show	-10.5654
▁많아	-10.5654
▁뭄바이	-10.5654
▁쿠웨이트	-10.5654
▁줄리아니	-10.5654
▁테일러	-10.5654
▁선관위	-10.5654
▁섭취	-10.5654
▁쓰레기	-10.5654
▁옹호	-10.5654
▁스트레스	-10.5655
▁승려들	-10.5655
▁케이트	-10.5655
▁계좌	-10.5656
▁국제공항	-10.5656
▁사태에	-10.5658
▁플래	-10.5659
▁인권단체	-10.566
나무	-10.5661
▁스턴	-10.5667
▁관측	-10.5668
▁종식	-10.5679
▁제목	-10.568
저널	-10.5681
▁신사	-10.5684
▁가담	-10.5688
▁생기	-10.5688
▁화상	-10.5688
▁일으켰다	-10.5691
규모	-10.5701
▁버리	-10.571
▁출연한	-10.5716
▁틀	-10.5721
▁피부	-10.5727
▁필요성	-10.5734
▁일어났다	-10.5735
▁확인됐다	-10.574
카드	-10.5746
▁민족	-10.5764
▁방송사	-10.5767
▁자택	-10.577
▁테러리스트들	-10.5781
▁올라가	-10.5782
▁적절	-10.5785
▁남쪽	-10.5791
화된	-10.5791
파르	-10.5791
▁근처에서	-10.5801
▁가방	-10.5813
첼	-10.5816
▁물이	-10.5817
▁모아	-10.5822
▁사용해	-10.5824
▁가게	-10.5825
▁가족이	-10.5829
쇠	-10.5831
흥	-10.5833
▁광범위	-10.5833
▁다큐멘터리	-10.5833
▁식료품	-10.5833
▁에콰도르	-10.5833
▁재검토	-10.5833
▁탱크	-10.5833
안토니오	-10.5833
▁기쁘다	-10.5833
▁펠로시	-10.5833
▁전당대회	-10.5833
▁마라톤	-10.5833
▁돌고래	-10.5833
▁탈북자	-10.5833
▁교통사고	-10.5833
▁스톤	-10.5833
▁데일리	-10.5834
▁가벼	-10.5835
▁예멘	-10.5835
리서치	-10.5836
▁지붕	-10.5836
▁소규모	-10.5836
▁nba	-10.5837
▁농업	-10.5837
▁보존	-10.5841
▁범행	-10.5841
▁관계당국	-10.5842
fc	-10.5845
▁화려	-10.5846
▁감바리	-10.5849
▁동생	-10.5849
겠습니다	-10.585
▁폭발이	-10.5852
▁갑작스	-10.5853
▁적발	-10.5855
▁진행되는	-10.5856
▁치명적인	-10.5857
▁재판관	-10.5858
▁맛	-10.5859
혹	-10.586
▁밴	-10.5868
▁브로	-10.5868
▁투르	-10.5869
▁실업	-10.5871
▁하나인	-10.5879
억	-10.5881
▁자행	-10.5883
벤	-10.5883
▁탑승객	-10.5885
▁경호원	-10.5885
▁기차	-10.5894
▁시작했	-10.5895
▁you	-10.5898
▁착수	-10.5898
담당	-10.5899
▁북쪽으로	-10.5899
▁부실	-10.5903
▁비난하는	-10.5906
▁조용	-10.5907
▁총회	-10.5908
베르	-10.5909
▁정상들	-10.5919
▁발생하고	-10.5921
▁당국자	-10.5923
▁파도	-10.5931
▁억제	-10.5935
▁선포했다	-10.5936
쪽으로	-10.5952
▁회원국들	-10.5957
▁제정	-10.5958
▁참석할	-10.5973
▁서장	-10.5973
변화	-10.5975
▁내렸	-10.5979
켜	-10.5989
▁세계적으로	-10.5993
▁국적	-10.5995
▁센	-10.5997
▁남부에서	-10.6002
흉	-10.6004
▁낼	-10.601
▁dvd	-10.6015
▁국제원자력기구	-10.6015
▁돕기	-10.6015
▁샌디에이고	-10.6015
▁캐릭터	-10.6015
▁협약	-10.6015
룸	-10.6015
헐	-10.6015
week	-10.6015
▁받아들여	-10.6015
▁횡령	-10.6015
▁과반수	-10.6015
▁원주민	-10.6015
▁파나마	-10.6015
way	-10.6015
▁침공	-10.6015
▁롬니	-10.6015
▁일어날	-10.6015
ng	-10.6016
▁검문소	-10.6017
▁수립	-10.6018
▁레이건	-10.602
▁무게	-10.602
▁운명	-10.602
▁표준	-10.6021
▁뇌물	-10.6027
▁개정안	-10.6027
▁거부권	-10.6027
▁신규	-10.6029
▁차별	-10.6032
▁판정	-10.6035
▁숲	-10.6036
▁늘어나	-10.604
▁이용하는	-10.604
▁이륙	-10.6049
▁마친	-10.6049
▁경관	-10.6052
▁정상화	-10.6056
▁반박	-10.6058
행사	-10.6063
▁대피했다	-10.6067
▁일련	-10.6079
▁여성들이	-10.6082
▁퀸	-10.6083
▁성당	-10.6083
▁부위	-10.6087
▁차지하고	-10.6091
월드	-10.6096
▁쓰고	-10.6097
▁보여주고	-10.6103
학생	-10.6106
▁기부	-10.6129
▁보냈	-10.6129
▁근거로	-10.6137
▁지점에서	-10.6138
red	-10.6147
▁수배	-10.6153
▁실시할	-10.6156
▁보조	-10.6156
▁주장한다	-10.6161
전선	-10.6164
▁연구원들	-10.6168
조건	-10.6169
▁적십자	-10.617
ese	-10.6174
총리	-10.6177
쉽	-10.618
▁intern	-10.6188
괴	-10.6191
첨	-10.6197
▁신조	-10.6199
▁party	-10.62
▁안전보장이사회	-10.62
▁홈페이지	-10.62
▁확장	-10.62
슛	-10.62
▁구제금융	-10.62
▁메르켈	-10.62
▁데이비스	-10.62
▁발휘	-10.6201
▁녹음	-10.6202
축구연맹	-10.6203
▁용납	-10.6203
▁영화배우	-10.6203
▁래리	-10.6204
▁특징	-10.6204
▁저희	-10.6205
▁출두	-10.6206
▁세부	-10.6207
▁싸우	-10.6207
▁당초	-10.621
▁미치는	-10.621
▁요금	-10.621
▁선원	-10.6211
▁조지아주	-10.6212
▁md	-10.6216
▁위인	-10.6219
▁항구	-10.6219
▁war	-10.622
▁투명	-10.6223
▁모건	-10.6223
▁갔다	-10.6224
▁상영	-10.6225
▁조언	-10.6225
▁모임	-10.6233
▁사용했다	-10.6234
▁서울시	-10.6234
▁news	-10.6234
▁제출했다	-10.6236
률이	-10.6236
▁누르	-10.6236
▁오하이오주	-10.6238
▁지분	-10.6239
▁해안에서	-10.6239
▁진보	-10.6242
▁손에	-10.6243
▁운영하고	-10.6248
▁나이트	-10.6249
▁서안	-10.6251
▁혼자	-10.6253
▁are	-10.6254
▁모리	-10.6256
▁생산량	-10.6261
▁충돌이	-10.6263
방위	-10.6268
▁취하	-10.6274
▁운전사	-10.6278
▁사용하지	-10.6279
▁하미	-10.6292
▁않았던	-10.6316
▁있어야	-10.6317
▁계속될	-10.6323
rs	-10.6324
▁지원할	-10.6328
▁달러화	-10.6337
국민	-10.6338
▁수사관	-10.6345
▁확신한다	-10.6345
에게서	-10.6345
▁달린	-10.6348
▁실종자	-10.6353
사진	-10.6357
▁승무원들	-10.6358
업자들	-10.638
▁엘리	-10.6386
▁쏟아	-10.6387
▁국무	-10.6388
닷	-10.6388
왈	-10.6389
▁obama	-10.6389
▁낮추	-10.6389
▁매니저	-10.6389
▁애완견	-10.6389
▁앤드류	-10.6389
▁어렵다	-10.6389
▁줄기세포	-10.6389
▁프랭크	-10.6389
▁항공우주국	-10.6389
▁마흐디	-10.6389
▁퇴임	-10.6389
▁난민촌	-10.639
▁침대	-10.639
ress	-10.6391
▁축출	-10.6392
▁친척	-10.6392
▁완료	-10.6392
▁빌딩	-10.6392
▁귀환	-10.6392
▁발견한	-10.6393
▁쿠퍼	-10.6394
▁탄생	-10.6394
▁리처드슨	-10.6399
▁증세	-10.6402
▁보게	-10.6403
▁통신이	-10.6403
▁쉽지	-10.6405
▁음성	-10.6406
▁예정인	-10.6406
▁공산주의	-10.641
버린	-10.6411
▁스타디움에서	-10.6411
▁추세	-10.6414
▁원래	-10.6415
▁선임	-10.6417
▁얼	-10.6418
▁밝혀진	-10.6419
▁매체	-10.6419
부분	-10.6425
▁부상당	-10.643
▁외국인들	-10.643
▁동맹국	-10.6443
▁여지	-10.6447
▁텍사스주	-10.6447
▁등급	-10.6457
솔	-10.6461
시스템	-10.6462
풀	-10.6462
었는지	-10.6464
▁다르다	-10.647
▁뉴욕시	-10.6471
▁사용된	-10.6472
▁부모들	-10.6477
▁없게	-10.6478
▁상태에서	-10.6479
학과	-10.6481
있었다	-10.6484
데스	-10.6486
▁유럽에서	-10.6491
▁최고치	-10.6493
▁주전	-10.6493
▁중단할	-10.65
▁정원	-10.6506
프레드	-10.6512
▁직원이	-10.6515
▁포함돼	-10.6515
▁car	-10.6516
▁깊이	-10.6527
워드	-10.6535
지원	-10.6547
▁합의한	-10.6555
▁무어	-10.656
▁스파이	-10.6562
▁후보와	-10.6566
봐	-10.6569
▁옆	-10.657
타임	-10.6576
템	-10.6581
▁foreign	-10.6581
▁자카르타	-10.6581
▁플라스틱	-10.6581
쿨	-10.6581
▁침략	-10.6581
▁나타난	-10.6581
▁샘플	-10.6581
▁옐친	-10.6581
▁롤링	-10.6581
▁경기부양책	-10.6581
▁예비선거	-10.6581
▁어깨	-10.6581
▁졸리	-10.6582
▁득표율	-10.6582
▁헌법재판소	-10.6582
▁솔직	-10.6585
▁수면	-10.6585
▁급락	-10.6585
▁복역	-10.6586
▁다국적군	-10.6586
▁끝날	-10.6587
▁떠난	-10.6587
▁창출	-10.6587
▁영양	-10.6589
land	-10.6592
▁방출	-10.6596
▁운전자	-10.6597
▁교황은	-10.6597
▁옆에	-10.6602
▁발포	-10.6606
▁키우	-10.6607
▁최저치	-10.6607
▁중단했다	-10.6611
▁발견되었다	-10.6621
▁기여	-10.6632
▁화요일에	-10.6635
▁교도소에	-10.6636
▁소식통이	-10.6637
▁예정이었다	-10.6645
▁바르	-10.6646
▁하락한	-10.665
▁계속된	-10.6651
▁창문	-10.6654
어서	-10.6659
홍	-10.6661
않	-10.6662
▁인력	-10.6663
hi	-10.6664
▁아들이	-10.6673
▁노리	-10.6687
▁늘리	-10.6687
▁동료들	-10.6691
▁있으	-10.6692
▁조건으로	-10.6694
▁공개됐다	-10.67
▁촬영한	-10.6703
▁뉴욕주	-10.6708
줬	-10.6709
▁치러지	-10.6711
▁식사	-10.672
거래소	-10.675
▁수여	-10.6756
시오	-10.6762
▁작업에	-10.6763
▁전부	-10.6766
▁해상	-10.6768
딜	-10.6776
냉	-10.6777
▁뮤지컬	-10.6777
▁윔블던	-10.6777
덜	-10.6777
▁노르웨이	-10.6777
▁일으킬	-10.6777
▁퍼거슨	-10.6777
▁외무성	-10.6777
▁알렉스	-10.6777
▁빠질	-10.6777
▁배터리	-10.6777
▁여겨지	-10.6777
▁좌절	-10.6777
▁프리미어리그	-10.6777
▁검증	-10.6777
▁유혈사태	-10.6777
▁브리핑	-10.6777
▁데이빗	-10.6777
▁동일한	-10.6778
▁탐험	-10.6778
▁년만	-10.6778
▁낙태	-10.6779
▁해주	-10.6779
▁상륙	-10.6779
▁로딕	-10.678
▁생방송	-10.6781
▁오마르	-10.6782
▁촉구하	-10.6783
▁드러냈다	-10.6784
▁실업률	-10.6784
▁남겨	-10.6785
▁american	-10.6788
▁매달	-10.6788
▁이뤄진	-10.679
▁몰려	-10.6791
▁조항	-10.6791
▁백신	-10.6792
▁서양	-10.6793
▁본토	-10.6797
tri	-10.6799
▁번역	-10.68
▁접전	-10.6802
▁인근에서	-10.6805
▁발행	-10.6807
▁알렸다	-10.6811
▁잡아	-10.6812
▁측면	-10.6815
▁분량	-10.6816
니까	-10.6827
▁홍	-10.6853
▁자택에서	-10.6857
앤	-10.6865
공사	-10.6865
▁청사	-10.6867
밤	-10.6869
▁거절했다	-10.6869
교육	-10.687
▁바라는	-10.6876
▁방문하는	-10.6882
▁싱	-10.6891
득	-10.6892
▁생각하지	-10.69
▁포장	-10.6903
▁잡스	-10.6909
▁댄	-10.6913
확실한	-10.6917
내용	-10.6918
▁동의했다	-10.6921
▁정권이	-10.6926
리언	-10.6945
▁햄	-10.6947
▁가르	-10.6967
▁자리에	-10.6974
▁냈다	-10.6975
▁느낄	-10.6977
▁루이지애나	-10.6977
▁멤버	-10.6977
▁에티오피아	-10.6977
▁오토바이	-10.6977
▁파바로티	-10.6977
▁피라미드	-10.6977
▁휩쓸	-10.6977
넌	-10.6977
렘	-10.6977
▁카트리나	-10.6977
▁게릴라	-10.6977
▁보이콧	-10.6977
▁징계	-10.6977
▁암컷	-10.6977
▁정거장	-10.6978
▁라파엘	-10.6978
▁여섯	-10.6978
▁빠지	-10.6978
▁mbc	-10.698
▁음료	-10.698
▁국기	-10.6981
▁오른쪽	-10.6982
▁청년	-10.6983
▁포착	-10.6984
▁외환	-10.6985
va	-10.6986
▁통증	-10.6987
▁상대방	-10.6987
▁처방	-10.6987
▁표결	-10.6987
▁히트	-10.6995
▁이슬람교	-10.6998
▁플레이어	-10.6999
▁지지자들이	-10.7003
▁멀리	-10.7004
▁않는다면	-10.7007
▁모금	-10.701
▁받으	-10.7014
▁발표됐다	-10.7023
▁유산	-10.7025
▁전달했다	-10.7026
▁레바논군	-10.7034
▁사설	-10.7044
▁외치	-10.7047
▁플로리다주	-10.7048
▁소유하고	-10.7048
▁상원의원과	-10.7051
▁제리	-10.7053
벽	-10.7068
굴	-10.7069
▁타임	-10.7073
스테	-10.708
▁법원에서	-10.7083
▁무장대원	-10.7085
▁참여할	-10.7086
▁카리	-10.7099
▁지원하는	-10.7099
▁움직	-10.7107
여행	-10.711
▁sk	-10.7112
▁단체인	-10.7112
법안	-10.7115
▁전해지	-10.7115
사무소	-10.7121
▁유도	-10.7125
▁지대	-10.7131
▁학생이	-10.7139
▁기울이	-10.714
▁장착	-10.7146
소리	-10.7157
▁약세	-10.7166
▁알지	-10.7169
▁배심원	-10.7177
▁visit	-10.7181
▁관타나모	-10.7181
▁펜실베니아	-10.7181
텍	-10.7181
툴	-10.7181
팩	-10.7181
▁마돈나	-10.7181
▁비틀즈	-10.7181
▁again	-10.7181
▁앤더슨	-10.7181
▁imf	-10.7181
▁잇따	-10.7181
▁객실	-10.7181
▁서식지	-10.7181
▁불가리아	-10.7181
▁의뢰	-10.7182
▁fda	-10.7185
▁화합	-10.7186
▁테러조직	-10.7188
▁내려졌다	-10.719
▁산책	-10.719
내내	-10.719
▁종료	-10.7191
▁콜린	-10.7192
▁오스카	-10.7193
▁온도	-10.7197
▁전국적으로	-10.72
않게	-10.7202
▁탄소	-10.7205
▁물러	-10.7214
▁불행	-10.7218
▁보급	-10.7218
▁개편	-10.7218
▁열렸다	-10.722
▁막아	-10.7223
▁재직	-10.7225
▁인터	-10.7225
▁계기	-10.7227
죄	-10.7228
▁도심	-10.7231
▁처한	-10.7235
▁마을에서	-10.7242
▁화장	-10.7243
▁자동	-10.7245
▁방향으로	-10.7251
▁조지아	-10.7252
tt	-10.7263
▁다음주	-10.7266
늘	-10.7274
▁리비	-10.7274
▁판다	-10.7277
rm	-10.7284
자동차	-10.7288
빛	-10.7292
리안	-10.7292
봤	-10.7293
위기	-10.7293
▁군인들이	-10.73
▁해소	-10.7302
▁제시했다	-10.7302
▁지지한다	-10.7306
▁몰고	-10.7311
▁아프	-10.7313
수술	-10.7321
신문	-10.7329
▁실시했다	-10.7344
▁all	-10.7347
▁범인이	-10.7355
▁관람	-10.736
마르	-10.7363
▁동물들	-10.7364
▁커지	-10.7378
▁프라이머리에서	-10.738
▁미터	-10.7388
▁준결승	-10.7389
킴	-10.7389
▁talks	-10.7389
▁work	-10.7389
▁경기침체	-10.7389
▁끔찍	-10.7389
▁자유무역협정	-10.7389
▁히틀러	-10.7389
▁아테네	-10.7389
▁자선단체	-10.7389
▁중남미	-10.739
▁take	-10.739
▁에이커	-10.739
▁벽돌	-10.7391
▁공룡	-10.7391
▁살아남	-10.7391
▁탄광	-10.7393
▁거짓	-10.7394
▁금액	-10.7394
▁탈락	-10.7394
▁중심가	-10.7394
▁점검	-10.7398
▁잠재적	-10.7401
▁이틀간	-10.7402
▁아마디	-10.7404
▁피살	-10.7404
▁nk	-10.7406
▁양자	-10.7406
▁mi	-10.741
▁자신감	-10.741
▁세웠다	-10.7411
▁중요성	-10.7413
▁매출	-10.7414
▁야구	-10.7416
업체들	-10.7419
▁남용	-10.742
▁접수	-10.7423
▁포함하여	-10.7424
▁한국은행	-10.7424
▁존경	-10.7425
▁강행	-10.7426
▁인형	-10.7427
▁실린	-10.7428
▁밀어	-10.743
▁촉진	-10.7431
▁제출한	-10.7432
▁군함	-10.7435
▁좋아하는	-10.7439
▁남자들	-10.744
▁우즈	-10.7441
▁대학생	-10.7443
ber	-10.7448
업계	-10.7458
▁상승한	-10.746
▁강세	-10.7472
ee	-10.7483
짐	-10.7495
▁대표들	-10.7503
서비스	-10.7505
▁클로	-10.7513
감독	-10.7517
pt	-10.7517
▁fir	-10.7518
▁유인	-10.7522
▁각자	-10.7522
▁고급	-10.7523
▁잃었	-10.7524
진압	-10.7527
▁손해	-10.7527
대책	-10.7529
▁제보	-10.7529
혔	-10.7531
때까지	-10.7537
▁메리	-10.7541
vs	-10.7552
▁기아	-10.7553
▁사용하고	-10.7554
▁라이브	-10.7565
통제	-10.7567
▁기소된	-10.7575
▁건너	-10.7585
혁	-10.7589
▁여행객들	-10.7591
덤	-10.7598
븐	-10.7602
▁opec	-10.7602
▁seoul	-10.7602
▁루아얄	-10.7602
▁우주왕복선	-10.7602
▁울포위츠	-10.7602
▁허커비	-10.7602
▁지지선언	-10.7602
▁드러내	-10.7602
▁소행성	-10.7602
▁징후	-10.7602
▁시라크	-10.7603
▁벌써	-10.7603
▁재미있	-10.7603
▁본격적	-10.7603
▁center	-10.7604
▁매춘	-10.7605
▁디스크	-10.7606
▁술집	-10.7606
▁떠날	-10.7606
▁카르	-10.7607
▁막대한	-10.7607
▁범위	-10.7608
▁넘겨	-10.7608
▁사이클	-10.7609
▁새롭	-10.761
▁함유	-10.7611
▁풀려	-10.7613
▁통과시켰다	-10.7613
▁갈라	-10.7614
▁매매	-10.7616
▁놓여	-10.7616
▁집권당	-10.7617
▁형식	-10.7617
▁암호	-10.7617
▁국방성	-10.762
분께	-10.7622
▁아담	-10.7623
▁준수	-10.7624
▁승부	-10.7626
▁서류	-10.7627
▁운동가들	-10.7627
▁실무	-10.7628
▁여기에	-10.763
▁실직	-10.7634
▁벌어졌다	-10.7638
▁도청	-10.7638
▁연계	-10.764
▁얼마전	-10.7643
▁정기적	-10.7653
▁취한	-10.7655
▁로브	-10.7659
▁흔	-10.766
▁연간	-10.7661
▁호소했다	-10.7662
스탄	-10.7667
▁있었습니다	-10.7667
▁표면	-10.7669
▁당국자들	-10.767
▁본다	-10.7674
▁정계	-10.768
▁기울	-10.7681
다란	-10.7685
▁동성	-10.7691
▁포함됐다	-10.7708
ai	-10.7709
▁내려진	-10.7712
▁대통령직	-10.7732
▁참가자들	-10.7737
▁포함된	-10.7737
▁포트	-10.7738
▁기분	-10.7739
▁나선	-10.774
▁전역에서	-10.7747
▁au	-10.7748
하우스	-10.7749
▁곰	-10.776
구역	-10.7769
bi	-10.7787
▁내정	-10.7794
▁부족하다	-10.7799
▁위원	-10.781
▁임원	-10.7811
▁향상	-10.7811
룰	-10.7815
쾌	-10.7816
콩	-10.7817
뒀	-10.782
▁디자이너	-10.782
▁베네딕	-10.782
▁조승희	-10.782
랩	-10.782
셨	-10.782
톨	-10.782
▁고이즈미	-10.782
▁글로벌	-10.782
▁우울증	-10.782
▁쇠고기	-10.782
▁포르노	-10.782
▁흘러	-10.782
▁스크린	-10.782
▁퇴원	-10.782
▁품목	-10.782
▁저항세력	-10.782
▁교섭	-10.7822
▁more	-10.7822
▁cdc	-10.7823
▁다룬	-10.7826
▁강전에서	-10.7827
베르토	-10.7827
▁국가안보	-10.7827
▁핵개발	-10.7827
▁지역사회	-10.7828
▁경향	-10.7828
▁양곤	-10.7828
▁계산	-10.783
ted	-10.7831
▁왕세자비	-10.7832
▁상담	-10.7832
▁취해	-10.7834
▁정착	-10.7835
▁악화되	-10.7835
▁살았	-10.7839
▁제압	-10.784
▁용의자로	-10.7841
위원	-10.7842
▁도살	-10.7843
▁쏘	-10.7845
▁장교	-10.7846
▁필요로	-10.7849
어질	-10.7849
▁신분	-10.785
▁공판	-10.785
▁뿐이다	-10.7854
▁물체	-10.7854
▁대대적	-10.7855
ting	-10.7855
▁소동	-10.7857
했었	-10.7857
▁통보	-10.7861
선거	-10.7861
▁인공	-10.7862
이라면	-10.7863
이션	-10.7864
tic	-10.7881
▁만년	-10.7881
▁탈레반측	-10.7884
▁경비원	-10.7886
▁챔피언십	-10.7888
▁gu	-10.7888
▁개인적	-10.789
▁사체	-10.7891
야만	-10.7893
▁제공한	-10.7902
▁점거	-10.7903
▁정보부	-10.7905
▁대법원장	-10.7908
▁승인했다	-10.7914
▁결승전에서	-10.7917
▁부당	-10.792
▁지위	-10.7921
▁지식	-10.7924
▁양성	-10.7926
▁공안	-10.7928
▁서서	-10.7929
▁게리	-10.793
▁희망한다	-10.7938
▁감소했다	-10.7941
▁고려하고	-10.7941
▁대전	-10.7941
▁있을지	-10.7953
▁농민들	-10.7958
▁가족들과	-10.7963
▁탄도	-10.7965
▁thi	-10.7965
▁경매에	-10.7977
범죄	-10.7979
ny	-10.7983
▁du	-10.7988
▁캔	-10.8002
▁ai	-10.8003
bur	-10.8006
▁필립	-10.8007
▁바위	-10.8014
▁qu	-10.8015
▁인민	-10.8017
▁도시인	-10.8021
카르	-10.8022
스런	-10.803
▁두려워	-10.8037
코프	-10.8038
▁덧붙	-10.8039
버트	-10.8039
▁win	-10.8039
▁경사	-10.804
겁	-10.8041
▁high	-10.8042
▁금메달	-10.8042
▁뉴올리언스	-10.8042
▁비서실장	-10.8042
▁아닙니다	-10.8042
▁압바스	-10.8042
▁온실가스	-10.8042
▁최첨단	-10.8042
▁톰슨	-10.8042
얄	-10.8042
▁open	-10.8042
▁노트북	-10.8042
▁두려움	-10.8042
▁심장마비	-10.8042
▁멈추	-10.8042
head	-10.8042
▁대서양	-10.8042
▁윈도우	-10.8042
▁우간다	-10.8042
▁무너지	-10.8042
▁오프라	-10.8042
▁알바니아	-10.8042
▁부사장	-10.8042
▁이자율	-10.8043
▁풍부	-10.8043
▁곳곳	-10.8044
▁기상청	-10.8045
▁구호단체	-10.8046
▁받아왔다	-10.8047
▁갈등	-10.8048
▁고유가	-10.8049
▁파월	-10.805
자료	-10.805
▁붙여	-10.805
▁타밀	-10.8052
▁러드	-10.8054
▁경비대	-10.8054
▁연례	-10.8054
▁개막	-10.8054
▁구름	-10.8055
▁가짜	-10.8061
▁미첼	-10.8063
▁보건부	-10.8063
▁테러단체	-10.8064
▁발급	-10.8066
▁휴대	-10.8067
▁발발	-10.8067
▁열심	-10.807
▁모래	-10.8071
▁by	-10.8071
▁문구	-10.8073
▁기증	-10.8074
▁무슨	-10.8075
▁남측	-10.8076
▁모터	-10.8088
▁스토	-10.8091
▁참석하지	-10.8091
몬드	-10.8097
▁my	-10.8098
▁br	-10.8104
직원	-10.8105
der	-10.8105
▁트레	-10.8109
▁진지	-10.8111
▁흔적	-10.8113
▁주립	-10.8114
▁확산되고	-10.8123
▁파리에서	-10.8125
▁업체들	-10.8132
▁동성애	-10.814
▁이어지	-10.8141
▁테리	-10.8147
▁신화	-10.8151
▁has	-10.8166
ah	-10.8167
▁의상	-10.8167
호프	-10.8184
사령관	-10.8188
day	-10.8193
▁가중	-10.8197
▁점수	-10.8206
테러	-10.8207
▁추구하	-10.8208
▁결정적인	-10.8211
▁살해했다	-10.8227
노동	-10.8231
▁봤	-10.8252
어요	-10.8256
▁벌여	-10.8256
▁명백	-10.8259
▁취했다	-10.8268
헨	-10.8269
▁troop	-10.8269
▁그렇다	-10.8269
▁로드리게스	-10.8269
▁맞이하	-10.8269
▁빅토리아	-10.8269
▁오클라호마	-10.8269
▁위스콘신	-10.8269
▁이브라힘	-10.8269
▁잃어버	-10.8269
▁펼친	-10.8269
▁평화유지군	-10.8269
▁플루토늄	-10.8269
▁house	-10.8269
▁브래드	-10.8269
▁의약품	-10.8269
▁도요타	-10.8269
▁허드슨	-10.8269
▁빼앗	-10.8269
▁적합한	-10.8269
▁아마디네자드	-10.8269
▁해수면	-10.8269
▁요원들	-10.8269
▁야생동물	-10.8269
▁인터폴	-10.827
▁교착상태	-10.827
▁압도적	-10.827
▁남아프리카	-10.827
▁터널	-10.827
▁남학생	-10.8271
able	-10.8271
▁체포됐	-10.8272
▁금융위기	-10.8272
▁무덤	-10.8274
▁머무	-10.8276
▁취급	-10.8276
▁들어갈	-10.8278
▁박탈	-10.8279
▁예약	-10.8279
▁채취	-10.828
▁부탁	-10.828
▁모욕	-10.8281
▁공무원	-10.8282
▁모술	-10.8283
▁이루어진	-10.8284
▁고위급	-10.8284
▁밀려	-10.8287
▁세탁	-10.8288
▁단행	-10.829
▁양쪽	-10.8292
▁패스	-10.8292
▁제작사	-10.8292
▁완성	-10.8295
돼있	-10.8296
해달라	-10.8297
▁시인했다	-10.8297
▁포터	-10.8299
▁빠졌다	-10.83
▁조절	-10.83
▁유통	-10.8301
▁군사력	-10.8302
▁신도들	-10.8303
▁구류	-10.8307
▁예정이었	-10.8308
▁당해	-10.8309
▁유행	-10.8309
▁임대	-10.8312
▁거론	-10.8313
널리	-10.8315
▁파키스탄군	-10.8316
▁모자	-10.8317
▁변호	-10.8318
▁선거법	-10.8318
▁경쟁력	-10.8319
▁준비하고	-10.8325
▁해체	-10.8326
▁배제	-10.8327
roh	-10.833
▁미술	-10.8335
▁회수	-10.8345
bar	-10.8347
▁양보	-10.8348
▁상자	-10.835
▁사용자들	-10.8351
▁해적들	-10.8356
▁너무나	-10.8365
머스	-10.8375
▁반전	-10.838
▁코치	-10.8393
달라	-10.8394
▁턱	-10.84
티아	-10.8403
▁향한	-10.8403
응	-10.8407
털	-10.8424
셰	-10.8424
착륙	-10.8425
tion	-10.8434
▁유기	-10.8436
ction	-10.844
▁사면	-10.8443
▁위험성	-10.8451
▁불확실	-10.8454
▁법정에서	-10.8455
▁거부하	-10.8457
▁나타났	-10.846
▁cas	-10.8461
▁따뜻	-10.8462
▁예술가	-10.8466
▁입지	-10.8468
구조	-10.847
디어	-10.8481
스틴	-10.8482
▁폴리	-10.8485
▁넘기	-10.849
▁휩싸	-10.8498
▁신장	-10.85
낭	-10.8501
뷰	-10.8501
▁washington	-10.8502
▁york	-10.8502
▁나눴다	-10.8502
▁낮아	-10.8502
▁느낌	-10.8502
▁망원경	-10.8502
▁메릴랜드	-10.8502
▁성추행	-10.8502
▁스타벅스	-10.8502
▁자르다리	-10.8502
▁저질렀다	-10.8502
▁토크쇼	-10.8502
▁파파라치	-10.8502
▁확률	-10.8502
샬	-10.8502
찌	-10.8502
칩	-10.8502
▁기숙사	-10.8502
▁최우선	-10.8502
▁무승부	-10.8502
▁아라비아	-10.8502
bush	-10.8502
▁시나리오	-10.8502
▁수류탄	-10.8502
▁삭감	-10.8502
▁활발	-10.8502
▁태어났	-10.8502
▁에드워드	-10.8502
▁당부했다	-10.8503
▁맥캔	-10.8503
▁친환경	-10.8503
▁하원의장	-10.8503
▁긴밀	-10.8504
▁남자아이	-10.8504
▁물고기	-10.8505
▁머레이	-10.8505
▁강진이	-10.8506
▁워너	-10.8506
▁국정원	-10.8506
▁사라졌다	-10.8507
▁인접	-10.8508
▁송금	-10.8508
▁추격	-10.8509
▁델타	-10.851
▁정찰	-10.8511
▁교외	-10.8513
▁실현	-10.8514
▁사육	-10.8514
▁관객들	-10.8515
▁밝혀내	-10.8516
▁체류	-10.8516
▁정밀	-10.8516
관련	-10.8522
▁바탕	-10.8523
▁포스트	-10.8523
▁총통	-10.8529
▁맡았다	-10.8537
▁해저	-10.8537
▁오리	-10.8542
▁상금	-10.8543
▁펄	-10.8544
▁정리	-10.8556
▁우세	-10.8558
▁회전	-10.8566
▁이득	-10.8566
▁개인적으로	-10.8579
▁차질	-10.8583
▁위하여	-10.8584
▁연대	-10.8584
▁상세	-10.8596
블리	-10.8611
ition	-10.8618
▁독재	-10.8625
▁조선	-10.8627
▁중심지	-10.8631
▁써	-10.8633
▁뿐이라	-10.8636
▁부검	-10.8636
▁절도	-10.8639
▁엠	-10.8651
▁착수했다	-10.8654
▁암시	-10.8666
돈	-10.8669
자르	-10.8684
조합	-10.8692
▁수행할	-10.8692
▁생각해	-10.8692
iz	-10.8693
▁실종됐다	-10.8694
조약	-10.8695
▁경영자	-10.8698
메르	-10.8698
연구	-10.8699
▁모른다고	-10.8713
▁나치	-10.8715
▁힘들다	-10.8722
▁기적	-10.8734
옹	-10.8737
시장에서	-10.8738
▁year	-10.874
▁갤런	-10.874
▁국가비상사태	-10.874
▁높게	-10.874
▁뉴델리	-10.874
▁똑같	-10.874
▁메드베데프	-10.874
▁서브프라임	-10.874
▁아웅산수치	-10.874
▁유죄판결	-10.874
▁정확하	-10.874
▁출구조사	-10.874
▁활성화	-10.874
캘	-10.874
▁국립공원	-10.874
▁세속주의	-10.874
▁카를로스	-10.874
life	-10.874
▁첩보	-10.874
▁say	-10.874
▁염려	-10.874
▁가난한	-10.8741
▁포셋	-10.8741
▁수색작업	-10.8742
▁데뷔	-10.8742
▁환율	-10.8743
▁권총	-10.8743
▁중앙은행	-10.8743
▁재활용	-10.8743
▁증강	-10.8745
▁연패	-10.8745
▁분야에서	-10.8746
▁대리인	-10.8747
세계	-10.8747
▁예배	-10.8748
▁연구결과	-10.8748
▁여러번	-10.8749
▁단독	-10.875
▁출연했다	-10.8751
▁aig	-10.8752
버리	-10.8759
▁후송	-10.876
▁연출	-10.8761
▁복원	-10.8763
▁업적	-10.8763
▁심리학	-10.8764
▁회계	-10.8767
▁its	-10.8769
▁방문해	-10.8773
▁미성년자	-10.8777
▁고조되	-10.8777
▁불교	-10.8779
▁체포되었다	-10.8781
▁부처	-10.8784
▁진전이	-10.8787
▁실려	-10.8789
▁부품	-10.88
▁정체	-10.8801
▁남부지역	-10.8804
▁종교적	-10.8809
▁은행들	-10.881
프랑	-10.8812
▁루니	-10.8813
▁크다	-10.8815
▁주거	-10.8817
▁안내	-10.8824
▁도구	-10.8826
벨리	-10.8826
ok	-10.8831
▁공정한	-10.8839
▁도디	-10.8849
▁응답	-10.8854
▁상당수	-10.8854
▁주류	-10.8856
▁성전	-10.8857
line	-10.8866
▁남아있다	-10.8868
▁기분이	-10.887
▁저자	-10.8872
ney	-10.8875
▁매력	-10.8893
▁떨어졌	-10.8895
▁웨인	-10.8904
▁도착할	-10.8908
▁알바	-10.8908
번호	-10.8911
▁명성	-10.892
▁선고했다	-10.8922
레이크	-10.8924
▁이슈	-10.8925
▁남성들	-10.8929
▁노스	-10.8937
▁주권	-10.8937
▁달한다	-10.8937
▁제치	-10.894
▁열었다	-10.8941
생산	-10.8945
▁당황	-10.8952
라데	-10.8958
▁출신으로	-10.8961
▁제시한	-10.8963
▁관객	-10.8975
▁ibm	-10.8984
▁국세청	-10.8984
▁부양책	-10.8984
▁선거관리위원회	-10.8984
▁앞섰다	-10.8984
▁얻게	-10.8984
▁최루탄	-10.8984
▁하이브리드	-10.8984
눌	-10.8984
연방수사국	-10.8984
▁fifa	-10.8984
▁무장괴한	-10.8984
▁윈프리	-10.8984
▁섹시	-10.8984
▁자전거	-10.8984
▁주유소	-10.8984
▁좌석	-10.8984
▁개체수	-10.8984
▁티벳	-10.8984
▁유명인사	-10.8984
▁바꿀	-10.8985
▁켈리	-10.8985
▁아마존	-10.8985
▁설계	-10.8985
▁이뤄질	-10.8986
▁데리고	-10.8987
▁앨런	-10.8987
▁메이저	-10.8987
▁돌아갈	-10.8987
▁개막식	-10.8988
▁bda	-10.8988
▁급습	-10.8988
▁mdc	-10.8989
▁교착	-10.899
▁호송	-10.8991
▁줄이기	-10.8992
▁드레스	-10.8992
▁각료	-10.8993
▁재배치	-10.8993
▁독감	-10.8995
▁서식하	-10.8995
▁통행	-10.9002
▁추모	-10.9004
▁뚫	-10.9004
▁증진	-10.9005
같	-10.9006
▁심판	-10.9008
▁휴일	-10.9008
▁가택	-10.9009
▁윌슨	-10.9016
▁던진	-10.9016
▁않았습니다	-10.9016
▁발견됐	-10.9016
▁보증	-10.9016
▁전형적	-10.9021
▁둔화	-10.9024
▁해석	-10.9024
▁구경	-10.9029
▁서브	-10.9032
▁cd	-10.9033
▁상관	-10.9039
▁장려	-10.904
▁도난	-10.9044
▁명백한	-10.9053
▁정유	-10.9056
▁여파	-10.906
▁산하	-10.9061
▁aid	-10.9064
▁목격했다	-10.9069
▁제공했다	-10.907
▁공개하지	-10.9071
▁출장	-10.9084
▁권고했다	-10.9085
▁맡았	-10.9105
곳	-10.9112
▁외상	-10.9113
졌습니다	-10.9115
ence	-10.9116
▁전격	-10.912
▁사과했다	-10.913
▁분석했다	-10.9133
▁발견되지	-10.9137
▁재정적	-10.914
▁판매량	-10.9144
▁김치	-10.9144
▁사라지	-10.9149
▁모두에게	-10.9152
▁제작자	-10.9152
▁피하기	-10.9153
▁아미	-10.9159
▁확인되	-10.916
분야	-10.9163
▁대우	-10.9167
▁리버	-10.9173
윤	-10.9173
di	-10.9178
▁얻었	-10.9186
▁그랜드	-10.9189
▁이라크내	-10.9189
됐는지	-10.9191
▁수감된	-10.9203
▁공주	-10.9206
own	-10.9213
ext	-10.9216
▁차지하는	-10.9217
▁산악	-10.9218
▁네바다	-10.922
▁사안	-10.9221
칙	-10.923
놈	-10.9232
즘	-10.9233
랙	-10.9233
빗	-10.9233
▁military	-10.9234
▁국제우주정거장	-10.9234
▁맨해튼	-10.9234
▁아랍에미리트	-10.9234
▁호나우두	-10.9234
닭	-10.9234
팜	-10.9234
▁바티칸	-10.9234
▁스탈린	-10.9234
▁유람선	-10.9234
닛	-10.9234
둑	-10.9234
▁깨끗	-10.9234
▁원자력	-10.9234
▁아스날	-10.9234
▁언덕	-10.9234
▁국무총리	-10.9234
▁퇴진	-10.9234
▁시티그룹	-10.9234
▁치솟	-10.9235
▁행렬	-10.9235
▁요즘	-10.9235
▁미주리	-10.9235
▁왜곡	-10.9236
▁지속되	-10.9236
▁국민투표	-10.9236
▁자동차업계	-10.9236
▁보조금	-10.9237
▁원장	-10.9237
▁물어	-10.9237
▁존스턴	-10.9237
▁유괴	-10.9239
▁연극	-10.9239
▁자발적	-10.9239
▁동참	-10.9239
▁절약	-10.924
▁가끔	-10.924
▁역임	-10.9243
노조	-10.9243
▁연승	-10.9243
▁창설	-10.9245
▁카라치	-10.9245
▁발매	-10.9249
▁연방정부	-10.9249
▁수컷	-10.9251
▁불안정	-10.9252
▁약혼	-10.9252
레오	-10.9254
▁모집	-10.9257
▁피랍된	-10.9258
▁시골	-10.9258
▁inter	-10.9258
▁영구	-10.9259
▁코너	-10.9261
▁연임	-10.9262
여부	-10.9264
▁만능	-10.9268
▁상병	-10.9268
▁합의문	-10.9272
ner	-10.9274
▁종파	-10.9278
two	-10.9279
▁지원금	-10.928
▁위생	-10.928
▁눈물	-10.9281
▁준장	-10.9289
▁거부한	-10.9291
▁부속	-10.9293
▁출전하지	-10.9297
▁불가능하다	-10.9317
▁스카이	-10.932
▁인정하지	-10.9323
▁기본적	-10.9337
▁학생들에게	-10.9351
▁돌아와	-10.9354
▁개성	-10.936
▁유물	-10.937
▁대변	-10.9384
▁전범	-10.9385
▁매수	-10.9388
rate	-10.9392
▁fe	-10.9395
▁경주	-10.9401
해준	-10.9414
▁석방됐다	-10.9415
▁토대	-10.9422
▁본드	-10.9424
김	-10.9438
힘	-10.9439
▁테러범들	-10.945
푸르	-10.945
▁확산되	-10.9452
▁광부	-10.9459
▁취하고	-10.9467
▁단장	-10.9471
▁의제	-10.9473
▁뉴저지	-10.9476
꼬	-10.949
멈	-10.949
쉐	-10.949
▁people	-10.949
▁가즈프롬	-10.949
▁개발도상국	-10.949
▁디트로이트	-10.949
▁러닝메이트	-10.949
▁럼스펠드	-10.949
▁마이스페이스	-10.949
▁믿는다	-10.949
▁박격포	-10.949
▁억만장자	-10.949
▁인명피해	-10.949
▁창기라이	-10.949
▁켄터키	-10.949
▁피츠버그	-10.949
▁후지모리	-10.949
뤘	-10.949
▁내무장관	-10.949
▁버몬트	-10.949
▁음주운전	-10.949
렁	-10.949
▁apec	-10.949
▁비공식	-10.949
▁모니터	-10.949
space	-10.949
▁라호르	-10.949
▁하버드	-10.949
▁코카인	-10.949
▁국방위원장	-10.9491
▁별도	-10.9491
▁알제리	-10.9491
▁have	-10.9492
▁가져올	-10.9492
▁돌아올	-10.9493
▁press	-10.9493
▁참배	-10.9493
▁구조작업	-10.9493
▁워렌	-10.9493
▁안드레	-10.9494
▁산맥	-10.9494
▁던졌다	-10.9494
▁굿	-10.9495
▁아빠	-10.9495
▁미셸	-10.9496
▁없애	-10.9497
▁lg	-10.9499
▁로켓포	-10.9499
▁개헌안	-10.95
▁의심되는	-10.9501
▁연말	-10.9501
▁연령	-10.9501
▁발령	-10.9503
▁클라크	-10.9504
▁치매	-10.9504
세포	-10.9504
▁우편	-10.9505
▁법무	-10.9506
▁시민권	-10.9506
▁투표율	-10.9507
▁매입	-10.9509
▁찾아내	-10.9511
▁유입	-10.9514
que	-10.9519
▁않습니다	-10.9522
▁부결	-10.9522
▁걸렸다	-10.9531
▁돌아왔다	-10.9532
▁비극	-10.9537
▁아기들	-10.9539
▁공직	-10.9539
▁약탈	-10.9544
▁진행될	-10.955
▁스노	-10.955
죄로	-10.9555
▁분경	-10.9556
▁해방	-10.9557
▁생성	-10.9558
▁상위	-10.9565
▁파커	-10.9567
▁때문이라	-10.958
▁한달	-10.9586
ung	-10.9587
▁실패한	-10.959
▁시작됐	-10.9597
▁캐리	-10.9598
▁불과하다	-10.9599
▁당일	-10.9606
▁유해	-10.9606
▁강간	-10.9608
▁평화상	-10.9613
트릭	-10.9613
▁진행중	-10.9614
▁파크	-10.9618
데일	-10.9634
▁인치	-10.9646
▁하비	-10.9654
레즈	-10.966
▁교도소에서	-10.9664
▁열기	-10.9668
▁지냈	-10.9671
▁배상	-10.9679
극적으로	-10.9681
▁인정받	-10.9708
빨	-10.9708
▁수락	-10.9716
ite	-10.9717
▁참가한	-10.972
▁가즈니	-10.9722
까요	-10.9733
city	-10.9736
▁효과적	-10.9744
연방	-10.9746
냥	-10.9748
▁항의하	-10.9749
렬	-10.975
▁괜찮	-10.9753
▁뒷받침	-10.9753
▁맞았다	-10.9753
▁엘리베이터	-10.9753
▁찾았다	-10.9753
▁최고경영자	-10.9753
껏	-10.9753
섞	-10.9753
연방준비제도이사회	-10.9753
캄	-10.9753
▁associat	-10.9753
▁secretary	-10.9753
▁남아프리카공화국	-10.9753
▁돌아다니	-10.9753
▁라모스	-10.9753
▁북극곰	-10.9754
▁떠오르	-10.9754
▁넬슨	-10.9754
▁포획	-10.9755
▁터뜨	-10.9755
▁캐롤	-10.9756
▁설정	-10.9756
▁기획	-10.9756
하겠	-10.9756
▁중점	-10.9758
▁배심원단	-10.9759
▁시민단체	-10.9759
▁포경선	-10.9762
▁대테러	-10.9762
▁그곳에서	-10.9763
▁결합	-10.9763
▁재배	-10.9763
▁다가오	-10.9763
▁처형	-10.9764
▁마찰	-10.9766
놨다	-10.9767
▁진료	-10.9767
방식	-10.9768
▁가혹	-10.9771
되었는데	-10.9771
▁예선	-10.9772
▁유혈	-10.9772
▁응원	-10.9773
▁밀러	-10.9776
▁파편	-10.9776
▁위치해	-10.9778
▁넣었다	-10.9782
▁미셀	-10.9783
▁사이버	-10.9783
▁필수	-10.9784
▁반등	-10.9785
▁전시회	-10.9786
▁성분	-10.9786
▁쉬운	-10.9786
▁소유주	-10.9788
▁환수	-10.9788
▁배급	-10.9789
▁청소	-10.9791
▁leader	-10.9791
▁재무	-10.9791
▁던져	-10.9794
▁거친	-10.9796
▁보좌관들	-10.9796
▁배포	-10.9797
▁사회당	-10.9799
문서	-10.9805
▁피신	-10.9811
▁걸려	-10.9811
▁버지니아주	-10.9814
▁먼지	-10.9818
▁사라진	-10.9824
▁대원들	-10.9825
▁여단	-10.9825
▁만료	-10.9826
ey	-10.9828
하러	-10.9833
▁조국	-10.9833
▁군중들	-10.9837
▁석방된	-10.9842
▁대비해	-10.985
생물학	-10.9851
▁문제점	-10.9868
▁부상자들	-10.987
▁정부군과	-10.987
▁독재자	-10.9893
▁베어	-10.9904
▁해당하	-10.9909
▁he	-10.9911
체제	-10.9921
▁확인하기	-10.9923
무라	-10.9934
▁표시했다	-10.995
▁상사	-10.9954
대통령	-10.996
▁usa	-10.9973
▁보유한	-10.9974
▁만났	-10.9977
받아	-10.9982
쥐	-10.9984
퍼스	-11.0012
▁수년	-11.0014
장비	-11.0014
▁시청자들	-11.0016
왓	-11.0023
겔	-11.0023
▁human	-11.0024
▁굉장	-11.0024
▁느낀다	-11.0024
▁시애틀	-11.0024
▁애완동물	-11.0024
▁엉덩이	-11.0024
▁해수욕장	-11.0024
풋	-11.0024
▁고등법원	-11.0024
▁느껴	-11.0024
▁브루니	-11.0024
▁그린피스	-11.0024
▁근본주의	-11.0024
▁무소속	-11.0024
▁다행히	-11.0024
▁크레이그	-11.0024
▁대한민국	-11.0024
▁바하마	-11.0024
▁덴버	-11.0024
▁카지노	-11.0024
▁낭비	-11.0024
▁소방대원	-11.0024
▁기다려	-11.0024
▁기뻐	-11.0024
▁좌파	-11.0024
▁케이시	-11.0024
▁스콧	-11.0024
▁브레이크	-11.0025
▁텐트	-11.0025
▁침수	-11.0025
▁슈퍼볼	-11.0025
▁면접	-11.0025
우주	-11.0026
▁투데이	-11.0026
▁동굴	-11.0027
▁오늘밤	-11.0027
▁밝혀냈다	-11.0027
▁장벽	-11.0027
▁복합	-11.0029
▁추천	-11.0029
▁민간인들	-11.003
▁돌아온	-11.003
ump	-11.0032
▁생명체	-11.0032
▁통근	-11.0033
▁생겨	-11.0034
▁외쳤다	-11.0035
▁절감	-11.0035
▁소총	-11.0036
▁불황	-11.0036
▁금속	-11.0037
▁유골	-11.0037
▁휴식	-11.0038
▁네바다주	-11.0038
▁승점	-11.0039
▁기념식	-11.0039
▁치른	-11.0039
▁난민들	-11.0041
▁창조	-11.0041
▁보수당	-11.0045
▁기름	-11.0045
▁이어졌다	-11.0046
▁반환	-11.0047
▁위축	-11.0052
▁김씨	-11.0052
ail	-11.0052
▁인도분	-11.0052
▁헤어	-11.0057
▁교내	-11.0057
▁당연	-11.0064
▁단식	-11.0065
▁def	-11.0066
▁남미	-11.0073
▁소유한	-11.0077
▁경찰청	-11.008
시키지	-11.0082
▁제공하기	-11.0085
▁지지자들에게	-11.009
▁지불하	-11.0091
▁받아들이지	-11.0091
▁일시적	-11.0094
▁과제	-11.0094
▁남쪽으로	-11.0095
▁아민	-11.0096
▁화제	-11.0096
▁무산	-11.01
▁구단	-11.0103
교수	-11.0104
▁출연해	-11.0107
▁산소	-11.0109
▁나체	-11.011
▁좋아한다	-11.0113
▁소화	-11.0123
go	-11.0125
▁거래됐다	-11.0152
▁라파	-11.0158
▁총리직	-11.0159
▁페리	-11.016
▁회원들	-11.0162
▁최고위	-11.0166
▁이민자들	-11.0168
▁장성	-11.0169
▁원치	-11.0173
▁강타한	-11.0177
▁연예	-11.018
공장	-11.0186
아웃	-11.0196
▁입수한	-11.0196
ka	-11.0214
▁피고인	-11.0219
ef	-11.0226
▁법적으로	-11.0228
▁대안	-11.0235
▁철수시키	-11.0241
▁성명서	-11.0244
▁제일	-11.0256
공화국	-11.0271
▁군중	-11.0275
스트라	-11.0276
연구원	-11.0279
▁브랜	-11.0287
bc	-11.0289
졸	-11.03
▁england	-11.0301
▁내셔널	-11.0301
▁머리카락	-11.0301
▁버냉키	-11.0301
▁스튜디오	-11.0301
▁원자바오	-11.0301
▁침묵	-11.0301
▁크로아티아	-11.0301
▁텔레비전	-11.0301
▁트라볼타	-11.0301
▁헬리콥터	-11.0301
▁호날두	-11.0301
인플루엔자	-11.0301
잎	-11.0301
▁기준금리	-11.0301
▁휴스턴	-11.0301
▁규칙	-11.0301
뚜	-11.0301
▁유수프	-11.0301
▁미시건	-11.0301
▁딜러	-11.0301
▁얼룩	-11.0302
▁election	-11.0302
▁나눠	-11.0302
▁바바라	-11.0302
▁멸종위기	-11.0302
▁신용카드	-11.0302
▁놀랄	-11.0303
▁끝났다	-11.0303
▁요르단강	-11.0304
▁이른다	-11.0305
▁화염	-11.0305
▁남녀	-11.0306
▁반체제	-11.0306
▁대선주자	-11.0306
▁논문	-11.0307
▁숨겨	-11.0308
▁워터	-11.0309
▁레이저	-11.0309
▁도핑	-11.0309
▁금융시장	-11.031
▁구호품	-11.0311
▁화석	-11.0311
▁모험	-11.0312
▁탐사선	-11.0314
▁대기업	-11.0318
봐야	-11.0318
▁복장	-11.0321
▁감바	-11.0324
▁시일	-11.0325
▁세인트	-11.0325
▁출국	-11.0327
▁역대	-11.0329
▁첫날	-11.033
체계	-11.0332
▁급진	-11.0333
▁여개	-11.0336
▁입력	-11.0337
▁사살했다	-11.034
▁차지한	-11.0343
▁코피	-11.0344
▁교육부	-11.0346
▁폴슨	-11.0346
▁피어	-11.0349
▁라울	-11.0349
▁지나치	-11.0349
▁밝히기	-11.035
▁여기서	-11.0355
폴리스	-11.0356
▁열려	-11.0358
▁취소했다	-11.0359
▁조씨	-11.0363
벨트	-11.0374
▁위장	-11.0375
ian	-11.0375
▁가족들에게	-11.0379
emi	-11.038
▁유명하다	-11.038
▁호전	-11.0383
▁일어나지	-11.039
▁공학	-11.0393
▁이르기	-11.0393
▁구타	-11.0395
▁조직원	-11.0396
▁포기하	-11.0398
mar	-11.0407
감시	-11.041
▁칼라	-11.0412
▁시작될	-11.0415
▁농민	-11.0416
▁들어왔	-11.0417
▁약품	-11.0418
▁개설	-11.0418
▁심화	-11.0422
▁제프	-11.0436
▁복지	-11.0438
▁반미	-11.0447
▁참여했다	-11.0453
사이트	-11.0463
▁선택했다	-11.0466
▁중반	-11.0469
▁자녀들	-11.0477
▁재선	-11.0499
▁못하다	-11.0501
▁형태로	-11.0506
▁선원들	-11.0516
▁순례	-11.0522
ick	-11.0534
▁투기	-11.0538
▁선적	-11.0543
▁선출된	-11.0546
ame	-11.0557
브리지	-11.0558
▁공무원들	-11.057
랍	-11.0577
▁그곳에	-11.0578
훔	-11.0584
대학교	-11.0585
헤르	-11.0586
스러워	-11.0586
샘	-11.0587
▁몸값	-11.0587
▁뮌헨	-11.0587
▁산타클로스	-11.0587
▁애니메이션	-11.0587
▁애틀랜타	-11.0587
▁엔지니어	-11.0587
붐	-11.0587
빵	-11.0587
▁court	-11.0587
▁칸다하르	-11.0587
셜	-11.0587
▁식민지	-11.0587
▁받아들였다	-11.0587
▁맥케인	-11.0587
▁관점에서	-11.0587
▁브루스	-11.0587
▁태우고	-11.0587
▁인도주의적	-11.0587
▁히드로	-11.0588
▁마사지	-11.0588
▁차원에서	-11.0588
▁군사작전	-11.059
▁적응	-11.059
관계자	-11.0592
▁집필	-11.0594
▁금년	-11.0596
▁가죽	-11.0598
▁소유권	-11.06
▁하더라	-11.06
▁정치범	-11.0603
▁장거리	-11.0603
▁air	-11.0606
▁새겨	-11.0606
▁나와즈	-11.0607
▁취하지	-11.0607
▁권위	-11.0607
▁마침	-11.0608
▁추문	-11.0609
▁베스트	-11.0609
▁경제학자	-11.061
오르	-11.0612
▁다이애나비	-11.0613
▁예선전	-11.0617
치료	-11.062
▁상관없	-11.062
▁모았다	-11.0623
▁편안	-11.0624
▁대폭	-11.0625
▁장기간	-11.0626
▁해역	-11.063
▁신병	-11.0631
회견에서	-11.0631
▁대령	-11.0631
▁주주들	-11.0632
▁예정되어	-11.0635
▁복수	-11.0637
▁폭격기	-11.064
▁알렌	-11.0641
▁리더	-11.0642
▁있겠	-11.0643
▁버진	-11.0646
려진	-11.0649
▁녹화	-11.0651
현정	-11.0652
▁사진들	-11.0654
전략	-11.0657
최지	-11.0662
론자들	-11.0664
ster	-11.0672
포르	-11.0672
▁중단됐다	-11.0673
▁발달	-11.0677
▁증언했다	-11.0684
▁제외하고	-11.0687
▁특별히	-11.0689
▁개최된	-11.0689
▁여야	-11.069
▁인명	-11.0692
▁모으	-11.0692
▁적극	-11.0697
▁레이더	-11.0705
▁참사	-11.0712
▁여아	-11.073
▁데비	-11.0743
▁확신했다	-11.0749
lin	-11.075
▁투자자	-11.0755
여금	-11.0756
▁시계	-11.0757
imp	-11.0776
▁자정	-11.0797
▁확인된	-11.0799
마라	-11.0805
▁연예인	-11.0813
륙	-11.0814
뤄	-11.0822
룩	-11.0826
예프	-11.0827
없	-11.0827
▁우승자	-11.0841
▁괴한	-11.0842
▁제조업	-11.085
▁이송됐다	-11.0856
▁열렸	-11.0857
문화	-11.0866
▁금연	-11.0868
▁대답했다	-11.0869
▁pre	-11.0869
▁top	-11.0871
탐	-11.0871
▁경제학자들	-11.0877
삭	-11.0879
펴	-11.0881
홉	-11.0881
▁securit	-11.0881
▁겪었다	-11.0881
▁끊임없	-11.0881
▁끌려	-11.0881
▁느꼈다	-11.0881
▁되돌아	-11.0881
▁떨어질	-11.0881
▁마케팅	-11.0881
▁베어스턴스	-11.0881
▁베탕쿠르	-11.0881
▁에르도간	-11.0881
▁에스토니아	-11.0881
▁오케스트라	-11.0881
▁테러지원국	-11.0881
▁펭귄	-11.0881
긋	-11.0881
맘	-11.0881
▁브리트니	-11.0881
▁비즈니스	-11.0881
▁아칸소	-11.0881
▁부적절	-11.0881
▁캔자스	-11.0881
▁만여명	-11.0881
▁퇴역	-11.0881
▁오렌지	-11.0881
▁간호사	-11.0881
▁meet	-11.0881
▁소탕작전	-11.0882
▁풀려났다	-11.0882
▁맥도날드	-11.0882
▁수만명	-11.0882
▁재활	-11.0883
▁bank	-11.0883
▁고릴라	-11.0883
▁prim	-11.0883
▁녹색	-11.0884
▁미치지	-11.0885
▁코스피	-11.0886
▁조짐	-11.0888
▁저택	-11.0888
▁영광	-11.089
▁버튼	-11.089
▁종말	-11.0891
▁잡았다	-11.0894
연대	-11.0894
▁당사자	-11.0898
▁잔디	-11.0898
▁개념	-11.09
▁들어온	-11.09
증권	-11.09
▁영감	-11.0903
▁타결	-11.0903
▁서약	-11.0905
▁평소	-11.0914
베스	-11.0915
▁저지르	-11.0922
▁식수	-11.0923
▁적십자사	-11.0929
▁관람객	-11.0929
▁입구	-11.0931
▁mm	-11.0932
▁포위	-11.0933
▁앞선	-11.0938
▁여유	-11.094
▁파문	-11.0943
▁제작된	-11.0952
▁가져다	-11.0957
▁공조	-11.0957
▁하산	-11.0968
▁붕괴된	-11.0969
▁생존자들	-11.097
▁변호사들	-11.0973
▁can	-11.0976
▁유용	-11.0979
▁줄이는	-11.0981
▁버전	-11.0982
▁싶어한다	-11.0989
▁추구	-11.099
▁거주지	-11.0997
▁명령했다	-11.1001
▁해명	-11.101
타이거	-11.1015
해졌	-11.1028
▁파일	-11.1034
▁말하면서	-11.1034
▁관광지	-11.1043
▁방문객들	-11.1053
▁선장	-11.1055
▁아바	-11.1059
▁남기	-11.1064
▁국회의원들	-11.1074
보드	-11.1089
▁사정	-11.1095
아누	-11.1096
▁ban	-11.1096
▁가족에게	-11.1105
▁건수	-11.1117
▁관리자	-11.1117
▁파손됐다	-11.112
▁벌어졌	-11.1134
▁발견되	-11.1147
빠	-11.1162
▁sw	-11.1167
▁통신사	-11.1171
▁심사	-11.1173
눈	-11.1182
셋	-11.1182
▁중동평화	-11.1183
▁득표	-11.1183
뮤	-11.1184
▁골든글로브	-11.1184
▁구호물품	-11.1184
▁다운로드	-11.1184
▁덕분에	-11.1184
▁동유럽	-11.1184
▁모가디슈	-11.1184
▁슈퍼대의원	-11.1184
▁야스쿠니	-11.1184
▁유니세프	-11.1184
▁일으켜	-11.1184
▁침팬지	-11.1184
▁티셔츠	-11.1184
▁포괄적	-11.1184
▁황우석	-11.1184
▁흰색	-11.1184
륜	-11.1184
쉴	-11.1184
톡	-11.1184
▁뉴욕타임스	-11.1184
▁미끄러	-11.1184
▁항생제	-11.1184
▁어두운	-11.1184
▁트로피	-11.1184
▁유조선	-11.1184
▁니케이	-11.1184
▁크로커	-11.1184
▁착취	-11.1184
▁혈액	-11.1184
▁양키스	-11.1184
사령부	-11.1185
▁모로코	-11.1185
▁유적지	-11.1185
▁바꿔	-11.1185
▁풍선	-11.1185
▁요새	-11.1187
▁묘지	-11.1188
▁운반	-11.1188
▁갖기	-11.1188
▁kim	-11.1189
▁설문	-11.1189
▁현지경찰	-11.1189
▁wto	-11.119
▁출범	-11.1191
▁대략	-11.1191
▁폭등	-11.1191
▁하얀	-11.1192
▁발효	-11.1192
▁패리스	-11.1194
▁아이돌	-11.1196
▁근교	-11.1196
▁역설	-11.1197
▁볼튼	-11.1197
▁참모	-11.1198
▁스텔	-11.1199
▁거둔	-11.1199
▁효율적	-11.12
▁복권	-11.12
▁알려주	-11.12
물질	-11.1203
돌프	-11.1205
▁면제	-11.1206
▁상반기	-11.1207
▁지낸	-11.1208
▁물었다	-11.1209
▁동맹국들	-11.121
▁엘바	-11.1212
▁천연	-11.1216
▁제프리	-11.122
▁명칭	-11.1222
▁예상보다	-11.1222
▁뒤집	-11.1229
▁주장했지만	-11.123
▁모르겠다	-11.1232
▁타이어	-11.1233
▁제약	-11.1235
▁소란	-11.1238
▁들었	-11.1238
▁영원	-11.124
▁미시간	-11.1241
▁줄여	-11.1241
방안	-11.1241
▁지원하기	-11.1242
▁유지하기	-11.1244
▁조속	-11.1248
수준	-11.1253
▁채권	-11.1263
인민당	-11.1265
투어	-11.1268
net	-11.1273
▁중령	-11.1276
▁과시	-11.1279
▁민주적	-11.1285
▁시판	-11.1285
▁부유	-11.129
▁제방	-11.129
▁전염	-11.1293
▁장기적	-11.1295
▁기권	-11.1295
▁죽었다	-11.1297
▁분실	-11.13
▁사용하기	-11.1307
▁보낸다	-11.1312
▁죽어	-11.1314
▁사랑하는	-11.1316
▁입학	-11.1344
▁실어	-11.1345
▁사임했다	-11.1354
light	-11.1368
▁감시단	-11.1371
▁과장	-11.1383
▁손자	-11.1384
▁설치된	-11.1391
▁나빠	-11.1409
▁입원했다	-11.1437
어지고	-11.1468
ical	-11.1469
▁싶어하	-11.1475
헤드	-11.1484
쁘	-11.1491
첩	-11.1493
▁피닉스	-11.1494
깃	-11.1497
▁london	-11.1497
▁lpga	-11.1497
▁nfl	-11.1497
▁국회의사당	-11.1497
▁로스앤젤레스	-11.1497
▁불렀다	-11.1497
▁수퍼대의원	-11.1497
▁스튜어트	-11.1497
▁평화협상	-11.1497
돋	-11.1497
핏	-11.1497
▁wfp	-11.1497
▁클루니	-11.1497
▁afp	-11.1497
▁베이루트	-11.1497
▁제니퍼	-11.1497
▁되풀이	-11.1497
▁마라도나	-11.1497
▁페이스북	-11.1497
▁모바일	-11.1497
▁가속화	-11.1497
▁흐름	-11.1497
▁셰이크	-11.1497
▁침범	-11.1497
▁린제이	-11.1497
▁닉슨	-11.1497
▁교과서	-11.1497
▁정해지지	-11.1497
▁여자아이	-11.1497
▁기후변화	-11.1498
▁잔혹	-11.1498
▁도와주	-11.1498
▁취득	-11.1498
▁칭찬	-11.1498
▁진흙	-11.1498
miss	-11.1498
▁충족	-11.15
▁호킹	-11.1502
▁bill	-11.1502
▁선고받	-11.1503
▁학년	-11.1503
▁같습니다	-11.1503
민주당	-11.1504
former	-11.1506
시즌	-11.1507
개혁	-11.1507
▁극단주의자들	-11.1507
▁안된다	-11.1507
▁담겨	-11.1508
보고서	-11.1508
▁병역	-11.1508
▁점프하	-11.1509
▁추출	-11.1512
▁학위	-11.1514
▁식물	-11.1515
▁불평	-11.1516
▁사용한다	-11.1518
▁현행	-11.1519
▁비교해	-11.152
▁줄이고	-11.1522
▁전대통령	-11.1523
▁죄수	-11.1525
▁외출	-11.1527
▁기습	-11.1528
▁테마	-11.1533
▁우방	-11.1539
▁시달리고	-11.1543
▁참여하지	-11.1546
▁우리베	-11.1549
▁정교	-11.1554
▁회부	-11.1555
▁이룩	-11.1556
▁광부들	-11.1562
▁인체	-11.1562
▁통일	-11.1567
▁참여하는	-11.1572
▁가축	-11.1574
▁아이티	-11.1578
▁격리	-11.1581
▁인계	-11.159
▁동전	-11.1599
▁호화	-11.1601
▁지문	-11.1613
시켜야	-11.1613
ze	-11.1619
▁성공회	-11.1626
▁이어질	-11.1627
마이어	-11.163
▁비유	-11.163
▁정오	-11.163
tter	-11.1632
▁불화	-11.1637
머리	-11.1642
▁무장대원들	-11.1646
lee	-11.1649
킨스	-11.1651
▁전략적	-11.1657
▁실력	-11.166
전쟁	-11.1668
▁선정됐다	-11.1689
▁의원들에게	-11.1697
▁주교	-11.1697
▁사제	-11.1732
버릴	-11.1737
건설	-11.1745
fa	-11.1768
▁파손되	-11.1776
시키는데	-11.1786
▁소방관	-11.1794
▁확실하지	-11.18
▁이뤄	-11.1801
▁효율	-11.1803
셉	-11.1815
▁url	-11.1819
▁광우병	-11.1819
▁글래스고	-11.1819
▁뉴캐슬	-11.1819
▁몸무게	-11.1819
▁이르렀다	-11.1819
▁재확인	-11.1819
▁카자흐스탄	-11.1819
▁할아버지	-11.1819
믹	-11.1819
▁동북아	-11.1819
▁맞붙	-11.1819
▁무너져	-11.1819
▁브리티시	-11.1819
▁왕복선	-11.1819
▁집무실	-11.1819
퓨	-11.1819
▁protest	-11.1819
▁당나귀	-11.1819
▁계열사	-11.1819
▁매머드	-11.1819
▁앵커	-11.1819
▁중산층	-11.1819
마누엘	-11.1819
▁국가주석	-11.1819
▁김선일	-11.1819
▁대주교	-11.1819
▁무너진	-11.1819
▁예언자	-11.1819
▁지중해	-11.1819
▁세비야	-11.1819
▁냉전	-11.1819
▁영부인	-11.182
▁축구팬	-11.182
▁퇴치	-11.182
▁프린스	-11.182
▁수십억	-11.182
▁힌두교	-11.1821
▁쇼핑몰	-11.1821
▁효력	-11.1821
▁벌어들	-11.1821
▁공군기지	-11.1821
▁둘째	-11.1822
▁피닉스호	-11.1822
▁농담	-11.1823
▁높아졌다	-11.1823
▁레논	-11.1823
▁밤새	-11.1824
▁연휴	-11.1824
죽	-11.1824
▁허블	-11.1825
▁취약	-11.1827
▁선데이	-11.1827
▁헌신	-11.1828
▁정상회의	-11.183
▁몰래	-11.1831
book	-11.1831
▁may	-11.1831
▁유효	-11.1831
▁천문학자들	-11.1832
said	-11.1833
▁사법부	-11.1833
▁다녀	-11.1834
▁회색	-11.1835
▁공백	-11.1836
▁폐기물	-11.1836
▁지속될	-11.1837
▁제패	-11.1837
▁종양	-11.1837
▁라이프	-11.1842
▁허위	-11.1845
음악	-11.1845
▁정보국	-11.1849
▁감량	-11.1849
▁난동	-11.1851
▁있었는지	-11.1853
▁노동부	-11.1854
▁우연	-11.1856
▁책정	-11.1858
배우	-11.186
▁off	-11.186
▁개최되	-11.186
▁부른	-11.186
▁재발	-11.1869
▁청소년들	-11.1871
▁ak	-11.1871
▁이례적	-11.1872
▁성경	-11.1876
▁전설적	-11.1877
▁강연	-11.1879
▁추락했다	-11.1882
▁선거전	-11.1884
▁감원	-11.1889
▁호위	-11.189
▁전송	-11.1895
▁협상단	-11.1899
▁내정자	-11.1899
▁참석하기	-11.1899
▁지키기	-11.1903
▁누드	-11.1908
▁페르	-11.1909
▁가결	-11.1912
▁단일	-11.1913
▁방치	-11.1915
▁한쪽	-11.192
▁시작되었다	-11.1923
동물	-11.1923
▁채우	-11.1923
▁시경	-11.1924
▁나란	-11.1924
▁현안	-11.1926
▁공세	-11.193
▁서명했다	-11.1933
▁광대	-11.1935
베키	-11.1938
▁kt	-11.1948
▁엑스	-11.1953
▁공부	-11.1954
▁건물들	-11.1955
▁국정	-11.1963
학회	-11.1969
▁면적	-11.1976
▁일상적	-11.1987
▁넣어	-11.1988
▁걸었다	-11.1992
베라	-11.2006
엑	-11.2016
략	-11.2017
노프	-11.2023
▁팔려	-11.2024
ator	-11.2025
▁피의자	-11.2044
▁본국	-11.205
▁sun	-11.2051
tive	-11.2082
▁지연되	-11.2111
▁불가피	-11.2111
ncy	-11.2126
▁wh	-11.213
aw	-11.2142
융	-11.2149
▁group	-11.2153
▁그루지아	-11.2153
▁마흐무드	-11.2153
▁미네소타	-11.2153
▁상파울루	-11.2153
▁세계보건기구	-11.2153
▁양육권	-11.2153
▁우주정거장	-11.2153
▁인종차별	-11.2153
▁촛불	-11.2153
▁커뮤니티	-11.2153
돔	-11.2153
랫	-11.2153
엽	-11.2153
윗	-11.2153
▁attack	-11.2153
▁control	-11.2153
▁도널드	-11.2153
▁빠뜨	-11.2153
▁인디아나	-11.2153
▁호르몬	-11.2153
▁벤자민	-11.2153
▁부작용	-11.2153
▁피아노	-11.2153
▁안락사	-11.2153
▁블로거	-11.2153
▁침투	-11.2153
▁첨단	-11.2153
▁닥터	-11.2153
▁퇴직	-11.2153
▁풍경	-11.2153
▁자서전	-11.2153
▁office	-11.2153
▁페트로	-11.2153
▁퇴장	-11.2153
▁수하물	-11.2154
▁콜롬	-11.2154
▁두뇌	-11.2154
▁수비수	-11.2154
▁타이완	-11.2154
▁지뢰	-11.2154
▁도미니카	-11.2154
▁일축했다	-11.2155
▁활기	-11.2155
▁불쾌	-11.2156
▁여배우	-11.2156
▁쿠르드족	-11.2156
▁홈런	-11.2157
▁물리치	-11.2157
▁조셉	-11.2157
▁필리스	-11.2158
▁연방법원	-11.2159
▁언제든	-11.2161
▁해킹	-11.2162
▁면역	-11.2162
중국	-11.2163
▁토론토	-11.2164
▁아끼	-11.2165
▁임박	-11.2165
줘야	-11.2165
▁get	-11.2165
▁재벌	-11.2166
▁구단주	-11.2166
▁지닌	-11.2166
▁정보기관	-11.2167
▁토양	-11.217
▁어디서	-11.217
▁통역	-11.2171
▁후퇴	-11.2178
▁유예	-11.2179
붙	-11.218
▁기초	-11.2181
넣	-11.2186
▁비평	-11.2187
▁비준	-11.2188
▁과실	-11.2189
▁부장관	-11.2192
▁차림	-11.2194
▁문신	-11.2195
▁군복	-11.2198
▁조종	-11.2199
▁군부대	-11.2201
기위해	-11.2206
▁지하드	-11.2208
▁군데	-11.2208
▁구형	-11.2215
▁pi	-11.2215
장애	-11.2215
▁승자	-11.2216
▁확실하다	-11.2225
▁교량	-11.2229
▁감면	-11.2229
부족	-11.223
▁알았다	-11.2232
▁발명	-11.224
▁요트	-11.2252
▁결장	-11.2253
웃	-11.2257
글리	-11.2259
▁제공한다	-11.2263
종일	-11.2265
▁적당	-11.2266
▁발부	-11.227
버렸	-11.2272
▁사회주의	-11.2285
있으며	-11.2285
▁홀리	-11.2319
▁탈출했다	-11.2333
▁과학적	-11.2359
발전	-11.236
▁포함된다	-11.2371
데르	-11.2465
공항	-11.2476
▁북부지역	-11.2483
줘	-11.2484
▁매사추세츠	-11.2486
▁윤리	-11.2488
붕	-11.2492
탔	-11.2495
▁death	-11.2497
▁police	-11.2497
▁research	-11.2497
▁service	-11.2497
▁그루지야	-11.2497
▁냄새	-11.2497
▁동계올림픽	-11.2497
▁매코맥	-11.2497
▁맥코맥	-11.2497
▁메사추세츠	-11.2497
▁몸집	-11.2497
▁무하메드	-11.2497
▁미드필더	-11.2497
▁박테리아	-11.2497
▁블룸버그	-11.2497
▁수하르토	-11.2497
▁슈워제네거	-11.2497
▁악영향	-11.2497
▁알자와히리	-11.2497
▁암스트롱	-11.2497
▁오키나와	-11.2497
▁재정경제부	-11.2497
▁친선경기	-11.2497
▁캠벨	-11.2497
▁케르비엘	-11.2497
▁프로듀서	-11.2497
넥	-11.2497
둬	-11.2497
쿼	-11.2497
▁방사능	-11.2497
▁스피처	-11.2497
▁이스탄불	-11.2497
▁종신형	-11.2497
▁아스널	-11.2497
▁오징어	-11.2497
▁바쿠바	-11.2497
▁총기난사	-11.2497
▁침착	-11.2498
▁흥행	-11.2498
▁맹세	-11.2498
▁속옷	-11.2498
▁중서부	-11.2498
▁도덕적	-11.2498
▁크라우	-11.2498
▁꼬리	-11.2498
▁납치범들	-11.2498
▁제트기	-11.2499
ious	-11.2499
▁품질	-11.2499
▁back	-11.2499
▁중앙정보	-11.2499
▁탔다	-11.25
▁패널	-11.25
▁계곡	-11.2501
▁뒤따	-11.2501
▁심사위원	-11.2501
▁블록	-11.2501
▁면밀	-11.2501
▁태양열	-11.2502
▁대피령	-11.2502
▁같았다	-11.2502
▁환경보호	-11.2503
▁총알	-11.2505
▁생겼다	-11.2506
▁요격	-11.2508
▁불안감	-11.2509
▁가르치	-11.251
▁존드로	-11.251
▁피셔	-11.251
▁적대적	-11.2511
▁배제하지	-11.2512
▁외교관계	-11.2512
▁성행위	-11.2513
▁쓰여	-11.2513
▁수백만명	-11.2514
▁곡물	-11.2514
▁바이오	-11.2514
▁항복	-11.2514
▁평방	-11.2515
roll	-11.2515
▁여자들	-11.2516
▁남았다	-11.2518
▁소령	-11.2518
▁격려	-11.2518
▁참전	-11.2519
▁대학살	-11.252
▁아닐	-11.252
▁레저	-11.2523
▁지침	-11.2527
▁여년	-11.2528
▁원격	-11.2529
▁산악지역	-11.2529
▁얼리	-11.2532
▁아카데미상	-11.2533
▁소식통들	-11.2535
▁교토	-11.2535
▁주어진	-11.2537
▁크리스티나	-11.2537
책임자	-11.2539
▁만찬	-11.2544
▁구제안	-11.2546
▁지표	-11.2558
▁정통	-11.2558
▁필립스	-11.2558
▁시범	-11.2565
▁취소됐다	-11.2569
▁용서	-11.2576
▁운하	-11.2581
▁향했다	-11.2597
▁포기하지	-11.2622
▁지속된	-11.2643
▁미군측	-11.2643
요원들	-11.2647
▁근무하	-11.2655
▁일방적	-11.2659
▁fr	-11.2672
▁돌보	-11.2673
▁집안	-11.2675
▁sur	-11.2682
▁중국인들	-11.2712
con	-11.2718
교회	-11.2734
▁동부지역	-11.2736
▁판사들	-11.2748
▁진행됐다	-11.2752
▁손님	-11.2756
ara	-11.2769
▁일으켰	-11.2779
▁고고학자들	-11.2785
▁범죄자들	-11.2809
▁걸려있	-11.281
픈	-11.2834
▁참가하	-11.2839
사이드	-11.284
▁관료	-11.2841
건물	-11.2845
▁잠재	-11.2846
▁천억	-11.2852
흙	-11.2853
▁economic	-11.2855
▁market	-11.2855
▁구스마오	-11.2855
▁놀랐다	-11.2855
▁뉴멕시코	-11.2855
▁만장일치	-11.2855
▁모하마드	-11.2855
▁벨몬트	-11.2855
▁사형집행	-11.2855
▁애틀란타	-11.2855
▁자메이카	-11.2855
▁캠퍼스	-11.2855
▁캥거루	-11.2855
▁클리블랜드	-11.2855
▁탈라바니	-11.2855
▁터미널	-11.2855
▁퍼트레이어스	-11.2855
▁펼칠	-11.2855
▁피추시킨	-11.2855
셈	-11.2855
팍	-11.2855
▁agree	-11.2855
▁bmw	-11.2855
▁issue	-11.2855
▁united	-11.2855
▁나타낸	-11.2855
▁승용차	-11.2855
▁실업수당	-11.2855
▁크누트	-11.2855
뻔	-11.2855
▁검찰총장	-11.2855
▁생중계	-11.2855
▁김계관	-11.2855
▁세실리아	-11.2855
▁구조조정	-11.2855
▁수개월	-11.2855
▁북동쪽	-11.2855
▁앗아	-11.2855
▁깃발	-11.2855
▁비영리	-11.2855
▁냉동	-11.2855
▁월드시리즈	-11.2855
▁북서쪽	-11.2855
▁염두	-11.2855
▁러셀	-11.2855
▁뜨거	-11.2855
▁유니버	-11.2855
▁월마트	-11.2855
▁미망인	-11.2855
▁노왁	-11.2856
▁제라드	-11.2856
▁흐르	-11.2856
▁전염병	-11.2857
▁down	-11.2857
▁chin	-11.2857
▁제이미	-11.2858
▁무엇인지	-11.2858
▁공략	-11.2858
▁외교정책	-11.2858
▁펠리	-11.2858
▁메뉴	-11.2858
▁페리노	-11.2859
▁국영방송	-11.2859
▁face	-11.2859
▁보석금	-11.2861
▁나쁘	-11.2861
▁간섭	-11.2861
▁천억원	-11.2861
▁격추	-11.2861
▁갖는다	-11.2861
▁교황청	-11.2862
▁다짐	-11.2862
▁사마라	-11.2862
▁보상금	-11.2862
▁평범	-11.2862
▁밀림	-11.2863
▁want	-11.2864
▁탄약	-11.2864
▁어려워	-11.2864
▁eta	-11.2865
▁방북	-11.2866
▁완공	-11.2866
▁공산	-11.2867
▁메달	-11.2867
▁머피	-11.2867
▁왔습니다	-11.2867
▁주치의	-11.2867
▁감추	-11.2869
▁즐거	-11.2869
▁바퀴	-11.2871
▁건립	-11.2871
▁악재	-11.2873
▁law	-11.2874
▁피플	-11.2874
▁폭풍우	-11.2874
▁사우스	-11.2877
▁순찰대	-11.2877
▁행방	-11.2879
▁발목	-11.2879
▁국토	-11.288
▁중단하라	-11.288
▁세균	-11.288
▁십대	-11.2882
▁타입	-11.2884
▁것이냐	-11.2884
▁대피소	-11.2885
▁야심	-11.2886
▁공개되지	-11.2887
▁스파이스	-11.2891
▁안겨	-11.2897
▁번영	-11.2898
▁대도시	-11.2899
▁서버	-11.2902
▁장관급	-11.2906
▁상원의원직	-11.2909
폭탄테러	-11.2909
▁경신	-11.2911
▁악성	-11.2913
흔	-11.2913
▁최상	-11.2913
▁안건	-11.2917
▁유포	-11.2921
주택	-11.2938
▁제작자들	-11.2952
▁was	-11.2972
▁연관된	-11.2976
되게	-11.3014
▁환영한다	-11.3019
병력	-11.3034
▁fire	-11.3034
▁피해지역	-11.3039
ash	-11.3039
부르크	-11.3087
▁블로그	-11.3107
▁중단시키	-11.3145
▁소유자	-11.315
▁제조사	-11.3173
▁만들었	-11.3177
▁반대한다	-11.3186
ii	-11.319
▁편집자	-11.3207
멍	-11.3221
옐	-11.3225
▁consumer	-11.3225
▁general	-11.3225
▁넘어섰다	-11.3225
▁브로드웨이	-11.3225
▁오피니언	-11.3225
▁웨스트버지니아	-11.3225
▁초등학교	-11.3225
▁호흡기	-11.3225
갓	-11.3225
띠	-11.3225
헴	-11.3225
▁peace	-11.3225
▁댈러스	-11.3225
▁에탄올	-11.3225
궈	-11.3225
깜	-11.3225
듬	-11.3225
푼	-11.3225
▁change	-11.3225
▁따돌리	-11.3225
▁무책임	-11.3225
▁여동생	-11.3225
▁올바른	-11.3225
▁최우수	-11.3225
▁저작권	-11.3225
▁앙겔	-11.3225
▁겁니다	-11.3225
▁call	-11.3225
▁financ	-11.3225
▁이벤트	-11.3225
▁chief	-11.3225
▁압승	-11.3225
▁부회장	-11.3225
▁하반기	-11.3225
▁이른바	-11.3225
▁도메인	-11.3225
▁셔츠	-11.3225
▁비평가들	-11.3226
▁습관	-11.3226
▁하리리	-11.3226
▁낙찰	-11.3226
▁늘어났다	-11.3226
▁담겨있다	-11.3226
▁빨간색	-11.3226
트로터	-11.3227
▁디스커버리호	-11.3227
▁under	-11.3227
▁make	-11.3227
▁어휘	-11.3227
▁홀랜드	-11.3229
▁제재조치	-11.3229
▁후계자	-11.323
▁열쇠	-11.323
▁다뤄	-11.323
▁초대형	-11.3231
▁에이미	-11.3232
▁평결	-11.3232
▁유혹	-11.3232
▁자치구	-11.3233
▁결백	-11.3233
▁arm	-11.3234
▁삼림	-11.3234
▁벌금형	-11.3234
▁밀집	-11.3234
▁글렌	-11.3235
▁영입	-11.3238
▁데니스	-11.3239
▁개헌	-11.3241
▁놓았다	-11.3241
▁영역	-11.3242
▁독점	-11.3245
▁올릴	-11.3255
▁유독	-11.3256
▁생물학자	-11.3256
▁악화될	-11.3258
▁도왔다	-11.326
▁agenc	-11.326
▁공통	-11.327
▁노동력	-11.327
▁육상	-11.327
▁걸프	-11.3271
▁대담	-11.3272
▁불가피하다	-11.3273
▁자매	-11.3275
▁시술	-11.3275
▁오락	-11.3277
▁상태였다	-11.3278
▁자유당	-11.3282
꾸	-11.3282
▁보았다	-11.3285
▁소감	-11.3288
▁따뜻하	-11.3289
▁자회사	-11.3289
▁경위	-11.329
캔	-11.329
▁비극적	-11.3292
뼈	-11.3293
▁실내	-11.3294
▁공방	-11.3295
넘	-11.33
▁장착된	-11.3306
대사관	-11.3307
환경	-11.3309
▁star	-11.3317
▁밀수	-11.3319
▁가이드	-11.3364
▁관해서	-11.3369
▁후임자	-11.3385
▁pf	-11.3387
▁나라들	-11.3408
▁농구	-11.3419
into	-11.3428
ark	-11.3446
▁살해하겠다	-11.348
▁맡아	-11.3504
▁분리주의	-11.3538
▁녹아	-11.3538
▁지났	-11.3546
밀리에	-11.3554
▁치명적	-11.3557
▁조달	-11.3567
▁펼쳤	-11.357
▁올렸	-11.3576
쁜	-11.3604
딴	-11.3607
▁baghdad	-11.361
▁health	-11.361
▁pakistan	-11.361
▁ufo	-11.361
▁과테말라	-11.361
▁국가보안법	-11.361
▁닌텐도	-11.361
▁단백질	-11.361
▁리얼리티	-11.361
▁마호메트	-11.361
▁베테랑	-11.361
▁보건복지부	-11.361
▁세번째	-11.361
▁알렉산드	-11.361
▁엔터테인먼트	-11.361
▁원내대표	-11.361
▁의료보험	-11.361
▁조선중앙통신	-11.361
▁조코비치	-11.361
▁집행유예	-11.361
▁추수감사절	-11.361
뇨	-11.361
멧	-11.361
벡	-11.361
탬	-11.361
▁bbk	-11.361
▁싱가폴	-11.361
겹	-11.361
무장혁명군	-11.361
▁당분간	-11.361
▁두개골	-11.361
▁솔로몬	-11.361
▁안타까	-11.361
▁열렬한	-11.361
▁정동영	-11.361
▁토마토	-11.361
▁퍼레이드	-11.361
▁뉴욕증시	-11.361
▁비공개	-11.361
▁의구심	-11.361
▁제네바	-11.361
▁콜레라	-11.361
▁좌익	-11.361
▁종업원	-11.361
▁수족관	-11.361
▁링컨	-11.361
▁태어나	-11.361
▁white	-11.361
▁잡혀있	-11.361
▁가볍	-11.361
▁검출	-11.361
▁유태인	-11.361
▁검진	-11.361
▁낙관적	-11.3611
▁규명	-11.3611
▁신용위기	-11.3611
▁대지진	-11.3611
▁설교	-11.3611
▁결렬	-11.3612
▁참패	-11.3612
▁zan	-11.3612
▁꾸준	-11.3612
▁sex	-11.3612
▁티켓	-11.3612
▁호주오픈	-11.3612
▁돌아갔다	-11.3613
▁코미디언	-11.3613
▁노리에가	-11.3614
▁free	-11.3614
▁연합뉴스	-11.3614
▁풍자	-11.3614
▁과잉	-11.3614
▁삼엄	-11.3614
▁워커	-11.3614
▁혼합	-11.3615
▁계층	-11.3617
▁배럭	-11.3617
▁남겼다	-11.3619
▁격분	-11.3619
▁사진기자	-11.3619
▁태양계	-11.3621
▁영예	-11.3621
▁매춘부	-11.3621
▁광경	-11.3622
▁더이상	-11.3623
▁포스터	-11.3623
▁신념	-11.3624
▁이정인	-11.3624
▁사찰	-11.3626
▁극심	-11.3628
▁리틀	-11.3628
▁권유	-11.3633
▁지폐	-11.3634
▁시사회	-11.3635
▁연립	-11.3635
▁저격	-11.3635
▁계단	-11.3636
▁상반	-11.3636
▁관행	-11.3637
▁예금	-11.3637
▁보수파	-11.3639
▁suv	-11.364
▁발견돼	-11.3643
▁마샤	-11.3643
▁순회	-11.3644
▁현직	-11.3645
▁맡게	-11.3646
▁빨간	-11.3647
▁비자금	-11.3651
▁기념일	-11.3652
▁발작	-11.3654
▁순수	-11.3654
▁단호	-11.3657
▁재생	-11.3658
▁소방관들	-11.3659
▁정상적으로	-11.366
▁부각	-11.3663
▁빚어	-11.3679
금융	-11.3697
오픈	-11.3707
▁나갔다	-11.3711
▁취해야	-11.3725
▁여러분들	-11.3727
▁che	-11.3736
▁당원들	-11.3751
▁per	-11.3792
▁방문객	-11.3796
▁파괴되	-11.3813
▁fund	-11.3825
라이브	-11.3837
▁chi	-11.3855
▁찬사	-11.3881
▁구조대원	-11.3891
io	-11.3954
dai	-11.3983
▁america	-11.3987
롯	-11.4003
펀	-11.4009
▁갤럭시	-11.401
▁곤돌라	-11.401
▁대통합민주신당	-11.401
▁동남아시아	-11.401
▁동점골	-11.401
▁라왈핀디	-11.401
▁로맨틱	-11.401
▁루마니아	-11.401
▁아웅산수지	-11.401
▁얀코비치	-11.401
▁엔데버호	-11.401
▁이데올로기	-11.401
▁짝짓기	-11.401
▁카톨릭	-11.401
▁타블로이드	-11.401
▁페널티킥	-11.401
▁평론가들	-11.401
▁폴라로이드	-11.401
룽	-11.401
솜	-11.401
쩌	-11.401
펫	-11.401
▁report	-11.401
▁soldier	-11.401
▁농작물	-11.401
▁대중교통	-11.401
▁무너졌다	-11.401
▁페르난도	-11.401
딱	-11.401
찔	-11.401
▁wild	-11.401
▁원정경기	-11.401
▁카라카스	-11.401
▁터무니	-11.401
▁로페즈	-11.401
▁백화점	-11.401
▁유망주	-11.401
▁마닐라	-11.401
▁카리스마	-11.401
▁보스니아	-11.401
▁내비쳤다	-11.401
▁자이툰	-11.401
▁ftse	-11.401
▁냉각	-11.401
▁테이블	-11.401
▁뮤직	-11.401
▁good	-11.401
▁that	-11.401
▁살모넬라균	-11.401
▁숨지게	-11.401
▁소수민족	-11.401
▁소아과	-11.401
▁가자시티	-11.4011
▁부정선거	-11.4011
▁brit	-11.4011
▁나중에	-11.4012
▁범람	-11.4012
▁결승골	-11.4012
▁hel	-11.4012
▁관광산업	-11.4012
▁밀접	-11.4012
ease	-11.4014
▁면허	-11.4014
▁당첨	-11.4016
▁울머	-11.4017
▁경제성장률	-11.4017
▁입찰	-11.4018
▁밀매	-11.4018
▁궁금	-11.4018
▁창립	-11.4019
▁오스틴	-11.4019
▁온천	-11.4019
▁도착했을	-11.402
▁기둥	-11.4021
▁심장병	-11.4021
▁결별	-11.4021
▁평생	-11.4021
▁난폭	-11.4021
▁매사추세츠주	-11.4023
▁표적이	-11.4023
▁삼았다	-11.4023
▁직무	-11.4024
▁연구조사	-11.4024
▁비싸	-11.4025
▁디에고	-11.4025
▁모닝	-11.4026
▁걸음	-11.4028
▁동남	-11.4029
▁지칭	-11.403
▁세레나	-11.4031
▁페퍼	-11.4032
▁책임감	-11.4032
▁외각	-11.4034
▁억압	-11.4036
▁감동	-11.4045
▁바스크	-11.4047
게이트	-11.4049
▁동행	-11.4059
▁육성	-11.4065
▁윤리적	-11.4067
ful	-11.4078
▁cur	-11.4085
▁일반인들	-11.4106
즐	-11.411
잘	-11.4112
올림픽	-11.4118
민족	-11.4125
능력	-11.4134
▁esta	-11.4137
▁줄어들었다	-11.4166
ama	-11.4168
uni	-11.4188
▁민주당원들	-11.4216
▁거주자	-11.4247
▁자랑스럽	-11.4269
▁상업적	-11.4276
▁다쳤	-11.4289
▁start	-11.4331
▁보여준	-11.4363
▁착용하	-11.4384
▁다국적	-11.4416
▁경제성장	-11.4419
엇	-11.4422
콕	-11.4424
숭	-11.4426
▁about	-11.4426
▁girl	-11.4426
▁oecd	-11.4426
▁가톨릭	-11.4426
▁몬타나	-11.4426
▁무크타다	-11.4426
▁버시바우	-11.4426
▁브뤼셀	-11.4426
▁사카쉬빌리	-11.4426
▁컨퍼런스	-11.4426
▁콘크리트	-11.4426
▁콜레스테롤	-11.4426
▁프란시스	-11.4426
▁프리메라리가	-11.4426
▁합참의장	-11.4426
궐	-11.4426
캣	-11.4426
켐	-11.4426
콥	-11.4426
쿤	-11.4426
퀘	-11.4426
펙	-11.4426
▁trans	-11.4426
▁wwf	-11.4426
▁무차별	-11.4426
▁부정부패	-11.4426
▁여객선	-11.4426
▁임산부	-11.4426
▁크리켓	-11.4426
뭉	-11.4426
▁금융제재	-11.4426
▁로널드	-11.4426
▁니제르	-11.4426
▁수마트라	-11.4426
▁휴양지	-11.4426
▁팔루자	-11.4426
▁횡단	-11.4426
▁힉스	-11.4426
▁호르타	-11.4426
▁기번스	-11.4426
▁오마바	-11.4426
▁뒤덮	-11.4426
▁번호판	-11.4426
▁쟁점	-11.4426
▁엄중	-11.4427
▁활력	-11.4427
▁주니어	-11.4427
▁이소연	-11.4427
▁페인트	-11.4427
▁아지즈	-11.4427
▁소요사태	-11.4427
clu	-11.4427
▁와중에	-11.4428
▁home	-11.4429
▁농촌	-11.4429
▁근접	-11.4429
▁불쾌감	-11.4429
▁간첩	-11.443
▁통계청	-11.443
▁참가국들	-11.443
▁액수	-11.4431
▁흉기	-11.4432
▁평창	-11.4432
▁휩싸였다	-11.4432
▁공급받	-11.4432
▁싸울	-11.4432
▁추모식	-11.4433
▁중태라	-11.4434
▁총격사건	-11.4434
▁최후	-11.4434
▁평등	-11.4435
▁앙리	-11.4435
스테이트	-11.4435
▁수년간	-11.4436
▁이루어질	-11.4436
▁union	-11.4436
▁rights	-11.4437
▁연애	-11.4439
▁패션계	-11.4439
▁테네시주	-11.4439
▁말라위	-11.444
▁금지령	-11.4442
▁테러공격	-11.4442
▁피델	-11.4443
▁팔렸다	-11.4444
▁지나친	-11.4444
▁연습	-11.4445
▁핵문제	-11.4447
▁포격	-11.4449
▁뉴저지주	-11.4449
▁물리적	-11.4449
▁본래	-11.4452
▁단절	-11.4452
▁정글	-11.4452
▁황제	-11.4454
▁철거	-11.4455
과학기술	-11.4456
other	-11.4457
▁마텔	-11.4457
▁관료들	-11.4459
▁울프	-11.446
▁지도력	-11.4462
▁경찰청장	-11.4469
▁가즈니주	-11.4476
▁분명하다	-11.4481
▁괴한들	-11.4486
▁마르코	-11.4502
▁개혁안	-11.4531
곰	-11.4543
잠	-11.4544
딸	-11.4544
아프리카	-11.4544
보좌관	-11.4545
월드컵	-11.4547
▁맺었다	-11.4553
▁피고인들	-11.4566
소득	-11.4575
▁심각하다	-11.4577
▁투자가들	-11.4582
▁우주비행사들	-11.4603
▁만족한다	-11.4617
uri	-11.4631
▁fun	-11.4638
▁학자들	-11.4642
▁pop	-11.4658
ki	-11.4676
▁franc	-11.469
▁외교관들	-11.4719
▁들어갔	-11.48
▁자원봉사	-11.4801
▁대학생들	-11.4809
▁나갔	-11.4815
▁안되	-11.4846
▁테네시	-11.4848
획	-11.485
▁검문	-11.4855
▁australia	-11.4861
▁constitution	-11.4861
▁school	-11.4861
▁검시관	-11.4861
▁국토안보부	-11.4861
▁그린스펀	-11.4861
▁대량살상무기	-11.4861
▁디얄라	-11.4861
▁떨어뜨	-11.4861
▁라우터바흐	-11.4861
▁롱고리아	-11.4861
▁선거캠페인	-11.4861
▁슈나이더	-11.4861
▁앨라배마	-11.4861
▁언색호	-11.4861
▁오차범위	-11.4861
▁지구온난화	-11.4861
▁클레이코트	-11.4861
▁테헤란	-11.4861
옌	-11.4861
쥬	-11.4861
쭉	-11.4861
츄	-11.4861
▁gnp	-11.4861
▁six	-11.4861
▁급상승	-11.4861
▁낙하산	-11.4861
▁농산물	-11.4861
▁신행정수도	-11.4861
▁카메론	-11.4861
▁졸릭	-11.4861
▁내다봤	-11.4861
▁괴롭	-11.4861
▁안젤리	-11.4861
▁올랜도	-11.4861
▁저녁식사	-11.4861
▁마스터스	-11.4861
▁주머니	-11.4861
▁줄어든	-11.4861
▁획기적	-11.4861
▁tax	-11.4861
▁유시프	-11.4861
▁administration	-11.4861
▁검열	-11.4861
▁몬테	-11.4861
▁반도체	-11.4861
▁리더십	-11.4861
▁정부청사	-11.4862
▁황교수	-11.4862
▁사냥꾼	-11.4862
▁납부	-11.4862
▁쓰러졌	-11.4862
▁싱글	-11.4862
▁poll	-11.4863
▁근본적	-11.4863
ould	-11.4864
▁아르빌	-11.4864
▁무엇인가	-11.4864
▁동맹관계	-11.4864
▁자본주의	-11.4865
▁자살폭탄	-11.4865
▁호킨스	-11.4865
▁그린랜드	-11.4865
▁토끼	-11.4865
▁보도자료	-11.4866
▁아바타	-11.4867
물리학	-11.4868
▁자유로운	-11.4869
▁늘어난	-11.487
▁제조회사	-11.487
▁토로했다	-11.4871
▁한국전쟁	-11.4872
▁친밀	-11.4872
▁발송	-11.4873
▁불경기	-11.4874
▁살짜리	-11.4875
▁라틴	-11.4876
▁알아내	-11.4876
▁tru	-11.4876
▁기념품	-11.4876
▁증가시키	-11.4877
▁해준다	-11.4878
▁선거자금	-11.4879
▁미시간주	-11.4881
▁증산	-11.4881
▁성능	-11.4882
▁재능	-11.4883
▁샤론	-11.4883
▁온건	-11.4884
▁교역	-11.4886
▁친절	-11.4887
▁인천	-11.4888
▁증오	-11.4889
cent	-11.4893
▁피터슨	-11.4913
▁서있	-11.4916
even	-11.492
▁진정시키	-11.4934
▁이민법	-11.4951
▁어려웠	-11.4957
▁서울시장	-11.4963
▁순례객	-11.4969
▁서부지역	-11.4984
▁기대된다	-11.4987
휘	-11.4988
dict	-11.4988
팬	-11.5
미사일	-11.5001
반응	-11.5004
댄	-11.5004
혁명	-11.5009
마른	-11.5045
▁피랍됐	-11.5127
▁알려졌	-11.5155
▁떠났	-11.5244
▁우주비행	-11.5288
갱	-11.5315
▁beijing	-11.5316
▁break	-11.5316
▁claim	-11.5316
▁defense	-11.5316
▁democra	-11.5316
▁hsbc	-11.5316
▁movie	-11.5316
▁nymex	-11.5316
▁resign	-11.5316
▁society	-11.5316
▁street	-11.5316
▁summit	-11.5316
▁system	-11.5316
▁갇혀있	-11.5316
▁국제사면위원회	-11.5316
▁김경준	-11.5316
▁돈세탁	-11.5316
▁땅콩	-11.5316
▁베스트셀러	-11.5316
▁선제골	-11.5316
▁손해배상	-11.5316
▁신천옹	-11.5316
▁아라파트	-11.5316
▁아이슬란드	-11.5316
▁애널리스트	-11.5316
▁우비넨	-11.5316
▁윌리암	-11.5316
▁자이언트	-11.5316
▁전화통화	-11.5316
▁참모총장	-11.5316
▁콘텐트	-11.5316
▁틀림없	-11.5316
▁페르난데스	-11.5316
▁푸에르토리코	-11.5316
덱	-11.5316
둠	-11.5316
밭	-11.5316
봅	-11.5316
썩	-11.5316
촨	-11.5316
파이낸셜	-11.5316
▁arrest	-11.5316
▁플레이오프	-11.5316
윙	-11.5316
▁몰디브	-11.5316
▁폭넓	-11.5316
▁price	-11.5316
▁무중력	-11.5316
▁인디언	-11.5316
▁해리왕자	-11.5316
▁브라더스	-11.5316
▁황박사	-11.5316
▁가금류	-11.5316
▁가석방	-11.5316
▁공동성명	-11.5316
▁gps	-11.5316
▁자부심	-11.5316
▁갱신	-11.5316
▁오페라	-11.5316
▁차세대	-11.5316
▁후쿠다	-11.5316
▁발레리	-11.5316
▁선진국	-11.5316
ship	-11.5316
▁지저스	-11.5316
▁탑재	-11.5316
▁thre	-11.5316
▁남서쪽	-11.5316
▁프리킥	-11.5316
▁곤란	-11.5316
▁진원지	-11.5316
▁트레킹	-11.5316
▁방위군	-11.5316
▁접어들	-11.5316
▁설문조사	-11.5316
▁놀랍	-11.5316
▁침실	-11.5316
▁라시드	-11.5316
▁아이팟	-11.5316
▁격돌한	-11.5316
▁프레슬리	-11.5317
▁vote	-11.5317
▁강아지	-11.5317
▁삼성그룹	-11.5317
▁딜리	-11.5317
▁india	-11.5317
▁익사	-11.5318
▁삭스	-11.5318
▁푸켓	-11.5318
▁다툼	-11.5319
▁지방선거	-11.5319
▁이틀째	-11.5319
▁기차역	-11.532
▁포옹	-11.532
▁화폐	-11.532
▁폐허	-11.532
▁보건당국	-11.5321
▁물러난	-11.5321
▁기부금	-11.5321
▁왕궁	-11.5322
▁프라임	-11.5322
▁post	-11.5322
▁웃음	-11.5323
▁빈번	-11.5323
▁않으려	-11.5323
▁휴먼	-11.5323
▁미술관	-11.5324
▁투항	-11.5324
▁다룰	-11.5325
▁rul	-11.5325
링턴	-11.5326
▁두려워하	-11.5326
▁헌터	-11.5327
▁해산물	-11.5328
▁정교회	-11.5329
▁대기권	-11.533
▁석탄	-11.533
▁우익	-11.533
▁터너	-11.5332
▁단축	-11.5333
▁감각	-11.5334
▁데이브	-11.5334
▁무패	-11.5334
▁독자적	-11.5335
▁예외	-11.5335
▁live	-11.5376
하기위해	-11.5387
▁공화당원들	-11.5389
므	-11.5426
▁전사들	-11.5428
▁손님들	-11.5448
▁철학	-11.5466
딕	-11.5467
▁조직원들	-11.5475
카메라	-11.5476
투쟁	-11.5479
밴드	-11.5481
분쟁	-11.5481
검색	-11.5486
비행기	-11.5513
az	-11.5559
▁운전자들	-11.5579
▁판매되	-11.5609
form	-11.5643
▁장악하	-11.5652
▁경호원들	-11.57
▁매력적	-11.5706
▁돌아왔	-11.5722
▁걸렸	-11.574
▁나타냈	-11.5746
끔	-11.578
욱	-11.5781
뷔	-11.5788
▁elect	-11.5791
툰	-11.5792
앵	-11.5792
긍	-11.5792
▁black	-11.5792
▁candidate	-11.5792
▁invest	-11.5792
▁journal	-11.5792
▁official	-11.5792
▁public	-11.5792
▁russia	-11.5792
▁science	-11.5792
▁가로질러	-11.5792
▁가이트너	-11.5792
▁그랜드슬램	-11.5792
▁금강산	-11.5792
▁되찾았	-11.5792
▁라스무센	-11.5792
▁레드삭스	-11.5792
▁로드맵	-11.5792
▁마터호른	-11.5792
▁맞교환	-11.5792
▁무너뜨	-11.5792
▁밀리밴드	-11.5792
▁불필요	-11.5792
▁비아그라	-11.5792
▁선생님	-11.5792
▁소렌스탐	-11.5792
▁스콜세지	-11.5792
▁스탤론	-11.5792
▁식이요법	-11.5792
▁신용경색	-11.5792
▁싫어하	-11.5792
▁얼어붙	-11.5792
▁와지리스탄	-11.5792
▁음란물	-11.5792
▁질렀다	-11.5792
▁코네티컷	-11.5792
▁텔레콤	-11.5792
▁투탕카멘	-11.5792
▁팽팽	-11.5792
▁포틀랜드	-11.5792
▁푸에르타	-11.5792
굽	-11.5792
덟	-11.5792
쯔	-11.5792
▁commission	-11.5792
▁국가정보원	-11.5792
▁매릴랜드	-11.5792
▁빈라덴	-11.5792
▁생태계	-11.5792
▁알자지라	-11.5792
▁유네스코	-11.5792
▁점유율	-11.5792
▁제너럴	-11.5792
▁헝가리	-11.5792
▁ecb	-11.5792
▁주미대사	-11.5792
▁학부모	-11.5792
▁forces	-11.5792
▁사절단	-11.5792
▁파이프라인	-11.5792
국가대표팀	-11.5792
▁만델라	-11.5792
▁아메드	-11.5792
▁재처리	-11.5792
▁고마움	-11.5792
▁납북	-11.5792
▁남동쪽	-11.5792
▁본거지	-11.5792
▁트레이드	-11.5792
▁나이로비	-11.5792
▁이뤄져야	-11.5792
▁핑크	-11.5792
▁아로요	-11.5793
▁블레이크	-11.5793
▁증권거래소	-11.5793
▁spec	-11.5793
▁거세지	-11.5793
▁불러일으키	-11.5794
▁park	-11.5794
▁버려진	-11.5794
▁외딴	-11.5795
▁소행이라	-11.5795
▁신분증	-11.5795
▁농부들	-11.5795
▁러브	-11.5797
▁완승	-11.5797
▁투옥	-11.5797
▁버클리	-11.5798
▁작별	-11.5799
▁우호적	-11.5799
▁철강	-11.58
▁전인대	-11.58
메모리얼	-11.58
▁faa	-11.5801
▁보험금	-11.5802
▁바이든	-11.5804
▁생물학적	-11.5805
▁이끌어내	-11.5805
▁잠재력	-11.5807
▁시청률	-11.5821
▁분리주의자들	-11.5826
▁앉아있	-11.5835
▁금연법	-11.584
▁노출되	-11.5846
ness	-11.5859
▁취업	-11.5887
▁고고학자	-11.5888
훈련	-11.5942
엠	-11.5974
핵	-11.5975
평균	-11.598
▁민영	-11.6018
▁체포되	-11.6068
▁ira	-11.6089
ham	-11.6094
▁지나갔	-11.6117
보관소	-11.6166
▁이뤄졌	-11.6224
▁제기되	-11.6244
컷	-11.6256
▁선보였	-11.6273
▁메모리	-11.6283
룡	-11.6289
▁힌두	-11.629
ough	-11.6292
▁food	-11.6292
▁glob	-11.6292
▁green	-11.6292
▁rctv	-11.6292
▁support	-11.6292
▁window	-11.6292
▁갖췄다	-11.6292
▁갤러리	-11.6292
▁나이트클럽	-11.6292
▁네그로폰테	-11.6292
▁뉴욕상업거래소	-11.6292
▁매카트니	-11.6292
▁아흐마디네자드	-11.6292
▁와이오밍	-11.6292
▁즈보나레바	-11.6292
▁초콜릿	-11.6292
▁포츠머스	-11.6292
▁해안경비대	-11.6292
▁햇볕	-11.6292
낀	-11.6292
뜯	-11.6292
맙	-11.6292
배아줄기세포	-11.6292
인터내셔널	-11.6292
▁uae	-11.6292
▁www	-11.6292
▁쓰러져	-11.6292
▁현수막	-11.6292
▁영유권	-11.6292
▁corp	-11.6292
▁중소기업	-11.6292
▁게시판	-11.6292
▁heart	-11.6292
▁신생아	-11.6292
▁자민당	-11.6292
▁훔쳐	-11.6292
▁눈보라	-11.6292
▁홈구장	-11.6292
▁피해여성	-11.6292
▁딜런	-11.6292
▁프리츨	-11.6292
▁로날드	-11.6292
▁아폴로	-11.6292
▁갱단	-11.6292
▁마리화나	-11.6292
▁아시안	-11.6292
▁추종자들	-11.6292
▁희박	-11.6292
▁아이다호	-11.6292
▁무자비	-11.6292
▁무하마	-11.6292
▁매도프	-11.6292
▁prosecutor	-11.6292
▁몰아넣	-11.6292
▁함부르크	-11.6293
▁강원도	-11.6293
▁다이앤	-11.6293
▁연못	-11.6293
▁휴이트	-11.6293
▁발자국	-11.6293
▁룰라	-11.6293
▁제이슨	-11.6293
▁해들리	-11.6293
▁rock	-11.6293
▁크로스	-11.6293
▁사무국장	-11.6293
▁에어웨이	-11.6294
▁가르시아	-11.6294
▁cru	-11.6294
▁오스만	-11.6294
▁파이프	-11.6294
▁독특	-11.6294
▁흘리	-11.6294
▁some	-11.6294
▁마스리	-11.6295
▁게놈	-11.6295
▁auto	-11.6295
▁황폐	-11.6295
▁혜성	-11.6295
▁퍼뜨	-11.6295
▁창업자	-11.6295
▁웰스	-11.6295
▁봉착	-11.6296
▁참의원	-11.6296
▁혼잡	-11.6297
▁가져왔다	-11.6297
▁잡혔다	-11.6297
▁선고받았다	-11.6297
▁떨어졌습니다	-11.6298
▁잠비아	-11.6298
▁로비스트	-11.6298
water	-11.6298
▁척추	-11.6298
▁따라잡	-11.6298
▁출항	-11.6299
▁내놓았다	-11.6299
▁순결	-11.6299
▁막으려	-11.6299
▁인질극	-11.6299
▁low	-11.63
▁묻혀	-11.6302
▁도발적	-11.6302
▁ya	-11.6303
▁test	-11.6306
▁선호하	-11.6312
▁벌여왔	-11.6349
테이션	-11.6373
최	-11.6451
스프링스	-11.6467
앞	-11.6495
앨	-11.6502
잇	-11.6502
hot	-11.6556
▁주시하	-11.6671
▁십년	-11.6768
▁right	-11.6808
employ	-11.6818
▁economy	-11.6818
▁hostage	-11.6818
▁travel	-11.6818
▁관절염	-11.6818
▁꿀벌	-11.6818
▁니스텔로이	-11.6818
▁동성결혼	-11.6818
▁디스플레이	-11.6818
▁르완다	-11.6818
▁리트비넨코	-11.6818
▁메르세데스	-11.6818
▁몸싸움	-11.6818
▁미항공우주국	-11.6818
▁방코델타아시아	-11.6818
▁베를루스코니	-11.6818
▁북대서양	-11.6818
▁불매운동	-11.6818
▁블랙워터	-11.6818
▁성매매	-11.6818
▁셰퍼드	-11.6818
▁심장질환	-11.6818
▁아제르바이잔	-11.6818
▁앙카라	-11.6818
▁애틀랜티스호	-11.6818
▁역전승	-11.6818
▁옥스포드	-11.6818
▁요하네스버그	-11.6818
▁자르카위	-11.6818
▁정권인수팀	-11.6818
▁지켜봤다	-11.6818
▁칠면조	-11.6818
▁토튼햄	-11.6818
▁핀란드	-11.6818
▁핸드폰	-11.6818
늄	-11.6818
늬	-11.6818
럿	-11.6818
벵	-11.6818
▁strike	-11.6818
▁가솔린	-11.6818
▁메신저	-11.6818
▁박정희	-11.6818
▁버틀러	-11.6818
▁인공위성	-11.6818
▁조선일보	-11.6818
▁키드먼	-11.6818
▁파란색	-11.6818
▁usgs	-11.6818
▁잠수함	-11.6818
▁컨셉	-11.6818
▁밀라노	-11.6818
▁인내심	-11.6818
▁재규어	-11.6818
▁power	-11.6818
▁합법화	-11.6818
▁노워크	-11.6818
▁선거유세	-11.6818
▁순이익	-11.6818
▁스즈키	-11.6818
▁반란군	-11.6818
▁나뉘어	-11.6818
▁영사관	-11.6818
▁원자재	-11.6818
▁기다렸다	-11.6818
▁카펠로	-11.6818
▁드러나	-11.6818
▁사직서	-11.6818
▁파라오	-11.6818
▁액션	-11.6818
▁그리핀	-11.6818
▁오사카	-11.6818
▁와일드	-11.6818
▁유타주	-11.6818
▁비너스	-11.6818
▁사형선고	-11.6818
▁괴물	-11.6818
▁곤경에	-11.6819
▁막바지	-11.6819
▁대운하	-11.6819
▁반짝이	-11.6819
▁아이튠	-11.6819
▁징조	-11.6819
▁좌우	-11.6819
▁노숙자	-11.6819
▁즐거움	-11.6819
▁반세기	-11.6819
▁프라이스	-11.6819
▁묵념	-11.6819
▁페라로	-11.6819
▁하이킹	-11.6819
▁빠져나가	-11.6819
▁참혹	-11.682
point	-11.682
▁부유층	-11.682
▁크리스틴	-11.682
▁제약회사	-11.682
▁바오로	-11.682
▁각료회의	-11.6821
▁번화가	-11.6821
▁그린존	-11.6821
▁조심스럽	-11.6821
▁드라이브	-11.6821
▁재건축	-11.6821
▁군복무	-11.6822
▁휘말	-11.6822
▁move	-11.6822
▁음향	-11.6823
▁체첸	-11.6823
▁형벌	-11.6823
▁쏟아져	-11.6823
▁시행되	-11.6825
▁이송됐으	-11.6827
▁쉽다	-11.6827
▁조사관들	-11.6832
▁그레이스	-11.6841
▁집행위원	-11.6865
▁자원봉사자들	-11.6891
▁민족주의	-11.6902
side	-11.6917
▁구사하	-11.6963
프로그램	-11.7055
턱	-11.7056
▁심리적	-11.7058
박물관	-11.7058
뒤	-11.7059
시리즈	-11.7059
최초	-11.706
▁생각되	-11.7108
써	-11.7251
▁촉진시키	-11.7264
▁시달리	-11.7291
▁붕괴되	-11.7302
▁극단주의	-11.7356
벳	-11.7373
▁살모넬라	-11.7373
▁business	-11.7374
▁california	-11.7374
▁committee	-11.7374
▁expect	-11.7374
▁grow	-11.7374
▁isaf	-11.7374
▁million	-11.7374
▁return	-11.7374
▁개성공단	-11.7374
▁걸림돌	-11.7374
▁경기후퇴	-11.7374
▁국제올림픽위원회	-11.7374
▁남우주연상	-11.7374
▁뉴잉글랜드	-11.7374
▁독극물	-11.7374
▁라크시미	-11.7374
▁상임이사국	-11.7374
▁새크라멘토	-11.7374
▁서둘러	-11.7374
▁선거기부금	-11.7374
▁아프카니스탄	-11.7374
▁악천후	-11.7374
▁유엔사무총장	-11.7374
▁이바노비치	-11.7374
▁췌장암	-11.7374
▁컬럼비아호	-11.7374
▁쿠즈넷소바	-11.7374
▁키티호크	-11.7374
▁평화협정	-11.7374
▁하드웨어	-11.7374
▁헐리우드	-11.7374
▁홍석현	-11.7374
▁화성탐사	-11.7374
▁히스패닉	-11.7374
캇	-11.7374
커뮤니케이션	-11.7374
흠	-11.7374
▁dead	-11.7374
▁negotiat	-11.7374
▁paris	-11.7374
▁세골렌	-11.7374
▁애슐리	-11.7374
▁엑스파일	-11.7374
▁여러차례	-11.7374
▁오래전부터	-11.7374
▁오리건주	-11.7374
▁재결합	-11.7374
▁제퍼슨	-11.7374
▁진상조사	-11.7374
퍼레이션	-11.7374
▁epl	-11.7374
▁nhc	-11.7374
▁핵연료	-11.7374
▁대니얼	-11.7374
▁석유수출	-11.7374
▁교도통신	-11.7374
▁깁슨	-11.7374
▁나타날	-11.7374
▁승부차기	-11.7374
▁불공정	-11.7374
▁글로리아	-11.7374
▁추기경	-11.7374
▁희귀	-11.7374
▁깁스	-11.7374
▁백과사전	-11.7374
▁유동성	-11.7374
▁다둘라	-11.7374
▁회교도	-11.7374
▁대법관	-11.7374
▁캐롤라인	-11.7374
▁산체스	-11.7374
▁스프레이	-11.7374
▁포브스	-11.7374
▁하니야	-11.7374
▁루카스	-11.7374
▁어쩔	-11.7374
▁게이머	-11.7374
▁music	-11.7374
▁규탄	-11.7374
▁꺼내	-11.7374
▁height	-11.7374
▁빙산	-11.7374
▁개구리	-11.7374
▁바시르	-11.7374
▁어렸을	-11.7374
▁그만두	-11.7374
▁즐겁	-11.7374
▁액체	-11.7375
▁욕구	-11.7375
▁항구도시	-11.7375
▁중동평화회의	-11.7376
▁바레인	-11.7376
▁기념행사	-11.7376
▁적혀있	-11.7376
▁벌어질	-11.7376
▁부모님	-11.7377
▁쿠마르	-11.7377
▁에밀리	-11.7377
▁uci	-11.7377
▁탈퇴	-11.7378
▁즐겨	-11.7379
▁이슬람교도들	-11.7382
▁주어지	-11.7383
▁찰리	-11.7387
▁내보냈	-11.7391
nois	-11.7403
▁종사하	-11.7433
action	-11.7439
▁조장하	-11.7502
aul	-11.7607
따	-11.7639
랭킹	-11.7647
▁운영되	-11.775
▁메디컬	-11.7935
툼	-11.7957
놔	-11.7962
팽	-11.7962
텀	-11.7962
charge	-11.7962
▁church	-11.7962
▁demand	-11.7962
▁eads	-11.7962
▁earth	-11.7962
▁industr	-11.7962
▁organization	-11.7962
▁program	-11.7962
▁unhcr	-11.7962
▁검정색	-11.7962
▁고르바초프	-11.7962
▁공상과학	-11.7962
▁국영언론	-11.7962
▁놀이공원	-11.7962
▁뇌졸중	-11.7962
▁당뇨병	-11.7962
▁더글라스	-11.7962
▁리우데자네이루	-11.7962
▁메릴린치	-11.7962
▁민주노동당	-11.7962
▁바나프샤	-11.7962
▁버크헤드	-11.7962
▁볼티모어	-11.7962
▁블래터	-11.7962
▁스틸러스	-11.7962
▁스필버그	-11.7962
▁시에라리온	-11.7962
▁식품의약국	-11.7962
▁신시내티	-11.7962
▁아디다스	-11.7962
▁암스테르담	-11.7962
▁언젠가	-11.7962
▁예방접종	-11.7962
▁위태롭게	-11.7962
▁인신매매	-11.7962
▁조류독감	-11.7962
▁준이치로	-11.7962
▁쿼터백	-11.7962
▁타이타닉	-11.7962
▁트러스트	-11.7962
▁트리폴리	-11.7962
▁패트로스	-11.7962
▁휴전협정	-11.7962
꿨	-11.7962
늑	-11.7962
뚝	-11.7962
띤	-11.7962
팻	-11.7962
퐁	-11.7962
cross	-11.7962
▁iwc	-11.7962
▁senate	-11.7962
▁구소련	-11.7962
▁볼드윈	-11.7962
▁항공모함	-11.7962
▁햇빛	-11.7962
샨	-11.7962
▁고등학생	-11.7962
▁여중생	-11.7962
▁정보통신부	-11.7962
▁정찰위성	-11.7962
▁포유류	-11.7962
vision	-11.7962
▁gdp	-11.7962
▁마스터즈	-11.7962
▁영업이익	-11.7962
▁존엄성	-11.7962
▁총파업	-11.7962
▁자페타	-11.7962
▁노던록	-11.7962
▁탄원서	-11.7962
▁헤드폰	-11.7962
▁상무부	-11.7962
▁에스트라다	-11.7962
▁급성장	-11.7962
▁사이언스	-11.7962
▁kbs	-11.7962
▁낭독	-11.7962
▁메이도프	-11.7962
▁thai	-11.7962
▁다이어트	-11.7962
▁하토야	-11.7962
▁irna	-11.7962
▁조세프	-11.7962
▁타디치	-11.7962
▁어울리	-11.7962
▁유가족들	-11.7962
▁검역	-11.7962
▁대성당	-11.7962
▁버나드	-11.7962
▁다저스	-11.7962
▁사진작가	-11.7962
▁흥정	-11.7962
▁씨앗	-11.7962
▁강대국	-11.7963
▁트랙	-11.7963
▁통합민주당	-11.7963
▁정착촌	-11.7963
▁북아일랜드	-11.7963
▁숨어있	-11.7963
▁슬픈	-11.7963
▁경수로	-11.7963
▁블랙홀	-11.7964
▁작가조합	-11.7964
▁극도로	-11.7964
▁고아원	-11.7964
▁물리학자	-11.7965
▁medic	-11.7966
▁당직자	-11.7967
무차관	-11.7979
▁폭도들	-11.7983
군사훈련	-11.8005
▁향상시키	-11.8061
▁작동되	-11.8224
헬	-11.8264
노동자당	-11.8287
▁빠졌	-11.8505
▁스타디움	-11.8511
▁시도했으	-11.856
▁천문학	-11.8563
섯	-11.858
봇	-11.858
▁불러일으	-11.8584
헝	-11.8587
▁academy	-11.8587
▁africa	-11.8587
▁capital	-11.8587
▁christ	-11.8587
▁conference	-11.8587
▁country	-11.8587
▁institute	-11.8587
▁islami	-11.8587
▁second	-11.8587
▁watch	-11.8587
▁거머쥐었	-11.8587
▁국가평의회	-11.8587
▁깨달았다	-11.8587
▁나폴리타노	-11.8587
▁대검찰청	-11.8587
▁디카프리오	-11.8587
▁떠올랐다	-11.8587
▁래드클리프	-11.8587
▁레빈슨	-11.8587
▁리투아니아	-11.8587
▁멜버른	-11.8587
▁멤피스	-11.8587
▁불균형	-11.8587
▁불러일으켰다	-11.8587
▁블록버스터	-11.8587
▁사이언톨로지	-11.8587
▁알츠하이머	-11.8587
▁알카티리	-11.8587
▁옥수수	-11.8587
▁츠방기라이	-11.8587
▁프란체스	-11.8587
▁프랑크푸르트	-11.8587
▁플레이스테이션	-11.8587
▁혹등고래	-11.8587
▁휠체어	-11.8587
랏	-11.8587
윅	-11.8587
팡	-11.8587
훌	-11.8587
▁job	-11.8587
▁건강검진	-11.8587
▁기울여야	-11.8587
▁남동생	-11.8587
▁모레스모	-11.8587
▁부총재	-11.8587
▁옵션	-11.8587
▁이스마일	-11.8587
▁전자메일	-11.8587
▁트레일러	-11.8587
쑤	-11.8587
▁threaten	-11.8587
▁냉장고	-11.8587
▁동아시아	-11.8587
▁로드아일랜드	-11.8587
▁부동층	-11.8587
▁사무차장	-11.8587
▁올림피	-11.8587
▁카르발라	-11.8587
▁퀘벡	-11.8587
▁wall	-11.8587
▁나미비아	-11.8587
▁매몰된	-11.8587
셸	-11.9237
솟	-11.9251
킥	-11.9253
뉘	-11.9253
엉	-11.9253
퉁	-11.9253
햇	-11.9253
큰	-11.9653
껴	-11.9968
뚱	-11.9968
륭	-11.9968
멕	-11.9968
듀	-12.0418
홈	-12.0418
낙	-12.0421
빅	-12.0421
듭	-12.0733
쳇	-12.0737
벗	-12.1251
퀸	-12.1253
쓸	-12.1253
떠	-12.1254
끝	-12.1255
섹	-12.1569
횡	-12.157
쉘	-12.157
묻	-12.2159
숨	-12.216
콧	-12.2476
낫	-12.2476
뭇	-12.2479
밴	-12.315
못	-12.3156
옷	-12.3162
녹	-12.3163
벼	-12.3468
왁	-12.3476
훼	-12.3479
깨	-12.4272
밥	-12.4274
겸	-12.4274
뢰	-12.4574
탠	-12.4587
냄	-12.4591
깅	-12.4591
펭	-12.4591
뛰	-12.5522
윌	-12.5525
웹	-12.5525
곧	-12.5526
즉	-12.5532
놨	-12.5772
즌	-12.5824
삽	-12.5841
휠	-12.5841
깊	-12.6954
갖	-12.6954
또	-12.6955
팟	-12.7266
앗	-12.7267
댈	-12.7269
찮	-12.7269
콴	-12.7269
뇌	-12.8613
펄	-12.8618
묵	-12.8619
쌀	-12.8619
옵	-12.8936
낄	-12.8936
촛	-12.8936
룻	-12.8936
셴	-12.8936
탤	-12.8936
폼	-12.8936
맛	-13.0619
쓴	-13.062
멀	-13.062
밑	-13.062
꿀	-13.0928
튠	-13.0933
빔	-13.0936
맵	-13.0936
귄	-13.0936
덧	-13.0936
맡	-13.3111
쏘	-13.3119
숲	-13.312
큼	-13.3417
꿔	-13.3428
눠	-13.343
숫	-13.3434
츨	-13.3435
뚫	-13.6453
뜻	-13.6455
왜	-13.6456
룹	-13.6722
뻐	-13.6764
깁	-13.6768
끗	-13.6769
몇	-14.1455
옆	-14.1457
맺	-14.1458
빚	-14.1459
첫	-14.1459
쩔	-14.1766
떤	-14.1766
힉	-14.1768
볕	-14.1769
덮	-15.1472
굿	-15.1475
넓	-15.1476
숀	-15.1476
빼	-15.1477
봄	-15.1477
킷	-15.1577
챌	-15.1578
얇	-15.1579
씀	-15.158
뀔	-15.1581
꽉	-15.1582
꽂	-15.1583
콸	-15.1584
뭐	-15.1585
댕	-15.1586
꾀	-15.1587
얹	-15.1588
쐈	-15.1589
깐	-15.159
긱	-15.1591
뻗	-15.1592
뱃	-15.1593
낚	-15.1594
꼼	-15.1595
잦	-15.1596
씻	-15.1597
숍	-15.1598
샴	-15.1599
맑	-15.16
렷	-15.1601
핫	-15.1602
핍	-15.1603
엎	-15.1604
뭔	-15.1605
몫	-15.1606
짖	-15.1607
샀	-15.1608
곁	-15.1609
짙	-15.161
쏜	-15.1611
낡	-15.1612
컸	-15.1613
캡	-15.1614
젭	-15.1615
싣	-15.1616
닮	-15.1617
젖	-15.1618
릅	-15.1619
탓	-15.162
쁨	-15.1621
캥	-15.1622
꽤	-15.1623
굶	-15.1624
횟	-15.1625
팰	-15.1626
췌	-15.1627
웍	-15.1628
뮬	-15.1629
릇	-15.163
틈	-15.1631
댓	-15.1632
댐	-15.1633
앰	-15.1634
붓	-15.1635
펌	-15.1636
챙	-15.1637
닿	-15.1638
뤼	-15.1639
흩	-15.164
뿔	-15.1641
뮌	-15.1642
튀	-15.1643
괜	-15.1644
꼽	-15.1645
굳	-15.1646
녔	-15.1647
굉	-15.1648
옳	-15.1649
곱	-15.165
랬	-15.1651
픔	-15.1652
밸	-15.1653
닙	-15.1654
띄	-15.1655
넹	-15.1656
낌	-15.1657
밟	-15.1658
윔	-15.1659
눴	-15.166
싫	-15.1661
괄	-15.1662
팝	-15.1663
옛	-15.1664
꼈	-15.1665
썼	-15.1666
핸	-15.1667
딪	-15.1668
잊	-15.1669
멤	-15.167
깝	-15.1671
흰	-15.1672
벅	-15.1673
갇	-15.1674
좁	-15.1675
묶	-15.1676
췄	-15.1677
뱅	-15.1678
꼭	-15.1679
닫	-15.168
왼	-15.1681
뀌	-15.1682
렴	-15.1683
깔	-15.1684
궤	-15.1685
탱	-15.1686
읽	-15.1687
뱀	-15.1688
쫓	-15.1689
짧	-15.169
쏟	-15.1691
쌓	-15.1692
뭄	-15.1693
똑	-15.1694
슴	-15.1695
뒷	-15.1696
걷	-15.1697
릎	-15.1698
뽑	-15.1699
붉	-15.17
뿌	-15.1701
얘	-15.1702
앓	-15.1703
콰	-15.1704
꺾	-15.1705
멋	-15.1706
!	-15.1707
꿈	-15.1708
곽	-15.1709
낳	-15.171
휩	-15.1711
돕	-15.1712
녁	-15.1713
듣	-15.1714
됩	-15.1715
끊	-15.1716
좀	-15.1717
갤	-15.1718
춰	-15.1719
삶	-15.172
톰	-15.1721
젝	-15.1722
늦	-15.1723
슷	-15.1724
땅	-15.1725
쿄	-15.1726
잭	-15.1727
앉	-15.1728
렵	-15.1729
옮	-15.173
젊	-15.1731
흡	-15.1732
챔	-15.1733
촬	-15.1734
흑	-15.1735
샌	-15.1736
찍	-15.1737
렀	-15.1738
떻	-15.1739
겪	-15.174
믿	-15.1741
펼	-15.1742
섰	-15.1743
먹	-15.1744
낮	-15.1745
렇	-15.1746
잃	-15.1747
캠	-15.1748
싶	-15.1749
랐	-15.175
끌	-15.1751
?	-15.1752
몸	-15.1753
켰	-15.1754
밖	-15.1755
얻	-15.1756
좋	-15.1757
쇄	-15.1758
볍	-15.1758
떨	-15.1759
찾	-15.176
높	-15.1761
맞	-15.1762
혐	-15.1763
많	-15.1764
협	-15.1765
확	-15.1766
밝	-15.1767
,	-15.1768
뎌	-15.1769
.	-15.1769
걱	-15.1769
