<pad>	0
<s>	0
</s>	0
<unk>	0
▁the	-2.97992
▁.	-3.19689
▁,	-3.23277
s	-3.41722
▁to	-3.86157
▁a	-3.86384
ed	-3.90691
▁of	-3.90936
▁in	-3.99191
▁and	-4.06779
ing	-4.28937
▁s	-4.39639
▁on	-4.85351
▁said	-4.86252
▁for	-4.93654
▁that	-4.96328
y	-4.99215
d	-5.12867
▁is	-5.16443
ly	-5.1882
▁	-5.21961
▁was	-5.24402
▁with	-5.27006
▁be	-5.29614
▁it	-5.38322
▁he	-5.47362
▁at	-5.48015
▁an	-5.5501
▁from	-5.58939
▁by	-5.60908
▁as	-5.63602
▁has	-5.65314
▁have	-5.73868
▁his	-5.73869
▁are	-5.85996
▁but	-5.91702
e	-5.92727
▁were	-5.94478
▁will	-5.95408
▁not	-6.02233
▁who	-6.07974
▁u	-6.123
▁after	-6.12718
▁had	-6.15496
▁been	-6.21111
▁they	-6.22263
▁this	-6.2395
▁their	-6.285
n	-6.29463
▁people	-6.29486
▁year	-6.29834
▁i	-6.3094
▁about	-6.31915
▁more	-6.32312
▁t	-6.32776
▁its	-6.34287
▁two	-6.36542
▁new	-6.39018
▁korea	-6.39483
▁we	-6.40512
t	-6.41992
▁which	-6.43863
▁one	-6.44042
▁president	-6.44621
▁up	-6.46394
▁her	-6.4768
▁government	-6.48444
▁would	-6.49326
▁or	-6.52795
▁north	-6.55229
▁she	-6.56666
▁also	-6.58126
▁out	-6.59479
▁than	-6.59931
▁over	-6.65498
▁last	-6.66754
▁cnn	-6.67877
ies	-6.68448
▁police	-6.68513
▁when	-6.71034
▁first	-6.71281
▁south	-6.72153
▁there	-6.7829
▁us	-6.80389
▁other	-6.80548
▁some	-6.80595
▁into	-6.8193
▁all	-6.82803
r	-6.83798
▁no	-6.85921
▁time	-6.86596
er	-6.87596
▁told	-6.90082
es	-6.90399
▁world	-6.91244
a	-6.9295
▁korean	-6.93626
l	-6.94353
an	-6.95704
▁state	-6.96738
▁percent	-6.97838
▁you	-6.98545
▁years	-6.98753
▁can	-6.99823
▁united	-7.0207
▁could	-7.04046
on	-7.04699
▁them	-7.04713
▁if	-7.05382
▁according	-7.05392
▁officials	-7.05553
▁al	-7.08332
▁country	-7.09265
▁party	-7.09781
▁three	-7.09962
▁monday	-7.10805
▁iraq	-7.11395
▁minister	-7.11817
▁militar	-7.12355
▁tuesday	-7.1311
▁says	-7.1356
▁national	-7.13706
▁day	-7.1498
ese	-7.15035
▁what	-7.17267
▁kill	-7.18542
o	-7.18819
▁obama	-7.18914
▁week	-7.19179
▁states	-7.20074
▁like	-7.20952
▁him	-7.21305
▁wednesday	-7.2171
▁million	-7.21825
▁japan	-7.22124
▁before	-7.22243
▁most	-7.23159
▁old	-7.23242
▁since	-7.245
▁against	-7.24535
▁sunday	-7.24653
▁so	-7.25844
▁now	-7.2658
ce	-7.26585
▁bush	-7.27368
▁china	-7.27539
▁nuclear	-7.27989
▁where	-7.28675
▁down	-7.28795
al	-7.29166
▁near	-7.29398
▁m	-7.30072
▁dur	-7.30251
▁under	-7.31201
▁say	-7.31786
▁take	-7.32247
▁back	-7.32726
cause	-7.33447
▁official	-7.34071
▁off	-7.34269
▁may	-7.34313
▁city	-7.34348
▁un	-7.34429
▁nation	-7.3446
▁thursday	-7.34688
▁former	-7.3482
▁re	-7.34883
▁security	-7.36957
▁just	-7.36982
▁whil	-7.37348
▁reported	-7.38256
▁four	-7.38395
▁house	-7.38463
tween	-7.38528
▁made	-7.39826
▁war	-7.4095
▁american	-7.41852
ish	-7.42091
▁high	-7.43408
▁group	-7.44574
▁month	-7.4502
▁many	-7.45587
▁through	-7.46454
▁do	-7.48311
▁end	-7.48614
▁news	-7.4994
▁man	-7.50651
▁being	-7.51162
▁plan	-7.51294
▁including	-7.52618
▁called	-7.52698
i	-7.53106
▁show	-7.54649
▁did	-7.551
▁statement	-7.55449
▁home	-7.55951
▁b	-7.5656
▁our	-7.56819
▁international	-7.56842
▁get	-7.57063
▁any	-7.57372
▁six	-7.58093
▁help	-7.58145
▁found	-7.58461
▁work	-7.61615
▁th	-7.61884
▁report	-7.61893
▁part	-7.622
▁won	-7.62563
▁reports	-7.62897
▁next	-7.6376
▁foreign	-7.64603
▁court	-7.65157
▁five	-7.65217
▁talks	-7.65849
▁second	-7.65853
▁make	-7.66333
▁my	-7.66537
▁attack	-7.66565
▁death	-7.66635
▁still	-7.66683
▁go	-7.67049
▁days	-7.67635
▁how	-7.68035
▁prime	-7.69434
▁long	-7.70139
▁troops	-7.70409
▁seoul	-7.71423
▁office	-7.71608
in	-7.71725
other	-7.71952
▁n	-7.72066
en	-7.72964
able	-7.72987
▁authorit	-7.73223
▁around	-7.73889
▁want	-7.74037
▁leas	-7.74682
▁recent	-7.75084
▁hour	-7.7559
▁top	-7.76978
▁release	-7.77189
▁set	-7.77225
▁ministry	-7.7734
▁come	-7.77437
▁spokesm	-7.77782
▁leader	-7.77926
▁arm	-7.79252
ther	-7.79385
▁way	-7.79389
▁know	-7.79894
▁clinton	-7.80253
▁program	-7.80293
hose	-7.8125
▁lead	-7.81511
▁washington	-7.81749
▁see	-7.81829
▁public	-7.82323
▁w	-7.82587
▁close	-7.82759
▁support	-7.82981
▁company	-7.8305
▁place	-7.83061
ity	-7.83478
▁site	-7.8353
▁agency	-7.84841
▁presidential	-7.85405
▁iraqi	-7.85467
▁expected	-7.85506
man	-7.85882
c	-7.86213
ion	-7.8626
▁bank	-7.86474
▁well	-7.86598
▁chief	-7.86605
▁look	-7.86685
▁saying	-7.87009
▁return	-7.87107
▁even	-7.87275
out	-7.8731
▁press	-7.87435
▁brit	-7.87843
▁billion	-7.87997
▁children	-7.88452
▁forces	-7.89044
▁both	-7.89628
▁york	-7.89635
▁should	-7.90389
▁earlie	-7.90577
▁political	-7.90671
▁campaign	-7.91091
▁election	-7.91353
▁early	-7.91381
▁died	-7.91556
▁number	-7.91613
▁believe	-7.91876
▁head	-7.92027
▁arrest	-7.92064
▁members	-7.92151
▁saturday	-7.93024
▁white	-7.93554
▁times	-7.93647
▁chin	-7.93877
▁general	-7.93994
▁meeting	-7.94299
▁friday	-7.94604
▁came	-7.95509
▁kim	-7.9582
▁countries	-7.95836
▁democratic	-7.96362
very	-7.96419
▁women	-7.96583
▁fire	-7.96795
▁p	-7.9706
▁economic	-7.97115
▁car	-7.97291
▁claim	-7.97339
▁air	-7.97611
▁team	-7.97715
▁health	-7.97716
▁among	-7.98604
▁good	-7.98919
▁took	-7.99791
▁going	-7.9985
▁ask	-7.99985
▁family	-8.00013
▁power	-8.00116
▁use	-8.00186
▁months	-8.00286
▁center	-8.0031
▁think	-8.00368
▁issue	-8.00643
▁visit	-8.01053
est	-8.01939
▁lee	-8.02128
▁later	-8.02655
▁human	-8.02702
▁much	-8.02787
▁night	-8.02959
▁capital	-8.03026
▁try	-8.03142
▁move	-8.03258
▁life	-8.03434
▁force	-8.03449
▁face	-8.03667
▁left	-8.04087
▁need	-8.04203
▁then	-8.05112
▁john	-8.05498
▁ago	-8.05681
▁yesterday	-8.0587
ment	-8.06224
▁large	-8.06421
▁k	-8.06784
▁secretary	-8.07405
▁major	-8.07452
▁men	-8.08803
▁deal	-8.0888
▁area	-8.09043
▁pakistan	-8.09572
▁allow	-8.09587
▁run	-8.09666
▁turn	-8.0987
▁held	-8.10983
▁iran	-8.12105
▁same	-8.12284
▁business	-8.12677
ers	-8.13042
▁market	-8.1315
▁oil	-8.13454
h	-8.13618
▁case	-8.13627
▁de	-8.13885
▁right	-8.13914
▁me	-8.13942
▁local	-8.14007
▁own	-8.14024
▁severa	-8.14143
m	-8.1425
▁main	-8.14358
▁department	-8.14604
▁put	-8.15145
▁today	-8.15314
▁university	-8.15545
▁hit	-8.15592
▁media	-8.1567
▁don	-8.1611
▁school	-8.16247
▁dead	-8.16401
▁opposition	-8.16874
▁economy	-8.17025
▁start	-8.17152
▁appear	-8.1717
▁third	-8.17179
▁record	-8.17557
▁past	-8.176
▁militant	-8.1764
▁roh	-8.17644
▁law	-8.1788
▁concern	-8.17949
▁half	-8.17995
▁leaders	-8.1832
▁candidate	-8.18414
▁call	-8.18447
▁morning	-8.18584
▁win	-8.18794
▁vote	-8.18875
▁financial	-8.18882
▁these	-8.19242
▁space	-8.19543
▁few	-8.19825
land	-8.21354
▁london	-8.21411
▁taliban	-8.21411
▁defense	-8.21571
▁whe	-8.21622
▁late	-8.22007
▁e	-8.22077
▁sign	-8.22407
▁clear	-8.22863
▁film	-8.23355
▁free	-8.23709
such	-8.23802
▁remain	-8.23922
▁com	-8.24142
▁your	-8.24528
▁f	-8.2479
▁test	-8.25134
▁hospital	-8.25256
▁beijing	-8.2533
▁open	-8.25357
▁water	-8.25434
▁name	-8.26087
▁workers	-8.26112
▁administration	-8.26166
▁afghanistan	-8.26167
▁money	-8.26247
ve	-8.26288
▁per	-8.26439
▁base	-8.26446
▁palestinian	-8.26502
le	-8.26531
▁change	-8.26584
▁service	-8.26663
▁german	-8.26674
▁d	-8.2692
▁final	-8.27003
▁mccain	-8.27179
▁rule	-8.27496
▁does	-8.27779
▁line	-8.28013
▁eight	-8.28203
▁increase	-8.29062
▁source	-8.29068
▁park	-8.29078
▁great	-8.29238
▁attacks	-8.29377
▁best	-8.2961
▁announc	-8.29631
▁system	-8.29695
▁play	-8.29794
▁led	-8.29856
▁already	-8.29931
▁baghdad	-8.30108
▁big	-8.30133
▁central	-8.3034
▁give	-8.31004
▁killing	-8.31038
▁along	-8.3118
▁strong	-8.31183
▁march	-8.31344
ation	-8.31426
▁small	-8.31691
▁began	-8.31719
▁province	-8.31766
▁trade	-8.32195
▁decision	-8.32314
▁far	-8.32617
▁video	-8.32717
▁control	-8.32795
▁hope	-8.33336
▁seven	-8.33481
▁bomb	-8.33667
▁current	-8.33842
▁co	-8.34053
▁ap	-8.34311
▁thousand	-8.34387
▁cut	-8.34451
▁bill	-8.34554
each	-8.3465
▁miles	-8.34704
▁keep	-8.34729
▁away	-8.34859
▁operation	-8.35073
▁fund	-8.35573
▁french	-8.35856
▁rights	-8.35983
▁post	-8.3619
▁conference	-8.36233
▁however	-8.36241
▁continue	-8.36257
▁become	-8.36421
▁israeli	-8.3645
▁food	-8.36617
▁region	-8.36723
▁israel	-8.36882
▁station	-8.37396
▁consider	-8.37509
▁southern	-8.37728
▁mak	-8.38143
▁attempt	-8.38481
▁barack	-8.38482
▁web	-8.38666
▁soldiers	-8.38752
▁agreement	-8.39036
▁global	-8.393
▁woman	-8.39489
yang	-8.39572
▁information	-8.39635
▁spokes	-8.40344
th	-8.40465
▁gas	-8.40469
▁bas	-8.40713
▁violence	-8.40786
▁east	-8.40957
▁european	-8.41244
▁others	-8.41631
▁qa	-8.41709
▁sen	-8.41813
▁border	-8.41961
▁weapons	-8.42226
▁young	-8.425
▁here	-8.42692
▁russia	-8.42767
▁star	-8.42834
▁person	-8.42909
▁injur	-8.43066
▁offer	-8.43342
▁plann	-8.43797
▁c	-8.43822
▁cause	-8.44031
▁town	-8.44108
▁union	-8.4425
▁condition	-8.4439
▁action	-8.4441
▁rate	-8.44474
▁director	-8.4457
st	-8.44695
▁committee	-8.45169
▁live	-8.45236
▁students	-8.455
▁full	-8.4555
▁prices	-8.45974
▁weeks	-8.46077
▁following	-8.46166
▁ve	-8.46311
▁northern	-8.46387
▁internet	-8.47208
▁federal	-8.47415
▁peace	-8.47433
▁count	-8.47565
▁article	-8.47832
▁order	-8.483
▁point	-8.48321
▁california	-8.48669
um	-8.48801
▁pyong	-8.4888
▁republican	-8.49123
▁alleged	-8.49216
▁confirm	-8.49607
▁added	-8.49774
▁short	-8.49862
▁every	-8.49902
▁britain	-8.4994
▁might	-8.50153
▁grow	-8.5058
ic	-8.507
▁talk	-8.5093
▁launch	-8.50944
▁total	-8.50998
▁never	-8.51026
▁aid	-8.51093
▁include	-8.51156
▁congress	-8.51225
▁target	-8.51225
▁hundred	-8.5141
▁comment	-8.51479
▁side	-8.51796
▁watch	-8.52121
▁key	-8.52408
▁outside	-8.52548
▁ahead	-8.52768
▁immediate	-8.52966
▁organization	-8.53412
▁points	-8.53481
▁went	-8.53728
▁investigation	-8.53806
▁member	-8.53909
▁research	-8.53937
▁anti	-8.54055
▁emergency	-8.54095
▁acros	-8.54484
▁senior	-8.54962
▁stock	-8.55224
▁must	-8.55235
▁cost	-8.5561
▁accus	-8.55626
▁little	-8.55644
▁working	-8.55915
▁game	-8.55993
▁france	-8.56112
▁real	-8.5613
▁body	-8.56198
▁hold	-8.56238
▁crisis	-8.56315
te	-8.56332
▁possible	-8.56608
▁find	-8.56645
▁follow	-8.56765
▁energy	-8.57004
▁ban	-8.57124
▁got	-8.57635
▁stop	-8.57891
▁charges	-8.58096
▁companies	-8.58148
▁prosecutor	-8.5815
▁study	-8.58189
▁question	-8.58266
▁involv	-8.58334
▁again	-8.58346
▁elections	-8.58409
▁west	-8.58897
us	-8.58951
▁hyun	-8.59036
▁january	-8.59077
▁council	-8.59706
▁newspaper	-8.59781
een	-8.59884
▁hard	-8.59938
▁speak	-8.60008
▁latest	-8.60301
▁race	-8.60382
▁june	-8.60512
▁age	-8.60913
▁building	-8.60945
▁sea	-8.60975
▁share	-8.61573
▁reporters	-8.61575
▁red	-8.6178
▁meet	-8.61899
▁july	-8.61987
▁tell	-8.62087
▁due	-8.62132
▁america	-8.62216
▁previous	-8.62399
▁round	-8.62632
▁russian	-8.62863
▁further	-8.62884
▁interview	-8.62968
▁pay	-8.63044
▁toward	-8.63076
▁suicide	-8.63134
▁mean	-8.63232
▁provide	-8.63854
▁policy	-8.63988
▁afghan	-8.641
▁george	-8.64107
▁child	-8.64123
▁travel	-8.6417
▁coast	-8.64188
▁airport	-8.64371
▁less	-8.64391
▁search	-8.64393
▁carry	-8.64636
▁weekend	-8.64843
▁interest	-8.65011
▁england	-8.65088
▁ruling	-8.6509
▁list	-8.65245
▁charge	-8.65265
▁process	-8.66028
raf	-8.66043
▁term	-8.6613
▁tour	-8.66313
▁poll	-8.66341
▁gaza	-8.66361
eda	-8.66411
uch	-8.66537
▁september	-8.66586
▁television	-8.66592
▁minutes	-8.66861
▁ever	-8.6692
▁judge	-8.67202
▁hostage	-8.67355
▁demand	-8.67438
▁damage	-8.67473
▁couple	-8.67609
▁bring	-8.67759
▁too	-8.67826
▁medical	-8.67861
▁efforts	-8.67867
▁lost	-8.67978
▁son	-8.68014
▁future	-8.68052
▁hav	-8.6808
▁scientist	-8.68107
▁groups	-8.68387
ness	-8.68455
▁lawmaker	-8.68635
▁storm	-8.68651
▁level	-8.68759
▁develop	-8.6923
▁act	-8.69389
▁street	-8.69566
self	-8.69588
▁executive	-8.69654
▁elect	-8.69768
▁o	-8.69913
▁black	-8.70363
▁father	-8.70451
▁send	-8.70487
▁wide	-8.7054
▁victory	-8.70754
▁island	-8.7079
▁grand	-8.70879
▁serious	-8.70958
▁shot	-8.71224
▁series	-8.71383
▁better	-8.71496
▁terrorist	-8.71574
▁suggest	-8.71694
▁communist	-8.71754
▁lot	-8.71808
▁goal	-8.71864
▁break	-8.71976
▁stay	-8.72284
▁mother	-8.72508
ry	-8.72779
▁industry	-8.73082
▁fuel	-8.73098
woman	-8.7328
▁missile	-8.73354
▁sent	-8.73429
▁strike	-8.73502
▁december	-8.73621
▁tv	-8.73984
▁musha	-8.73996
▁pro	-8.74006
▁sex	-8.74107
▁apri	-8.74161
▁hand	-8.74289
▁almost	-8.74716
▁fall	-8.74832
▁parliament	-8.7486
▁incident	-8.74924
▁hotel	-8.74982
▁mission	-8.75103
▁heart	-8.75151
▁threaten	-8.75286
▁direct	-8.75431
▁result	-8.75608
age	-8.75632
▁cell	-8.76381
▁yet	-8.76396
▁seek	-8.76457
hind	-8.76596
though	-8.76677
▁wounded	-8.76758
▁europe	-8.76816
▁really	-8.77093
▁important	-8.77194
▁enough	-8.77199
▁chairman	-8.77481
▁history	-8.77483
▁nine	-8.77488
to	-8.7767
▁inside	-8.77776
▁asia	-8.77928
▁november	-8.78035
▁david	-8.78035
▁front	-8.78089
▁special	-8.78128
cy	-8.78148
▁ground	-8.78152
▁wall	-8.78189
▁flight	-8.78211
▁prison	-8.78244
▁western	-8.78486
▁voter	-8.78509
▁vehicle	-8.78601
▁job	-8.78774
▁soon	-8.79045
▁wife	-8.79464
ous	-8.79616
▁player	-8.79707
▁rice	-8.79752
▁plane	-8.79773
▁given	-8.79795
▁complete	-8.79859
▁discuss	-8.79966
ought	-8.80025
▁democrat	-8.80044
▁fighting	-8.80306
▁room	-8.80438
▁started	-8.80637
▁amid	-8.80668
▁protest	-8.80718
g	-8.80747
▁private	-8.81191
▁cross	-8.81293
▁estimate	-8.8137
bc	-8.81531
▁india	-8.81566
son	-8.81639
▁whose	-8.81701
u	-8.81763
▁middle	-8.81772
▁role	-8.81871
▁season	-8.81997
▁crash	-8.82065
▁price	-8.82235
coming	-8.82282
▁foot	-8.82389
▁ship	-8.8272
▁walk	-8.82951
na	-8.82991
f	-8.83334
▁mark	-8.83403
▁associat	-8.83538
▁different	-8.83847
▁commission	-8.84033
▁exchange	-8.84054
▁august	-8.84085
▁rebel	-8.8415
▁negotiation	-8.84157
▁light	-8.84206
▁san	-8.84274
▁supporter	-8.8433
▁step	-8.84541
▁evidence	-8.84743
▁though	-8.8495
▁victims	-8.85143
▁problem	-8.85152
known	-8.85407
k	-8.85413
▁district	-8.85652
▁development	-8.85697
▁board	-8.85703
▁join	-8.85771
▁warn	-8.85902
▁dozen	-8.85957
▁problems	-8.86155
▁boy	-8.86189
▁protect	-8.86228
▁liv	-8.86252
▁conduct	-8.8627
▁pressure	-8.86492
▁animal	-8.86579
▁situation	-8.86878
▁homes	-8.87035
▁fail	-8.8708
vez	-8.8725
▁areas	-8.87291
▁cha	-8.87397
▁gave	-8.87502
▁met	-8.87568
▁australia	-8.87624
▁larges	-8.87818
ntil	-8.87904
▁resident	-8.88039
▁leave	-8.8817
▁lower	-8.88229
▁road	-8.88249
▁am	-8.88368
▁february	-8.8843
▁movie	-8.88764
▁reach	-8.88809
▁bad	-8.8882
▁train	-8.89147
▁primar	-8.89316
▁bus	-8.89513
▁summit	-8.8969
▁senate	-8.89692
▁analyst	-8.89693
▁express	-8.89836
▁gen	-8.89843
less	-8.89859
▁trip	-8.89861
▁church	-8.90013
▁lawyer	-8.90014
▁fell	-8.90015
▁risk	-8.90329
▁crew	-8.90332
▁inter	-8.90432
▁low	-8.90546
▁senator	-8.90966
▁tried	-8.91039
▁link	-8.91216
▁heavy	-8.91287
▁thought	-8.91297
▁happen	-8.91299
▁disease	-8.91334
▁serve	-8.91518
▁illegal	-8.9161
▁pakistani	-8.91769
▁prevent	-8.91934
▁urg	-8.91968
▁rival	-8.92265
ally	-8.9227
▁let	-8.92289
▁results	-8.9249
ance	-8.92538
▁wanted	-8.92809
ty	-8.92829
▁speech	-8.92911
▁vice	-8.93033
▁relations	-8.93067
▁land	-8.93112
▁los	-8.93191
▁october	-8.93239
▁together	-8.93266
▁intelligen	-8.93382
▁protesters	-8.93393
▁address	-8.93448
▁pull	-8.93795
▁florida	-8.94563
▁something	-8.94567
▁moo	-8.94812
▁request	-8.94895
▁tokyo	-8.94898
▁project	-8.94902
wide	-8.94953
▁mid	-8.95104
▁summer	-8.9523
▁cup	-8.95581
▁stage	-8.95741
▁hamas	-8.95902
▁position	-8.95927
▁ll	-8.95944
▁product	-8.96007
▁phone	-8.96199
▁loss	-8.96215
▁attorney	-8.96239
▁justice	-8.96244
▁crowd	-8.96249
▁crime	-8.96255
▁leban	-8.96257
▁technology	-8.96259
▁online	-8.96361
▁calls	-8.96437
▁hong	-8.96595
▁growth	-8.96614
▁thai	-8.96634
▁unti	-8.96737
▁attend	-8.96748
mar	-8.96751
▁decided	-8.96842
ary	-8.96978
ism	-8.97107
▁eastern	-8.97188
▁labor	-8.97213
z	-8.97245
▁begin	-8.9725
▁muslim	-8.9726
▁quick	-8.97263
one	-8.97269
▁getting	-8.97295
▁brown	-8.97332
▁focus	-8.97379
▁j	-8.97517
▁paris	-8.97616
▁daughter	-8.9762
▁fight	-8.97764
▁hill	-8.97812
▁survey	-8.97895
▁coalition	-8.97946
▁popular	-8.97969
▁sell	-8.98028
biggest	-8.98079
▁announce	-8.98163
▁girl	-8.98187
▁markets	-8.98224
▁battle	-8.98485
▁approv	-8.98576
▁treat	-8.9865
▁league	-8.98659
▁chance	-8.98712
▁rise	-8.9876
▁gold	-8.98773
▁needed	-8.98927
▁assembly	-8.99019
▁award	-8.99251
▁officer	-8.99261
▁koreans	-8.99268
▁reached	-8.99315
▁apparent	-8.99336
▁missing	-8.99352
▁fan	-8.99431
▁despi	-8.99464
▁h	-8.99829
▁games	-9.00123
▁saw	-9.00149
▁credit	-9.00336
▁hillary	-9.00399
▁releas	-9.00518
▁pick	-9.0072
▁buy	-9.00827
▁tax	-9.00862
▁legal	-9.00884
▁joint	-9.00919
▁fee	-9.00961
▁kind	-9.01069
co	-9.014
▁effort	-9.0141
▁scene	-9.01455
▁asian	-9.01614
▁match	-9.01625
▁love	-9.0169
▁expect	-9.01696
taken	-9.01746
ard	-9.01867
▁democrac	-9.02164
▁olympic	-9.02173
▁services	-9.02184
▁officers	-9.02284
▁stand	-9.02469
ive	-9.02538
▁feel	-9.02622
▁sentence	-9.0288
▁sarkozy	-9.02885
▁jail	-9.02897
▁nomination	-9.02899
▁music	-9.03169
▁r	-9.03655
▁blood	-9.03681
▁polls	-9.03889
▁seem	-9.03998
p	-9.04064
▁bid	-9.04099
▁caus	-9.04173
ri	-9.04261
▁cover	-9.04338
▁threat	-9.04383
▁drug	-9.04431
▁form	-9.04729
▁issues	-9.04739
came	-9.04783
▁texas	-9.05079
▁running	-9.05095
▁tak	-9.05114
▁staff	-9.05144
by	-9.05263
▁network	-9.05585
▁event	-9.0569
▁turkey	-9.05829
▁quarter	-9.05833
▁destroy	-9.06012
▁host	-9.06058
▁robert	-9.06184
▁population	-9.062
▁letter	-9.06599
▁protests	-9.06614
▁australian	-9.06789
▁experts	-9.06865
▁paul	-9.06898
▁blast	-9.06946
▁deput	-9.06951
▁delay	-9.06957
side	-9.0703
▁jobs	-9.07075
▁community	-9.07088
▁murder	-9.0717
▁receiv	-9.07798
▁ra	-9.08003
▁governor	-9.08062
▁field	-9.08153
▁story	-9.08159
▁higher	-9.08213
▁idea	-9.08365
▁why	-9.08535
▁radio	-9.08614
▁image	-9.08909
ra	-9.09076
greed	-9.09214
▁safety	-9.09246
▁association	-9.09267
▁sales	-9.09464
▁things	-9.09788
x	-9.0984
▁plant	-9.09966
▁river	-9.09977
▁embass	-9.10006
▁beat	-9.101
▁title	-9.10204
▁opened	-9.10464
▁message	-9.10711
▁continued	-9.10738
▁cit	-9.10742
▁deep	-9.10756
▁mov	-9.1078
▁resolution	-9.10785
▁sanction	-9.10788
▁suffer	-9.11031
▁lives	-9.11069
▁camp	-9.11271
▁ki	-9.11313
▁civilians	-9.1133
or	-9.11365
▁similar	-9.11569
▁appeal	-9.11571
▁book	-9.11783
▁firm	-9.11968
▁trial	-9.11983
▁debate	-9.11995
▁average	-9.12101
▁fear	-9.12264
▁earth	-9.12367
▁rose	-9.12383
▁production	-9.12408
▁daily	-9.12418
▁g	-9.12458
▁aim	-9.12484
taking	-9.12525
ways	-9.12525
▁researcher	-9.126
whil	-9.12632
▁delegates	-9.12689
▁minute	-9.12731
▁safe	-9.12732
▁rais	-9.12875
▁date	-9.13159
▁initial	-9.13165
▁royal	-9.13167
▁often	-9.13377
▁doing	-9.13435
▁ceremon	-9.13562
▁identified	-9.13792
▁airline	-9.13884
ton	-9.13902
▁measures	-9.13939
▁husband	-9.13965
▁journalist	-9.13984
▁king	-9.14035
▁poor	-9.14378
▁africa	-9.14594
▁receive	-9.14917
▁computer	-9.15025
▁wait	-9.15093
▁care	-9.15179
▁iranian	-9.1534
▁kong	-9.15342
▁drive	-9.15446
▁michael	-9.15596
▁contain	-9.15755
▁shooting	-9.15968
▁moment	-9.16029
▁st	-9.16082
▁famili	-9.1633
▁neighbor	-9.16416
▁parents	-9.16432
▁arriv	-9.16492
▁done	-9.16686
▁fired	-9.16782
▁investigator	-9.16885
▁fact	-9.17013
▁tourist	-9.17348
▁islami	-9.17561
pent	-9.1759
▁quot	-9.17748
▁present	-9.17757
▁commander	-9.17895
▁ordered	-9.1805
▁dispute	-9.18056
▁accident	-9.18069
▁reform	-9.1808
▁movement	-9.18193
▁facilit	-9.18393
▁certain	-9.18511
▁transport	-9.18511
▁club	-9.18516
▁paper	-9.18547
▁burn	-9.18609
▁raise	-9.18697
▁dr	-9.18907
▁affair	-9.18935
▁education	-9.18991
▁african	-9.19126
▁prince	-9.19255
▁ambassador	-9.1936
▁increasing	-9.1936
▁push	-9.19375
▁involve	-9.19451
▁details	-9.19484
▁suspected	-9.19487
▁period	-9.19522
▁included	-9.19537
▁sexual	-9.19797
▁cars	-9.19929
▁rest	-9.1995
▁related	-9.20391
▁professor	-9.20648
▁dow	-9.2077
▁accept	-9.2093
▁matter	-9.20939
▁afternoon	-9.21082
▁wear	-9.21189
▁view	-9.21206
▁difficult	-9.21272
▁account	-9.21362
▁english	-9.21516
▁potential	-9.21516
▁gain	-9.21835
▁rock	-9.21871
▁cat	-9.21911
▁rally	-9.21987
▁majorit	-9.21996
▁ready	-9.22079
▁manager	-9.22109
▁bodie	-9.22144
hutto	-9.22245
▁reject	-9.22352
▁cabinet	-9.22391
▁activities	-9.2246
nato	-9.22653
▁contract	-9.22714
▁draw	-9.22813
▁detain	-9.22829
▁kilometer	-9.22831
▁brother	-9.22844
▁huge	-9.22992
▁leav	-9.23267
▁block	-9.23691
▁design	-9.237
▁contact	-9.23719
▁patient	-9.23744
▁course	-9.2377
▁challenge	-9.2389
▁terror	-9.23902
ung	-9.23906
truck	-9.24006
hua	-9.24069
▁holding	-9.24146
▁finish	-9.2416
▁access	-9.24198
▁saudi	-9.24614
▁opening	-9.24643
▁indian	-9.24783
stead	-9.24891
rought	-9.24896
▁played	-9.24918
▁rescue	-9.25442
▁doctors	-9.25588
▁broadcast	-9.25661
▁cases	-9.25817
▁conservative	-9.25971
▁treatment	-9.26012
▁announcement	-9.26034
▁sure	-9.26048
▁turk	-9.26206
▁marine	-9.26338
▁progress	-9.26413
▁broke	-9.26534
▁track	-9.26697
▁limit	-9.26845
▁peninsula	-9.26886
▁response	-9.26886
▁suspend	-9.26886
za	-9.26901
▁enter	-9.26944
ble	-9.26969
▁institute	-9.27361
▁create	-9.27365
▁civil	-9.27541
▁deliver	-9.27604
▁raid	-9.27864
▁prisoner	-9.27934
▁shows	-9.27988
▁hearing	-9.28067
▁check	-9.28283
ler	-9.28374
▁cities	-9.28442
▁village	-9.28499
▁common	-9.28501
▁material	-9.28605
▁partie	-9.28728
▁passengers	-9.28738
▁mexico	-9.28742
▁spoke	-9.28744
▁lift	-9.28769
▁friend	-9.28774
▁probabl	-9.28836
▁means	-9.28845
▁non	-9.28853
▁forward	-9.28882
▁streets	-9.28913
▁single	-9.29025
wood	-9.29097
▁critical	-9.29116
▁agree	-9.29161
▁illinois	-9.29212
▁taiwan	-9.29212
▁square	-9.29216
▁interior	-9.2926
▁published	-9.29522
▁trading	-9.29684
▁actor	-9.29741
▁understand	-9.29746
▁vot	-9.29756
ey	-9.30009
▁session	-9.30157
re	-9.30587
▁describ	-9.30847
▁passed	-9.30875
▁separate	-9.3104
▁green	-9.31067
ful	-9.31094
▁explosion	-9.31112
▁relationship	-9.31116
▁investor	-9.31136
▁rain	-9.31145
▁refus	-9.31279
▁investment	-9.31282
▁warning	-9.31361
▁spread	-9.31382
ney	-9.31579
▁allegation	-9.31595
▁nothing	-9.31608
▁spending	-9.31691
▁l	-9.3173
ial	-9.31946
▁diplomatic	-9.32139
gnp	-9.32185
▁secret	-9.32462
▁index	-9.32592
▁nav	-9.32863
▁fast	-9.32865
▁chicago	-9.33049
▁annual	-9.33462
▁insurgent	-9.33539
▁data	-9.33564
▁citizens	-9.33581
selves	-9.33995
▁giant	-9.34036
▁rising	-9.34077
▁islam	-9.34139
geles	-9.3442
▁nominee	-9.34527
▁female	-9.34527
▁actual	-9.34528
▁investigat	-9.34636
▁personal	-9.3467
▁natural	-9.34932
▁criminal	-9.35024
▁helicopter	-9.35024
▁weather	-9.35036
▁winning	-9.35039
▁longer	-9.35041
▁virginia	-9.35043
▁avoid	-9.3508
▁sold	-9.35189
▁pai	-9.3527
▁fly	-9.35371
▁sun	-9.35437
▁mayor	-9.35571
▁experience	-9.3586
time	-9.35948
▁italian	-9.36035
▁code	-9.36127
▁smith	-9.36292
▁friends	-9.36346
▁schedule	-9.36439
▁shiite	-9.36533
▁satellite	-9.36534
▁export	-9.36788
▁require	-9.36891
▁abo	-9.36932
▁particular	-9.37041
▁lack	-9.37055
▁ran	-9.37113
▁social	-9.37209
▁chung	-9.37312
▁moon	-9.37367
▁discovered	-9.37493
▁independent	-9.37572
▁decades	-9.37699
▁century	-9.37707
▁range	-9.37737
▁truck	-9.37758
▁eu	-9.37803
▁injuries	-9.3784
▁mass	-9.37948
▁success	-9.38001
▁provid	-9.38019
▁snow	-9.38032
▁boat	-9.38092
▁size	-9.38326
▁availab	-9.38379
▁adding	-9.38446
▁dollar	-9.38447
▁employees	-9.38452
▁construction	-9.38583
▁italy	-9.38635
▁blue	-9.39034
▁finding	-9.39058
▁science	-9.39122
▁camera	-9.39142
▁worth	-9.39157
▁guard	-9.39173
▁wors	-9.39648
▁committ	-9.39711
▁color	-9.39811
▁toll	-9.39838
▁nasa	-9.40073
▁la	-9.40128
▁xin	-9.40156
▁rare	-9.40184
▁declar	-9.40221
▁additional	-9.40275
▁steps	-9.40347
▁visitor	-9.40421
▁seat	-9.40422
▁mail	-9.40468
▁flood	-9.4061
▁earthquake	-9.40667
▁unit	-9.40975
▁espe	-9.4109
▁establish	-9.41103
▁refugee	-9.41105
▁college	-9.41197
▁supreme	-9.41198
▁barrel	-9.41206
▁sever	-9.41217
▁jones	-9.41233
▁parts	-9.41248
▁honor	-9.41273
▁operat	-9.41287
pain	-9.41327
▁port	-9.41484
▁gun	-9.41664
▁industrial	-9.41673
▁anything	-9.4173
cially	-9.41765
▁insist	-9.41823
▁voice	-9.42043
▁pass	-9.42145
▁resign	-9.4224
▁everything	-9.42263
▁standard	-9.42268
▁peaceful	-9.42286
▁dae	-9.42298
▁zone	-9.42315
▁command	-9.42384
▁slow	-9.42608
▁thing	-9.42722
▁approach	-9.42739
men	-9.42745
▁maintain	-9.428
▁reactor	-9.42807
▁extend	-9.42899
▁read	-9.42902
▁import	-9.43034
▁build	-9.43049
▁gather	-9.431
▁ice	-9.43353
▁quit	-9.43536
▁wound	-9.43649
ley	-9.43734
▁moscow	-9.43884
▁prosecution	-9.43887
▁defeat	-9.43889
▁schedul	-9.43991
▁dollars	-9.44026
▁dropp	-9.44224
▁figure	-9.44233
▁super	-9.44285
▁value	-9.44297
▁massive	-9.44452
▁ben	-9.44513
▁original	-9.44551
▁banks	-9.44739
▁peter	-9.4477
▁deni	-9.44773
▁condemn	-9.4498
▁envoy	-9.4498
▁carolina	-9.4498
▁regard	-9.44981
▁opportunit	-9.45006
▁kar	-9.45105
▁represent	-9.45509
spite	-9.45514
▁attention	-9.45535
▁cancer	-9.45546
▁schools	-9.45569
▁shut	-9.45569
▁occurr	-9.45576
▁speed	-9.45597
▁shin	-9.45847
▁produc	-9.45875
▁alliance	-9.46092
▁aircraft	-9.46099
ose	-9.46182
▁mountain	-9.46197
▁convicted	-9.46202
▁le	-9.46209
▁ii	-9.46238
▁born	-9.46253
▁criticiz	-9.46287
▁store	-9.46303
▁engineer	-9.46335
▁uri	-9.4644
▁questions	-9.46572
▁driving	-9.46648
▁significant	-9.46673
▁driver	-9.46884
▁produce	-9.471
▁resume	-9.47107
aught	-9.47157
▁uk	-9.47162
▁jump	-9.47211
kept	-9.4733
▁remarks	-9.47353
▁consumer	-9.47391
▁pre	-9.47403
bi	-9.47447
▁il	-9.4758
▁pacifi	-9.47774
▁brain	-9.47781
▁usual	-9.47782
▁suspect	-9.47792
▁environmental	-9.47935
▁student	-9.4795
ritten	-9.47954
▁normal	-9.48329
▁marriage	-9.48342
▁discussion	-9.48468
giving	-9.4856
▁remains	-9.48634
responsible	-9.48723
▁whom	-9.48771
▁evening	-9.48807
▁monitor	-9.48913
el	-9.48988
▁society	-9.48989
▁admitted	-9.4908
▁class	-9.49246
oft	-9.49362
▁hands	-9.49403
▁device	-9.49495
▁bridge	-9.49536
▁training	-9.49643
▁pennsylvania	-9.49814
▁indonesia	-9.49883
▁independen	-9.49909
▁finance	-9.50027
▁prompt	-9.50066
▁ohio	-9.50067
▁management	-9.50078
▁guilt	-9.50094
▁severe	-9.50215
▁fighter	-9.50411
▁sharp	-9.50434
▁millions	-9.50522
▁heard	-9.50615
▁museum	-9.5065
▁performance	-9.50658
▁blame	-9.50679
harry	-9.50815
▁ex	-9.50902
▁drop	-9.50923
▁promise	-9.50938
▁levels	-9.50947
▁customer	-9.50967
putin	-9.5113
▁tibet	-9.51135
▁sale	-9.51246
▁decline	-9.51272
▁hurt	-9.51293
▁song	-9.5147
▁criticism	-9.51831
▁baby	-9.51875
▁review	-9.52198
▁holiday	-9.52412
▁conflict	-9.52413
▁beginning	-9.5242
▁chang	-9.52467
▁fill	-9.52547
▁abbas	-9.52584
▁canno	-9.52858
▁rich	-9.52885
rote	-9.52974
▁terroris	-9.52992
▁leadership	-9.5304
▁aide	-9.53106
▁parliamentar	-9.53254
▁civilian	-9.53379
▁constitution	-9.53401
▁prize	-9.5353
▁custody	-9.53606
▁scandal	-9.53606
▁sides	-9.53622
▁factor	-9.53743
▁save	-9.53767
▁bak	-9.53867
▁changes	-9.53944
▁word	-9.54018
▁electric	-9.54084
▁impact	-9.54221
▁herald	-9.54223
▁drink	-9.54225
▁bin	-9.54295
▁intend	-9.54306
ia	-9.54306
▁regional	-9.54468
▁angel	-9.5453
▁suspects	-9.54621
▁critic	-9.54688
▁mosque	-9.54815
▁double	-9.54818
▁career	-9.55057
▁commercial	-9.55101
▁effect	-9.55234
▁opinion	-9.55424
▁corruption	-9.55427
▁communication	-9.55429
▁combat	-9.55431
▁negotiator	-9.55439
▁reduce	-9.55449
▁pledge	-9.55779
▁regime	-9.55804
▁environment	-9.55818
▁georgia	-9.55849
▁language	-9.56038
▁everyone	-9.56088
▁author	-9.56129
▁fair	-9.56144
up	-9.56185
▁micros	-9.56217
rt	-9.5622
▁repeated	-9.56483
▁screen	-9.56537
▁ball	-9.56602
tan	-9.56608
▁allies	-9.56712
▁fine	-9.56731
▁reason	-9.56868
▁forest	-9.56978
▁boost	-9.57175
▁panel	-9.57284
▁seats	-9.57364
ni	-9.57481
▁score	-9.57633
▁mo	-9.5765
▁buildings	-9.57654
ever	-9.57693
▁numbers	-9.57776
way	-9.57783
▁buil	-9.57808
▁territor	-9.57811
▁fresh	-9.57902
▁failure	-9.57902
▁climate	-9.57904
▁fifth	-9.57913
▁traffic	-9.5834
▁republic	-9.58433
▁brief	-9.58438
▁adopt	-9.58458
▁recover	-9.58498
▁complex	-9.58531
▁myung	-9.586
▁formal	-9.58606
▁surprise	-9.58614
▁associate	-9.59005
▁ko	-9.5901
▁bit	-9.59177
▁documents	-9.59177
▁proposal	-9.59218
▁fish	-9.59357
▁da	-9.59382
▁traditional	-9.59393
ar	-9.59616
▁specific	-9.59778
▁assault	-9.598
▁domestic	-9.598
▁spanish	-9.59809
▁james	-9.59816
▁surgery	-9.59841
▁cho	-9.60416
▁difference	-9.60442
▁corp	-9.60498
▁package	-9.60507
▁sound	-9.60891
▁fac	-9.61027
▁figures	-9.61029
▁olympics	-9.61071
▁cash	-9.61103
▁bombing	-9.61225
▁ky	-9.61446
▁hu	-9.61513
▁queen	-9.61634
▁violent	-9.61736
▁nam	-9.61751
▁possibilit	-9.61765
▁option	-9.61804
▁wave	-9.61961
▁richard	-9.62016
▁owner	-9.62187
▁itself	-9.62243
▁hop	-9.62409
▁coach	-9.62416
▁route	-9.62428
▁penalt	-9.6244
▁tree	-9.62515
▁ba	-9.6254
▁events	-9.62864
▁recall	-9.63047
▁answer	-9.63058
▁mobile	-9.63081
▁jong	-9.63091
▁protection	-9.6313
▁miss	-9.63507
▁colombia	-9.63527
ory	-9.63633
▁withdraw	-9.63641
▁trigger	-9.63709
▁reveal	-9.6371
▁apple	-9.63713
▁shuttle	-9.63717
▁disaster	-9.6372
tp	-9.63879
▁created	-9.63889
▁addition	-9.64206
▁accuse	-9.64349
▁astronaut	-9.64376
▁quake	-9.64377
▁tie	-9.64414
▁telephone	-9.64456
▁adviser	-9.64466
▁maker	-9.64525
▁gates	-9.64834
▁measure	-9.6493
▁makes	-9.6496
▁propos	-9.64964
▁profit	-9.65048
▁supply	-9.65054
▁sleep	-9.65079
▁tests	-9.65109
▁necessary	-9.65136
▁carrie	-9.65153
▁holly	-9.6518
▁abe	-9.65217
▁self	-9.65299
▁sunni	-9.654
▁describe	-9.65422
▁beach	-9.6545
▁premier	-9.65554
▁arab	-9.6569
▁improve	-9.6572
▁individual	-9.65723
▁correspondent	-9.65728
▁winter	-9.65747
▁powerful	-9.6577
▁francis	-9.65832
▁girls	-9.65981
▁amount	-9.66013
▁controll	-9.66119
▁headquarter	-9.66403
▁neighborhood	-9.66407
▁dangerous	-9.66415
▁agent	-9.66444
▁exist	-9.66458
▁cap	-9.66541
▁piece	-9.66545
▁shown	-9.66547
▁respond	-9.66599
▁struggl	-9.66613
▁flights	-9.66673
▁replace	-9.66739
▁compar	-9.66744
▁stopped	-9.66795
▁football	-9.66811
da	-9.67072
▁magazine	-9.67088
▁ilbo	-9.6709
abe	-9.67106
▁loan	-9.67131
▁affect	-9.67242
▁touch	-9.67516
ur	-9.67624
▁rocket	-9.67667
▁resolve	-9.67759
▁positive	-9.67778
▁behavior	-9.67782
▁mug	-9.6779
▁appearance	-9.67837
▁showing	-9.67894
ng	-9.68067
▁forecast	-9.68168
▁cold	-9.68189
▁kids	-9.68407
▁planet	-9.68467
▁else	-9.68483
▁deadline	-9.6849
▁page	-9.68613
▁arms	-9.68626
well	-9.68733
▁arrive	-9.6878
▁affected	-9.69014
▁respect	-9.69156
▁confidence	-9.69172
▁felt	-9.69176
▁vow	-9.69187
▁advance	-9.69327
▁ongoing	-9.69371
▁words	-9.69429
▁trouble	-9.69487
▁secure	-9.69668
▁heat	-9.69801
▁overseas	-9.69876
▁pilot	-9.69887
▁location	-9.69903
▁referr	-9.69914
▁apartment	-9.69955
▁votes	-9.70094
▁fears	-9.70111
▁rank	-9.70129
ine	-9.70189
▁carri	-9.70321
▁perform	-9.70522
▁anniversar	-9.70585
▁sometime	-9.70742
▁activists	-9.70743
ie	-9.70957
▁ht	-9.70975
▁mil	-9.71014
▁legislati	-9.71103
▁po	-9.71117
▁terms	-9.71177
▁wrong	-9.7129
▁brazil	-9.71293
▁crude	-9.71299
▁degree	-9.71299
▁solution	-9.71307
▁successful	-9.71312
▁forc	-9.71691
▁govern	-9.71998
▁straight	-9.72019
▁wa	-9.7215
ong	-9.72182
▁riot	-9.72184
▁yang	-9.72218
town	-9.7228
▁learn	-9.72324
▁constitutional	-9.72336
▁winner	-9.72436
▁abuse	-9.72598
responsibility	-9.72601
▁km	-9.72669
▁bear	-9.72724
▁below	-9.72774
▁style	-9.72779
▁choice	-9.72809
off	-9.72837
▁adult	-9.72988
▁bay	-9.73022
▁na	-9.73044
▁soldier	-9.73171
▁row	-9.73276
▁drugs	-9.73308
▁hurricane	-9.73473
▁christmas	-9.73473
▁display	-9.73474
▁assistant	-9.73476
▁controversial	-9.73482
▁id	-9.73526
▁reserve	-9.73542
▁joined	-9.73569
▁type	-9.73708
▁promis	-9.73863
▁card	-9.73874
lew	-9.73909
▁van	-9.73958
▁flu	-9.73983
▁supplie	-9.74034
▁birth	-9.74207
▁christophe	-9.74209
▁entire	-9.74209
▁regular	-9.74217
▁propert	-9.74379
▁blow	-9.74405
▁bar	-9.74456
ist	-9.7453
▁bann	-9.74713
▁influence	-9.74751
▁model	-9.74767
▁blair	-9.74949
▁madrid	-9.7495
▁channel	-9.74951
▁famous	-9.74981
▁welcome	-9.74998
▁surrounding	-9.75037
▁collapse	-9.75043
▁cooperati	-9.75095
▁feature	-9.75199
▁virus	-9.75276
▁victim	-9.75454
▁che	-9.75518
▁abu	-9.75613
▁highway	-9.75625
▁indicate	-9.7566
▁happy	-9.75696
▁resort	-9.75699
▁freedom	-9.75702
▁mount	-9.75722
▁gone	-9.75801
▁decade	-9.76233
new	-9.76265
▁clean	-9.76296
▁su	-9.7631
▁pack	-9.76362
▁extreme	-9.76454
▁tech	-9.76514
▁true	-9.76552
▁tibetan	-9.76573
▁scor	-9.76599
▁throw	-9.76614
▁alone	-9.76674
ak	-9.76729
ither	-9.76848
▁burma	-9.76861
▁cancel	-9.76903
▁transfer	-9.77007
▁kidnapped	-9.77021
▁treasur	-9.77134
▁floor	-9.77207
▁spark	-9.77222
▁olme	-9.77227
▁hair	-9.77231
▁cent	-9.77289
▁twic	-9.7742
▁door	-9.77505
▁auto	-9.7753
▁christian	-9.77557
▁politic	-9.77596
▁asp	-9.7775
▁male	-9.7777
▁lone	-9.7778
▁abandon	-9.77969
▁exile	-9.77987
▁charles	-9.78023
▁witnesses	-9.78075
nel	-9.78237
▁tough	-9.78306
▁ocean	-9.78321
▁singer	-9.78537
▁meters	-9.78662
▁el	-9.78701
▁competition	-9.78738
▁sudan	-9.7874
▁dream	-9.78745
▁festival	-9.78747
▁species	-9.7876
▁resignation	-9.78773
▁ali	-9.78871
▁activit	-9.78911
▁active	-9.78956
▁eye	-9.79163
▁nor	-9.79363
▁doctor	-9.79387
▁pound	-9.79407
▁jet	-9.79475
▁names	-9.79477
▁software	-9.79513
▁enem	-9.79515
▁recession	-9.79519
▁division	-9.79521
▁malik	-9.79524
▁trust	-9.79581
▁champions	-9.79633
▁producer	-9.79689
ro	-9.80097
▁winds	-9.80107
▁northeast	-9.80161
▁indicat	-9.80245
▁married	-9.80316
▁doubt	-9.80353
▁laws	-9.80496
▁et	-9.80575
▁gunm	-9.80631
ahoo	-9.80651
▁dis	-9.80674
▁qualit	-9.80744
overall	-9.8076
▁han	-9.80828
▁shar	-9.80903
▁studie	-9.80923
▁singapore	-9.8098
▁journal	-9.81056
▁hussein	-9.81081
▁pentagon	-9.81081
▁palace	-9.81083
▁heavi	-9.81088
▁art	-9.81114
▁kick	-9.81132
▁hot	-9.81241
▁shari	-9.81334
▁dog	-9.81435
uters	-9.81576
▁zimbabwe	-9.81776
▁imposed	-9.81802
is	-9.8184
▁eventual	-9.81876
▁concert	-9.81878
▁gord	-9.81884
ium	-9.81884
▁beyon	-9.81931
▁prepared	-9.81983
▁reflect	-9.81988
▁determine	-9.82048
▁william	-9.82096
▁denie	-9.82183
▁kidnapping	-9.82311
▁remove	-9.82366
▁chi	-9.82538
▁currenc	-9.82676
den	-9.82712
ang	-9.82754
▁setting	-9.82792
▁pope	-9.82899
▁wild	-9.82931
▁gay	-9.83161
▁steve	-9.83262
▁williams	-9.83265
▁mine	-9.83355
▁shop	-9.83388
▁bombings	-9.83685
▁cast	-9.83872
▁syria	-9.83925
▁ma	-9.83983
atomic	-9.84077
▁surge	-9.84187
ian	-9.84237
▁ronald	-9.84295
▁survivor	-9.84307
▁effective	-9.84353
▁shift	-9.84398
▁photograph	-9.84478
▁demanding	-9.84542
id	-9.84877
▁tank	-9.84893
eastern	-9.84961
▁clashe	-9.85046
▁condoleez	-9.85114
▁relief	-9.85116
▁draft	-9.85116
▁kosov	-9.85118
▁demonstrator	-9.85127
▁commitment	-9.85132
▁declaration	-9.85147
▁scale	-9.85159
▁euro	-9.85165
▁halt	-9.85166
▁dark	-9.85178
▁prove	-9.85359
▁signal	-9.8547
▁fil	-9.85628
▁sub	-9.85703
▁consumers	-9.85721
▁capture	-9.85853
▁se	-9.85898
▁economist	-9.85941
▁crackdown	-9.85943
▁presen	-9.86068
▁culture	-9.86081
▁sense	-9.86149
▁serving	-9.86172
▁practice	-9.8621
▁earn	-9.86277
▁bomber	-9.86479
▁farmer	-9.86578
▁smoke	-9.86704
▁egypt	-9.86768
▁hall	-9.8677
▁implement	-9.86774
▁soviet	-9.86774
▁dialogue	-9.86774
▁various	-9.86775
▁portug	-9.86776
▁actress	-9.86777
▁withdrawal	-9.86862
▁foundation	-9.87016
▁whole	-9.87146
▁multi	-9.87188
▁flow	-9.87253
▁foreigner	-9.8733
▁stem	-9.8737
▁sports	-9.87495
▁witness	-9.87499
▁rush	-9.87513
▁roll	-9.87535
▁dress	-9.87651
▁connection	-9.87666
▁counter	-9.87704
▁losing	-9.8773
ification	-9.87776
ner	-9.87937
▁tony	-9.87954
▁works	-9.88057
▁via	-9.88144
▁alert	-9.88221
▁politicians	-9.88228
▁jew	-9.88258
▁mind	-9.88266
▁complain	-9.88306
▁zoo	-9.88382
▁picture	-9.8839
▁appoint	-9.88428
▁add	-9.88438
▁tournament	-9.88462
▁militia	-9.88462
▁religious	-9.88465
▁sector	-9.88471
▁violation	-9.88507
▁pictures	-9.88534
▁partner	-9.88681
▁min	-9.88705
▁seed	-9.88804
▁shock	-9.8882
▁martin	-9.88877
ham	-9.88919
▁trail	-9.88973
▁hole	-9.88973
▁guy	-9.88977
▁convention	-9.89012
▁deploy	-9.89285
▁defend	-9.89321
▁version	-9.89335
where	-9.89431
▁income	-9.89447
▁flame	-9.89459
▁ending	-9.89551
▁suffering	-9.89664
▁minor	-9.89677
▁waters	-9.89694
▁historic	-9.89732
▁traveling	-9.89762
▁determined	-9.89866
▁favor	-9.89877
▁escape	-9.89897
▁probe	-9.89966
▁academ	-9.9003
▁computers	-9.901
▁delegation	-9.90179
▁unveil	-9.90179
▁kabul	-9.90179
▁beckham	-9.90179
▁ceo	-9.90192
▁meetings	-9.90291
▁broad	-9.9035
▁content	-9.90426
▁las	-9.90461
▁taxes	-9.90466
▁frank	-9.90482
▁bag	-9.90492
▁leg	-9.90641
▁ways	-9.90765
▁alcohol	-9.91028
▁danger	-9.91043
▁encourage	-9.91048
▁budget	-9.91053
▁medicine	-9.91066
▁reaction	-9.9108
▁speaker	-9.91142
▁spring	-9.91211
▁hear	-9.91213
zai	-9.91216
▁easi	-9.91219
▁wind	-9.91403
▁dut	-9.916
ship	-9.9173
▁extra	-9.9182
▁spot	-9.91842
▁fraud	-9.91925
▁rapid	-9.91927
▁fellow	-9.91931
▁stone	-9.91938
▁diana	-9.91958
▁users	-9.92045
▁weight	-9.92069
▁apolog	-9.92157
▁hous	-9.92163
berg	-9.9225
la	-9.92385
▁rape	-9.92433
aks	-9.92436
▁table	-9.92572
▁isn	-9.92684
▁god	-9.92729
▁ranking	-9.92731
▁michigan	-9.9281
▁tehran	-9.9281
▁temperature	-9.9281
▁enjoy	-9.92811
▁saddam	-9.92811
▁register	-9.9284
▁standing	-9.92846
▁urani	-9.9285
▁sister	-9.92905
▁remov	-9.93095
▁contest	-9.93124
▁systems	-9.93136
▁torch	-9.93223
▁li	-9.9335
b	-9.9338
▁ring	-9.93461
▁items	-9.93487
▁slight	-9.93505
▁arabia	-9.93536
ester	-9.93631
▁tens	-9.93653
▁kennedy	-9.93704
▁virtual	-9.9371
yone	-9.93736
▁stake	-9.93896
▁alive	-9.93944
▁collapsed	-9.94016
▁ho	-9.94097
▁seiz	-9.94121
▁basic	-9.94127
▁mile	-9.94155
▁stoo	-9.9426
▁fix	-9.94388
▁object	-9.94523
▁catholic	-9.94604
▁vietnam	-9.94604
▁simpson	-9.94605
▁unlike	-9.94621
▁gov	-9.94672
▁inspector	-9.9471
▁demonstrations	-9.94809
▁jur	-9.9498
▁sky	-9.95034
▁artist	-9.95139
▁tensions	-9.95235
▁enforce	-9.95242
▁southeast	-9.95301
▁wealth	-9.95418
▁ahmadi	-9.95441
▁box	-9.95508
▁ethnic	-9.95517
▁assistance	-9.95523
▁orbit	-9.95531
▁organizer	-9.95533
▁explosives	-9.95536
▁gar	-9.95543
▁generation	-9.9557
▁mad	-9.95573
▁climb	-9.95587
▁wing	-9.95658
junta	-9.9567
▁lose	-9.95791
▁accepted	-9.95803
▁demanded	-9.95813
▁cb	-9.95859
▁ji	-9.95911
▁broken	-9.95917
▁possibl	-9.96163
▁declare	-9.96192
▁joong	-9.96215
▁fled	-9.96233
▁decide	-9.96239
▁cuba	-9.96293
▁pa	-9.9633
▁jose	-9.96364
▁file	-9.96387
suu	-9.96424
▁visa	-9.96434
▁troop	-9.96434
▁liver	-9.96435
▁championship	-9.9644
▁speculation	-9.96447
▁machine	-9.965
▁sadr	-9.9651
▁pounds	-9.96572
▁arizo	-9.96834
▁chose	-9.97089
▁kenya	-9.97175
▁spend	-9.97192
▁exact	-9.97357
▁stadium	-9.97357
▁nicola	-9.97357
▁islamabad	-9.97357
▁enrich	-9.97358
▁regulation	-9.97363
▁vegas	-9.97375
▁massa	-9.97437
▁ten	-9.97572
▁cruise	-9.97848
▁edge	-9.97916
j	-9.97957
▁takes	-9.98058
▁stars	-9.98169
▁remote	-9.98291
chuse	-9.98296
▁debt	-9.98357
▁physical	-9.98374
▁complaint	-9.98467
▁traveler	-9.98483
▁warming	-9.98509
▁license	-9.98545
▁equal	-9.98639
▁cia	-9.98686
▁ensure	-9.98846
▁statu	-9.98973
▁photos	-9.98981
▁obtain	-9.99234
▁jerusalem	-9.99234
▁purpose	-9.99234
▁rallie	-9.99237
ado	-9.99315
▁googl	-9.99324
▁sa	-9.99373
ea	-9.9941
▁agre	-9.99417
ter	-9.99588
ribal	-9.99626
▁motor	-9.99735
tts	-9.99739
▁thanks	-9.99783
▁di	-9.99794
▁continu	-9.99807
▁lad	-10.0001
▁pain	-10.0008
▁net	-10.0012
cient	-10.0016
▁trillion	-10.0019
▁equipment	-10.0019
▁crucial	-10.0019
▁putt	-10.0019
▁oppos	-10.002
▁commissioner	-10.0054
▁oscar	-10.0079
▁weapon	-10.0081
▁relative	-10.0081
▁surface	-10.0082
at	-10.0084
▁spear	-10.011
▁blam	-10.0111
▁narrow	-10.0115
▁invite	-10.0115
▁task	-10.0115
▁globe	-10.0115
▁wake	-10.0116
▁iowa	-10.0118
▁jung	-10.0118
▁celebrit	-10.012
back	-10.0124
▁violat	-10.0152
▁spy	-10.0153
▁tape	-10.0162
▁era	-10.0162
▁plot	-10.0166
ier	-10.0188
▁promote	-10.0204
▁perfect	-10.0213
▁warrant	-10.0214
▁bailout	-10.0214
▁tons	-10.0217
▁leak	-10.0239
▁representatives	-10.0244
▁evacuated	-10.0246
▁organiz	-10.0246
▁dan	-10.0256
haps	-10.0265
▁anger	-10.027
western	-10.0271
▁modern	-10.0274
ily	-10.0276
▁audience	-10.0279
▁detail	-10.0282
▁angr	-10.0297
▁jan	-10.0299
▁gang	-10.0302
▁fed	-10.0303
▁exercise	-10.0304
▁declin	-10.0304
▁mahmoud	-10.031
▁subject	-10.031
▁estate	-10.0311
▁carbon	-10.0312
▁strengthen	-10.0314
▁stress	-10.0323
▁founder	-10.0332
▁samsun	-10.0336
▁discovery	-10.0341
▁dismissed	-10.0353
▁brand	-10.0374
▁band	-10.0374
▁ei	-10.0396
▁tonight	-10.0409
▁guarantee	-10.0409
▁invasion	-10.0409
▁magnitude	-10.0409
▁closer	-10.041
▁nevada	-10.0411
▁internal	-10.0412
▁guest	-10.0412
▁professional	-10.0413
▁mike	-10.0414
▁calm	-10.0415
▁dutch	-10.0415
▁rough	-10.0415
▁runner	-10.0415
▁boycott	-10.0419
▁writer	-10.0426
▁expand	-10.0457
▁charg	-10.0463
▁stall	-10.0463
ack	-10.0464
▁handed	-10.0496
▁aware	-10.0504
▁wi	-10.0506
▁agricultur	-10.0509
▁detention	-10.0509
▁fashion	-10.0509
▁daniel	-10.051
▁jackson	-10.051
▁nobel	-10.0512
▁wolf	-10.0513
▁santa	-10.0521
▁transition	-10.0525
broad	-10.0544
corporate	-10.0554
▁provinc	-10.0573
▁smok	-10.0576
▁wor	-10.058
▁electronic	-10.059
▁nepal	-10.0592
▁attract	-10.0607
itarian	-10.0609
▁memorial	-10.061
▁offensive	-10.061
▁suburb	-10.061
▁temporar	-10.061
▁colleague	-10.061
▁lawsuit	-10.061
▁relay	-10.0611
▁assassination	-10.0611
▁windows	-10.0613
▁tight	-10.0613
▁restriction	-10.0615
▁dogs	-10.0618
▁arrival	-10.0625
▁liberal	-10.0644
▁phones	-10.0663
▁meant	-10.0665
▁patrol	-10.0677
▁urge	-10.0688
▁champion	-10.0696
surance	-10.0698
▁reporter	-10.0705
▁identify	-10.0712
▁sheriff	-10.0712
▁reduction	-10.0712
▁louis	-10.0712
mer	-10.0713
▁monk	-10.0714
▁wonder	-10.0715
▁estimat	-10.0751
▁path	-10.0765
▁agenci	-10.0788
▁pair	-10.0797
▁alaska	-10.0798
▁strategy	-10.0815
▁suspicion	-10.0815
▁advantage	-10.0815
▁counterpart	-10.0815
▁dubai	-10.0815
▁remember	-10.0816
▁babies	-10.0817
▁batter	-10.0818
▁canad	-10.0819
▁worrie	-10.0827
▁visiting	-10.0843
▁colombian	-10.0844
ized	-10.0861
▁yes	-10.0866
▁ang	-10.0879
▁projects	-10.0883
▁maca	-10.0898
▁dub	-10.0912
▁permanent	-10.0919
▁berlin	-10.0921
▁casualties	-10.0922
▁manch	-10.0925
▁lake	-10.0926
▁presiden	-10.0929
▁diplomats	-10.0933
▁choose	-10.0937
field	-10.0937
▁reasons	-10.0941
ant	-10.0948
▁sport	-10.0952
pool	-10.0962
▁investigate	-10.0981
▁ease	-10.0983
▁offering	-10.1
ified	-10.1011
▁example	-10.1014
▁coup	-10.1017
▁tom	-10.1022
▁mix	-10.1024
▁sudden	-10.1025
▁kingdom	-10.1025
▁haven	-10.1027
▁aboard	-10.1035
▁argu	-10.1053
▁relatives	-10.1063
night	-10.1067
▁forum	-10.1076
▁lady	-10.1079
un	-10.1111
▁ray	-10.1111
▁venezuela	-10.1113
▁freed	-10.1117
ical	-10.113
▁anonymity	-10.1131
▁veteran	-10.1131
▁diego	-10.1131
▁exit	-10.1132
▁auction	-10.1134
▁teenager	-10.1139
▁sydn	-10.1143
▁books	-10.1145
▁mohamm	-10.1145
▁none	-10.1148
▁princess	-10.1157
▁die	-10.1176
▁catch	-10.1181
ani	-10.1192
▁theater	-10.1195
gun	-10.1197
▁threats	-10.1214
▁favorite	-10.1237
▁buri	-10.1238
▁technical	-10.1238
▁nadal	-10.1239
▁entertainment	-10.1239
▁tiger	-10.1239
▁passenger	-10.124
▁split	-10.124
▁hilton	-10.1241
▁chen	-10.1245
▁recovery	-10.1245
oline	-10.125
▁johnson	-10.1252
▁lay	-10.1253
▁simple	-10.1255
▁document	-10.1258
▁worse	-10.1259
▁label	-10.1267
ll	-10.1268
▁fa	-10.1269
▁strain	-10.1283
spread	-10.1286
▁dong	-10.1294
▁struggle	-10.1314
▁rome	-10.1316
▁inc	-10.1316
▁fata	-10.1331
▁harm	-10.1332
▁feder	-10.1347
▁tomorrow	-10.1347
▁ukrain	-10.1347
▁froze	-10.1348
▁destruction	-10.1349
▁manag	-10.1351
▁sw	-10.1353
▁landing	-10.1362
▁warm	-10.1368
▁easy	-10.137
▁tear	-10.1378
dna	-10.1391
▁wood	-10.1414
▁con	-10.1415
▁creat	-10.1417
ma	-10.1422
ization	-10.1453
▁compound	-10.1457
▁soccer	-10.1457
▁cleric	-10.1457
▁negative	-10.1457
▁delta	-10.1457
▁atmospher	-10.1457
▁potter	-10.1458
▁cutting	-10.1461
▁shortage	-10.1465
▁fit	-10.1469
▁basi	-10.15
dai	-10.151
▁purchase	-10.1514
▁benefits	-10.1519
ju	-10.154
▁roads	-10.1559
▁debut	-10.1568
▁agenda	-10.1568
▁emission	-10.1569
▁canadian	-10.1569
▁simply	-10.1569
▁mention	-10.1571
▁en	-10.1574
▁renew	-10.1578
▁lowest	-10.158
▁sh	-10.1594
ground	-10.1611
▁resources	-10.1619
▁movies	-10.1625
▁engine	-10.1631
▁refuse	-10.1634
▁suit	-10.1638
▁polic	-10.1649
rew	-10.1658
▁prepar	-10.1658
▁malaysia	-10.1662
▁strip	-10.1674
▁detect	-10.1674
▁erupt	-10.1676
▁x	-10.1677
▁explod	-10.168
▁thomas	-10.1681
▁shelter	-10.1681
▁conspirac	-10.1681
▁gap	-10.1683
▁expectation	-10.1688
▁firefighter	-10.1697
▁profile	-10.1699
▁heading	-10.17
▁devastat	-10.1707
▁guards	-10.1707
▁mr	-10.1716
▁percentage	-10.1719
▁trapped	-10.172
▁lt	-10.1725
ana	-10.1728
▁rang	-10.1761
▁pe	-10.1762
▁kurdis	-10.1771
▁frequent	-10.1794
▁chelsea	-10.1794
yongbyon	-10.1794
▁bullet	-10.1795
▁element	-10.1795
▁valley	-10.1797
▁wen	-10.18
▁plus	-10.18
▁elder	-10.1801
▁chemical	-10.1803
▁woo	-10.1817
▁acknowledg	-10.1831
▁manufactur	-10.184
▁cultur	-10.1841
across	-10.1842
▁unclea	-10.1846
▁sit	-10.1854
▁indiana	-10.1867
im	-10.1877
imed	-10.1894
ersey	-10.1898
▁improv	-10.1904
ability	-10.1906
▁recruit	-10.1909
▁nature	-10.191
▁mars	-10.1913
▁section	-10.1913
▁payment	-10.1924
▁issu	-10.1926
ional	-10.1927
▁eyes	-10.1931
▁vessel	-10.1932
▁ticket	-10.1932
▁expert	-10.1933
▁institution	-10.1951
as	-10.1952
▁youth	-10.1965
▁rescuer	-10.198
▁locat	-10.2009
▁bureau	-10.201
▁pop	-10.2018
▁assets	-10.2024
▁unusual	-10.2025
▁diamond	-10.2026
▁writing	-10.2033
▁heads	-10.2042
▁sort	-10.2044
enko	-10.2046
▁album	-10.2049
▁ride	-10.2051
▁bone	-10.2056
▁identit	-10.2074
▁apologize	-10.2078
ican	-10.2079
▁closing	-10.208
▁rat	-10.209
▁learned	-10.2094
▁pc	-10.2095
▁birds	-10.2108
▁proper	-10.2118
▁vi	-10.2137
▁disappoint	-10.214
▁bangkok	-10.2143
▁succeed	-10.2143
▁wedding	-10.2145
▁maryland	-10.2145
▁clinic	-10.2146
▁kang	-10.2148
▁khan	-10.2153
▁listen	-10.2165
arta	-10.2167
▁chair	-10.2171
di	-10.2178
▁observer	-10.2178
▁petr	-10.2204
▁landed	-10.2228
▁thank	-10.2238
it	-10.2243
▁disappear	-10.2261
▁preliminar	-10.2262
▁mccann	-10.2262
▁studio	-10.2262
▁bilateral	-10.2262
▁nominat	-10.2262
▁proud	-10.2263
▁abdullah	-10.2263
▁shrine	-10.2264
▁execution	-10.2265
▁hopeful	-10.2268
▁dramatic	-10.2272
▁pushing	-10.2278
▁plead	-10.2296
▁boe	-10.2296
▁ghaz	-10.2298
▁homeland	-10.2301
ten	-10.2303
▁crack	-10.2304
▁cool	-10.2307
▁toys	-10.2308
olar	-10.2316
▁divorce	-10.2331
▁oppose	-10.2346
▁surround	-10.2368
ina	-10.2371
▁bird	-10.2374
▁controversy	-10.2383
▁tsunami	-10.2383
▁yellow	-10.2383
▁edition	-10.2384
▁gulf	-10.2384
▁hezb	-10.2385
▁chrys	-10.2387
▁boss	-10.2391
▁reduced	-10.2393
▁inflation	-10.2401
▁fate	-10.2414
▁shoe	-10.2419
▁retir	-10.2427
▁jak	-10.2436
▁cheer	-10.2444
▁soar	-10.2453
mph	-10.2454
▁ha	-10.2462
▁digital	-10.2462
▁knee	-10.2467
ville	-10.2469
▁ver	-10.2479
beth	-10.2486
▁collect	-10.2496
▁edwards	-10.2499
▁scot	-10.2501
▁hunt	-10.2501
▁darfur	-10.2505
▁error	-10.2505
▁mortgage	-10.2505
▁alternative	-10.2505
▁miami	-10.2505
▁radical	-10.2505
▁palin	-10.2507
▁prett	-10.252
▁joe	-10.2527
ious	-10.2531
▁opponents	-10.2536
▁marked	-10.2544
▁rail	-10.2547
▁outbreak	-10.255
▁teachers	-10.2558
▁sponsor	-10.2563
over	-10.2564
▁hung	-10.2565
▁reading	-10.2567
▁ia	-10.2568
▁goods	-10.2569
▁pace	-10.257
day	-10.2577
▁southwest	-10.2594
▁lama	-10.2617
▁entering	-10.2621
▁campus	-10.2623
▁strength	-10.2624
▁journey	-10.2628
fare	-10.2628
▁method	-10.2628
▁ballot	-10.2628
▁assist	-10.263
▁bottom	-10.263
▁coordinat	-10.2635
▁firing	-10.2638
▁clash	-10.264
▁venezuelan	-10.2649
▁pet	-10.2664
▁restaurant	-10.2678
▁waste	-10.2686
azir	-10.2691
▁ill	-10.2692
▁desert	-10.2747
▁guns	-10.2751
▁yonhap	-10.2753
▁convoy	-10.2753
▁youtube	-10.2753
▁sustain	-10.2753
▁sentenc	-10.2756
▁vat	-10.276
▁immigrat	-10.2766
▁gonzale	-10.2769
▁farm	-10.2771
▁belong	-10.2773
▁approve	-10.2775
▁ro	-10.2775
▁bottle	-10.2775
mi	-10.2775
ches	-10.2791
▁indonesian	-10.2793
▁drew	-10.2793
▁ru	-10.2793
▁gains	-10.2794
▁boom	-10.28
▁seal	-10.28
▁roman	-10.28
▁hospitaliz	-10.2806
▁benefit	-10.2808
▁corner	-10.281
body	-10.2811
▁sean	-10.2819
▁fatal	-10.2826
▁engag	-10.2829
▁weak	-10.2851
ga	-10.2852
▁weigh	-10.2866
▁balance	-10.2871
▁select	-10.2878
▁client	-10.288
▁captain	-10.288
▁cloud	-10.288
▁gallon	-10.2881
▁inspection	-10.2881
▁shopping	-10.2883
▁deployment	-10.2884
▁weaken	-10.2885
ay	-10.2889
employment	-10.2889
▁operate	-10.2895
▁pose	-10.2903
▁effects	-10.2917
erson	-10.2921
ford	-10.2935
▁electora	-10.2936
▁gathering	-10.294
▁zealand	-10.2949
▁notice	-10.2949
▁tim	-10.2951
llah	-10.2954
▁predicted	-10.2979
ept	-10.2982
▁ally	-10.299
▁northwest	-10.2991
▁alexand	-10.2992
▁shape	-10.2996
arah	-10.2996
▁falling	-10.2999
▁invest	-10.3001
▁convince	-10.3008
▁girlfriend	-10.3008
▁vacation	-10.3008
madeleine	-10.3008
▁truth	-10.3008
▁innocent	-10.3012
hai	-10.3018
▁osam	-10.3027
▁afford	-10.3028
▁tall	-10.3029
▁grave	-10.3062
▁restore	-10.3064
▁delivery	-10.3066
▁beating	-10.3074
▁metal	-10.3081
▁yoo	-10.3081
▁participate	-10.3083
▁lock	-10.3084
▁charit	-10.31
▁stores	-10.3109
▁col	-10.3112
▁handl	-10.3113
upper	-10.3123
▁holy	-10.3124
ling	-10.3128
▁affiliate	-10.3133
▁landslide	-10.3138
▁boston	-10.3138
▁drove	-10.3138
▁initiative	-10.3138
▁pump	-10.3138
▁corporation	-10.3138
▁jesu	-10.314
▁je	-10.3149
▁stability	-10.315
ural	-10.3151
▁oh	-10.3154
▁nas	-10.3155
▁rockets	-10.3159
▁chain	-10.316
▁scott	-10.3167
ta	-10.3181
agan	-10.3188
aid	-10.3195
▁dealing	-10.3197
▁argentin	-10.32
▁dala	-10.3201
down	-10.3202
water	-10.3208
▁meaning	-10.3208
work	-10.3227
bility	-10.3252
▁length	-10.3264
▁im	-10.3267
▁knowledge	-10.3269
▁prospect	-10.3269
▁grew	-10.3273
▁yard	-10.3273
▁defendant	-10.3274
▁palm	-10.3282
▁islamist	-10.3282
▁acre	-10.3299
▁string	-10.33
▁cable	-10.331
▁structure	-10.3314
▁failing	-10.3319
▁younger	-10.3337
▁teacher	-10.3353
▁ka	-10.3357
▁formed	-10.3358
▁carrier	-10.3359
iya	-10.3376
▁planes	-10.338
▁participat	-10.3381
▁flee	-10.3392
▁survived	-10.3396
▁experiment	-10.3399
▁wildlife	-10.3403
▁ultimate	-10.3403
▁accord	-10.3404
▁temple	-10.3404
▁vast	-10.3405
▁dump	-10.3407
▁atlantic	-10.341
▁fox	-10.3413
▁bright	-10.3415
aeus	-10.3422
▁bound	-10.343
▁friendly	-10.343
ehud	-10.3432
▁kurd	-10.3436
▁mayb	-10.3444
▁battl	-10.3444
▁barr	-10.3459
▁divers	-10.347
▁tradition	-10.3483
▁comfort	-10.3488
ick	-10.3514
▁write	-10.3527
▁abduct	-10.3527
▁vladimir	-10.3527
▁connect	-10.3536
▁typical	-10.3539
▁collection	-10.3544
▁ye	-10.3549
▁peru	-10.3557
▁achieve	-10.3562
▁requir	-10.3568
ez	-10.3579
▁excit	-10.3586
ence	-10.3587
▁har	-10.3592
▁gore	-10.3594
▁tire	-10.3599
▁margin	-10.3602
▁damag	-10.3612
▁pirates	-10.3627
▁celebrate	-10.3635
▁detonat	-10.3635
▁sensitiv	-10.3647
▁warnings	-10.3661
▁barcelon	-10.3675
▁pregnant	-10.3675
▁delhi	-10.3675
▁michel	-10.3675
▁eliza	-10.3675
▁plastic	-10.3675
▁conversation	-10.3675
▁numer	-10.3676
▁lab	-10.3677
ger	-10.3685
▁stan	-10.3689
▁mate	-10.3702
bed	-10.3705
▁kerr	-10.3705
▁islands	-10.372
▁mur	-10.3737
▁restaurants	-10.3757
▁flag	-10.3759
▁lie	-10.376
▁representative	-10.3768
▁responded	-10.3771
▁symbol	-10.3776
▁beef	-10.3781
▁bond	-10.3783
▁clon	-10.3787
▁direction	-10.3791
▁serbia	-10.3796
▁provinces	-10.3804
ne	-10.3807
▁restrict	-10.3807
▁drama	-10.3809
▁ga	-10.3809
▁settle	-10.3813
▁abdul	-10.3813
▁superdelegate	-10.3814
▁endanger	-10.3814
▁jordan	-10.3814
▁birthday	-10.3814
▁memory	-10.3815
▁squad	-10.3816
▁neck	-10.3817
ejad	-10.3822
▁briefing	-10.3835
▁shang	-10.3843
▁negotiat	-10.3844
▁pledg	-10.3873
▁philippines	-10.3873
▁stretch	-10.3876
▁wish	-10.3881
▁conclude	-10.3887
▁skin	-10.3894
▁recommend	-10.3907
▁acknowledge	-10.3909
han	-10.3912
▁pursu	-10.3927
itting	-10.3932
▁tru	-10.3948
evin	-10.3949
baki	-10.395
▁sovereign	-10.3954
▁participant	-10.3954
▁surrender	-10.3954
▁routine	-10.3955
▁buddhist	-10.3955
▁brazilian	-10.3956
▁stole	-10.3956
▁illness	-10.3956
▁punishment	-10.3957
▁federation	-10.3958
▁peacekeep	-10.3963
▁advertis	-10.3966
▁character	-10.3975
chuan	-10.3979
▁wins	-10.399
▁stories	-10.3991
▁feeling	-10.4004
▁note	-10.4005
▁runway	-10.4013
▁trains	-10.402
▁jim	-10.4028
▁par	-10.4036
▁crop	-10.4043
▁print	-10.4044
▁maxim	-10.4053
ny	-10.4058
▁highlight	-10.4062
▁glass	-10.4075
▁unity	-10.4078
▁promot	-10.408
▁moderate	-10.4091
▁hampshire	-10.4097
▁hawaii	-10.4097
▁airstrike	-10.4097
▁arsenal	-10.4098
▁sample	-10.4098
▁sailor	-10.41
▁mental	-10.4103
▁abc	-10.4104
▁bowl	-10.4105
daq	-10.411
▁veto	-10.4111
▁solve	-10.4113
▁bi	-10.4115
▁publicly	-10.4123
kk	-10.4126
▁celebrat	-10.4134
▁wage	-10.4162
▁rom	-10.4177
▁farc	-10.4179
▁torture	-10.4179
▁divide	-10.4189
▁brutal	-10.42
▁photographer	-10.4209
▁demonstration	-10.421
▁obvious	-10.4242
▁watchdog	-10.4242
▁strict	-10.4243
▁revolutionar	-10.4243
▁shirt	-10.4244
▁distance	-10.4245
▁peak	-10.4246
▁successor	-10.4246
▁appointment	-10.4248
▁morgan	-10.4254
▁accusation	-10.4255
▁authoriz	-10.4263
▁introduce	-10.4266
ren	-10.4268
▁kenyan	-10.4271
▁pos	-10.4274
▁undergo	-10.4275
▁tool	-10.429
▁metropoli	-10.4298
go	-10.43
▁humans	-10.4301
▁striker	-10.4306
▁bell	-10.4312
ha	-10.4317
▁somali	-10.4324
▁nei	-10.4334
▁contests	-10.4335
▁uh	-10.4338
▁featur	-10.434
▁commit	-10.4366
hattan	-10.4369
▁worker	-10.4375
▁cease	-10.4389
▁scientific	-10.4389
▁capacity	-10.4391
▁midnight	-10.4391
▁expensive	-10.4393
▁regulator	-10.4394
▁fortune	-10.4394
▁shark	-10.4397
▁text	-10.4401
▁comedy	-10.4407
▁rod	-10.4422
▁messages	-10.4424
rey	-10.443
▁polici	-10.444
▁corps	-10.4444
▁v	-10.4447
pped	-10.4453
▁photo	-10.4486
▁argue	-10.4495
▁eating	-10.452
witz	-10.4524
lor	-10.4534
▁bob	-10.4535
▁shoot	-10.4536
erry	-10.4537
▁editor	-10.4538
▁surveill	-10.4538
▁dispatch	-10.4538
▁wreck	-10.4538
▁venue	-10.4538
▁blago	-10.4539
▁jack	-10.4539
▁cyclone	-10.4539
▁egyptian	-10.454
▁ordinar	-10.454
▁genetic	-10.454
▁columbia	-10.454
▁everybody	-10.4541
▁urban	-10.4542
▁switch	-10.4545
▁stimul	-10.455
▁chile	-10.4559
▁powers	-10.4559
▁handle	-10.456
▁dick	-10.4561
ippi	-10.4565
owitz	-10.4566
▁pursue	-10.4567
▁lung	-10.4572
▁transferr	-10.4578
▁inquir	-10.4617
▁zar	-10.4625
ca	-10.4626
▁caucuse	-10.4632
▁explain	-10.4643
▁hiv	-10.4646
▁aids	-10.4647
▁cloth	-10.4653
▁diplomat	-10.4662
▁stressed	-10.4675
▁emerged	-10.4675
▁moham	-10.4676
▁react	-10.4685
▁hospitals	-10.4687
▁whal	-10.469
▁spirit	-10.469
▁coffee	-10.469
▁funeral	-10.469
▁dinner	-10.469
▁harsh	-10.4691
▁hwan	-10.4692
▁ne	-10.4692
▁bitter	-10.4694
▁civi	-10.4694
▁fta	-10.4694
▁congo	-10.4696
▁native	-10.4698
▁mississ	-10.4698
▁intense	-10.4701
▁operator	-10.4701
▁circumstances	-10.4713
▁deny	-10.4727
▁views	-10.4741
▁gree	-10.4746
▁accounts	-10.475
▁saving	-10.4756
armament	-10.4758
iana	-10.4758
▁gmt	-10.4768
▁televis	-10.4769
▁loh	-10.4773
tiny	-10.4806
▁disable	-10.4813
▁teen	-10.4813
▁depend	-10.4824
▁knock	-10.4828
▁citizen	-10.483
▁jane	-10.4841
▁steven	-10.4841
▁mexican	-10.4844
▁multiple	-10.4844
▁crown	-10.4845
▁supposed	-10.4846
▁prepare	-10.4848
▁indication	-10.4853
▁debri	-10.4858
▁entry	-10.4863
▁sick	-10.4865
▁ca	-10.4872
▁mouth	-10.4873
▁commerc	-10.4874
▁henr	-10.488
sumption	-10.4882
ities	-10.4898
▁eat	-10.4902
▁ski	-10.4907
har	-10.4911
▁survive	-10.4911
▁compete	-10.4922
▁willing	-10.4926
▁maj	-10.493
▁earning	-10.4938
▁lights	-10.4948
tah	-10.4972
ei	-10.4987
evich	-10.499
▁realize	-10.4994
▁breakthrough	-10.5
▁quiet	-10.5
▁false	-10.5
▁impeach	-10.5001
▁dvd	-10.5001
▁barrier	-10.5002
▁rumor	-10.5005
▁castro	-10.5006
▁cafe	-10.501
▁bail	-10.501
▁vital	-10.5011
▁bombers	-10.5014
▁fun	-10.5019
▁musical	-10.5031
▁owners	-10.5033
ular	-10.5039
▁appropriate	-10.5056
light	-10.5059
▁conclud	-10.5077
▁chun	-10.5083
▁recognize	-10.5101
▁rescued	-10.5112
chi	-10.5113
more	-10.5115
▁gul	-10.5121
erland	-10.5129
▁du	-10.5146
▁blaze	-10.5153
▁explosive	-10.5155
▁window	-10.5155
▁disney	-10.5158
▁occupation	-10.5159
▁benedict	-10.5159
▁swiss	-10.5159
▁testimon	-10.5159
▁concrete	-10.5159
▁punish	-10.516
▁chart	-10.5162
▁preparation	-10.5163
▁ta	-10.5165
▁gross	-10.5166
no	-10.5166
▁frame	-10.5172
ch	-10.5187
▁engage	-10.5219
▁hub	-10.522
▁cave	-10.522
▁ti	-10.5224
▁diet	-10.5246
▁matche	-10.5249
▁historical	-10.5249
▁guide	-10.525
wise	-10.5257
▁hail	-10.5259
▁broadcaster	-10.5268
▁negotiate	-10.5274
▁consult	-10.5284
▁sch	-10.5294
▁marks	-10.5305
▁conservation	-10.5317
▁confident	-10.5319
▁faith	-10.5319
▁tobacco	-10.532
▁verdict	-10.532
▁benchmark	-10.532
▁phoeni	-10.532
▁conclusion	-10.532
▁shareholder	-10.532
▁repair	-10.5321
▁amnes	-10.5322
▁fierce	-10.5323
▁apply	-10.5323
luton	-10.5323
▁pitt	-10.5329
▁apart	-10.5334
▁continent	-10.5336
▁correct	-10.5336
▁floods	-10.5338
▁chong	-10.5358
▁unknown	-10.5362
▁patric	-10.5363
▁bull	-10.5375
▁responsibilit	-10.5377
▁chest	-10.5406
▁fay	-10.5424
▁believ	-10.5433
▁liter	-10.5443
▁yi	-10.5443
ota	-10.5443
▁bigge	-10.5445
▁ire	-10.5448
confirmed	-10.545
▁disrupt	-10.5479
▁parent	-10.5483
eath	-10.5484
▁category	-10.5484
▁joseph	-10.5484
▁boyfriend	-10.5484
▁await	-10.5484
▁motion	-10.5486
▁sam	-10.5486
▁careful	-10.5489
put	-10.549
▁odd	-10.5491
▁brad	-10.5498
▁socialist	-10.5503
▁paint	-10.5504
▁pitch	-10.5506
▁ge	-10.5514
▁communit	-10.5527
▁overwhelming	-10.5529
▁twin	-10.5546
ah	-10.5555
▁somalia	-10.5558
▁kyo	-10.5573
▁jon	-10.5603
▁cd	-10.5609
rs	-10.5611
▁partners	-10.5617
▁classic	-10.563
▁austria	-10.5632
▁slipp	-10.5633
▁fat	-10.5643
▁unfortunate	-10.5651
▁czech	-10.5651
▁striking	-10.5651
▁reconciliation	-10.5651
▁clark	-10.5651
▁uniform	-10.5651
▁stern	-10.5652
▁sheikh	-10.5652
▁sweep	-10.5652
▁cargo	-10.5655
▁resolv	-10.5661
▁specialist	-10.5662
▁rebuild	-10.5668
▁substantial	-10.5669
▁infect	-10.567
▁hero	-10.5676
▁copy	-10.568
▁carlo	-10.5683
▁jin	-10.5685
efa	-10.5698
▁praise	-10.5698
▁chris	-10.5701
am	-10.5701
▁toxic	-10.5711
▁chad	-10.5721
▁retail	-10.5732
▁sad	-10.5735
▁villager	-10.574
▁mary	-10.5757
▁abus	-10.5758
▁stephen	-10.5769
▁wel	-10.5772
▁rep	-10.5781
hood	-10.5784
▁aren	-10.5786
▁steel	-10.5791
▁tackle	-10.5794
▁regions	-10.5805
▁grant	-10.5812
pending	-10.5818
▁laptop	-10.582
▁tennesse	-10.582
▁mccorm	-10.582
▁transaction	-10.582
▁legend	-10.582
▁typhoon	-10.5821
▁petition	-10.5821
▁slave	-10.5827
▁yong	-10.5831
▁railway	-10.5835
▁reference	-10.5837
▁captur	-10.5839
▁medal	-10.584
▁tend	-10.5842
▁variet	-10.5846
▁custom	-10.5848
▁trader	-10.5849
▁beaut	-10.5852
▁familiar	-10.5861
▁antoni	-10.5861
▁ar	-10.5865
▁graduate	-10.5869
▁bolt	-10.587
▁prayer	-10.5885
▁shipp	-10.5887
▁camps	-10.5898
▁outrage	-10.5926
▁sung	-10.5928
▁complet	-10.5929
house	-10.5929
▁copie	-10.593
ent	-10.5942
▁convert	-10.5942
▁fires	-10.5949
bus	-10.595
ting	-10.595
▁hug	-10.5962
▁hat	-10.5962
▁mourn	-10.5981
▁stands	-10.5984
▁seconds	-10.5987
▁priva	-10.5992
▁platform	-10.5993
▁administrative	-10.5993
▁referendum	-10.5993
▁departure	-10.5993
▁compensation	-10.5993
▁crush	-10.5993
▁scar	-10.5993
▁separatist	-10.5993
▁relocation	-10.5993
▁mistake	-10.5996
▁sweet	-10.6002
mumba	-10.6009
▁buyer	-10.601
▁absolutely	-10.6011
stance	-10.6011
▁household	-10.6016
▁sri	-10.602
▁kent	-10.6021
▁wine	-10.6027
▁cuban	-10.6032
▁larr	-10.6038
▁seize	-10.6039
tv	-10.6042
▁thinking	-10.6042
▁pr	-10.6049
▁jae	-10.6052
▁shore	-10.6056
lin	-10.6057
▁kid	-10.6066
▁rd	-10.6068
▁cow	-10.607
▁attacker	-10.607
▁miner	-10.6097
craft	-10.6103
▁sir	-10.6107
▁mal	-10.6111
▁mar	-10.6128
▁jeff	-10.6129
▁painting	-10.6138
▁ryan	-10.6148
▁chao	-10.6152
ol	-10.6155
▁except	-10.6162
▁spott	-10.6163
▁volcano	-10.6164
▁robot	-10.6166
▁secular	-10.6166
▁immigrant	-10.6168
▁aggressive	-10.6168
▁muscle	-10.6168
▁clock	-10.6168
▁sentiment	-10.6169
▁conviction	-10.6169
▁contrast	-10.617
▁alarm	-10.617
erdog	-10.617
▁baseball	-10.6171
▁essential	-10.6172
▁shield	-10.6173
▁novel	-10.6173
▁float	-10.6176
▁zero	-10.6177
▁kate	-10.618
▁propose	-10.6193
▁settlement	-10.62
▁delegate	-10.62
▁paulo	-10.6205
▁counts	-10.6207
▁turnout	-10.6215
▁contribute	-10.6218
▁bo	-10.6222
▁stable	-10.6223
clusive	-10.6223
▁greet	-10.6225
▁inform	-10.6245
▁athen	-10.6252
▁replac	-10.6252
dp	-10.6262
▁oldest	-10.6266
court	-10.6276
▁golf	-10.6278
▁traffick	-10.6302
▁promotion	-10.6303
▁rio	-10.6306
▁depressi	-10.6311
▁polar	-10.6312
▁alex	-10.6322
▁libya	-10.6328
▁employ	-10.6329
▁airports	-10.6332
lanta	-10.6337
▁imprison	-10.6347
▁rifle	-10.6347
▁loyal	-10.6348
▁assessment	-10.6349
▁dust	-10.635
▁glacier	-10.6352
▁criticize	-10.6354
▁moore	-10.6363
▁sole	-10.6364
▁submitt	-10.6366
▁rafa	-10.6368
▁mel	-10.6376
▁wire	-10.6383
▁stepp	-10.6394
▁mis	-10.64
▁dam	-10.6406
▁hills	-10.6407
▁athletes	-10.6411
zo	-10.6415
▁anticipat	-10.6419
▁fame	-10.6444
▁airway	-10.6454
▁restor	-10.6455
▁meter	-10.6456
w	-10.6462
▁inch	-10.6462
▁sand	-10.6463
▁soil	-10.6468
▁lend	-10.6473
quo	-10.6476
▁generate	-10.6477
▁pla	-10.6481
▁hang	-10.6483
gi	-10.6517
▁priorit	-10.6519
▁classifie	-10.6524
▁lobby	-10.6528
▁qualify	-10.6528
▁caution	-10.6528
delphi	-10.6529
▁unrest	-10.6529
▁retain	-10.6529
▁laborator	-10.6529
▁tunnel	-10.6529
▁roger	-10.6529
▁donald	-10.6529
▁orange	-10.653
▁duck	-10.653
▁outcome	-10.6531
▁slump	-10.6531
▁respective	-10.6532
▁timor	-10.6533
▁stroke	-10.6538
oney	-10.6538
▁residence	-10.654
iri	-10.6543
▁solid	-10.6547
▁hawk	-10.6548
ada	-10.6549
▁teens	-10.6553
▁fleet	-10.6554
▁confrontation	-10.6554
▁tsv	-10.6561
▁electronics	-10.6565
▁doors	-10.657
fp	-10.6572
▁whale	-10.6574
▁employee	-10.6574
▁root	-10.6575
nancy	-10.6587
▁robber	-10.6607
▁undermine	-10.6609
▁syrian	-10.6616
▁retailer	-10.6624
▁banner	-10.663
▁ousted	-10.6632
▁ignor	-10.6635
▁advi	-10.6635
▁laugh	-10.6635
▁phase	-10.6645
▁denounc	-10.6648
shore	-10.6657
▁pray	-10.6665
▁impose	-10.6668
▁hitt	-10.6675
▁gambar	-10.6676
▁organ	-10.6684
▁bangladesh	-10.6701
▁chant	-10.6707
▁spill	-10.6709
▁dictator	-10.6713
▁detroit	-10.6714
▁guerrilla	-10.6714
▁capitol	-10.6714
▁embryo	-10.6714
▁darwin	-10.6714
▁hamid	-10.6714
▁checkpoint	-10.6714
▁abortion	-10.6714
▁mohammad	-10.6714
▁huck	-10.6714
▁strategic	-10.6715
▁flash	-10.6715
▁curb	-10.6715
▁gyeong	-10.6715
▁pattern	-10.6716
▁extraordinar	-10.6717
▁davis	-10.6717
▁roof	-10.6718
losi	-10.6726
▁freeze	-10.6726
▁si	-10.673
▁concept	-10.6752
▁lea	-10.6752
▁breach	-10.6755
▁revenue	-10.676
▁clothe	-10.6765
▁politician	-10.6767
▁murr	-10.6768
▁towns	-10.6773
v	-10.6783
be	-10.6788
▁securit	-10.6793
▁quote	-10.6828
▁brun	-10.6829
▁extremists	-10.6831
▁andrew	-10.6834
▁liquid	-10.6839
▁function	-10.6855
▁garden	-10.6856
▁documentar	-10.6869
tar	-10.687
▁introduc	-10.6871
▁lanka	-10.6883
led	-10.6889
head	-10.6891
▁netherlands	-10.6902
▁quarterfinal	-10.6902
▁technique	-10.6902
▁exposure	-10.6902
▁twenty	-10.6902
▁creature	-10.6902
▁orlean	-10.6903
▁summon	-10.6903
▁consequence	-10.6903
▁impossible	-10.6903
▁greenhouse	-10.6903
▁seattle	-10.6904
▁map	-10.6904
▁pat	-10.6905
▁wireless	-10.6905
▁efficient	-10.6906
▁dawn	-10.6908
tion	-10.6909
▁missou	-10.6909
burgh	-10.691
▁keb	-10.691
▁phila	-10.691
▁runoff	-10.691
▁portion	-10.692
stein	-10.6923
▁virgin	-10.6925
▁villa	-10.6938
▁volunteers	-10.6939
▁ja	-10.6945
▁shell	-10.6948
▁rac	-10.6953
▁mi	-10.6954
▁jo	-10.6954
▁trend	-10.6957
▁colon	-10.6958
▁worsen	-10.696
▁smash	-10.696
▁yo	-10.6962
▁wheel	-10.6972
▁giv	-10.6972
cation	-10.6973
▁tension	-10.6975
▁intention	-10.6977
▁pav	-10.6977
▁hunter	-10.6992
▁polan	-10.6997
▁bribe	-10.7004
▁ambush	-10.7024
ball	-10.703
▁soo	-10.7034
▁revive	-10.7042
ential	-10.7042
▁starr	-10.7045
▁mom	-10.7048
▁stick	-10.7052
▁manage	-10.7055
▁ok	-10.7063
▁inspir	-10.7065
▁sang	-10.7067
▁newly	-10.7073
▁submit	-10.7077
▁prior	-10.7079
▁beer	-10.7081
ated	-10.7083
▁hybrid	-10.7095
▁minimum	-10.7095
▁giuli	-10.7095
▁swimming	-10.7095
▁wildfire	-10.7095
▁substance	-10.7095
▁eve	-10.7095
▁toilet	-10.7096
▁amendment	-10.7096
▁bankruptcy	-10.7098
▁panda	-10.7099
oil	-10.7106
mbled	-10.7106
▁gate	-10.7108
▁centre	-10.7108
▁rum	-10.7118
▁laid	-10.7123
▁homeless	-10.7127
▁offender	-10.7133
▁rudd	-10.7138
▁ir	-10.714
▁scheme	-10.7146
▁mont	-10.7149
▁nice	-10.7164
▁core	-10.7164
▁attitude	-10.7174
▁breath	-10.7183
▁warner	-10.7184
▁viewers	-10.7189
ki	-10.7191
▁moral	-10.7199
board	-10.7207
▁upset	-10.7208
▁minorit	-10.7212
▁hunting	-10.7216
▁dean	-10.7219
irai	-10.7225
▁resist	-10.7231
▁legs	-10.7236
▁whales	-10.7262
▁combin	-10.7264
▁please	-10.7265
▁whit	-10.7267
▁revolution	-10.7273
nnan	-10.7277
▁kuwait	-10.7282
▁wal	-10.7286
▁counsel	-10.7286
▁plung	-10.7291
▁voluntar	-10.7291
▁merkel	-10.7291
▁testify	-10.7291
▁inauguration	-10.7291
▁panama	-10.7291
▁fulfill	-10.7291
▁stuff	-10.7292
▁evacuation	-10.7292
▁competitive	-10.7293
▁timetable	-10.7293
▁greek	-10.7293
▁coca	-10.7295
▁jungle	-10.7297
▁trick	-10.7297
▁celebration	-10.7299
▁gear	-10.7299
▁emotional	-10.7303
▁del	-10.7305
▁deadlie	-10.7306
▁dec	-10.7309
▁feed	-10.7316
▁fever	-10.7324
sfeld	-10.7331
▁feb	-10.7344
▁peer	-10.736
▁motors	-10.7367
▁faction	-10.7371
rac	-10.7378
▁fo	-10.738
▁stag	-10.7383
▁compet	-10.739
▁bu	-10.74
▁disclose	-10.7409
ella	-10.7415
▁plate	-10.7421
identified	-10.743
▁overcom	-10.7431
▁wrapp	-10.7434
▁amounts	-10.7442
▁escap	-10.7447
▁compromise	-10.7476
▁sons	-10.7491
▁consecutive	-10.7491
▁swift	-10.7491
▁elephant	-10.7491
▁clinch	-10.7491
▁slam	-10.7491
▁aftershock	-10.7492
▁disappearance	-10.7493
▁launder	-10.7493
ze	-10.7494
▁serb	-10.7496
▁rodrigue	-10.7496
▁ioc	-10.7496
▁inquest	-10.7497
ok	-10.7499
▁proof	-10.75
▁shots	-10.75
▁yuan	-10.7503
▁influ	-10.7505
▁torn	-10.7509
▁leftist	-10.7511
▁gray	-10.7512
▁simon	-10.7524
▁designer	-10.7534
▁gm	-10.7539
burg	-10.7544
▁investigations	-10.7546
▁attach	-10.7555
▁worry	-10.7559
▁divid	-10.7568
held	-10.7574
▁laho	-10.7581
▁winners	-10.7585
▁slamm	-10.7585
half	-10.7593
abee	-10.7599
▁defending	-10.7608
▁rowl	-10.7613
izu	-10.7613
▁albert	-10.7616
▁mall	-10.7618
▁dat	-10.7625
hdi	-10.763
▁fin	-10.7648
opec	-10.7655
▁mandat	-10.7667
▁trained	-10.7674
▁tropica	-10.7678
▁flat	-10.7681
▁cleve	-10.7685
▁latin	-10.7686
▁industri	-10.7688
▁anchor	-10.769
▁infant	-10.7694
▁luxur	-10.7695
▁concession	-10.7695
▁encounter	-10.7695
▁enterprise	-10.7695
▁technologies	-10.7695
▁spiritual	-10.7695
▁cigarette	-10.7695
▁constant	-10.7695
▁offense	-10.7695
▁landmark	-10.7695
▁mortar	-10.7695
▁terminal	-10.7695
▁obligation	-10.7695
▁drill	-10.7696
▁nak	-10.7696
▁hint	-10.7696
▁colonial	-10.7697
▁reward	-10.77
▁arabic	-10.7701
▁meat	-10.7703
▁ambition	-10.7707
▁granted	-10.7716
▁icon	-10.7724
▁kansa	-10.7728
▁chole	-10.7731
▁fi	-10.7748
▁execut	-10.775
▁cartoon	-10.775
▁kyu	-10.7753
▁detainees	-10.7754
▁mor	-10.7758
▁euros	-10.7761
▁lion	-10.7766
▁eric	-10.7767
▁spa	-10.7803
que	-10.781
▁equit	-10.7815
east	-10.7823
▁indicted	-10.7833
standing	-10.7833
▁regret	-10.7839
▁pointed	-10.785
▁distribut	-10.7853
▁apologiz	-10.7861
▁expos	-10.7863
▁reduc	-10.7879
▁iron	-10.7879
▁stead	-10.7882
istan	-10.7887
▁cheap	-10.7893
▁semifinal	-10.7901
ba	-10.7903
▁deficit	-10.7903
▁precaution	-10.7903
▁relax	-10.7903
▁chapter	-10.7903
▁blanket	-10.7903
▁admission	-10.7903
▁ballistic	-10.7904
▁barbara	-10.7904
▁suspicious	-10.7905
▁houston	-10.7906
ron	-10.7906
▁maria	-10.7909
▁turm	-10.791
▁desire	-10.7917
drew	-10.793
▁malaysian	-10.7938
uri	-10.7943
▁shara	-10.7943
▁wales	-10.7946
▁bei	-10.7951
▁shoulder	-10.7958
▁ron	-10.7963
▁sao	-10.7971
ov	-10.7974
▁flags	-10.7974
▁coal	-10.7989
▁burst	-10.7994
▁hir	-10.7997
iro	-10.8001
▁employment	-10.8002
▁discover	-10.8007
▁decisions	-10.8008
▁isolat	-10.8008
sh	-10.8011
▁tale	-10.8015
▁bang	-10.8019
▁dad	-10.8022
▁capabilit	-10.8025
▁advisor	-10.8027
▁deliberate	-10.8034
fk	-10.8035
▁dominat	-10.8046
▁habitat	-10.8062
eva	-10.8067
▁vessels	-10.8074
▁mart	-10.8078
▁shi	-10.8086
▁dry	-10.809
▁yel	-10.8092
▁gu	-10.8096
the	-10.8096
▁mac	-10.8103
▁ni	-10.8106
▁confess	-10.8112
▁oklahoma	-10.8116
▁transplant	-10.8116
▁belief	-10.8116
▁migrant	-10.8116
▁expansion	-10.8116
▁salmon	-10.8116
▁tornado	-10.8116
▁pipeline	-10.8117
▁respondent	-10.8118
▁insult	-10.8119
▁priest	-10.8119
▁prominent	-10.8119
▁musician	-10.8124
ntao	-10.8126
▁spray	-10.8127
wright	-10.8128
▁occasion	-10.8128
▁thin	-10.813
▁locate	-10.8131
▁follower	-10.8132
▁pole	-10.8134
▁pun	-10.8137
▁pour	-10.8138
▁presumpti	-10.8139
arctic	-10.8141
▁universal	-10.8141
lum	-10.8145
▁instance	-10.8146
dc	-10.8165
▁dop	-10.8171
▁welcom	-10.8172
▁bars	-10.8176
▁lo	-10.8179
▁hasn	-10.8187
▁frontier	-10.8196
▁strand	-10.8207
▁drawing	-10.8208
ors	-10.8209
▁passport	-10.8222
▁canal	-10.8223
▁principle	-10.8225
▁cards	-10.8235
▁uni	-10.8236
rut	-10.824
▁decid	-10.824
▁stepping	-10.824
▁demonstrate	-10.8254
▁sin	-10.8256
▁tay	-10.8257
▁cooper	-10.8258
long	-10.8258
▁holder	-10.8259
▁inde	-10.8261
▁reverse	-10.8263
▁dominate	-10.8264
▁centur	-10.8269
precedent	-10.827
▁kath	-10.8275
▁berna	-10.8279
▁tickets	-10.829
ko	-10.8292
▁woods	-10.8313
ehouse	-10.832
▁prohibit	-10.8328
▁confront	-10.8329
▁ecuador	-10.8333
▁lewis	-10.8333
fer	-10.8334
▁vitamin	-10.8334
▁ibrahim	-10.8335
▁tragedy	-10.8336
▁medication	-10.8336
▁urgent	-10.8336
▁empty	-10.8339
▁load	-10.8344
▁background	-10.8346
▁loud	-10.8353
tsin	-10.8355
▁persuade	-10.8361
▁adam	-10.8379
▁proceedings	-10.8382
▁publication	-10.8384
▁masters	-10.8389
nke	-10.8389
▁ramo	-10.8394
▁escalat	-10.8398
lated	-10.8412
▁cooperate	-10.8459
▁circle	-10.8461
▁libert	-10.8465
▁fake	-10.8481
do	-10.8481
ppp	-10.8484
▁oversee	-10.849
▁theft	-10.8516
▁dealers	-10.8533
lets	-10.854
▁breed	-10.854
▁denucleariz	-10.8543
▁grab	-10.8543
▁sight	-10.8547
▁blog	-10.8549
▁wrap	-10.855
▁yemen	-10.855
▁telecom	-10.8552
▁interpret	-10.8553
▁consensu	-10.8555
▁disorder	-10.8555
▁evolution	-10.8555
▁extensive	-10.8556
▁telescope	-10.8556
▁evil	-10.8556
▁definite	-10.8556
▁pepper	-10.8556
▁craig	-10.8556
▁instant	-10.8556
▁dissident	-10.8556
kovic	-10.8556
▁unfair	-10.8556
▁imagine	-10.8556
▁idol	-10.8557
▁kanda	-10.8557
iscons	-10.8558
▁tribute	-10.8558
▁uncover	-10.8558
▁guideline	-10.8558
▁dragg	-10.856
▁chamber	-10.8561
▁sweden	-10.8561
▁hide	-10.8562
▁insurgenc	-10.8564
▁amazon	-10.8564
▁replacement	-10.8567
▁grass	-10.8567
▁exhibit	-10.8574
▁ch	-10.8583
▁happening	-10.8595
ek	-10.8599
▁kitt	-10.86
▁personally	-10.8606
viation	-10.8607
▁lin	-10.8609
▁pool	-10.8616
ological	-10.862
▁characters	-10.8621
▁pm	-10.8632
▁ruler	-10.8639
line	-10.8643
▁geologic	-10.8648
et	-10.8652
▁lender	-10.8659
▁impo	-10.8664
▁chan	-10.8665
▁secur	-10.8683
cia	-10.8685
▁philippine	-10.8686
sul	-10.8695
▁mon	-10.8712
▁permissi	-10.873
▁mountains	-10.8732
▁thick	-10.8742
▁expire	-10.8746
▁philip	-10.8758
ison	-10.8759
▁diploma	-10.8765
▁silence	-10.8769
ucky	-10.8775
▁genocid	-10.8783
▁predecessor	-10.8783
▁religion	-10.8783
▁tabloid	-10.8783
▁unexpected	-10.8783
▁bargain	-10.8783
▁extension	-10.8783
▁autonom	-10.8783
▁destination	-10.8783
▁economies	-10.8783
▁entrance	-10.8783
▁overturn	-10.8783
▁exclusive	-10.8784
▁consistent	-10.8785
ila	-10.8785
▁snake	-10.8786
ius	-10.8786
▁outlook	-10.8787
▁recommendation	-10.8787
▁legitimate	-10.8791
her	-10.8792
▁creation	-10.8793
▁gerr	-10.8799
▁ahmad	-10.8801
▁statue	-10.8803
▁milk	-10.8804
gt	-10.8811
▁contractor	-10.8812
▁bloom	-10.8817
▁stream	-10.883
▁suggestion	-10.8831
▁z	-10.8833
▁visibl	-10.8846
▁diya	-10.8846
▁endur	-10.8846
▁plent	-10.886
▁pan	-10.8863
▁models	-10.8866
▁proceed	-10.8871
bama	-10.8875
▁primari	-10.8877
▁compare	-10.8894
▁dropping	-10.8894
▁marking	-10.89
▁rodd	-10.89
dev	-10.8913
▁trace	-10.8928
▁rains	-10.894
▁clip	-10.8941
▁tower	-10.8944
▁vien	-10.8977
▁ker	-10.8978
▁flower	-10.8978
▁transform	-10.899
▁occur	-10.8995
▁nin	-10.8996
▁nigeria	-10.8997
▁mer	-10.8999
▁teenage	-10.9
verish	-10.9003
▁oct	-10.9005
em	-10.901
▁ambulance	-10.9015
▁embarrass	-10.9015
▁tissue	-10.9015
▁volume	-10.9015
▁prosper	-10.9015
▁fault	-10.9015
▁jolie	-10.9016
▁suspension	-10.9016
▁steep	-10.9016
▁zawah	-10.9016
▁lord	-10.9016
▁download	-10.9017
▁exploit	-10.9017
▁partnership	-10.9017
▁possession	-10.9018
▁grace	-10.9018
▁resistance	-10.9019
▁rebound	-10.9019
▁contribution	-10.902
▁pardon	-10.902
▁occupie	-10.9021
▁emirate	-10.9021
▁bow	-10.9025
▁tho	-10.9025
▁jobless	-10.9027
▁crossing	-10.9028
▁gaz	-10.9029
▁grenade	-10.9035
▁galaxy	-10.9035
ament	-10.9043
▁hye	-10.9044
▁publisher	-10.9047
▁rent	-10.9062
▁sheet	-10.9075
▁universit	-10.9104
▁matters	-10.9116
me	-10.9117
▁nazi	-10.9123
▁riding	-10.9127
▁tomb	-10.913
▁examin	-10.9141
▁fred	-10.9149
▁brick	-10.9151
▁touris	-10.9153
pol	-10.9157
▁abduction	-10.9161
▁automaker	-10.9165
math	-10.9174
▁recording	-10.9174
▁massacre	-10.9177
▁recognized	-10.9192
▁vision	-10.9193
▁predict	-10.9215
▁manufacturers	-10.9227
▁polluti	-10.9232
▁pilgrim	-10.9252
judicial	-10.9253
▁infrastructure	-10.9253
▁judiciar	-10.9253
▁skull	-10.9253
▁unacceptabl	-10.9253
▁videotape	-10.9253
▁vermont	-10.9254
▁maritime	-10.9254
▁registration	-10.9254
▁pyeong	-10.9254
▁katrin	-10.9255
▁interrogation	-10.9255
▁desperate	-10.9255
▁shutdown	-10.9255
▁statistical	-10.9255
▁burden	-10.9256
▁puert	-10.9257
▁everywhere	-10.926
▁brigade	-10.9261
▁kyung	-10.9262
▁torre	-10.9267
▁yu	-10.9268
▁airplane	-10.9268
▁charter	-10.9269
▁confirmation	-10.9275
▁pen	-10.9276
▁dirt	-10.9277
omar	-10.929
▁melt	-10.9291
▁harv	-10.9292
arachi	-10.93
ean	-10.9302
▁qu	-10.9308
▁au	-10.9311
oding	-10.9311
▁hwa	-10.9311
▁taxi	-10.9317
sen	-10.9317
dari	-10.932
▁factors	-10.9325
harto	-10.9327
▁goalkeep	-10.9329
▁broker	-10.9348
▁mu	-10.9349
▁guan	-10.9352
▁principles	-10.9374
tada	-10.9391
▁plays	-10.9392
▁richards	-10.9397
▁dismantl	-10.9401
▁endors	-10.9402
▁knight	-10.9402
▁pleas	-10.9406
▁abuses	-10.9414
▁discount	-10.9415
▁button	-10.9418
▁procedure	-10.9419
ell	-10.942
ari	-10.942
▁nicole	-10.9429
▁kidnapp	-10.9431
▁hike	-10.9439
▁glas	-10.9441
▁hidd	-10.9455
hook	-10.9479
▁vulnerab	-10.9489
▁analysi	-10.9491
▁chip	-10.9494
▁fundamental	-10.9495
refore	-10.9496
▁component	-10.9497
▁marathon	-10.9497
▁taxpayer	-10.9497
▁legislature	-10.9497
▁absence	-10.9497
▁monarch	-10.9497
▁afr	-10.9497
▁regain	-10.9497
▁incredibl	-10.9498
▁chicken	-10.9498
▁archaeologist	-10.9499
▁height	-10.95
▁endorsement	-10.9501
▁principal	-10.9501
▁steal	-10.9503
▁pornograph	-10.9504
▁remarkable	-10.9506
▁shake	-10.9507
▁walter	-10.9511
▁commuter	-10.9513
▁afterward	-10.9517
min	-10.9521
▁libyan	-10.9523
▁rivers	-10.9527
▁ph	-10.9533
▁magic	-10.9535
▁habit	-10.9561
▁tanker	-10.9566
most	-10.9571
▁procedures	-10.9581
▁brook	-10.9597
▁mask	-10.9597
▁zoe	-10.9607
▁ala	-10.962
▁violate	-10.9623
▁kun	-10.9625
▁theme	-10.9644
▁covering	-10.9651
cut	-10.9658
▁chase	-10.9666
▁vaccine	-10.9668
▁orchestra	-10.9675
▁phil	-10.9676
▁victoria	-10.9678
li	-10.9688
ware	-10.9691
▁achiev	-10.9696
▁chancell	-10.9703
bow	-10.9706
ova	-10.9706
▁inmate	-10.9708
▁ke	-10.9715
▁cape	-10.9718
▁launching	-10.9721
▁der	-10.9725
▁depart	-10.9744
▁classe	-10.9745
▁curfew	-10.9747
▁superior	-10.9747
▁gradual	-10.9747
▁spaniard	-10.9747
▁distress	-10.9747
▁bb	-10.9748
▁mirror	-10.9748
▁balloon	-10.9748
▁drown	-10.9748
▁wilson	-10.9748
▁honest	-10.9749
▁toyota	-10.9749
▁guang	-10.975
pov	-10.975
▁graham	-10.975
▁combination	-10.975
▁midfielder	-10.975
▁pronounce	-10.9751
▁unique	-10.9751
▁poison	-10.9752
▁myspace	-10.9752
▁reopen	-10.9752
▁ahmed	-10.9754
▁passage	-10.9755
▁landscape	-10.976
tic	-10.976
▁statistics	-10.976
▁mice	-10.9762
▁filmmaker	-10.9764
▁medic	-10.9765
▁nair	-10.9766
▁astronomer	-10.9772
▁partial	-10.9793
▁plea	-10.9801
▁clay	-10.9806
ino	-10.9815
▁rad	-10.9821
liberation	-10.9823
▁raped	-10.9829
obi	-10.9832
▁turns	-10.984
▁lunch	-10.9841
phy	-10.9861
▁headline	-10.9865
ioxid	-10.9875
not	-10.9876
indi	-10.99
▁rob	-10.9902
▁christ	-10.9909
kara	-10.9913
▁roma	-10.9915
▁remark	-10.9915
▁contribut	-10.9922
cheon	-10.9926
▁unna	-10.9929
▁sec	-10.9934
▁infection	-10.9936
▁opponent	-10.9937
▁emerg	-10.9945
▁univers	-10.9951
▁repeat	-10.9953
teen	-10.9957
som	-10.9978
▁ju	-10.9982
▁victor	-10.9983
med	-10.9989
▁parade	-10.9991
▁branch	-10.9993
▁cart	-10.9996
▁sp	-10.9996
der	-10.9998
▁indefinite	-11.0004
▁volatil	-11.0004
▁enormous	-11.0004
▁composite	-11.0004
▁gunshot	-11.0004
▁prestig	-11.0004
▁plunge	-11.0005
▁biologist	-11.0005
▁prolong	-11.0006
▁descend	-11.0006
▁expell	-11.0007
▁guild	-11.0008
▁iphone	-11.0009
▁pig	-11.0009
▁master	-11.001
▁distribution	-11.0013
▁gesture	-11.0015
▁coverage	-11.0015
▁brian	-11.0016
▁closure	-11.0018
▁burial	-11.0021
▁revis	-11.0022
▁mrs	-11.0024
▁finger	-11.0025
▁kaes	-11.0029
▁refusal	-11.0035
anamo	-11.0037
col	-11.0053
▁fare	-11.0054
▁theory	-11.0057
▁clue	-11.0059
▁determin	-11.007
▁hiding	-11.0081
▁bacteria	-11.0083
▁shap	-11.0097
▁killer	-11.0102
▁nurse	-11.0105
▁tent	-11.0106
▁dismantle	-11.0106
▁mir	-11.0122
▁deals	-11.014
▁thus	-11.0144
▁ram	-11.0148
▁christians	-11.016
tarian	-11.0166
▁forget	-11.0173
▁skills	-11.0175
▁te	-11.0178
▁joy	-11.0189
▁mere	-11.02
▁clo	-11.0206
▁harris	-11.0208
▁activist	-11.021
▁rigg	-11.0227
▁mistakes	-11.0233
▁amaz	-11.0234
▁bal	-11.0241
▁uganda	-11.0247
▁craft	-11.025
▁fatalit	-11.0254
▁jets	-11.0266
sburg	-11.0266
▁surprising	-11.0267
▁counterfeit	-11.0267
▁encouraging	-11.0267
▁oxygen	-11.0267
▁dolphin	-11.0267
▁thirty	-11.0267
▁oregon	-11.0267
▁escort	-11.0267
▁campbell	-11.0267
▁prophet	-11.0267
▁optimistic	-11.0267
▁unanimous	-11.0267
▁teeth	-11.0267
▁mutual	-11.0268
▁mercur	-11.0268
▁slip	-11.0269
onna	-11.0269
▁em	-11.0269
▁examination	-11.027
▁audio	-11.0271
▁pitts	-11.0271
remlin	-11.0271
▁gender	-11.0271
▁bahama	-11.0271
▁comply	-11.0272
▁romantic	-11.0272
▁guess	-11.0273
▁engagement	-11.0274
▁accidental	-11.0279
▁miller	-11.028
▁joke	-11.0281
▁subway	-11.0281
▁smart	-11.0282
▁selection	-11.0284
▁publicist	-11.0286
▁sink	-11.0286
ou	-11.029
▁alan	-11.0291
▁decrease	-11.0291
▁deepen	-11.0297
▁serbian	-11.0303
▁embrace	-11.0303
▁minne	-11.0309
▁wav	-11.0313
▁refuge	-11.0313
▁dallas	-11.0316
inho	-11.0318
▁preserve	-11.0325
▁challeng	-11.0331
▁suk	-11.0342
▁penn	-11.0346
iest	-11.035
orry	-11.035
▁cats	-11.0353
▁belgi	-11.0353
▁update	-11.0362
▁eggs	-11.0365
▁fift	-11.0375
▁endorse	-11.0378
▁jay	-11.0381
▁comfortabl	-11.0389
▁bears	-11.0395
ad	-11.0402
▁fence	-11.0408
ington	-11.0425
▁sevill	-11.0429
▁burm	-11.0429
▁venture	-11.0462
▁wash	-11.0462
latter	-11.0465
▁hanging	-11.0466
▁matt	-11.0474
▁swor	-11.0478
mond	-11.0482
▁mud	-11.0483
▁volunteer	-11.0484
vili	-11.0486
▁argument	-11.0491
▁sept	-11.0497
▁danc	-11.05
space	-11.0501
▁troubl	-11.0502
ribe	-11.0503
ugher	-11.0504
▁rev	-11.051
▁usa	-11.0515
▁dy	-11.0515
▁permit	-11.052
▁widen	-11.0533
▁adjust	-11.0534
▁benjamin	-11.0537
▁citigroup	-11.0537
▁incumbent	-11.0537
▁shrink	-11.0537
▁cautious	-11.0537
▁coincide	-11.0537
▁beautiful	-11.0537
▁retreat	-11.0537
▁intervention	-11.0537
▁harbor	-11.0537
▁elevator	-11.0538
▁twel	-11.0538
▁deadlock	-11.0538
▁reconstruction	-11.0538
▁excessive	-11.0538
▁talent	-11.0538
▁probation	-11.0538
▁ibm	-11.0538
▁acid	-11.0539
▁installation	-11.0539
▁yield	-11.054
▁manipulation	-11.054
▁captor	-11.0542
▁proliferat	-11.0543
▁albanian	-11.0543
▁castle	-11.0546
▁ferg	-11.0549
ago	-11.055
▁attribut	-11.0552
▁geu	-11.0563
ebay	-11.0568
▁inspire	-11.0569
▁cheong	-11.0571
▁luis	-11.0574
▁prais	-11.0578
▁prov	-11.0588
won	-11.0593
▁hud	-11.0593
▁signing	-11.0601
▁mood	-11.0602
ral	-11.0607
▁elaborate	-11.061
▁reviv	-11.0614
▁armor	-11.062
▁ag	-11.0624
if	-11.0633
▁scrap	-11.0635
rry	-11.064
▁micro	-11.064
olla	-11.0651
egger	-11.0651
▁forecaster	-11.0658
elite	-11.0669
dong	-11.0672
▁hol	-11.0683
▁prostitute	-11.0685
ked	-11.0686
▁hostil	-11.0694
▁jewel	-11.0702
▁displac	-11.0704
nell	-11.0707
▁contenders	-11.0722
▁plac	-11.0729
stone	-11.0729
▁radi	-11.0732
▁hindu	-11.0737
▁arrang	-11.0744
prime	-11.0754
▁ranch	-11.0757
▁racial	-11.0757
▁minds	-11.0761
▁admit	-11.0764
▁tip	-11.0765
▁alli	-11.0772
ishu	-11.0772
▁swing	-11.0773
▁diseases	-11.0774
▁intervene	-11.0778
awat	-11.0786
sley	-11.0787
▁sect	-11.079
▁reiterat	-11.0796
▁cambodia	-11.0796
▁portray	-11.0808
▁comprehensive	-11.0815
▁crocodile	-11.0815
▁episode	-11.0815
▁expense	-11.0815
▁schwarz	-11.0815
▁dakota	-11.0815
▁dinosaur	-11.0815
▁aspect	-11.0815
▁bolster	-11.0815
▁eligib	-11.0815
▁casino	-11.0815
▁unpopular	-11.0815
▁reputation	-11.0815
▁rhetoric	-11.0816
▁abolish	-11.0816
▁basket	-11.0816
▁pirac	-11.0816
▁kidney	-11.0817
▁classroom	-11.0817
▁moga	-11.0818
▁defector	-11.0821
▁disruption	-11.0823
▁objective	-11.0824
mo	-11.0825
▁silver	-11.0828
▁grabb	-11.0831
▁spur	-11.0835
▁attraction	-11.0835
▁eas	-11.0835
▁juan	-11.0839
▁ear	-11.0842
▁bhut	-11.0843
▁ya	-11.0843
▁yourself	-11.0844
▁harr	-11.0847
▁manner	-11.0847
wine	-11.0851
▁academic	-11.0864
▁reserved	-11.0871
▁fisher	-11.0878
▁nov	-11.088
▁bold	-11.0882
▁panic	-11.0885
band	-11.0893
ably	-11.0894
▁noon	-11.0895
▁opposit	-11.0898
▁taste	-11.0903
▁posts	-11.0904
▁indict	-11.0912
▁examine	-11.0922
▁defender	-11.0923
▁complicat	-11.0932
ev	-11.094
▁nose	-11.0943
▁cult	-11.0946
▁bur	-11.0959
▁argentine	-11.096
athrow	-11.097
▁ideal	-11.0976
ullah	-11.0987
▁deposit	-11.1004
▁fe	-11.1012
il	-11.1013
▁defin	-11.1032
person	-11.104
▁billionaire	-11.105
going	-11.1055
sky	-11.1056
▁twist	-11.1058
▁atlant	-11.1069
▁tactic	-11.107
▁shah	-11.1074
▁populat	-11.1079
went	-11.1079
▁deteriorat	-11.1084
▁sha	-11.1086
prom	-11.1094
▁connecti	-11.1094
▁asteroid	-11.1101
▁greenpeace	-11.1101
▁crocker	-11.1101
▁motorcycle	-11.1101
▁ultra	-11.1101
▁eager	-11.1101
▁slogan	-11.1101
▁explode	-11.1101
com	-11.1101
▁animated	-11.1101
▁loot	-11.1101
▁approximate	-11.1101
▁motive	-11.1101
▁surf	-11.1101
▁mammal	-11.1102
▁strategist	-11.1102
▁borrow	-11.1102
▁madoff	-11.1103
▁ratings	-11.1103
▁rampage	-11.1103
ronto	-11.1103
▁extinction	-11.1104
▁revision	-11.1106
▁serge	-11.1106
▁fertil	-11.1107
▁ignore	-11.1109
▁circulat	-11.1111
mpson	-11.1112
▁freez	-11.1112
▁ivor	-11.1115
▁recycl	-11.1119
▁requirement	-11.112
▁financ	-11.112
▁ku	-11.1123
▁observation	-11.1124
▁linds	-11.1125
▁tries	-11.1131
▁consum	-11.1132
▁automatic	-11.1132
nt	-11.1133
▁posting	-11.1136
▁aig	-11.1142
▁nikk	-11.1144
▁ac	-11.1147
▁amy	-11.1161
▁teaching	-11.1163
▁publish	-11.1166
ade	-11.1169
nba	-11.1172
▁personalit	-11.1199
▁challenger	-11.121
▁chat	-11.1219
mura	-11.123
ka	-11.1245
ampa	-11.1259
▁rocky	-11.126
lie	-11.1278
▁therap	-11.1278
▁br	-11.128
▁installed	-11.1285
▁scrambl	-11.1295
port	-11.1295
▁mc	-11.1296
▁eliminat	-11.1303
fire	-11.1305
▁rid	-11.1316
tt	-11.1325
▁wu	-11.1329
stream	-11.1332
fall	-11.1332
▁presum	-11.135
▁ads	-11.1359
▁mp	-11.1362
▁gift	-11.1364
▁application	-11.1366
▁opt	-11.1376
front	-11.1376
rmed	-11.1377
tified	-11.1379
fish	-11.1381
▁user	-11.1381
▁antarctic	-11.1385
▁spectac	-11.1393
▁equivalent	-11.1395
▁instrument	-11.1395
▁revenge	-11.1395
▁denmark	-11.1395
▁incentive	-11.1395
▁wrongdoing	-11.1395
▁crunch	-11.1395
▁administrator	-11.1395
▁carpet	-11.1395
▁strait	-11.1395
▁epicenter	-11.1395
▁cardinal	-11.1395
▁bedroom	-11.1395
▁saint	-11.1395
droe	-11.1396
▁pension	-11.1396
▁tripoli	-11.1396
▁outdoor	-11.1396
▁zap	-11.1397
sterol	-11.1397
▁foster	-11.1397
▁assess	-11.1397
▁legislator	-11.1397
oprah	-11.1398
▁bernard	-11.1399
▁detective	-11.14
▁survival	-11.14
▁divert	-11.1402
▁bruce	-11.1403
▁shak	-11.1403
▁utilit	-11.1404
▁pride	-11.1406
▁ethiopian	-11.1406
▁ripp	-11.1407
▁anybody	-11.1408
▁alien	-11.1408
▁pollut	-11.141
▁objection	-11.1414
▁useful	-11.1423
▁tea	-11.1426
▁slaughter	-11.143
▁brave	-11.1433
▁boxes	-11.1434
ook	-11.1435
my	-11.1442
▁atlanti	-11.1443
▁marry	-11.1444
▁limb	-11.1445
▁agreements	-11.1446
▁assured	-11.1448
▁purchas	-11.1448
pa	-11.1448
▁pure	-11.1466
▁shouted	-11.1468
residential	-11.1468
▁rawal	-11.1472
▁coin	-11.1473
▁smil	-11.1487
▁allen	-11.1488
die	-11.1489
▁slide	-11.1491
▁eliminate	-11.1494
▁laser	-11.1497
▁mas	-11.1497
▁assume	-11.1498
▁install	-11.1502
▁expanding	-11.1502
▁wo	-11.1514
▁cole	-11.1548
▁designat	-11.155
▁nationalist	-11.1555
▁enable	-11.1555
▁hate	-11.1561
▁tighten	-11.157
▁parker	-11.1571
▁patriot	-11.1576
cher	-11.1578
▁starts	-11.1591
▁rash	-11.1604
q	-11.1623
▁tai	-11.1625
▁sat	-11.163
skirt	-11.1633
▁happens	-11.1634
piece	-11.1637
ward	-11.165
▁springs	-11.1657
▁dun	-11.1671
yodo	-11.1673
▁ash	-11.1673
▁remind	-11.1674
▁sympath	-11.1675
ood	-11.1675
▁accompani	-11.1678
▁tae	-11.1682
▁advise	-11.1686
▁musa	-11.1688
▁cyber	-11.1689
▁tears	-11.1689
▁hire	-11.1691
ura	-11.1692
▁exam	-11.1694
▁disagree	-11.1695
▁adapt	-11.1696
▁accompany	-11.1698
▁imminent	-11.1698
▁overhaul	-11.1698
▁pyramid	-11.1698
▁sprawl	-11.1698
▁subsequent	-11.1698
▁incursion	-11.1698
▁anthem	-11.1698
▁breakfast	-11.1698
▁boast	-11.1698
▁confine	-11.1698
▁anonymous	-11.1699
▁random	-11.1699
▁hamper	-11.1699
▁broadway	-11.17
▁jenni	-11.17
▁candidacy	-11.1701
▁assertion	-11.1703
bo	-11.1706
▁pregnancy	-11.1709
▁eruption	-11.1711
horta	-11.1711
▁ambitio	-11.1712
▁branches	-11.1712
▁empir	-11.1717
▁defect	-11.1718
▁hometown	-11.172
▁rada	-11.1722
▁yasu	-11.1727
▁applications	-11.1728
▁provider	-11.1729
▁phenomen	-11.1731
▁intent	-11.1735
▁shooter	-11.1738
▁leap	-11.1748
pec	-11.1751
▁lucky	-11.1758
ible	-11.1774
▁lane	-11.1785
▁experienc	-11.1802
▁patroll	-11.1805
▁automakers	-11.1812
▁lesson	-11.1815
▁tap	-11.1818
▁winf	-11.1819
wear	-11.1825
▁advocate	-11.1828
au	-11.1834
▁opera	-11.1857
awi	-11.1858
▁donations	-11.1861
▁menu	-11.1862
▁interviewed	-11.1868
▁stalin	-11.1876
▁slum	-11.1876
▁bind	-11.188
▁hack	-11.1885
▁ri	-11.1901
▁ab	-11.1912
mann	-11.1927
tra	-11.1938
▁advanc	-11.194
ega	-11.1947
ul	-11.1963
▁retire	-11.1963
allah	-11.1971
▁pus	-11.1976
▁tr	-11.1984
▁worri	-11.199
▁prefer	-11.1991
▁cri	-11.1993
▁digit	-11.1999
▁haiti	-11.1999
▁surg	-11.2
▁rove	-11.2003
▁buzz	-11.2004
ee	-11.2005
▁depict	-11.2006
▁unsuccessful	-11.201
▁automobile	-11.201
▁caribbean	-11.201
▁explanation	-11.201
▁invitation	-11.201
▁mammoth	-11.201
▁pichushkin	-11.201
▁tragic	-11.201
▁travolta	-11.201
▁thorough	-11.201
▁fingerprint	-11.201
▁depth	-11.201
▁tumor	-11.201
▁nixon	-11.201
▁crater	-11.201
▁mini	-11.2011
▁textbook	-11.2011
▁diabet	-11.2011
▁website	-11.2011
▁expedition	-11.2011
▁physician	-11.2011
▁restart	-11.2011
▁echo	-11.2011
▁stronghold	-11.2011
▁facebook	-11.2011
▁graphic	-11.2011
▁implication	-11.2012
akash	-11.2012
▁hip	-11.2013
▁tribunal	-11.2013
▁haul	-11.2013
▁combine	-11.2014
▁spell	-11.2015
▁hydro	-11.2015
▁blitz	-11.2015
▁merger	-11.2015
▁gibbon	-11.2016
▁consultation	-11.2018
▁autops	-11.2018
▁achievement	-11.2018
ubble	-11.2018
zhei	-11.2022
nold	-11.2024
▁wayne	-11.2025
lmand	-11.2026
▁symptoms	-11.2027
▁operative	-11.2027
▁mumm	-11.203
mao	-11.2031
▁lifetime	-11.2031
ves	-11.2031
▁drunk	-11.2035
▁denial	-11.2042
▁smuggling	-11.2044
▁surgeon	-11.2047
overt	-11.2049
▁petrole	-11.2052
▁consideration	-11.2053
▁intensifie	-11.2053
tti	-11.2055
care	-11.2059
cal	-11.2062
▁shouting	-11.2066
right	-11.2067
room	-11.207
try	-11.2073
▁shia	-11.2079
▁fisc	-11.2081
▁battles	-11.2084
▁generat	-11.2084
▁electrical	-11.2084
▁supplier	-11.2093
▁explained	-11.2095
▁topic	-11.2096
he	-11.2098
▁shim	-11.2116
▁amin	-11.212
▁tala	-11.2123
ver	-11.2123
▁deck	-11.2128
▁sacrifice	-11.213
▁bonds	-11.2134
▁hearts	-11.2159
▁bath	-11.2164
▁smile	-11.2168
▁luc	-11.2171
▁exporter	-11.2176
▁developer	-11.2178
rotti	-11.2185
▁slim	-11.2187
▁grade	-11.2188
▁returns	-11.2189
cef	-11.2191
raul	-11.2197
how	-11.2199
▁surpass	-11.2207
▁communicate	-11.2216
bourne	-11.2224
▁bae	-11.2224
▁pri	-11.2227
▁appli	-11.2228
▁stopp	-11.2234
world	-11.224
mouth	-11.2242
▁stones	-11.2249
▁stewar	-11.2262
▁spare	-11.2264
▁evacuate	-11.2266
▁briton	-11.2268
▁till	-11.2277
▁dedicat	-11.2283
▁designate	-11.2287
▁sum	-11.229
▁households	-11.2291
▁fif	-11.2292
▁provision	-11.2294
▁cathedral	-11.2294
▁om	-11.2304
▁canne	-11.2307
▁sail	-11.2314
▁endeavo	-11.2316
▁fl	-11.2316
tage	-11.2327
▁hui	-11.2328
children	-11.2328
▁extinct	-11.2329
▁triumph	-11.2332
▁automotive	-11.2333
▁fossil	-11.2333
▁margaret	-11.2333
▁norwegian	-11.2333
▁shepherd	-11.2333
▁aquarium	-11.2333
▁swallow	-11.2333
▁blind	-11.2333
▁silent	-11.2333
▁tentative	-11.2333
▁throat	-11.2333
▁lynch	-11.2333
▁bathroom	-11.2333
▁copyright	-11.2333
▁steam	-11.2333
▁kofi	-11.2334
▁pursuit	-11.2334
▁citizenship	-11.2335
▁pact	-11.2335
▁painful	-11.2336
▁quell	-11.2336
▁equipp	-11.2337
▁jeong	-11.2339
▁outpost	-11.2339
▁reluctant	-11.234
▁bryan	-11.234
▁restructur	-11.234
▁warehouse	-11.2342
▁belgian	-11.2345
▁practical	-11.2351
lisa	-11.2356
▁falluja	-11.2356
▁jean	-11.2358
▁favorable	-11.2358
▁mccart	-11.2359
▁mitt	-11.236
▁cristian	-11.236
ida	-11.2361
▁belonging	-11.2362
▁alter	-11.2363
▁sack	-11.2364
▁asset	-11.2369
▁hun	-11.237
▁pad	-11.2374
▁archive	-11.238
▁soul	-11.2383
ho	-11.2383
▁luna	-11.2385
▁pf	-11.2386
▁oust	-11.2393
▁strange	-11.2395
▁arguments	-11.2399
▁screening	-11.2399
ture	-11.24
ster	-11.2402
▁passes	-11.2406
▁ward	-11.2412
▁jam	-11.2417
▁rider	-11.2432
▁joon	-11.2435
▁kell	-11.2436
abao	-11.2447
▁beside	-11.2456
▁stabilize	-11.2464
▁formula	-11.2468
wai	-11.2493
lando	-11.2494
▁guid	-11.2501
▁rings	-11.2507
▁gwan	-11.2509
▁advis	-11.2522
▁anna	-11.2526
bar	-11.2542
▁acquire	-11.2545
▁captives	-11.2562
▁lance	-11.2564
tuck	-11.2573
▁biolog	-11.2576
▁investments	-11.2578
bani	-11.2578
▁caps	-11.2581
fected	-11.2585
▁proto	-11.2587
▁clos	-11.2606
hou	-11.2609
aro	-11.2609
▁anim	-11.2612
war	-11.2612
▁shutt	-11.2615
▁emi	-11.2615
▁ethic	-11.2618
tanbu	-11.2621
▁mandate	-11.2627
▁coat	-11.2628
▁aging	-11.2637
▁gus	-11.2646
▁thrill	-11.2652
▁refer	-11.2653
our	-11.2653
▁hi	-11.2655
▁audit	-11.266
▁recogni	-11.2664
▁psycholog	-11.2665
▁sophisticat	-11.2666
▁artificial	-11.2666
▁epidemic	-11.2666
▁okinawa	-11.2666
▁surplus	-11.2666
▁verify	-11.2666
▁homosexual	-11.2666
▁ceiling	-11.2666
▁mitchell	-11.2666
▁hazard	-11.2666
▁mercedes	-11.2666
▁prescription	-11.2666
▁judgment	-11.2667
▁scatter	-11.2667
▁samarra	-11.2667
▁layoff	-11.2668
▁polish	-11.267
▁disagreement	-11.267
▁tayyi	-11.2671
▁retirement	-11.2671
▁shopper	-11.2673
▁brush	-11.2675
▁desk	-11.2676
▁rita	-11.2677
▁legac	-11.268
▁sway	-11.268
▁modest	-11.268
▁monkey	-11.268
like	-11.2682
▁wheat	-11.2682
▁edward	-11.2683
▁horse	-11.2684
▁arti	-11.2685
▁fujimo	-11.2688
▁purported	-11.2689
▁assert	-11.2691
▁sued	-11.2695
▁sideline	-11.2702
▁supervisor	-11.2703
rbil	-11.2704
▁donor	-11.2704
▁beatles	-11.2707
▁soft	-11.271
▁conscious	-11.2711
▁resum	-11.2714
▁tropic	-11.2716
▁expression	-11.2718
gen	-11.2719
▁embezzle	-11.272
▁keen	-11.2721
▁tips	-11.2725
▁agenc	-11.273
ello	-11.2736
▁yan	-11.2738
▁projection	-11.2739
ke	-11.274
▁shattered	-11.2742
▁measur	-11.2743
▁plott	-11.2748
▁disabl	-11.2753
▁rating	-11.2754
▁subsidiar	-11.2756
cious	-11.2756
▁cm	-11.2763
▁cla	-11.2764
llery	-11.2768
▁nur	-11.2772
▁bever	-11.2772
apped	-11.2778
▁lit	-11.2781
▁lov	-11.2785
nic	-11.2789
▁scare	-11.2793
▁caucus	-11.2797
▁immun	-11.2823
can	-11.2829
▁punch	-11.2831
▁format	-11.2836
▁matsu	-11.2836
▁pipe	-11.2837
▁med	-11.2838
▁knowing	-11.2839
▁kwang	-11.284
▁stamp	-11.2842
▁cook	-11.2846
kat	-11.2847
▁nud	-11.2851
attle	-11.2854
rich	-11.2856
station	-11.2863
erald	-11.2866
mon	-11.2871
▁congratulat	-11.2879
▁rely	-11.2886
til	-11.2896
▁lure	-11.2902
erial	-11.2903
▁dar	-11.2923
▁dies	-11.2928
hn	-11.2937
▁discriminat	-11.2943
munition	-11.2947
▁rahm	-11.2949
▁transit	-11.2954
russel	-11.2963
▁ethan	-11.2966
▁chos	-11.2969
teria	-11.2973
▁stripp	-11.2986
▁visual	-11.2986
▁widow	-11.2989
▁kidnap	-11.3
▁jihad	-11.3001
▁fernand	-11.3003
▁productiv	-11.3004
▁fisherm	-11.3009
▁scream	-11.3009
▁jer	-11.301
▁addict	-11.301
▁vigil	-11.301
▁disturb	-11.3011
elecommunication	-11.3011
▁consortium	-11.3011
▁crystal	-11.3011
▁nervous	-11.3011
▁obstacle	-11.3011
▁substitute	-11.3011
▁aborigin	-11.3011
▁sierra	-11.3011
▁convey	-11.3011
▁bishop	-11.3011
▁consent	-11.3011
▁conceal	-11.3011
▁grandfather	-11.3011
▁epic	-11.3012
▁nfl	-11.3012
▁dignity	-11.3012
▁nelson	-11.3012
▁uprising	-11.3013
▁fahr	-11.3013
▁humor	-11.3014
▁croatia	-11.3016
▁hormone	-11.3017
▁fernando	-11.3019
▁creative	-11.3019
▁susan	-11.3019
▁atrocit	-11.302
▁enhance	-11.3022
▁lieutenant	-11.3022
▁wazir	-11.3023
quba	-11.3024
▁heighten	-11.3025
▁impression	-11.3026
▁steer	-11.3026
▁setback	-11.3027
▁manipulat	-11.3027
▁ferry	-11.3028
▁sank	-11.3031
▁presentation	-11.3032
▁nick	-11.3034
▁removal	-11.3035
▁guin	-11.3035
▁sprint	-11.3044
▁treasure	-11.3044
▁pastor	-11.3048
lo	-11.3048
▁austrian	-11.305
▁dance	-11.305
away	-11.3051
▁bron	-11.3052
▁linda	-11.3052
▁grounds	-11.3057
▁arena	-11.3059
▁marie	-11.3067
▁ramp	-11.3075
▁ethical	-11.3075
▁symbolic	-11.3077
▁dave	-11.3078
some	-11.3081
▁ken	-11.3087
▁territories	-11.3087
▁futures	-11.3088
▁antibiotics	-11.3089
▁wang	-11.3092
▁stunning	-11.3095
▁arrange	-11.3096
▁dense	-11.3112
▁matte	-11.3113
▁bon	-11.3114
▁gangs	-11.3114
▁informal	-11.3132
▁hijack	-11.3137
ck	-11.314
▁balti	-11.3144
▁sav	-11.3154
hip	-11.3157
ir	-11.3159
▁tumbl	-11.318
▁mega	-11.3186
arade	-11.3211
air	-11.3213
▁disarm	-11.3223
▁farms	-11.3224
ich	-11.3226
▁exceed	-11.3226
▁folks	-11.3233
enhei	-11.3234
▁inspect	-11.3244
▁slid	-11.3255
gan	-11.3268
▁feeding	-11.3269
▁lope	-11.327
▁spots	-11.3272
▁antho	-11.3294
▁geit	-11.3296
▁ak	-11.3298
bank	-11.33
▁optimis	-11.3301
▁preserv	-11.3304
dom	-11.3305
jiang	-11.3307
▁captiv	-11.3313
stock	-11.3315
▁coll	-11.3315
hasa	-11.3316
▁skeptic	-11.332
▁cor	-11.3341
via	-11.3343
▁loose	-11.335
▁swap	-11.336
▁deserve	-11.3362
ja	-11.3367
▁applicant	-11.3368
▁condolence	-11.3368
▁discharge	-11.3368
▁paparazz	-11.3368
▁pioneer	-11.3368
▁pistol	-11.3368
▁plummet	-11.3368
▁reaffirm	-11.3368
▁douglas	-11.3368
▁brothel	-11.3368
▁ankle	-11.3368
▁throne	-11.3368
▁mystery	-11.3368
▁railroad	-11.3368
▁gil	-11.3369
▁mcdonald	-11.3369
▁predominant	-11.3369
▁evaluation	-11.3369
▁propagand	-11.3369
▁deutsch	-11.3369
▁impass	-11.337
▁niger	-11.337
▁laureate	-11.337
▁glori	-11.3371
▁conglomerate	-11.3371
▁knife	-11.3371
▁ownership	-11.3371
▁phillip	-11.3373
▁trash	-11.3373
▁arson	-11.3374
▁happiness	-11.3376
▁aggression	-11.3376
▁aziz	-11.3376
▁oak	-11.3377
▁prefecture	-11.3378
▁scrapp	-11.338
kdo	-11.338
▁transparent	-11.3383
▁cheaper	-11.3386
▁wy	-11.3386
▁outlaw	-11.3388
viel	-11.3389
▁pink	-11.3389
▁greenland	-11.3389
▁jiang	-11.339
▁java	-11.3391
▁rick	-11.3391
▁cambodian	-11.3392
▁shame	-11.3393
▁rover	-11.3393
▁inventor	-11.3395
▁passion	-11.3395
▁nigerian	-11.3398
▁reasonable	-11.3398
▁stemm	-11.3398
ider	-11.3401
aska	-11.3401
▁massage	-11.3402
▁bel	-11.3403
▁drought	-11.3405
▁pants	-11.3405
lene	-11.3406
▁jacque	-11.3418
bu	-11.3419
penh	-11.3428
manuel	-11.3432
▁marc	-11.3432
▁surveys	-11.3438
▁mines	-11.3447
▁christi	-11.3447
▁swed	-11.345
▁cage	-11.3451
▁hits	-11.3452
▁contra	-11.3462
nebr	-11.3471
works	-11.3478
▁lu	-11.3484
▁rak	-11.3487
▁postpone	-11.3489
▁inner	-11.3501
▁mild	-11.3502
▁tu	-11.3512
cantil	-11.3513
wa	-11.3521
titude	-11.3523
▁meals	-11.3523
▁easter	-11.3539
▁anne	-11.3541
▁bok	-11.3541
▁unemploy	-11.3544
▁jaz	-11.3556
pover	-11.3559
▁sponsors	-11.3562
ego	-11.3569
▁reli	-11.3569
hy	-11.3578
▁johnsto	-11.3588
llo	-11.3591
▁cub	-11.3592
▁cop	-11.3595
▁kiss	-11.3618
▁mill	-11.3626
▁hassan	-11.3628
▁roots	-11.3658
▁truc	-11.3669
ya	-11.3687
▁propell	-11.3698
▁instruct	-11.3706
▁injure	-11.3709
▁tenn	-11.3709
ran	-11.3709
▁tut	-11.3712
▁arth	-11.3712
ail	-11.3721
▁flick	-11.3727
▁donors	-11.3731
▁mode	-11.3731
▁pal	-11.3731
▁columb	-11.3734
nati	-11.3734
▁possess	-11.3735
▁catastroph	-11.3739
▁historian	-11.3739
▁jirga	-11.3739
▁junior	-11.3739
▁refrain	-11.3739
▁simultaneous	-11.3739
▁starbuck	-11.3739
▁script	-11.3739
▁domain	-11.3739
▁oath	-11.3739
▁sibling	-11.3739
▁grim	-11.3739
▁lodge	-11.3739
▁yankee	-11.3739
▁decree	-11.3739
▁johannes	-11.3739
▁breast	-11.3739
▁ftse	-11.374
▁intensive	-11.374
▁thwart	-11.374
▁pocket	-11.374
▁circuit	-11.374
▁bosnia	-11.374
▁mastermind	-11.374
▁servant	-11.374
gow	-11.374
▁respirator	-11.3741
▁faithful	-11.3741
▁milestone	-11.3741
▁editorial	-11.3741
▁mediator	-11.3741
▁cinc	-11.3742
▁lenno	-11.3742
▁holland	-11.3742
▁transmission	-11.3742
▁constitute	-11.3742
▁dementi	-11.3743
▁assign	-11.3743
▁logistic	-11.3743
uk	-11.3743
▁trademark	-11.3743
▁elb	-11.3743
▁dug	-11.3744
▁weakness	-11.3744
▁exhibition	-11.3745
▁poul	-11.3745
▁flaw	-11.3746
▁segment	-11.3746
ssett	-11.3747
▁slush	-11.3748
▁minus	-11.3748
▁stud	-11.3749
▁restraint	-11.375
▁bride	-11.3751
▁files	-11.3752
▁antarctica	-11.3752
tearn	-11.3752
▁comb	-11.3753
dale	-11.3756
▁carmaker	-11.376
▁mob	-11.3764
▁drum	-11.3767
iness	-11.3768
▁scenario	-11.3772
▁patien	-11.3777
ties	-11.3778
▁formation	-11.3779
▁annually	-11.3798
rell	-11.3802
▁raw	-11.3803
▁spitz	-11.3806
▁shelves	-11.3811
▁popp	-11.3811
▁genes	-11.3815
▁ranger	-11.3818
nshine	-11.3824
▁grat	-11.3829
▁manufacturer	-11.3831
▁premiere	-11.3833
▁rig	-11.3847
▁chess	-11.3851
▁arts	-11.3854
ola	-11.3856
▁aero	-11.3865
eta	-11.3872
▁sk	-11.3875
▁surviv	-11.388
let	-11.3912
▁filing	-11.3915
▁carl	-11.3915
▁gambl	-11.3919
▁outline	-11.392
▁lev	-11.3921
▁hosts	-11.3928
▁observe	-11.393
▁ugl	-11.3936
▁pin	-11.3936
shire	-11.3944
lateral	-11.3946
▁infiltrat	-11.3961
▁fines	-11.3963
▁relevan	-11.3969
▁sighting	-11.3973
▁neil	-11.3983
▁lotte	-11.3983
▁roy	-11.3985
▁shipments	-11.3992
▁impos	-11.3993
tten	-11.3996
▁harve	-11.4006
▁tribes	-11.4007
▁wat	-11.4019
ita	-11.4039
suf	-11.4041
furt	-11.4046
disclos	-11.4049
▁retaliati	-11.406
▁intens	-11.4061
▁sooner	-11.4066
▁smooth	-11.4068
kansa	-11.4073
waz	-11.4076
▁disperse	-11.4083
▁swim	-11.4085
intend	-11.4086
▁kam	-11.4087
enos	-11.409
▁choos	-11.4104
▁transparen	-11.4107
▁construct	-11.4113
▁intercept	-11.4116
arian	-11.4117
caust	-11.4119
▁bench	-11.412
▁guitar	-11.4122
▁brilliant	-11.4123
▁peanut	-11.4123
▁acquisition	-11.4123
▁kazakhstan	-11.4123
▁kuznetsov	-11.4123
▁rhode	-11.4123
▁cousin	-11.4123
▁memories	-11.4123
▁premium	-11.4123
▁nightclub	-11.4123
▁consist	-11.4123
▁curious	-11.4123
▁nerve	-11.4124
▁monster	-11.4124
▁parole	-11.4124
▁downturn	-11.4124
▁smell	-11.4124
▁shadow	-11.4125
▁transcript	-11.4125
▁psychologist	-11.4125
▁libby	-11.4125
▁terr	-11.4126
▁pageant	-11.4126
▁rehabilitati	-11.4126
▁cairo	-11.4126
▁decisive	-11.4127
▁awake	-11.4127
▁attractive	-11.4128
▁robotic	-11.4128
▁leonard	-11.4128
▁terrible	-11.4128
▁isolation	-11.4129
▁martyr	-11.4129
▁hammer	-11.4131
▁knut	-11.4132
▁contestant	-11.4134
▁progressive	-11.4135
vacu	-11.4136
▁kwon	-11.4137
▁rath	-11.4138
▁representation	-11.4141
▁ub	-11.4142
▁indoor	-11.4142
▁hank	-11.4144
▁romance	-11.4149
▁gravit	-11.415
▁op	-11.4152
ustin	-11.4153
▁couch	-11.4154
▁moneta	-11.4157
xvi	-11.4159
os	-11.4161
▁ourselves	-11.4165
dium	-11.4167
▁zan	-11.4169
▁pile	-11.4171
▁programm	-11.4173
▁exten	-11.4188
▁silv	-11.4194
▁reunifi	-11.4194
▁flexib	-11.4194
▁capt	-11.4198
▁sees	-11.4199
▁gala	-11.4204
▁distribute	-11.4207
▁tuck	-11.4212
▁rattl	-11.4212
ospi	-11.4214
▁cycle	-11.4224
▁scan	-11.4231
▁glen	-11.4231
▁terra	-11.4232
▁rubb	-11.4234
▁spice	-11.4244
▁vol	-11.4252
oon	-11.4255
ged	-11.4262
▁chill	-11.4263
▁bil	-11.427
▁sars	-11.4272
ido	-11.4272
▁oscars	-11.4272
▁choi	-11.4285
olo	-11.4286
▁gi	-11.4293
▁nis	-11.4293
▁exclud	-11.4298
▁isolate	-11.4322
▁tours	-11.4323
bel	-11.4329
▁mess	-11.4329
▁corn	-11.4337
▁rein	-11.4339
▁uncertaint	-11.4348
▁julie	-11.4351
▁emphasiz	-11.4354
▁paralyz	-11.4354
▁sacr	-11.4355
▁container	-11.4366
▁retrieve	-11.4368
ara	-11.438
ala	-11.4383
▁drastic	-11.4388
▁tin	-11.44
oli	-11.4409
▁organize	-11.4411
▁lots	-11.4411
▁kil	-11.4413
▁cab	-11.4416
▁chairs	-11.442
▁vers	-11.4423
▁cry	-11.4428
rmal	-11.4434
▁eta	-11.4438
▁wan	-11.4443
itis	-11.4452
cliff	-11.4461
appropriate	-11.4462
▁harmon	-11.4466
apping	-11.447
▁mous	-11.4472
▁suits	-11.4478
henin	-11.4478
tor	-11.4478
ning	-11.448
▁bearing	-11.448
vy	-11.4485
▁span	-11.4486
▁contend	-11.451
▁acquitt	-11.4516
▁enact	-11.452
▁heal	-11.4522
▁excess	-11.4522
▁contingent	-11.4523
▁gadget	-11.4523
▁lincoln	-11.4523
▁sufficient	-11.4523
▁tattoo	-11.4523
▁tremendous	-11.4523
▁vegetable	-11.4523
▁kilogram	-11.4523
▁disgrace	-11.4523
▁irregularities	-11.4523
▁monument	-11.4523
▁vista	-11.4523
▁absent	-11.4523
▁inhabit	-11.4523
▁premature	-11.4523
▁overthrow	-11.4523
▁frog	-11.4523
▁tenure	-11.4523
▁notorious	-11.4524
▁donkey	-11.4524
▁excuse	-11.4524
▁copper	-11.4524
▁tomato	-11.4524
▁orthodox	-11.4525
▁streak	-11.4525
▁psychological	-11.4525
▁bloc	-11.4525
▁boris	-11.4525
▁sugar	-11.4526
▁rift	-11.4526
▁pearl	-11.4526
▁irresponsible	-11.4527
▁laura	-11.4527
▁unchang	-11.453
soo	-11.453
▁devil	-11.4532
▁muq	-11.4532
▁mechanical	-11.4533
▁amend	-11.4533
▁blogger	-11.4534
▁dominica	-11.4534
▁grammy	-11.4535
▁dock	-11.4538
▁diagnosed	-11.4539
▁belov	-11.4542
▁sensor	-11.4542
▁accurate	-11.4545
▁duk	-11.455
▁explorer	-11.4551
▁warship	-11.4552
▁tube	-11.4552
▁lecture	-11.456
▁santi	-11.4562
▁ports	-11.457
wang	-11.4571
▁comic	-11.4571
▁zimbabwean	-11.4574
▁portal	-11.4578
▁pres	-11.4581
▁suppress	-11.4585
▁slain	-11.4586
▁div	-11.4586
▁philli	-11.4596
▁roar	-11.4597
▁fruit	-11.4597
▁salt	-11.4607
▁bother	-11.4619
▁burg	-11.462
shi	-11.4622
▁improvement	-11.4624
hal	-11.4627
▁belt	-11.4642
arity	-11.4646
onica	-11.4652
▁applie	-11.4654
▁sensitivit	-11.4664
▁trans	-11.4668
▁obes	-11.467
▁employers	-11.4678
▁outfit	-11.468
▁nest	-11.4685
▁interesting	-11.4694
▁din	-11.4706
▁sincere	-11.4717
▁steppe	-11.4722
▁steadi	-11.4724
▁ramad	-11.4724
red	-11.4727
▁counterterroris	-11.4731
val	-11.4734
▁barry	-11.4734
saka	-11.4736
▁rap	-11.4747
▁gonn	-11.4748
▁prostitut	-11.4749
▁uncle	-11.4752
▁outlets	-11.4753
▁difficulty	-11.4754
▁frustrat	-11.4757
ett	-11.4764
▁ross	-11.4767
▁observ	-11.4768
▁roles	-11.4793
ato	-11.4796
pei	-11.4801
▁cooperat	-11.4806
▁speculat	-11.4838
▁browne	-11.4854
versh	-11.4856
zed	-11.4864
chang	-11.4871
active	-11.4876
strong	-11.4879
▁gran	-11.4883
top	-11.4889
borne	-11.4892
ux	-11.49
▁flare	-11.4906
▁revise	-11.4907
oo	-11.4909
▁choices	-11.4909
ario	-11.4913
▁bat	-11.4918
▁emerge	-11.4918
ants	-11.4922
▁inaugura	-11.4924
▁midwest	-11.493
▁neutral	-11.4931
▁reign	-11.4932
▁mat	-11.4933
rk	-11.4934
▁q	-11.494
▁avenue	-11.494
▁bizarre	-11.494
▁competitor	-11.494
▁genuine	-11.494
▁intellectual	-11.494
▁maradona	-11.494
▁reckless	-11.494
▁satisfie	-11.494
▁bmw	-11.494
▁kashmir	-11.494
▁qassam	-11.494
▁coroner	-11.494
▁vault	-11.494
▁misdemeanor	-11.494
▁whistle	-11.494
▁seizure	-11.494
▁potato	-11.494
▁harper	-11.494
▁negro	-11.494
▁profound	-11.494
▁venus	-11.494
▁introduction	-11.494
▁maoist	-11.494
▁veterinarian	-11.494
▁tamil	-11.494
▁hatred	-11.4941
▁certificate	-11.4941
▁sequence	-11.4941
rogge	-11.4941
▁lyric	-11.4941
▁signature	-11.4942
▁fortress	-11.4942
▁colonel	-11.4942
▁bonuses	-11.4942
▁confidential	-11.4942
▁concentration	-11.4942
▁dili	-11.4942
▁ismail	-11.4943
▁infantry	-11.4944
▁jamie	-11.4944
▁sheep	-11.4944
▁collective	-11.4945
▁addiction	-11.4945
▁flin	-11.4946
▁distan	-11.4946
▁roug	-11.4948
▁precise	-11.4948
▁reunit	-11.4949
▁drain	-11.4949
▁bulgarian	-11.4951
▁slash	-11.4952
▁loom	-11.4958
▁beam	-11.4961
▁laurea	-11.4962
▁iceland	-11.4962
tz	-11.4962
▁fitt	-11.4964
▁ham	-11.4964
▁bio	-11.4967
▁spurr	-11.4967
▁garb	-11.4972
▁zhang	-11.4988
▁brig	-11.4988
▁gp	-11.4997
▁rear	-11.5001
ions	-11.5002
▁suv	-11.5003
▁slot	-11.5006
▁tooth	-11.5011
▁hell	-11.5017
oster	-11.5018
▁impressi	-11.502
▁blessing	-11.5026
▁dire	-11.503
▁toddler	-11.5032
▁countryside	-11.5034
▁kph	-11.504
conscious	-11.5041
▁alleg	-11.5043
▁hawa	-11.5048
▁ruin	-11.5057
▁yog	-11.5057
wc	-11.506
▁define	-11.5077
▁cac	-11.5078
▁faye	-11.5084
▁crying	-11.5085
itz	-11.5092
▁luck	-11.5096
▁appreciate	-11.5099
▁relieve	-11.5099
▁mikh	-11.51
nga	-11.5102
▁liu	-11.512
▁feelings	-11.5124
▁fuku	-11.5136
▁tense	-11.5136
▁concentrate	-11.5137
▁item	-11.5141
▁medi	-11.5142
▁cleaner	-11.5143
win	-11.5154
ists	-11.5161
▁dispos	-11.5163
▁dismiss	-11.5178
io	-11.5179
▁authorize	-11.5188
hill	-11.5191
▁cel	-11.5201
elling	-11.5202
kuni	-11.5208
▁assassinat	-11.5214
▁yea	-11.5214
▁networking	-11.5218
▁spike	-11.5223
ette	-11.5224
adilla	-11.5227
▁unite	-11.5229
row	-11.5232
▁mori	-11.5233
▁poses	-11.5236
▁hurl	-11.5249
king	-11.5255
▁bodyguards	-11.5256
▁gre	-11.5258
ini	-11.526
▁aug	-11.5266
▁bark	-11.527
▁characteriz	-11.5283
▁permitt	-11.5283
▁lamp	-11.5298
▁hon	-11.5304
▁architect	-11.531
▁hae	-11.5313
▁nori	-11.5315
va	-11.5326
▁ratio	-11.5329
▁commemorate	-11.5337
▁digg	-11.5339
▁origin	-11.534
▁marr	-11.5341
▁bobb	-11.5348
▁recep	-11.535
▁estonia	-11.5356
▁monkeys	-11.5361
▁horses	-11.5365
oid	-11.5368
▁archaeolog	-11.5372
▁settl	-11.5372
▁courage	-11.5374
▁arroyo	-11.5375
▁caretaker	-11.5375
▁chocolate	-11.5375
▁ingredient	-11.5375
▁umbrella	-11.5375
▁cricket	-11.5375
▁stomach	-11.5375
▁bicycle	-11.5375
▁definition	-11.5375
▁minneapolis	-11.5375
▁junichi	-11.5375
▁blunt	-11.5375
▁oversight	-11.5375
▁kitchen	-11.5375
▁mysterious	-11.5375
▁bulk	-11.5375
▁fidel	-11.5375
▁harass	-11.5376
▁lugg	-11.5376
▁alfred	-11.5376
▁taint	-11.5376
▁justin	-11.5376
▁contentious	-11.5376
▁cluster	-11.5376
▁cancellation	-11.5377
▁click	-11.5377
▁comedian	-11.5377
▁exploration	-11.5377
▁grain	-11.5378
▁consultant	-11.5379
▁array	-11.5379
▁powder	-11.5379
▁slugg	-11.5379
▁injection	-11.538
▁stunt	-11.538
▁squid	-11.5381
▁drunken	-11.5381
▁glow	-11.5382
▁ipod	-11.5382
▁delight	-11.5383
▁ledger	-11.5383
▁titan	-11.5384
▁chunk	-11.5384
▁deem	-11.5385
▁harvest	-11.5385
▁rico	-11.5385
▁ufo	-11.5388
▁bread	-11.539
▁guardian	-11.5395
▁measurement	-11.5396
▁siege	-11.5397
▁fre	-11.5399
▁innocen	-11.5399
▁adequate	-11.5401
▁fantas	-11.5404
yama	-11.5407
▁bible	-11.5407
▁glimpse	-11.5408
▁rejection	-11.5414
▁organic	-11.5416
▁nasr	-11.542
▁gifts	-11.5421
▁sach	-11.5424
▁lp	-11.5425
▁cecil	-11.5425
▁karl	-11.5426
▁dual	-11.5428
▁examiner	-11.5429
onia	-11.5442
▁semi	-11.545
▁khali	-11.5457
▁vest	-11.5461
ping	-11.5465
▁baker	-11.5475
aking	-11.5477
▁carac	-11.5477
▁drag	-11.5478
▁gib	-11.548
▁cl	-11.5481
▁protein	-11.5485
▁kle	-11.5489
▁convene	-11.549
▁mong	-11.5491
▁bodyguard	-11.5495
amount	-11.5497
▁meteor	-11.5501
▁cher	-11.5523
▁chips	-11.5525
▁demonstrat	-11.5526
▁dama	-11.5529
mus	-11.554
▁kara	-11.554
chum	-11.5541
nce	-11.5547
▁cooking	-11.5553
▁linger	-11.5557
witt	-11.556
▁humiliat	-11.5568
▁emphasize	-11.5568
▁farming	-11.5568
che	-11.5569
▁finalize	-11.5573
▁nk	-11.558
▁nash	-11.5585
scus	-11.5585
▁grandm	-11.5587
▁pave	-11.5602
▁bout	-11.5604
▁foe	-11.561
▁barak	-11.5619
▁ci	-11.5621
▁scholars	-11.5642
▁pills	-11.5643
▁shocking	-11.5644
▁municipal	-11.5657
▁extremis	-11.5659
lena	-11.5668
▁accomplish	-11.5671
per	-11.5677
▁meh	-11.568
set	-11.5689
▁identifi	-11.5696
ative	-11.5699
ber	-11.5699
▁contents	-11.5699
aw	-11.571
▁sta	-11.5711
▁stunn	-11.5715
▁sketch	-11.5718
nan	-11.5718
▁seller	-11.5725
▁gene	-11.573
yman	-11.5738
place	-11.5749
▁maha	-11.5753
▁frost	-11.5755
▁prodi	-11.5758
▁pl	-11.5759
▁les	-11.576
ponte	-11.5764
point	-11.5764
▁ministr	-11.5765
decided	-11.5768
about	-11.5773
amine	-11.5773
▁courts	-11.5781
▁explaining	-11.5782
ith	-11.5783
folk	-11.5787
▁presid	-11.579
▁climber	-11.5792
▁rag	-11.5804
▁coordinate	-11.5804
▁lean	-11.5805
▁guatemala	-11.5809
▁romania	-11.5812
▁deport	-11.5814
▁ridicul	-11.5815
▁pond	-11.5821
▁rib	-11.5824
▁recess	-11.5826
▁imperial	-11.5828
▁column	-11.5828
▁abrupt	-11.5829
nprofit	-11.5829
▁fragil	-11.5829
▁illicit	-11.5829
▁intensify	-11.5829
▁magistrate	-11.5829
▁pharmaceutical	-11.5829
▁portrait	-11.5829
▁sumatra	-11.5829
▁multinational	-11.5829
▁librar	-11.5829
▁provocative	-11.5829
▁negligen	-11.5829
▁recount	-11.5829
▁database	-11.5829
▁diminish	-11.5829
▁fitzg	-11.5829
▁frontrunner	-11.5829
▁perception	-11.5829
▁greenspan	-11.583
▁millenni	-11.583
▁levinson	-11.583
▁federline	-11.583
▁anxious	-11.583
▁dependent	-11.583
▁reception	-11.583
▁interstate	-11.583
▁rehab	-11.583
▁solomon	-11.5831
▁derail	-11.5831
▁informant	-11.5831
▁fantastic	-11.5831
▁ukrainian	-11.5833
▁interaction	-11.5833
▁serena	-11.5833
▁frustration	-11.5834
▁overweight	-11.5834
▁workplace	-11.5834
▁yale	-11.5835
▁cabin	-11.5835
▁wield	-11.5835
▁slavery	-11.5836
▁handgun	-11.5836
▁mccon	-11.5836
▁creator	-11.5837
▁interrupt	-11.5837
▁hick	-11.5838
cc	-11.5838
▁quarte	-11.5838
▁hover	-11.584
▁disappointment	-11.5842
▁playoff	-11.5845
▁costume	-11.5848
▁showdown	-11.5848
▁nail	-11.5852
mandu	-11.5855
rod	-11.5855
▁val	-11.5856
▁preferr	-11.5858
▁priorities	-11.5862
▁kt	-11.5862
▁instruction	-11.5866
▁poster	-11.5869
▁keat	-11.587
▁wii	-11.587
▁collins	-11.5872
▁leone	-11.5872
▁neal	-11.5873
▁rack	-11.5875
▁hid	-11.5876
▁batch	-11.5878
▁barely	-11.588
▁economically	-11.5888
eng	-11.5888
ywhere	-11.5894
▁fal	-11.5894
iling	-11.5899
▁procession	-11.5901
▁queens	-11.5906
▁bp	-11.5908
▁conceded	-11.5908
▁jun	-11.5909
▁vanco	-11.591
▁performer	-11.5916
▁basin	-11.5916
▁lump	-11.5919
▁petro	-11.5919
▁veni	-11.5925
▁gorillas	-11.5933
ira	-11.595
▁beck	-11.5951
▁filling	-11.5959
shima	-11.5965
▁ferrer	-11.5966
▁cannon	-11.5973
▁dig	-11.5977
▁casualt	-11.5979
▁horn	-11.598
▁nah	-11.5981
eera	-11.5987
▁allege	-11.599
▁addresses	-11.6
▁tone	-11.6004
▁koo	-11.6006
bound	-11.6008
▁tribe	-11.6009
▁arrangements	-11.6013
▁bog	-11.6014
▁ashle	-11.6015
xel	-11.6017
▁smoker	-11.6028
ives	-11.603
▁stalinis	-11.6031
▁uncertain	-11.6033
▁adventure	-11.6037
▁launche	-11.6045
▁tag	-11.6053
ut	-11.6061
▁sens	-11.6067
▁str	-11.607
▁observat	-11.608
▁topple	-11.6084
▁defi	-11.6086
▁pit	-11.6087
▁triple	-11.6091
▁dorm	-11.6097
unes	-11.61
▁superb	-11.6101
▁hart	-11.6107
▁bust	-11.6107
▁xu	-11.6108
▁bounce	-11.6112
▁wag	-11.6119
po	-11.6119
ww	-11.6123
zel	-11.6123
▁melan	-11.6129
pp	-11.6135
▁spin	-11.6136
▁skinn	-11.6138
lick	-11.6143
▁execute	-11.6147
▁postpon	-11.6147
lima	-11.6149
ot	-11.6161
will	-11.6165
▁franchise	-11.6165
▁planner	-11.6171
▁buck	-11.6174
singh	-11.62
▁resemble	-11.6215
▁offend	-11.6218
▁staffer	-11.6221
▁bran	-11.6224
power	-11.623
▁wool	-11.6236
specifi	-11.6241
▁proven	-11.6241
▁ze	-11.6241
shift	-11.6244
▁zu	-11.6244
cna	-11.6252
▁memorab	-11.6253
▁greg	-11.6255
▁wipe	-11.6265
▁goh	-11.627
ancy	-11.6272
▁occasional	-11.6277
erran	-11.6284
▁ethiopia	-11.6287
▁valid	-11.6288
▁behead	-11.6289
▁pelo	-11.6294
scope	-11.6296
▁scrutin	-11.6297
▁categori	-11.6298
▁grip	-11.6298
▁contradict	-11.6299
▁extract	-11.6305
pollo	-11.6305
▁artifact	-11.6305
▁battalion	-11.6305
▁cosmonaut	-11.6305
▁efficienc	-11.6305
▁excerpt	-11.6305
▁implant	-11.6305
▁inflict	-11.6305
▁merchant	-11.6305
▁quarantine	-11.6305
▁seafood	-11.6305
▁tycoon	-11.6305
▁anxiet	-11.6305
▁oxford	-11.6305
▁dentist	-11.6306
▁himalaya	-11.6306
▁mislead	-11.6306
▁persistent	-11.6306
▁unilateral	-11.6306
▁boulder	-11.6306
▁malawi	-11.6306
▁keith	-11.6306
▁brink	-11.6306
▁hispanic	-11.6306
▁flock	-11.6306
▁blake	-11.6307
▁dictatorship	-11.6307
▁workforce	-11.6307
▁bore	-11.6307
▁verification	-11.6307
aker	-11.6307
▁cinema	-11.6308
▁piano	-11.6308
▁gibb	-11.6308
▁shwe	-11.6308
▁reinforcement	-11.6308
▁deportation	-11.6308
▁wander	-11.6308
▁foley	-11.6308
▁atleti	-11.6308
▁salarie	-11.6309
▁emanuel	-11.6309
▁fiction	-11.631
▁basque	-11.6311
▁logo	-11.6311
▁headache	-11.6312
▁soften	-11.6312
▁overlook	-11.6313
▁quest	-11.6314
berra	-11.6315
▁dragon	-11.6316
onga	-11.6316
▁honey	-11.6316
▁forth	-11.6316
▁facial	-11.6317
▁prediction	-11.6317
▁citi	-11.6318
▁rubber	-11.6318
▁auditor	-11.6318
tact	-11.632
▁glad	-11.6321
▁staple	-11.6322
▁owen	-11.6322
rbach	-11.6325
▁gallery	-11.6328
▁noise	-11.6328
gm	-11.6329
▁franco	-11.6333
▁expresse	-11.6334
nintend	-11.6334
▁trac	-11.6334
▁establishment	-11.6334
▁pu	-11.6336
▁liais	-11.6336
▁va	-11.6336
▁timing	-11.634
▁juror	-11.6343
▁qualifier	-11.6345
▁nec	-11.6346
▁fold	-11.6346
▁tender	-11.6346
▁upgrade	-11.6355
▁seasonal	-11.6358
▁helpful	-11.6359
▁sharon	-11.6359
aho	-11.6366
▁ark	-11.6366
▁ol	-11.6368
rkele	-11.6368
▁utter	-11.6377
▁lucas	-11.6384
▁realiz	-11.6385
▁entitl	-11.6387
fc	-11.6394
▁claren	-11.6394
▁campaigner	-11.6398
▁accelerate	-11.6402
▁caffein	-11.6403
▁fier	-11.6403
hi	-11.6403
cade	-11.6405
▁yell	-11.6407
▁lawn	-11.6409
▁troph	-11.6413
aware	-11.6414
▁subsid	-11.6418
▁speculate	-11.6419
▁hacker	-11.642
hrai	-11.6421
con	-11.6426
▁conscien	-11.6426
mz	-11.6427
om	-11.6429
▁tolerate	-11.643
▁winger	-11.6431
▁lak	-11.6433
ethane	-11.6434
▁commodit	-11.6436
▁edit	-11.6441
▁finals	-11.6442
▁highlights	-11.6445
▁nu	-11.6449
af	-11.6451
▁ears	-11.6451
▁airliner	-11.6453
gang	-11.6454
▁tongue	-11.6454
▁neo	-11.6454
oma	-11.6467
▁intel	-11.648
▁denounce	-11.648
ssif	-11.6481
▁raj	-11.6484
▁pirate	-11.6485
▁contender	-11.6485
▁layer	-11.6486
▁kg	-11.6488
▁plain	-11.6498
▁pic	-11.65
▁supervis	-11.6504
▁captive	-11.6512
aki	-11.6515
yi	-11.6518
▁assurance	-11.6519
egu	-11.6522
bala	-11.6524
▁shipment	-11.6525
▁jimm	-11.653
unch	-11.653
▁trailer	-11.6533
▁skill	-11.6537
▁reinstate	-11.655
▁org	-11.6553
▁collaps	-11.6565
etic	-11.6567
▁holed	-11.6568
▁confusi	-11.6574
▁slope	-11.6575
▁contaminat	-11.6581
▁nurs	-11.6585
▁provok	-11.6586
▁guarded	-11.6589
▁sim	-11.6596
hen	-11.66
ud	-11.6601
▁franc	-11.6614
▁analyze	-11.6618
▁plains	-11.6633
▁stockpile	-11.6639
▁lover	-11.664
hmer	-11.664
▁explor	-11.665
▁wings	-11.6654
ston	-11.6654
▁seeming	-11.6655
▁fur	-11.6659
▁enhanc	-11.666
▁overwhelm	-11.6668
▁stumbl	-11.6685
▁russe	-11.6688
▁dell	-11.6705
▁hak	-11.6705
rway	-11.671
▁mem	-11.6715
oming	-11.6715
▁dann	-11.6725
▁chronic	-11.6725
▁riders	-11.6727
gged	-11.6728
▁applau	-11.6732
▁vo	-11.6733
qaw	-11.6735
▁hamburg	-11.6735
▁vin	-11.6736
▁necessar	-11.6738
▁gro	-11.6739
▁societ	-11.6739
planes	-11.6744
wealth	-11.6744
cheong	-11.6744
cha	-11.6748
▁thi	-11.6749
ow	-11.6749
hand	-11.6755
ilia	-11.6755
▁rotat	-11.6756
rank	-11.6759
oka	-11.6763
▁monet	-11.6764
map	-11.6765
▁foods	-11.6768
ndrome	-11.6777
▁watcher	-11.6778
enver	-11.6781
▁bump	-11.6784
▁algeria	-11.6787
▁significan	-11.679
▁heir	-11.679
▁authentic	-11.6791
▁inject	-11.68
eon	-11.6804
▁ideolog	-11.6805
▁demilitariz	-11.6805
▁engulf	-11.6805
▁abraham	-11.6805
▁albatross	-11.6805
▁barricade	-11.6805
▁biofuel	-11.6805
▁calendar	-11.6805
▁gossip	-11.6805
▁juvenile	-11.6805
▁newcastle	-11.6805
▁prototype	-11.6805
▁stalemate	-11.6805
▁wheelchair	-11.6805
▁curator	-11.6805
▁exxon	-11.6805
▁lesbian	-11.6805
▁pretend	-11.6805
▁eleven	-11.6805
▁chapel	-11.6805
▁wrist	-11.6805
▁nickname	-11.6805
▁keynote	-11.6806
▁disclosure	-11.6806
▁trap	-11.6806
▁rogue	-11.6806
▁zheng	-11.6806
▁fiber	-11.6806
▁collaboration	-11.6806
▁vocal	-11.6806
▁calorie	-11.6807
bhumi	-11.6807
▁collar	-11.6807
▁revelation	-11.6807
▁beverage	-11.6808
▁snack	-11.6808
▁gator	-11.6809
iora	-11.6809
▁predator	-11.6809
▁cruel	-11.6809
▁instructor	-11.681
▁bypass	-11.681
▁referee	-11.6811
▁contemporar	-11.6813
▁spouse	-11.6814
▁bias	-11.6814
▁cordon	-11.6814
▁barrage	-11.6815
▁youngster	-11.6815
▁medit	-11.6816
nin	-11.6817
▁conservationist	-11.6817
▁tenor	-11.6817
▁confession	-11.6818
▁lim	-11.6818
▁township	-11.6818
▁djo	-11.6819
▁acceptance	-11.6821
▁whipp	-11.6821
▁griffi	-11.6822
▁avert	-11.6822
▁kiev	-11.6823
▁inspiration	-11.6824
cular	-11.6826
▁jos	-11.6828
▁thriller	-11.6829
▁dealer	-11.683
▁plume	-11.6836
▁readers	-11.6838
▁spann	-11.6839
itive	-11.684
▁ferrar	-11.6846
ate	-11.6848
▁composer	-11.6849
ano	-11.6849
ility	-11.6851
ket	-11.6855
▁motivat	-11.686
▁extraditi	-11.6864
▁phu	-11.687
▁coerc	-11.6877
▁applaud	-11.688
▁jp	-11.6881
bin	-11.6883
▁alma	-11.6887
▁bleed	-11.6893
▁evans	-11.6898
▁vincen	-11.6902
▁scuffle	-11.6903
▁sid	-11.6904
▁keeper	-11.6909
▁bidd	-11.6915
▁arabian	-11.6917
▁explore	-11.6922
ulous	-11.6927
▁ravag	-11.694
▁wip	-11.6943
▁dodge	-11.6946
▁dwindl	-11.6954
▁laute	-11.6957
otic	-11.6976
▁underscore	-11.698
▁homicide	-11.6981
rosa	-11.6982
▁blockbuster	-11.6985
▁prizes	-11.6988
ula	-11.699
▁monte	-11.6997
sef	-11.6999
▁cartel	-11.7007
ito	-11.701
▁perin	-11.7011
▁tapes	-11.7013
▁swear	-11.7014
▁torrent	-11.7017
▁extremist	-11.7019
▁napoli	-11.7032
▁math	-11.7034
▁bend	-11.7036
▁por	-11.7038
ap	-11.7041
▁owe	-11.7049
▁underst	-11.7056
stitution	-11.706
▁tam	-11.706
▁lander	-11.7061
▁bet	-11.7063
▁chased	-11.7066
▁folk	-11.7067
▁companion	-11.7068
▁fann	-11.7069
▁passports	-11.7072
▁pub	-11.7076
uda	-11.7083
▁bros	-11.7093
▁claus	-11.7096
▁espi	-11.7099
▁avail	-11.71
▁intelligent	-11.71
▁discs	-11.7101
ill	-11.7102
▁cycl	-11.711
▁comet	-11.7112
nbar	-11.7119
▁depos	-11.7124
▁mann	-11.7126
kto	-11.7127
▁gad	-11.7131
used	-11.7132
lash	-11.7135
tano	-11.714
veral	-11.7142
lloy	-11.7148
▁kay	-11.7152
▁troubles	-11.7155
▁thoughts	-11.7156
▁tun	-11.7157
fa	-11.7157
gb	-11.7161
▁scratch	-11.7163
▁carve	-11.7169
▁wheels	-11.7178
shed	-11.7179
▁galla	-11.7184
▁horrifi	-11.7187
▁amo	-11.7199
▁cord	-11.72
▁tune	-11.7207
▁entr	-11.7207
▁disk	-11.7211
▁julia	-11.7214
▁bol	-11.723
▁depriv	-11.724
▁cope	-11.7243
▁den	-11.7244
esi	-11.7247
▁erect	-11.7256
▁bern	-11.726
▁shoulders	-11.7269
▁lag	-11.7274
▁absolute	-11.7276
grid	-11.7281
▁physic	-11.7283
▁borne	-11.7289
▁psychiatr	-11.7289
afa	-11.7302
made	-11.7303
▁bor	-11.7308
▁fla	-11.7308
▁spen	-11.7311
▁jamaica	-11.7313
ef	-11.7313
▁stir	-11.7313
what	-11.7314
udh	-11.7315
▁haniy	-11.7317
▁lakes	-11.7318
cute	-11.7319
▁restrain	-11.7319
▁pois	-11.732
▁ignit	-11.732
▁devot	-11.733
▁unconditional	-11.7332
▁convincing	-11.7332
▁embargo	-11.7332
▁emperor	-11.7332
▁external	-11.7332
▁gorbachev	-11.7332
▁hectare	-11.7332
▁kangaroo	-11.7332
▁mechanism	-11.7332
▁parallel	-11.7332
▁perspective	-11.7332
▁rwanda	-11.7332
▁unauthori	-11.7332
▁unlawful	-11.7332
▁eacute	-11.7332
▁evangelical	-11.7332
▁jacob	-11.7332
▁parachute	-11.7332
▁technician	-11.7332
▁spree	-11.7332
▁bipartisan	-11.7332
▁robust	-11.7332
▁solving	-11.7332
▁miracle	-11.7332
▁steroid	-11.7332
▁cameroon	-11.7332
▁antiquit	-11.7332
▁evasion	-11.7332
▁clerk	-11.7332
▁confederation	-11.7332
▁spiral	-11.7332
▁unofficial	-11.7332
▁forensic	-11.7332
▁thunder	-11.7332
▁monaster	-11.7332
▁helmet	-11.7332
▁storage	-11.7332
▁premise	-11.7332
▁proclaim	-11.7332
▁consulate	-11.7332
▁differ	-11.7333
▁furni	-11.7333
▁lugo	-11.7333
▁comparison	-11.7333
▁lifestyle	-11.7333
▁supermarket	-11.7333
▁constructive	-11.7333
▁cough	-11.7334
▁maneuver	-11.7334
▁rhino	-11.7334
▁spider	-11.7334
▁meteorologist	-11.7334
▁valuable	-11.7334
▁manual	-11.7334
▁chadian	-11.7334
▁trump	-11.7335
▁salary	-11.7335
▁plug	-11.7336
▁spiel	-11.7336
▁cream	-11.7337
▁cure	-11.7337
▁garner	-11.7337
▁uncomm	-11.7337
▁picket	-11.7338
▁unbeat	-11.7338
▁downplay	-11.7338
▁coastline	-11.7339
▁lobbyist	-11.7339
arov	-11.734
▁kasp	-11.734
▁therapist	-11.7341
▁favorites	-11.7343
▁soap	-11.7343
▁privilege	-11.7344
▁foil	-11.7345
▁leaf	-11.7345
▁mullah	-11.7345
kia	-11.7348
▁courthouse	-11.7348
▁bare	-11.7349
▁rim	-11.7352
▁jang	-11.7352
▁drift	-11.7354
▁swat	-11.7355
▁hyper	-11.7356
▁bubble	-11.7357
▁doom	-11.7357
▁policymaker	-11.7358
▁trek	-11.7361
▁gram	-11.7362
▁vick	-11.7362
▁leather	-11.7362
course	-11.7364
▁usher	-11.7368
▁carla	-11.7369
▁pancreati	-11.7369
▁lyon	-11.7372
▁gh	-11.7373
spoke	-11.7376
▁cheat	-11.7378
▁warhead	-11.7382
▁charr	-11.7385
▁beache	-11.7389
▁persi	-11.739
▁tail	-11.7391
▁buyout	-11.7392
▁dot	-11.7393
▁bru	-11.7396
tha	-11.7401
and	-11.7403
▁infringe	-11.7404
▁qala	-11.7407
▁colomb	-11.7413
▁gust	-11.7414
▁craz	-11.7415
▁mai	-11.7415
▁blues	-11.7416
lary	-11.7417
nder	-11.7421
▁micke	-11.7428
ai	-11.7431
uki	-11.7432
▁andrea	-11.7436
▁karim	-11.744
▁destabilize	-11.7441
▁bamb	-11.7441
bs	-11.7456
▁interfer	-11.7457
▁hostilit	-11.7458
▁soda	-11.7462
tel	-11.7467
rin	-11.7467
▁doo	-11.7469
▁costa	-11.7482
▁infections	-11.7484
▁brake	-11.7497
hem	-11.7508
▁regulate	-11.7513
▁helen	-11.7516
van	-11.7516
asha	-11.7523
▁acquir	-11.7528
▁emotions	-11.753
tina	-11.753
▁assassinate	-11.7531
▁conventional	-11.7534
▁unhapp	-11.7535
▁kissing	-11.7538
▁hood	-11.7538
ique	-11.7543
▁scholar	-11.7553
▁bayer	-11.7556
nese	-11.7556
▁towers	-11.7557
▁bent	-11.7558
eong	-11.7558
▁pill	-11.7558
▁ful	-11.7561
bright	-11.7562
▁ensur	-11.7563
▁mus	-11.7576
▁evolv	-11.758
▁ivanov	-11.7588
▁fu	-11.7589
▁solo	-11.759
afford	-11.7592
▁clippe	-11.7594
ock	-11.7601
att	-11.7606
▁slowing	-11.7613
▁rud	-11.7622
uma	-11.7622
▁breathe	-11.7623
schne	-11.7631
capri	-11.7634
ature	-11.7637
kov	-11.7645
▁shaf	-11.7649
▁cliff	-11.7655
▁roj	-11.7659
▁sore	-11.7662
ries	-11.7663
bon	-11.7666
▁compos	-11.7668
▁separat	-11.7672
▁qualifi	-11.7673
▁metro	-11.7683
ndra	-11.7685
▁excite	-11.7688
▁outbreaks	-11.7692
▁snatch	-11.7693
ire	-11.7695
▁educat	-11.7696
iers	-11.77
break	-11.7708
rative	-11.7711
▁winston	-11.7714
▁seeker	-11.7721
▁hoi	-11.7721
ories	-11.7733
▁hom	-11.7737
▁frighten	-11.7743
dominant	-11.7743
ab	-11.7746
▁revenues	-11.7746
dwin	-11.7751
▁amuse	-11.7759
▁assum	-11.7759
▁henri	-11.7761
▁improvements	-11.7776
play	-11.7778
▁glove	-11.778
sterda	-11.7781
▁mos	-11.7783
ology	-11.7786
▁exception	-11.7787
▁substanti	-11.7789
▁accelerat	-11.7789
▁munic	-11.779
▁philosoph	-11.7791
▁volcani	-11.7793
▁billy	-11.7801
▁hoon	-11.7802
▁kor	-11.7802
grade	-11.7804
gio	-11.7812
▁cu	-11.7816
jab	-11.7824
▁assure	-11.7825
▁chok	-11.7825
▁tipp	-11.7828
box	-11.7829
bali	-11.7833
uous	-11.7837
ife	-11.784
▁graves	-11.7842
▁dish	-11.7847
▁scam	-11.785
▁debat	-11.7852
cover	-11.7853
eful	-11.7854
▁dodg	-11.7856
▁christin	-11.786
▁nichols	-11.7872
▁orchestrat	-11.7872
▁loya	-11.7873
ox	-11.7877
ci	-11.7877
▁kumar	-11.788
▁doubl	-11.7886
▁veterinar	-11.7886
▁blank	-11.7887
▁compatriot	-11.7887
▁crawford	-11.7887
▁fatigue	-11.7887
▁immense	-11.7887
▁messenger	-11.7887
▁precinct	-11.7887
▁reprocess	-11.7887
▁ritual	-11.7887
▁subpoena	-11.7887
▁athletic	-11.7887
▁bahrain	-11.7887
▁machete	-11.7887
▁tikrit	-11.7887
▁mismanage	-11.7887
▁heaven	-11.7887
▁pandemic	-11.7887
▁adjourn	-11.7887
▁wholesale	-11.7887
▁ailment	-11.7887
▁staunch	-11.7887
▁translator	-11.7887
▁splash	-11.7887
▁fabio	-11.7887
▁defence	-11.7887
▁litvin	-11.7887
▁lehman	-11.7888
▁appall	-11.7888
▁norris	-11.7888
▁abdel	-11.7888
▁gauge	-11.7888
▁baggage	-11.7888
▁translation	-11.7888
▁feud	-11.7888
▁horror	-11.7888
▁jerem	-11.7888
▁reservation	-11.7889
▁jefferson	-11.7889
lroo	-11.7889
▁embark	-11.7889
▁landfall	-11.789
▁lavish	-11.789
▁crippl	-11.789
▁brent	-11.789
▁ancestor	-11.789
▁centimeter	-11.7891
▁cigar	-11.7891
▁francois	-11.7891
▁considerably	-11.7892
▁outrageous	-11.7892
▁newborn	-11.7893
▁distributor	-11.7893
▁sadden	-11.7893
▁miserable	-11.7893
▁mobil	-11.7894
esco	-11.7894
jeon	-11.7895
▁vary	-11.7895
▁weird	-11.7897
▁cruz	-11.7898
▁boot	-11.7898
▁nike	-11.7898
▁transformation	-11.7899
▁hardship	-11.7899
▁chimp	-11.79
▁seminar	-11.79
▁complication	-11.7901
▁alcoholic	-11.7901
▁nh	-11.7901
▁backward	-11.7901
▁marij	-11.7902
▁nichol	-11.7903
bane	-11.7903
▁tick	-11.7903
▁sicken	-11.7904
▁detector	-11.7908
▁hog	-11.7909
▁forgot	-11.791
thy	-11.7916
▁festiv	-11.7916
▁spectators	-11.7917
dorf	-11.7921
▁dod	-11.7922
▁jaw	-11.7924
▁chau	-11.7925
yushch	-11.7932
▁liga	-11.7932
▁temp	-11.7935
▁inning	-11.7936
▁capitalist	-11.7937
▁stricke	-11.794
▁lynn	-11.7941
▁stair	-11.7947
mont	-11.795
onda	-11.7952
▁trainer	-11.7953
▁hook	-11.7956
▁collid	-11.7958
▁roller	-11.7958
mates	-11.7968
▁prop	-11.7971
him	-11.7972
rine	-11.7974
▁bart	-11.7984
▁liqu	-11.7986
▁pric	-11.799
▁kean	-11.7991
claren	-11.7992
tting	-11.8005
▁graz	-11.801
▁smuggle	-11.8011
▁irritat	-11.8015
▁independents	-11.8017
▁odi	-11.802
▁prey	-11.802
▁sai	-11.8028
▁skipp	-11.8033
lese	-11.8035
▁penguins	-11.8035
olmer	-11.8047
▁detonate	-11.8055
ision	-11.8055
phis	-11.8057
ped	-11.8059
▁marin	-11.8072
eh	-11.8072
ge	-11.8072
▁snapp	-11.8074
▁qud	-11.8077
▁chae	-11.8086
▁floren	-11.8088
▁doll	-11.809
ks	-11.809
▁gamba	-11.8091
▁analyz	-11.8101
▁serial	-11.8103
▁cred	-11.8106
▁dear	-11.811
▁trauma	-11.8112
▁lashe	-11.8122
▁wise	-11.8128
jani	-11.8129
descent	-11.8129
▁donat	-11.815
▁disc	-11.8155
▁expose	-11.816
▁toppl	-11.8161
▁gill	-11.8163
▁sacred	-11.8164
▁unifi	-11.8169
mun	-11.8177
▁relocate	-11.818
▁mour	-11.8182
▁outage	-11.8185
▁consolidat	-11.8194
▁lucian	-11.8203
▁bot	-11.8206
▁pak	-11.8207
▁hut	-11.821
▁ivan	-11.8218
▁brac	-11.8218
▁armis	-11.8219
▁invade	-11.8223
▁clap	-11.8226
vich	-11.8227
▁internationally	-11.8238
tta	-11.8241
▁cancell	-11.8242
ise	-11.8258
▁interfere	-11.8258
tis	-11.826
ize	-11.8263
▁facilitate	-11.8267
adic	-11.8271
rous	-11.8272
print	-11.8277
▁lovers	-11.829
▁kb	-11.8293
▁cott	-11.8296
▁dose	-11.8298
▁bre	-11.8306
▁dissolve	-11.8307
▁barks	-11.8307
▁juli	-11.8322
jo	-11.8327
ement	-11.833
ac	-11.833
sud	-11.8331
▁distinct	-11.8343
▁renounce	-11.8344
▁edg	-11.8348
nc	-11.8354
inous	-11.8358
▁candle	-11.8361
eira	-11.8363
▁kn	-11.8365
atic	-11.8365
tech	-11.8374
▁intimidat	-11.8388
▁sensation	-11.839
▁sci	-11.8403
ima	-11.8408
▁concede	-11.8414
scale	-11.8417
fi	-11.8419
▁char	-11.8424
▁comput	-11.8425
▁chuck	-11.8426
acas	-11.8428
aron	-11.8429
trick	-11.843
ide	-11.8433
▁valen	-11.8436
ky	-11.8447
▁hari	-11.8453
▁bruis	-11.8455
▁nominate	-11.8456
ecd	-11.8458
▁bands	-11.846
mmy	-11.8463
▁clemen	-11.8463
uana	-11.8465
▁serv	-11.8466
▁jams	-11.8468
▁distort	-11.847
▁porn	-11.847
▁kh	-11.8474
▁archipelag	-11.8475
▁hamilton	-11.8475
▁integrity	-11.8475
▁jupiter	-11.8475
▁mbeki	-11.8475
▁reconsider	-11.8475
▁skyscraper	-11.8475
▁technological	-11.8475
▁dissatisf	-11.8475
▁dynast	-11.8475
▁quebec	-11.8475
▁firearm	-11.8475
▁pedestrian	-11.8475
▁dormitor	-11.8475
▁tariff	-11.8475
▁cemeter	-11.8475
▁delicate	-11.8475
▁improper	-11.8475
▁renown	-11.8475
▁humpback	-11.8476
▁dmitr	-11.8476
▁foreclosure	-11.8476
▁gloom	-11.8476
▁luft	-11.8476
▁filipino	-11.8476
▁definitive	-11.8476
▁clown	-11.8476
▁rhythm	-11.8476
▁ditch	-11.8476
▁noodle	-11.8476
▁safeguard	-11.8476
▁stint	-11.8476
▁slaying	-11.8476
▁theatre	-11.8476
▁globo	-11.8476
▁falter	-11.8476
▁armenian	-11.8476
▁adj	-11.8476
▁darling	-11.8476
▁commentator	-11.8476
▁disband	-11.8477
▁advertisement	-11.8477
orenst	-11.8477
▁hutchins	-11.8477
▁yoko	-11.8478
▁forthcoming	-11.8478
oi	-11.8478
▁peta	-11.8478
▁jacket	-11.8478
▁absorb	-11.8479
▁gangster	-11.8479
▁ste	-11.8479
▁floodwater	-11.8479
uver	-11.848
▁fritz	-11.848
▁feat	-11.848
▁dignitar	-11.848
▁persist	-11.8481
▁installment	-11.8482
▁alvar	-11.8482
niste	-11.8482
▁davyd	-11.8482
▁waiver	-11.8483
▁kaka	-11.8483
▁xp	-11.8483
▁canyon	-11.8483
▁canoe	-11.8484
▁checkup	-11.8485
▁reef	-11.8485
vinen	-11.8485
▁zahi	-11.8486
▁liberia	-11.8486
▁sheik	-11.8486
▁defiant	-11.8486
▁memo	-11.8486
▁gripp	-11.8487
▁carriage	-11.8488
▁magnetic	-11.849
acent	-11.849
▁sampl	-11.8491
▁scientolog	-11.8491
▁roland	-11.8493
▁sultan	-11.8495
▁scorch	-11.8496
▁homeowner	-11.8498
▁console	-11.8499
▁kook	-11.8499
rasmus	-11.85
zvo	-11.85
▁baton	-11.85
▁passionate	-11.8502
▁woke	-11.8502
▁cake	-11.8504
▁jem	-11.8504
▁boil	-11.8508
▁pra	-11.8509
luster	-11.8511
▁buffet	-11.8515
▁verifi	-11.8516
▁khala	-11.8518
bye	-11.8519
▁stranger	-11.8521
▁sau	-11.8522
▁vanish	-11.8525
▁spat	-11.8525
▁lawless	-11.8531
▁depressed	-11.855
ochi	-11.8551
▁samba	-11.8554
cent	-11.8555
nnie	-11.8561
▁blackout	-11.8567
▁perch	-11.8567
yuz	-11.8568
fax	-11.8568
ailing	-11.857
state	-11.858
ix	-11.8589
▁starv	-11.8592
▁inhal	-11.8597
ference	-11.86
vin	-11.8606
▁um	-11.8608
▁orient	-11.8615
ulu	-11.8615
▁merit	-11.8616
▁masa	-11.8625
▁snap	-11.864
ink	-11.8643
pe	-11.8649
▁precedent	-11.8652
▁males	-11.8659
▁rem	-11.8661
aria	-11.8664
riel	-11.8667
▁vaccines	-11.8668
▁butter	-11.8669
▁rust	-11.8671
▁recommends	-11.8674
▁jud	-11.8674
▁rage	-11.8678
ua	-11.8679
▁bury	-11.8683
▁aut	-11.8687
▁cre	-11.8707
napoli	-11.8715
wick	-11.8717
lit	-11.8718
▁receiver	-11.8719
▁bounc	-11.8723
pate	-11.8727
nnis	-11.8728
▁sala	-11.8732
▁blade	-11.8738
▁pine	-11.8744
▁donate	-11.875
▁rub	-11.8751
▁fuse	-11.8752
▁partisan	-11.8752
▁sue	-11.8753
▁provoke	-11.8754
▁credibl	-11.8756
▁manufacture	-11.8759
ition	-11.8761
▁suz	-11.8763
▁retract	-11.8764
ateur	-11.8764
▁funn	-11.8767
ram	-11.8769
▁pedr	-11.8773
och	-11.8775
▁mates	-11.8776
▁morocc	-11.8779
▁stabiliz	-11.8787
▁attribute	-11.8787
▁lighter	-11.8791
▁corre	-11.8793
oria	-11.8793
▁cris	-11.88
▁squeez	-11.8802
▁corpse	-11.8805
rwin	-11.8807
▁kyong	-11.8816
riza	-11.8816
▁serie	-11.8818
ax	-11.8823
▁complicate	-11.8824
▁undermin	-11.8842
▁bash	-11.8849
▁mari	-11.8857
▁elector	-11.886
▁entit	-11.8868
▁donation	-11.8876
▁iranians	-11.8883
zi	-11.889
nstein	-11.8901
▁lett	-11.8905
▁holm	-11.8912
▁maru	-11.8918
lan	-11.8919
▁arch	-11.8926
awa	-11.8929
▁berk	-11.8932
hang	-11.8939
ngdu	-11.8946
▁initiat	-11.8947
▁lunche	-11.8948
▁ruins	-11.8951
gar	-11.8957
▁accessor	-11.8961
▁genom	-11.8965
old	-11.8968
sang	-11.897
▁mario	-11.897
▁kel	-11.8979
▁ruth	-11.8985
formed	-11.8988
odor	-11.8992
▁levi	-11.8994
▁blackmail	-11.9004
▁dip	-11.9009
▁default	-11.9021
▁persuad	-11.9023
▁emm	-11.9026
▁gigg	-11.9026
▁intentional	-11.9027
▁arl	-11.9027
beat	-11.9035
▁beard	-11.9035
▁compil	-11.9036
▁boycotted	-11.9038
continent	-11.9039
constitutional	-11.9039
deal	-11.9042
▁correction	-11.9044
▁admitt	-11.9044
▁cana	-11.9046
▁skip	-11.9051
▁desir	-11.9058
nom	-11.9061
stair	-11.9068
▁fundrais	-11.908
due	-11.9081
uart	-11.9082
▁shower	-11.9087
▁capita	-11.9087
eval	-11.9093
anana	-11.9094
▁mint	-11.9096
▁conspir	-11.9097
▁veer	-11.91
▁archbishop	-11.91
▁azerbaijan	-11.91
▁centrifuge	-11.91
▁defensive	-11.91
▁diarrhea	-11.91
▁eagle	-11.91
▁explicit	-11.91
▁fragment	-11.91
▁mosquito	-11.91
▁nutrient	-11.91
▁sanctuar	-11.91
▁temblor	-11.91
▁wizard	-11.91
▁corridor	-11.91
▁exaggerat	-11.91
▁surname	-11.91
▁unearth	-11.91
▁mogul	-11.91
▁paramilitar	-11.91
▁sculpture	-11.91
▁vendor	-11.91
▁abnormal	-11.91
▁overheat	-11.91
▁resurgen	-11.91
▁standstill	-11.9101
▁inherit	-11.9101
▁submarine	-11.9101
▁justify	-11.9101
▁dynamic	-11.9101
▁provocation	-11.9101
▁reunion	-11.9101
▁textile	-11.9101
▁chemist	-11.9101
▁roadblock	-11.9101
▁rooftop	-11.9101
▁skeleton	-11.9101
▁excellent	-11.9101
▁overshadow	-11.9101
▁siberia	-11.9101
▁elegan	-11.9101
▁annul	-11.9101
▁rebuke	-11.9101
▁heavyweight	-11.9101
▁abram	-11.9101
▁stump	-11.9101
▁meltdown	-11.9101
▁felon	-11.9101
▁facto	-11.9101
▁halloween	-11.9101
▁hanaro	-11.9102
atero	-11.9102
▁description	-11.9102
▁enron	-11.9102
▁feather	-11.9102
▁robinson	-11.9102
▁orientation	-11.9102
▁estrange	-11.9103
▁leverage	-11.9103
▁courageous	-11.9103
▁overdose	-11.9103
▁rejoin	-11.9103
▁gerald	-11.9103
▁disturbance	-11.9103
▁notify	-11.9104
▁conner	-11.9104
▁interactive	-11.9104
▁blacksburg	-11.9105
▁deterrent	-11.9105
▁shortfall	-11.9105
▁cur	-11.9105
▁kirk	-11.9107
▁coloss	-11.9108
▁breakdown	-11.9109
▁foul	-11.911
▁moroccan	-11.9111
▁dismissal	-11.9111
ew	-11.9111
▁cle	-11.9112
▁nile	-11.9113
▁zambia	-11.9114
▁ryo	-11.9115
▁reassure	-11.9116
▁crest	-11.9116
▁portrayal	-11.9117
▁reap	-11.9119
▁fledg	-11.912
▁yemeni	-11.912
nam	-11.9121
▁anymore	-11.9123
▁budd	-11.9124
▁algerian	-11.9124
▁slapp	-11.9125
▁collide	-11.9126
▁fisheries	-11.9129
▁pleasure	-11.913
▁bris	-11.914
▁horribl	-11.9142
▁assembl	-11.9143
▁plantation	-11.9143
▁mineral	-11.9148
▁bund	-11.9149
▁max	-11.9149
▁qara	-11.9151
▁patch	-11.9151
▁valentin	-11.9152
▁wishes	-11.9156
▁ghan	-11.916
idf	-11.9161
▁vera	-11.9162
▁rever	-11.9165
▁showcase	-11.9166
▁moss	-11.9167
▁motivation	-11.9171
shmi	-11.9172
▁maul	-11.9173
▁zay	-11.9183
▁valeri	-11.9184
▁walkout	-11.9186
▁reel	-11.9187
▁gue	-11.9193
▁yass	-11.9195
rimp	-11.9196
▁tackl	-11.9203
▁burk	-11.9205
uc	-11.9207
▁particles	-11.9208
▁klo	-11.9209
diaz	-11.9213
▁forbidd	-11.9223
▁deb	-11.9225
▁exceptional	-11.9236
vian	-11.9237
▁nano	-11.9243
▁sabotage	-11.9249
▁inflammat	-11.925
▁naf	-11.925
▁ros	-11.9251
▁stoke	-11.9258
▁hilar	-11.9273
errill	-11.9275
▁emergenc	-11.9283
▁leaning	-11.9285
coni	-11.9294
we	-11.9299
▁barb	-11.9306
dson	-11.9306
▁zin	-11.9308
uso	-11.9321
▁listing	-11.9324
▁cheon	-11.9338
▁dome	-11.9346
▁congratulate	-11.9348
▁sword	-11.9353
▁waterway	-11.936
cca	-11.9366
▁invad	-11.9381
nver	-11.9381
▁tortur	-11.9385
▁bernie	-11.9395
ilo	-11.9397
▁squeeze	-11.9408
▁fog	-11.9409
▁maure	-11.941
action	-11.9418
▁tian	-11.9418
ylan	-11.9419
anda	-11.9419
▁pod	-11.9429
ken	-11.9432
▁clan	-11.9434
▁relation	-11.9442
▁robbe	-11.9444
eparation	-11.9445
▁zo	-11.945
pi	-11.9451
▁lap	-11.9452
▁outlet	-11.9457
unt	-11.9465
hk	-11.9471
▁pap	-11.9471
rek	-11.9475
▁tier	-11.9476
▁rand	-11.9481
chen	-11.9495
▁pale	-11.9495
▁mandel	-11.9497
ik	-11.9503
▁reinforce	-11.9513
▁recogniz	-11.9515
▁hano	-11.9516
ovic	-11.9518
italia	-11.9532
take	-11.9536
▁tan	-11.9539
▁tur	-11.9541
▁naga	-11.9541
▁para	-11.9544
teau	-11.9544
▁crumbl	-11.9545
▁dependenc	-11.9546
▁repli	-11.9546
aiss	-11.9568
ali	-11.9569
▁zi	-11.9572
▁arise	-11.9572
▁nett	-11.9573
▁deer	-11.9578
▁reliev	-11.958
mble	-11.9583
zawa	-11.9584
▁eva	-11.9585
law	-11.9591
kawa	-11.9592
▁reliabl	-11.9598
earby	-11.9614
▁todd	-11.9616
ica	-11.9616
▁wilder	-11.9618
▁motivate	-11.962
▁stabb	-11.9628
▁za	-11.9629
pping	-11.963
▁pas	-11.9634
related	-11.964
bes	-11.9647
ite	-11.9651
▁balk	-11.9653
ngue	-11.9654
▁crist	-11.9656
▁litter	-11.9656
alkati	-11.9662
are	-11.9676
abel	-11.9678
kind	-11.9681
▁exo	-11.9688
▁wie	-11.9691
▁stre	-11.9693
▁bri	-11.9695
secretary	-11.9706
▁killers	-11.9712
▁neuro	-11.9717
▁cy	-11.9719
▁hal	-11.9723
▁territori	-11.9724
▁hawkin	-11.9731
reze	-11.9733
▁polit	-11.9741
▁papa	-11.9745
▁bless	-11.9748
▁bulgaria	-11.9749
▁drinker	-11.9753
rada	-11.976
▁heath	-11.9762
▁spawn	-11.9763
iquit	-11.9764
▁merc	-11.9764
▁orphan	-11.9766
lihood	-11.9766
hansa	-11.9767
▁aggravat	-11.9767
▁charisma	-11.9767
▁accumulate	-11.9767
▁affidavit	-11.9767
▁barclay	-11.9767
▁charlotte	-11.9767
▁malfunction	-11.9767
▁nephew	-11.9767
▁paraguay	-11.9767
▁precondition	-11.9767
▁sanchez	-11.9767
▁unleash	-11.9767
▁unnecessar	-11.9767
▁bystander	-11.9767
▁reshuffl	-11.9767
▁vomit	-11.9767
▁pneum	-11.9767
▁gorge	-11.9767
▁sherpa	-11.9767
▁thumb	-11.9767
▁vinci	-11.9767
▁johansson	-11.9767
▁minimiz	-11.9767
▁warlord	-11.9767
▁minimal	-11.9767
▁enlist	-11.9767
▁grocer	-11.9767
▁memoir	-11.9768
▁lawrence	-11.9768
▁redeployment	-11.9768
▁coffin	-11.9768
▁email	-11.9768
▁blacklist	-11.9768
▁clamp	-11.9768
▁orphanage	-11.9769
▁garrison	-11.9769
▁spacewalk	-11.9769
▁stroll	-11.9769
▁roam	-11.9769
▁spotlight	-11.9769
▁adolescent	-11.977
▁bennett	-11.977
▁swamp	-11.9771
▁verbal	-11.9771
▁derby	-11.9771
▁pilgrimage	-11.9772
▁peel	-11.9773
▁scout	-11.9773
▁regiment	-11.9773
▁cramp	-11.9773
▁scal	-11.9773
aah	-11.9773
▁inevitabl	-11.9773
▁martial	-11.9774
▁migration	-11.9774
▁lenient	-11.9775
▁battlefield	-11.9776
▁luther	-11.9776
▁chopper	-11.9776
▁benoi	-11.9777
dysse	-11.9778
▁pur	-11.9778
▁zeb	-11.9778
wi	-11.9779
▁hideout	-11.9779
▁nutrition	-11.978
▁hinder	-11.978
▁wagon	-11.9781
▁barney	-11.9782
▁matchup	-11.9782
▁farmland	-11.9782
▁rental	-11.9788
▁classmate	-11.9788
▁tenth	-11.9793
▁jogg	-11.9796
▁olive	-11.9796
▁brewer	-11.9797
▁swam	-11.9798
▁hugh	-11.9798
▁amber	-11.9799
▁outlin	-11.9802
▁masse	-11.9805
▁feli	-11.9806
▁meyer	-11.9806
▁fried	-11.9807
▁swarm	-11.9808
eaten	-11.9809
▁teach	-11.9809
▁exercis	-11.981
▁thorn	-11.9811
▁pot	-11.9812
▁reiterate	-11.9814
▁ameli	-11.9814
▁devote	-11.982
▁cox	-11.9821
▁reminder	-11.9822
pisco	-11.9828
yev	-11.9828
▁grove	-11.9829
▁rout	-11.9833
▁extradit	-11.9833
▁impressed	-11.9834
▁stray	-11.9834
iko	-11.9835
▁interviewer	-11.9836
▁eco	-11.9836
▁doming	-11.9837
▁compile	-11.9838
▁rupe	-11.9839
▁soak	-11.984
▁wrestl	-11.9848
▁cove	-11.9849
▁raft	-11.985
▁gra	-11.9851
▁provisional	-11.9851
▁reminiscen	-11.9851
irming	-11.9852
ague	-11.9852
▁freezer	-11.9853
▁reproducti	-11.9855
▁interven	-11.986
▁gere	-11.9861
▁industrializ	-11.9862
▁nabi	-11.9863
▁mag	-11.9864
rgency	-11.9867
▁pesh	-11.9872
maker	-11.9872
▁salam	-11.9879
aire	-11.9882
▁vip	-11.9884
▁nap	-11.9887
▁stirring	-11.9889
▁refiner	-11.9889
crates	-11.9897
▁builder	-11.9898
▁stimulate	-11.9901
▁tide	-11.9903
▁defuse	-11.9908
▁mobiliz	-11.991
▁bureaucrat	-11.9911
▁ger	-11.9911
▁raz	-11.9913
▁esta	-11.9916
▁mason	-11.9922
oval	-11.9923
▁quota	-11.9923
▁wei	-11.9928
▁rec	-11.9931
▁accommodate	-11.9935
▁ip	-11.994
▁hijacker	-11.994
ji	-11.9942
▁dash	-11.9957
ery	-11.996
iffe	-11.9961
diac	-11.9962
zemi	-11.9971
▁xi	-11.9972
▁resistan	-11.9972
agen	-11.9992
▁adel	-11.9996
▁rode	-12.0006
▁fey	-12.0011
▁machi	-12.0012
ires	-12.0013
▁hen	-12.0015
inal	-12.0016
thur	-12.0017
▁destructi	-12.002
▁reviews	-12.0022
▁gum	-12.0028
▁hy	-12.0032
nis	-12.0032
▁daw	-12.0036
▁xian	-12.0039
▁pul	-12.004
eigh	-12.0048
bert	-12.0049
battle	-12.0063
sman	-12.0065
▁disciplin	-12.0066
eba	-12.0078
uz	-12.0079
▁clause	-12.008
▁lago	-12.0086
▁kati	-12.0087
sule	-12.0087
▁casp	-12.0089
▁fascinat	-12.0098
▁suite	-12.01
gue	-12.0104
▁zhu	-12.0106
nction	-12.0116
▁spect	-12.012
hry	-12.0122
acks	-12.0126
▁closet	-12.0127
▁kan	-12.013
ti	-12.0132
▁enabl	-12.0135
▁marco	-12.0135
▁hend	-12.0141
▁concentrat	-12.0142
aved	-12.0142
▁prosecut	-12.0145
▁viag	-12.0145
▁credi	-12.0148
sif	-12.0148
▁resource	-12.0153
▁seo	-12.0153
▁timo	-12.0154
▁advisors	-12.0156
▁crossings	-12.0175
tun	-12.0182
▁quantit	-12.0182
op	-12.0191
chon	-12.0197
ft	-12.0198
▁sanit	-12.0198
▁anticipate	-12.0202
▁periodic	-12.0204
▁kwan	-12.0207
▁mediate	-12.0218
lain	-12.022
lula	-12.022
yu	-12.022
▁finn	-12.0222
▁mm	-12.0225
▁casual	-12.0229
▁dav	-12.0239
▁yama	-12.0242
▁wil	-12.0242
enna	-12.0252
▁fam	-12.0254
▁lis	-12.0255
▁belly	-12.0267
ark	-12.0268
reva	-12.027
▁sag	-12.0271
▁morale	-12.0271
▁calculate	-12.0281
▁roo	-12.0282
hita	-12.0287
▁insider	-12.0303
onso	-12.0316
▁appreciat	-12.032
▁jav	-12.0321
▁supervisi	-12.0323
voi	-12.0324
▁duja	-12.0326
▁cal	-12.0331
▁jess	-12.0331
gate	-12.0332
▁trapp	-12.0333
▁translate	-12.0361
▁compensate	-12.0361
▁embezzl	-12.0365
▁clutch	-12.0366
▁vil	-12.0368
▁vacan	-12.0372
▁integrate	-12.0381
▁firefight	-12.0383
immer	-12.0394
▁proportion	-12.0397
▁von	-12.0397
fan	-12.04
drop	-12.0418
tana	-12.0418
frame	-12.042
model	-12.042
together	-12.042
morning	-12.0421
morgan	-12.0423
▁banker	-12.0424
▁blend	-12.0429
gomer	-12.0431
▁domini	-12.0433
▁continuous	-12.0433
▁prest	-12.0438
▁deserves	-12.0443
stability	-12.0447
kins	-12.0447
▁shau	-12.0447
▁extinguish	-12.0448
▁tele	-12.0453
ologist	-12.0453
▁heel	-12.0454
ffen	-12.0456
roads	-12.0464
▁reluctan	-12.0466
heim	-12.0466
▁ib	-12.0468
▁envelope	-12.0468
▁laund	-12.0474
▁buff	-12.0475
▁evacu	-12.0478
▁corrupt	-12.0478
▁abdulla	-12.0479
▁pediatric	-12.048
fo	-12.0481
has	-12.0481
▁mathematic	-12.0481
▁acclaim	-12.0481
▁clarify	-12.0481
▁convenience	-12.0481
▁curtain	-12.0481
▁evident	-12.0481
▁fugitive	-12.0481
▁gondola	-12.0481
▁jaguar	-12.0481
▁jurisdiction	-12.0481
▁lithuania	-12.0481
▁motorbike	-12.0481
▁ossuar	-12.0481
▁rainforest	-12.0481
▁rendition	-12.0481
▁ritchie	-12.0481
▁salvador	-12.0481
▁specify	-12.0481
▁fortunate	-12.0481
▁relegat	-12.0481
▁telegraph	-12.0481
kin	-12.0481
▁dupre	-12.0482
▁erotic	-12.0482
▁superstar	-12.0482
▁muhammad	-12.0482
▁gilbert	-12.0482
▁blanchett	-12.0482
▁freud	-12.0482
▁hajj	-12.0482
▁envision	-12.0482
▁emmanuel	-12.0482
▁cyberspace	-12.0482
▁throng	-12.0482
▁expulsion	-12.0482
▁ceasefire	-12.0482
▁eduard	-12.0482
▁hoop	-12.0482
▁crab	-12.0483
▁thieves	-12.0483
▁annoy	-12.0483
▁tread	-12.0483
▁physicist	-12.0483
▁imagination	-12.0483
▁exert	-12.0483
▁volley	-12.0483
misunderstanding	-12.0483
▁motel	-12.0483
▁frantic	-12.0483
▁perpetrator	-12.0483
▁footprint	-12.0483
▁elbow	-12.0483
▁imam	-12.0484
▁nickel	-12.0484
▁collaborator	-12.0484
▁phrase	-12.0484
▁zebra	-12.0484
▁shunn	-12.0485
▁ideological	-12.0485
▁invention	-12.0485
▁fool	-12.0485
▁racist	-12.0485
▁systematic	-12.0486
▁jihadist	-12.0486
▁thigh	-12.0488
▁adaptation	-12.0488
▁aisle	-12.0488
▁fundamentalist	-12.0488
▁pupp	-12.0488
▁swimmer	-12.0488
▁normalization	-12.0489
▁peek	-12.0489
▁interpretation	-12.049
▁nightmare	-12.049
▁multimillion	-12.0491
▁billboard	-12.0491
▁deaf	-12.0491
▁emitt	-12.0492
▁baptist	-12.0494
▁authoritarian	-12.0494
▁refineries	-12.0495
▁foment	-12.0496
guet	-12.0496
▁sulli	-12.0497
▁tran	-12.0497
▁steelers	-12.0498
▁trench	-12.05
▁shootout	-12.0501
ritis	-12.0501
▁wrestler	-12.0501
▁spaceship	-12.0505
asso	-12.0505
▁jamaican	-12.0507
▁hogan	-12.051
▁colli	-12.0512
una	-12.0512
▁ridge	-12.0513
▁combatant	-12.0514
▁oz	-12.0514
▁everton	-12.0514
▁molest	-12.0516
▁crane	-12.0517
▁irra	-12.0517
▁versa	-12.0519
▁incit	-12.052
▁conductor	-12.0521
▁adventurer	-12.0522
▁libi	-12.0522
▁skidd	-12.0526
▁governors	-12.0532
▁succession	-12.0535
▁decent	-12.0537
uez	-12.0541
▁seinfeld	-12.0543
▁defy	-12.0545
▁darre	-12.0546
▁indirect	-12.0548
▁mock	-12.0549
atus	-12.0549
text	-12.0552
▁dipped	-12.0554
▁philipp	-12.0562
▁fosse	-12.0565
▁enthusiastic	-12.0568
errez	-12.0573
▁wong	-12.0575
▁lexi	-12.0577
▁lah	-12.0578
▁charl	-12.0584
emptive	-12.0587
ake	-12.0589
ore	-12.0591
▁finalists	-12.0603
▁paradi	-12.0611
▁humane	-12.0612
▁creditor	-12.0616
▁geo	-12.0616
thic	-12.0617
▁clone	-12.0618
▁hik	-12.0619
▁alme	-12.0621
▁packs	-12.0622
▁pir	-12.0622
lis	-12.0627
aewoo	-12.0627
▁stil	-12.0633
▁slice	-12.0634
▁fend	-12.0635
▁offset	-12.0639
▁stam	-12.0639
xis	-12.0645
safe	-12.0645
▁minded	-12.0646
▁secretari	-12.0647
▁revers	-12.0649
▁shre	-12.0652
▁bro	-12.0654
▁decorat	-12.066
▁tile	-12.0669
▁dancer	-12.067
toff	-12.0674
nants	-12.0679
▁exhaust	-12.0698
▁bucking	-12.0699
▁stevens	-12.0704
▁enforc	-12.0704
▁regrett	-12.0712
ico	-12.0714
▁slashing	-12.0719
fraction	-12.072
▁audiences	-12.072
▁gunfi	-12.0723
▁scho	-12.0723
ussi	-12.0726
▁yun	-12.0726
▁plagu	-12.0728
▁sund	-12.0729
▁uphold	-12.0732
▁lan	-12.0734
▁dori	-12.074
awar	-12.0741
▁sup	-12.0741
▁claudi	-12.0748
▁lal	-12.075
ue	-12.0751
▁communicat	-12.0751
istic	-12.0751
diane	-12.076
▁mul	-12.0761
ears	-12.0762
▁paw	-12.077
anxi	-12.0778
than	-12.0785
▁qui	-12.0789
▁bir	-12.0795
▁integrati	-12.0796
▁deplor	-12.0803
ehan	-12.0808
▁retaliat	-12.0809
▁pett	-12.0818
pl	-12.0821
pot	-12.0825
▁underline	-12.0826
▁kas	-12.0831
▁estra	-12.0845
abo	-12.0847
▁armi	-12.0853
▁robin	-12.086
▁dive	-12.0862
bola	-12.0864
▁gard	-12.0868
▁pizz	-12.0878
▁hatch	-12.0883
▁interrogat	-12.0884
ersen	-12.0893
▁tumble	-12.0893
▁webb	-12.0898
▁gamble	-12.0903
▁hungar	-12.0905
▁kha	-12.0908
tte	-12.091
illa	-12.0913
▁participati	-12.0921
▁vent	-12.0922
gs	-12.0923
▁fle	-12.0926
▁jitter	-12.0939
zone	-12.0942
▁burt	-12.0943
illy	-12.0949
▁shout	-12.0955
▁mcc	-12.0964
▁forge	-12.0964
▁stat	-12.0965
▁ic	-12.0971
▁nawa	-12.0973
ites	-12.0989
▁transmitt	-12.099
▁malign	-12.0993
horn	-12.0994
glasses	-12.0996
▁coaster	-12.1
▁rocker	-12.1016
▁lang	-12.1025
▁gag	-12.1028
▁alg	-12.104
▁chatt	-12.1045
egas	-12.1057
tice	-12.1058
▁patt	-12.106
▁cro	-12.1061
▁log	-12.1065
▁origins	-12.1066
▁jab	-12.1074
▁harle	-12.1075
ahn	-12.1078
▁prescrib	-12.1084
▁censor	-12.1086
▁dora	-12.111
▁hans	-12.1122
ctic	-12.1124
▁render	-12.1126
erber	-12.1137
▁stirr	-12.1143
era	-12.115
decent	-12.1156
▁norm	-12.1157
▁elde	-12.1157
liga	-12.1158
▁boni	-12.1168
▁deter	-12.1177
niya	-12.1178
▁seeds	-12.1183
▁galax	-12.1185
around	-12.119
roll	-12.119
look	-12.1191
▁rug	-12.1194
four	-12.1195
▁logg	-12.1202
hurt	-12.1209
▁bibl	-12.121
▁boundar	-12.1212
▁freight	-12.1213
▁messag	-12.1214
ph	-12.1216
▁ump	-12.1217
▁readi	-12.122
uster	-12.1232
reau	-12.1234
▁cull	-12.1237
iz	-12.1237
life	-12.124
▁emphasi	-12.1243
▁tribun	-12.1246
▁happi	-12.1249
▁gotte	-12.125
▁aggregate	-12.1251
▁bodlander	-12.1251
▁chimpanzee	-12.1251
▁eyewitness	-12.1251
▁insufficient	-12.1251
▁neglect	-12.1251
▁overflow	-12.1251
▁plaintiff	-12.1251
▁resurrect	-12.1251
▁scooter	-12.1251
▁scowcroft	-12.1251
▁tarmac	-12.1251
▁ultimatum	-12.1251
▁upheaval	-12.1251
▁adolf	-12.1251
▁frequenc	-12.1251
▁administer	-12.1251
▁delinquent	-12.1251
▁sporadic	-12.1251
▁voyage	-12.1251
▁comrade	-12.1251
▁namdaemu	-12.1251
▁warrior	-12.1251
▁mauritania	-12.1251
▁sindh	-12.1251
▁ecosystem	-12.1251
▁jalal	-12.1251
▁embroi	-12.1251
▁leopard	-12.1251
▁identical	-12.1251
▁polanski	-12.1251
▁knox	-12.1251
▁smurf	-12.1251
▁refund	-12.1251
▁sermon	-12.1251
▁barroso	-12.1251
▁quadruple	-12.1251
▁aggravate	-12.1251
▁delaware	-12.1251
▁bimbo	-12.1251
▁resemblance	-12.1251
▁anglican	-12.1251
▁vague	-12.1251
▁bulb	-12.1251
▁meghani	-12.1251
▁rope	-12.1251
▁cedar	-12.1251
▁faint	-12.1252
▁complicit	-12.1252
▁analog	-12.1252
▁mixture	-12.1252
▁celtic	-12.1252
▁bachelor	-12.1252
▁discard	-12.1253
▁snowfall	-12.1253
▁salute	-12.1253
▁workshop	-12.1253
▁enrollment	-12.1253
eille	-12.1254
▁bulldozer	-12.1254
▁insight	-12.1254
▁ginger	-12.1254
▁characteristic	-12.1254
▁flatten	-12.1254
▁rabbit	-12.1254
▁primate	-12.1254
▁compell	-12.1255
▁elvi	-12.1255
▁marble	-12.1255
▁abdomen	-12.1255
▁psychiatrist	-12.1255
▁quinn	-12.1255
▁legitima	-12.1255
▁unfold	-12.1256
ussain	-12.1256
▁reptile	-12.1256
▁gown	-12.1256
▁calculation	-12.1256
▁purse	-12.1257
▁canister	-12.1257
▁feminin	-12.1258
▁viru	-12.1258
ukov	-12.1258
▁bite	-12.1259
▁intimate	-12.1259
▁kennel	-12.1261
▁heroic	-12.1261
▁roche	-12.1261
▁krug	-12.1262
▁downgrade	-12.1262
▁void	-12.1262
▁shotgun	-12.1263
▁thaw	-12.1263
▁weightless	-12.1264
▁burri	-12.1264
▁feast	-12.1264
▁disneyland	-12.1265
▁deliberation	-12.1265
▁qin	-12.1265
kanit	-12.1265
▁braun	-12.1265
tious	-12.1265
▁prohibition	-12.1266
▁assignment	-12.1266
▁frenz	-12.1266
▁chef	-12.1268
▁collector	-12.1268
▁strapp	-12.127
▁cypr	-12.127
▁calder	-12.1271
▁bun	-12.1271
▁sniff	-12.1272
▁rip	-12.1273
▁compris	-12.1277
▁motorist	-12.1278
heddin	-12.128
▁petrol	-12.1281
▁hillside	-12.1281
▁montrea	-12.1281
▁undern	-12.1286
▁coward	-12.1287
▁flies	-12.1288
▁modifie	-12.1288
▁startup	-12.1289
▁entertainer	-12.129
▁degrad	-12.1293
▁affection	-12.1293
▁realistic	-12.1295
worth	-12.1297
▁balco	-12.1297
▁reconn	-12.13
▁evaluate	-12.1302
▁myth	-12.1304
▁hallway	-12.1308
▁stark	-12.1311
▁meal	-12.1311
▁lat	-12.1312
▁overture	-12.1312
▁stack	-12.1312
▁dogged	-12.1314
▁prob	-12.1314
▁trev	-12.1314
lept	-12.1315
▁viewing	-12.1316
▁lament	-12.1316
▁cultivat	-12.1322
▁camill	-12.1322
▁shall	-12.1328
rov	-12.1329
▁lari	-12.1335
ipped	-12.1335
res	-12.1335
▁lynd	-12.1336
▁fax	-12.1342
caul	-12.1342
▁proportional	-12.1343
▁abn	-12.1345
ushi	-12.1346
▁berl	-12.1347
▁schult	-12.1349
pb	-12.135
chemical	-12.1352
vo	-12.1353
▁relian	-12.1362
▁cite	-12.1364
▁laborer	-12.1368
▁downer	-12.1373
▁programme	-12.1374
▁ounces	-12.1376
▁mona	-12.1376
bee	-12.1389
▁associates	-12.1391
enberg	-12.1391
all	-12.1392
▁mali	-12.1396
▁munition	-12.1398
▁disapprov	-12.1402
rei	-12.1404
▁collud	-12.1405
▁dill	-12.1408
▁pier	-12.1408
▁cam	-12.1411
▁influen	-12.1423
▁gam	-12.1435
ama	-12.1437
▁commando	-12.1441
▁ann	-12.145
▁dresse	-12.1455
▁seasons	-12.1458
pt	-12.1463
▁shaky	-12.1472
▁sake	-12.1476
▁hindus	-12.1478
▁popul	-12.1479
trust	-12.148
ines	-12.1482
sibility	-12.1483
▁publicize	-12.1485
wp	-12.1488
▁mili	-12.1494
▁normaliz	-12.1497
▁watt	-12.1504
▁toshi	-12.1506
enza	-12.151
▁lime	-12.1513
▁oman	-12.1513
▁flo	-12.1515
▁allocat	-12.1515
▁freeway	-12.1522
▁gase	-12.1523
▁confus	-12.1526
▁cling	-12.1532
nian	-12.1533
wn	-12.1535
▁pools	-12.1543
▁leno	-12.1546
▁mono	-12.1554
ncy	-12.1563
emory	-12.1567
▁qua	-12.1574
▁seon	-12.1583
elhof	-12.1584
▁ripple	-12.1591
▁cater	-12.1593
▁fetch	-12.1598
oppo	-12.1604
▁usage	-12.1607
rgen	-12.1609
▁prosecute	-12.1616
oc	-12.1618
▁tightening	-12.1627
▁astonish	-12.1628
ouf	-12.1629
▁reut	-12.1635
nsu	-12.1635
cb	-12.1647
grow	-12.1652
workers	-12.1655
▁sights	-12.1665
matic	-12.1666
ame	-12.1667
dell	-12.1669
▁thriv	-12.167
▁taj	-12.1671
tikh	-12.168
▁biograph	-12.1687
ski	-12.1687
kee	-12.1688
eb	-12.1691
dero	-12.1698
▁fuji	-12.1698
▁finaliz	-12.1698
▁nim	-12.1703
▁notable	-12.1708
▁beak	-12.1718
▁discipline	-12.1723
clara	-12.1725
▁nts	-12.1733
▁vai	-12.1736
▁disclos	-12.1738
▁highland	-12.1747
▁opener	-12.1751
▁arrangement	-12.1758
▁dh	-12.176
saw	-12.1762
▁lips	-12.1764
▁rafi	-12.177
▁schum	-12.1776
bury	-12.1797
bur	-12.1798
eur	-12.1805
▁shells	-12.1808
▁gabriel	-12.181
▁nova	-12.1811
▁pol	-12.1812
▁tangib	-12.1819
▁bong	-12.1825
mother	-12.1825
▁leve	-12.1827
velt	-12.1827
achi	-12.1829
▁dai	-12.1833
zak	-12.1834
▁compuls	-12.1834
▁hur	-12.184
hwa	-12.184
unting	-12.1842
▁cp	-12.1842
onian	-12.1847
▁nasir	-12.1855
dida	-12.1857
saki	-12.1864
▁intentions	-12.1869
▁maid	-12.1872
▁tyrann	-12.1876
rap	-12.1879
▁dim	-12.1881
▁shatter	-12.1895
acio	-12.1905
▁albums	-12.1909
trophy	-12.1915
▁dian	-12.1916
umn	-12.1918
▁beg	-12.1919
▁flavor	-12.1928
yeh	-12.1932
▁cate	-12.1933
▁preach	-12.1935
oke	-12.1937
dian	-12.1938
ru	-12.1942
▁admire	-12.1945
harmonic	-12.1945
▁riches	-12.1953
▁jen	-12.1954
▁silic	-12.1954
▁yeon	-12.1958
cker	-12.1958
▁litera	-12.1986
iji	-12.1987
▁stockhol	-12.1995
▁josh	-12.2001
zio	-12.2006
▁wow	-12.2013
schle	-12.202
log	-12.202
nutrition	-12.2021
conduct	-12.2023
sleep	-12.2023
▁revel	-12.2024
ria	-12.2025
foot	-12.2026
▁integrat	-12.2028
▁fab	-12.2029
taka	-12.2031
chai	-12.2032
avoid	-12.2036
▁mot	-12.2038
▁advoca	-12.2039
▁hotte	-12.2041
▁seale	-12.2047
eads	-12.205
▁hyo	-12.2051
▁roth	-12.2056
▁uncla	-12.2059
rose	-12.2059
▁saga	-12.2061
marked	-12.2061
▁lava	-12.2062
▁albania	-12.2066
ork	-12.2067
▁wend	-12.2067
▁mechanic	-12.207
▁bike	-12.2071
▁strategi	-12.2076
▁clint	-12.2077
▁wacho	-12.2077
▁schn	-12.2077
▁flip	-12.2077
mpact	-12.2081
▁worship	-12.2084
▁palestin	-12.2084
▁abolition	-12.2084
▁accomplice	-12.2084
▁alejandr	-12.2084
▁avalanche	-12.2084
▁awkward	-12.2084
▁brawl	-12.2084
▁cantaloupe	-12.2084
▁carnival	-12.2084
▁cockpit	-12.2084
▁constituenc	-12.2084
▁discontent	-12.2084
▁disqualifi	-12.2084
▁enclave	-12.2084
▁futurist	-12.2084
▁grylls	-12.2084
▁juventu	-12.2084
▁leisure	-12.2084
▁madagascar	-12.2084
▁memorandum	-12.2084
▁pavilion	-12.2084
▁rockefeller	-12.2084
▁trinidad	-12.2084
▁caesar	-12.2084
▁namibia	-12.2084
▁outnumber	-12.2084
▁panmunj	-12.2084
▁skyrocket	-12.2084
▁unhcr	-12.2084
▁aurora	-12.2084
▁backpack	-12.2084
▁connor	-12.2084
▁specimen	-12.2084
▁thymus	-12.2084
▁cheetah	-12.2084
eutic	-12.2084
▁blackberr	-12.2084
▁morici	-12.2084
▁mujah	-12.2084
▁superjumbo	-12.2084
▁glory	-12.2084
▁paleontologist	-12.2084
▁flank	-12.2084
▁desktop	-12.2084
▁suitcase	-12.2084
▁prevail	-12.2084
▁creek	-12.2084
▁preview	-12.2084
▁unify	-12.2084
▁patern	-12.2084
▁intoxicat	-12.2084
▁unreasonabl	-12.2085
▁abdom	-12.2085
▁qualification	-12.2085
▁fertilizer	-12.2085
▁mcqu	-12.2085
▁cesar	-12.2085
omaha	-12.2085
▁forehand	-12.2085
▁crouch	-12.2085
▁refrigerator	-12.2085
▁cubic	-12.2085
▁resent	-12.2085
▁muddy	-12.2086
▁gym	-12.2086
▁revoke	-12.2086
▁columnist	-12.2086
▁patent	-12.2086
▁stalk	-12.2086
▁commemoration	-12.2087
▁boulo	-12.2087
▁headphone	-12.2087
▁ricard	-12.2088
▁straw	-12.2088
▁architecture	-12.2088
▁dynamit	-12.2088
▁zhe	-12.2088
▁guti	-12.2088
▁touchdown	-12.2088
▁feline	-12.2088
▁bradley	-12.2089
▁fabrication	-12.2089
▁marshall	-12.209
▁relate	-12.2091
▁abductee	-12.2091
▁iceberg	-12.2092
▁innovation	-12.2093
clusion	-12.2094
ollea	-12.2094
▁depiction	-12.2096
▁hopkin	-12.2097
▁ayres	-12.2097
▁windsor	-12.2098
▁balkan	-12.2098
▁lame	-12.2098
▁compatible	-12.2098
▁electorate	-12.2099
▁turkmen	-12.2099
▁dimensional	-12.2099
▁colorful	-12.2099
▁ung	-12.21
▁barber	-12.21
iband	-12.21
steps	-12.2101
▁admir	-12.2101
▁cement	-12.2102
nica	-12.2102
▁sniper	-12.2103
▁groom	-12.2103
▁counselor	-12.2104
▁diwa	-12.2105
▁mountainside	-12.2105
▁parliamentarian	-12.2105
▁woodland	-12.2106
ehr	-12.2106
▁downward	-12.2107
wadd	-12.2109
▁flush	-12.211
▁hoff	-12.2111
▁pegg	-12.2112
▁clement	-12.2112
▁betray	-12.2113
cer	-12.2114
▁temper	-12.2114
▁wax	-12.2114
▁claw	-12.2115
▁stiff	-12.2117
▁xiao	-12.2119
▁sunny	-12.2119
▁escalator	-12.212
▁affiliat	-12.2121
ane	-12.2123
▁hospitalization	-12.2123
sville	-12.2124
▁deflect	-12.2124
▁worm	-12.2126
▁hernan	-12.213
▁endeavor	-12.213
▁flexibilit	-12.2133
▁upward	-12.2136
lender	-12.2139
▁gins	-12.2139
oir	-12.2145
▁indicator	-12.2145
▁cram	-12.2146
nnah	-12.2152
▁ascend	-12.2156
fest	-12.2162
dah	-12.2163
sour	-12.2169
libu	-12.2171
▁processor	-12.2172
cheema	-12.2175
▁casa	-12.2178
▁heft	-12.2179
▁candid	-12.2179
▁approache	-12.2183
▁cald	-12.2185
▁frig	-12.2186
▁mistaken	-12.2187
▁charm	-12.2188
▁saber	-12.2188
rc	-12.219
▁optim	-12.2191
ging	-12.2193
▁agrees	-12.2194
▁sreb	-12.2197
▁gaul	-12.2199
▁skeptical	-12.22
hafi	-12.2201
▁oliver	-12.2203
zan	-12.2204
▁kc	-12.2205
▁nia	-12.2205
▁tsa	-12.2206
▁rajas	-12.2207
moto	-12.2211
▁eun	-12.2214
rjee	-12.2219
▁arche	-12.2222
▁booster	-12.2229
▁biting	-12.223
▁verifiabl	-12.2231
▁rewrit	-12.2235
cini	-12.2236
eem	-12.2236
▁hugg	-12.2237
▁pg	-12.2239
▁jeon	-12.2242
abad	-12.2243
hu	-12.225
▁porter	-12.2254
▁educate	-12.2261
rup	-12.2265
ating	-12.2265
ruz	-12.2268
▁shorten	-12.227
▁controller	-12.2275
tty	-12.2279
pache	-12.2282
▁bra	-12.2283
ott	-12.2283
▁eisen	-12.2283
bol	-12.2284
▁attendants	-12.2286
▁ent	-12.229
▁exhausted	-12.2293
▁lied	-12.2298
▁initiate	-12.2299
yah	-12.2309
▁fabr	-12.231
▁consume	-12.2313
ahab	-12.2315
▁incorporate	-12.2315
▁fr	-12.2324
vi	-12.2327
▁egg	-12.2327
lett	-12.2329
▁ana	-12.2335
▁gunn	-12.2336
▁shank	-12.2336
▁shand	-12.2336
wau	-12.2341
▁exchang	-12.2344
▁nuts	-12.2345
of	-12.235
uci	-12.2351
▁alexandr	-12.2359
▁georgian	-12.236
▁pessimist	-12.2365
▁banda	-12.2371
▁levee	-12.2372
▁ruba	-12.2372
rugg	-12.2374
▁pie	-12.2375
▁wade	-12.2376
▁pitcher	-12.2381
▁asha	-12.2394
▁cr	-12.2397
▁moussa	-12.2398
▁heroin	-12.24
oni	-12.24
▁meteorolog	-12.2404
▁generators	-12.2407
▁predicts	-12.2408
cla	-12.2408
▁solt	-12.241
nso	-12.2411
▁remed	-12.2416
▁tutori	-12.2416
▁naha	-12.2422
▁consolidate	-12.2428
▁obstruct	-12.243
ieu	-12.2431
▁subsidi	-12.2432
▁justifi	-12.2436
bbie	-12.2438
riq	-12.2441
▁dare	-12.245
metric	-12.2455
stice	-12.2458
ob	-12.2464
ili	-12.2469
say	-12.2473
▁covert	-12.2477
▁quant	-12.2478
itu	-12.2493
▁eli	-12.25
▁commute	-12.2504
▁kerch	-12.2506
▁lip	-12.2509
▁notion	-12.2514
▁excavat	-12.253
▁preced	-12.254
igat	-12.2542
tner	-12.2549
▁dedicate	-12.2551
▁mae	-12.2558
gne	-12.2561
▁lars	-12.2579
▁joan	-12.2583
▁vill	-12.2595
▁emotion	-12.2598
▁preference	-12.2599
▁chungchon	-12.2605
▁alba	-12.2606
▁defian	-12.2606
vani	-12.2607
▁disma	-12.2608
wf	-12.2611
▁bearer	-12.2626
▁champ	-12.263
yar	-12.2631
▁gal	-12.2636
▁syn	-12.2638
▁grad	-12.2644
▁advocat	-12.2649
▁eurosta	-12.2651
▁generator	-12.2654
lumin	-12.266
▁athlete	-12.2665
▁forci	-12.2668
ttle	-12.2668
▁whiske	-12.2679
▁tri	-12.2685
agar	-12.2686
▁interfa	-12.2693
▁lash	-12.2693
bal	-12.2698
mill	-12.2698
▁intrigu	-12.2699
▁sting	-12.2702
use	-12.2707
pinning	-12.2708
▁employer	-12.2711
rel	-12.2713
▁saba	-12.2717
▁relat	-12.2717
▁arabs	-12.2721
▁bab	-12.2721
▁mirr	-12.2722
▁dece	-12.2726
▁vet	-12.2731
ndell	-12.2737
▁trends	-12.2738
▁maps	-12.274
▁drac	-12.2741
believ	-12.2745
lines	-12.2747
lp	-12.2748
▁kana	-12.2749
▁thrive	-12.2762
lm	-12.2768
cak	-12.2769
ven	-12.2774
▁beta	-12.2779
rat	-12.2781
dullah	-12.2785
▁plen	-12.279
▁convict	-12.2799
bul	-12.2802
▁kat	-12.2812
▁garri	-12.2817
▁unfit	-12.2825
▁purge	-12.2834
retz	-12.2836
anga	-12.2836
bun	-12.2838
▁tal	-12.2839
▁gentle	-12.2841
ghi	-12.2845
▁ele	-12.2847
cry	-12.2852
lynn	-12.2863
uck	-12.2865
▁infring	-12.2867
▁settlements	-12.287
▁recorder	-12.2876
▁nat	-12.2876
▁reads	-12.2877
uted	-12.2882
▁seas	-12.2885
tract	-12.2892
▁ironic	-12.2903
▁satisfact	-12.2905
lusive	-12.2908
phone	-12.2919
▁downsiz	-12.2925
trapped	-12.2926
fayette	-12.2926
week	-12.2928
gone	-12.293
taek	-12.293
smith	-12.2933
media	-12.2934
▁sour	-12.2935
league	-12.2936
▁ramm	-12.2936
▁suf	-12.2937
▁intra	-12.2939
position	-12.294
▁def	-12.2942
tu	-12.2945
hallow	-12.2945
▁fayya	-12.2946
awful	-12.2947
hold	-12.2949
dog	-12.295
▁invent	-12.2963
▁wrangl	-12.2965
lana	-12.2966
▁server	-12.2966
▁profession	-12.2971
▁jeopard	-12.2975
rgis	-12.2976
oros	-12.2978
▁boon	-12.2978
▁bras	-12.2981
▁divisi	-12.2985
▁interact	-12.2986
▁innovati	-12.2989
▁albe	-12.2991
▁jas	-12.2991
▁obsess	-12.2992
▁ansa	-12.2993
▁buoy	-12.2993
▁kazakh	-12.2993
▁indiscriminate	-12.2993
▁autobiograph	-12.2993
▁appetite	-12.2993
▁audiotape	-12.2993
▁ayurved	-12.2993
▁berezovsky	-12.2993
▁clergy	-12.2993
▁crawl	-12.2993
▁culprit	-12.2993
▁demolish	-12.2993
▁disregard	-12.2993
▁djamena	-12.2993
▁erratic	-12.2993
▁fowler	-12.2993
▁gwen	-12.2993
▁jetliner	-12.2993
▁loophole	-12.2993
▁ordinance	-12.2993
▁outflow	-12.2993
▁portfolio	-12.2993
▁rebuff	-12.2993
▁rethink	-12.2993
▁souvenir	-12.2993
▁swirl	-12.2993
▁tanzania	-12.2993
▁yugoslav	-12.2993
▁demographic	-12.2993
▁dreamliner	-12.2993
▁contagio	-12.2993
▁steadfast	-12.2993
▁snapshot	-12.2993
▁mistreat	-12.2993
▁module	-12.2993
▁abstain	-12.2993
▁sleeve	-12.2993
▁fraudulent	-12.2993
▁trunk	-12.2993
▁curtail	-12.2993
▁antenna	-12.2993
▁seismic	-12.2993
▁encrypt	-12.2993
▁unwilling	-12.2993
▁biometric	-12.2993
▁grape	-12.2993
▁cowboy	-12.2993
▁minivan	-12.2993
▁cadet	-12.2993
▁ericsson	-12.2993
▁grasp	-12.2993
▁empower	-12.2993
▁juice	-12.2993
▁diaries	-12.2994
▁charismatic	-12.2994
▁mafia	-12.2994
▁categorical	-12.2994
▁bourse	-12.2994
▁jelly	-12.2994
▁furious	-12.2994
▁goddess	-12.2994
▁evict	-12.2994
▁ecsta	-12.2994
▁crescent	-12.2994
▁breez	-12.2994
▁tigr	-12.2994
▁tanner	-12.2994
▁infra	-12.2994
▁arrow	-12.2994
▁hedge	-12.2994
▁mimic	-12.2994
▁fetus	-12.2995
▁sophi	-12.2995
atorium	-12.2995
▁edmund	-12.2995
moon	-12.2995
▁hosseini	-12.2995
▁realign	-12.2995
▁protester	-12.2995
▁tusk	-12.2995
▁anthropolog	-12.2995
▁racket	-12.2996
▁recit	-12.2996
▁graduation	-12.2996
▁lieber	-12.2996
▁airlift	-12.2996
▁churn	-12.2996
▁birthrate	-12.2996
▁yuko	-12.2996
▁meadow	-12.2996
▁scoop	-12.2997
▁latitude	-12.2997
▁elliot	-12.2997
▁bandit	-12.2998
▁stoppage	-12.2998
▁specialize	-12.2998
▁luke	-12.2998
▁freak	-12.2998
▁interceptor	-12.2999
▁marketplace	-12.2999
▁generous	-12.2999
▁thankful	-12.3
▁amass	-12.3001
▁incur	-12.3002
▁thoms	-12.3002
▁artwork	-12.3002
▁educator	-12.3002
▁submerg	-12.3002
▁cogniti	-12.3002
▁elisa	-12.3003
▁valve	-12.3003
▁interruption	-12.3003
sha	-12.3003
▁sca	-12.3004
▁pew	-12.3004
▁adjustment	-12.3004
▁secularist	-12.3005
▁pierce	-12.3006
▁jorge	-12.3006
▁esp	-12.3008
▁kad	-12.3009
▁housekeeper	-12.301
▁chew	-12.301
▁crusader	-12.3012
▁perez	-12.3014
▁mauric	-12.3014
▁terrifi	-12.3017
▁banana	-12.3019
▁fein	-12.302
leet	-12.302
▁loung	-12.3021
▁fundraiser	-12.3023
▁condon	-12.3025
▁solicit	-12.3027
▁snu	-12.303
▁ngo	-12.303
▁airship	-12.3031
▁induce	-12.3032
▁commun	-12.3032
▁hammon	-12.3035
▁carat	-12.304
▁mcle	-12.304
▁pinn	-12.3043
▁equalise	-12.3044
▁clever	-12.3046
▁lapse	-12.3046
▁fabric	-12.3047
▁maldiv	-12.3048
▁aaa	-12.3049
▁som	-12.3049
▁flagg	-12.305
▁kinne	-12.3051
▁lagg	-12.3052
▁scann	-12.3052
▁loosen	-12.3053
▁kraus	-12.3054
▁mortal	-12.3054
▁violator	-12.3055
▁accompanie	-12.3056
▁dismay	-12.3059
▁forceful	-12.3065
▁fist	-12.3065
kong	-12.3067
▁ratifi	-12.3068
▁capitalism	-12.3068
▁reper	-12.3069
▁blanc	-12.3069
▁zane	-12.3076
▁iq	-12.3078
▁forgive	-12.3079
roy	-12.3082
▁mcnam	-12.3082
▁reno	-12.3082
▁kiku	-12.3084
▁burre	-12.3089
▁messi	-12.3093
lamin	-12.3093
▁syndicate	-12.3097
▁tablet	-12.3109
▁boob	-12.311
▁jonat	-12.3112
▁singaporean	-12.3116
▁brod	-12.312
▁simulate	-12.3124
elli	-12.3128
tze	-12.313
▁borg	-12.3131
▁incorporat	-12.3136
choles	-12.3138
▁garr	-12.3141
▁porch	-12.3146
▁expir	-12.3146
estero	-12.3147
▁cardiov	-12.3149
alban	-12.3153
▁blazer	-12.3154
▁samuel	-12.316
▁shui	-12.3168
zuma	-12.3173
▁hydra	-12.3182
bly	-12.3182
▁icr	-12.3191
hiko	-12.3194
▁helms	-12.3203
lar	-12.3213
stable	-12.3213
▁imp	-12.3213
▁giro	-12.3215
soon	-12.322
▁conciliat	-12.3224
▁camel	-12.3225
▁painter	-12.3228
▁intimidati	-12.3229
richt	-12.3229
ast	-12.3235
stra	-12.3236
▁tro	-12.3237
▁jett	-12.3246
ryl	-12.3246
▁certifi	-12.3246
▁abilit	-12.3249
dic	-12.3256
▁calculat	-12.3259
pat	-12.3263
▁dissolv	-12.3264
▁withstand	-12.3271
oda	-12.3277
▁eras	-12.3278
▁barad	-12.3279
▁giz	-12.3284
yongsan	-12.3289
ovi	-12.3289
▁julian	-12.3289
▁verge	-12.329
▁roos	-12.329
▁jessi	-12.329
wall	-12.3295
▁lai	-12.3301
▁kenne	-12.3303
sch	-12.3303
▁header	-12.3307
▁ryd	-12.3312
▁supplements	-12.3314
▁repressi	-12.3317
▁tzi	-12.3322
▁anton	-12.3323
dana	-12.3326
shu	-12.333
▁enroll	-12.3333
▁xia	-12.3336
erous	-12.3339
▁mao	-12.3341
▁uneas	-12.3349
▁perish	-12.3353
▁directions	-12.3358
▁retriev	-12.3364
▁af	-12.3365
▁displace	-12.3371
▁hyde	-12.3372
▁divin	-12.3375
▁tract	-12.3375
▁cosmo	-12.338
▁rile	-12.3384
nson	-12.3385
irna	-12.3388
▁footballer	-12.3392
dis	-12.3396
▁pi	-12.3403
umi	-12.3405
▁frustrate	-12.3405
▁liberate	-12.341
▁flourish	-12.3414
▁bully	-12.3416
▁drops	-12.3421
jaf	-12.3423
▁sacking	-12.3426
pon	-12.3432
▁jamm	-12.3435
▁zealander	-12.3437
llan	-12.3444
▁perceiv	-12.3445
▁soli	-12.3448
▁poke	-12.3452
▁printer	-12.3461
▁grill	-12.3461
▁fen	-12.3462
ddy	-12.3465
▁gome	-12.3466
▁destroyer	-12.3467
▁gallu	-12.3468
▁stampede	-12.3472
▁relocat	-12.3473
sche	-12.3475
▁birdie	-12.348
▁gall	-12.3483
▁bait	-12.3517
▁adventures	-12.3528
▁zai	-12.3536
▁lav	-12.3537
▁gir	-12.3541
▁tel	-12.3546
▁exclude	-12.3546
▁snipe	-12.3549
▁prai	-12.3549
▁sequel	-12.355
hart	-12.355
▁ferri	-12.3554
▁sik	-12.356
je	-12.356
▁gong	-12.3566
omi	-12.3568
▁hamm	-12.3574
cin	-12.3574
vac	-12.3577
lley	-12.3583
▁gia	-12.359
▁bald	-12.36
▁vit	-12.3606
▁verse	-12.3607
▁bain	-12.3611
smo	-12.3613
▁disguis	-12.3615
▁surrogate	-12.3619
inos	-12.3622
▁regulat	-12.3623
▁mubar	-12.3625
oom	-12.3626
cable	-12.3631
▁jeopardize	-12.3633
▁flowing	-12.3634
▁wis	-12.3635
▁drawings	-12.3637
▁duch	-12.3644
ically	-12.3645
▁underscor	-12.3646
▁supplement	-12.365
▁missionar	-12.3651
▁physiolog	-12.3651
▁pont	-12.3652
▁smuggl	-12.3659
▁diver	-12.3661
▁attache	-12.367
▁sto	-12.3675
▁dera	-12.3676
▁devi	-12.3682
▁equalize	-12.3684
▁sands	-12.3688
▁escalate	-12.3692
▁attitudes	-12.3693
▁reserv	-12.37
▁germ	-12.3702
asia	-12.3708
▁chic	-12.3716
▁shan	-12.3726
pc	-12.3726
▁earl	-12.3727
▁dott	-12.3728
doch	-12.3733
▁carre	-12.3734
iff	-12.3741
▁hay	-12.3747
▁replica	-12.3754
▁gwang	-12.3756
▁foray	-12.3757
ngal	-12.3764
▁tit	-12.3765
▁greeting	-12.3774
▁jee	-12.3782
▁geographic	-12.3783
▁shaha	-12.3791
▁yah	-12.3795
▁una	-12.3796
▁lonely	-12.3806
▁confiscat	-12.3811
▁ober	-12.3817
now	-12.3817
▁deng	-12.3832
ure	-12.3843
bre	-12.3844
▁preside	-12.3844
▁embrac	-12.3852
▁belts	-12.3854
▁normalize	-12.3857
▁grind	-12.3868
dam	-12.387
hard	-12.3872
▁mit	-12.3876
▁stipulate	-12.3891
▁nikol	-12.3894
▁enthusiast	-12.3895
▁fonda	-12.3904
etz	-12.3904
▁taka	-12.3904
terrestrial	-12.3907
jord	-12.3909
▁yin	-12.3911
paste	-12.3912
rity	-12.3917
▁eld	-12.3918
▁rebuil	-12.392
stands	-12.3923
sphere	-12.3928
▁astronom	-12.3929
adequate	-12.3931
blaze	-12.3932
committee	-12.3932
parents	-12.3932
news	-12.3934
▁ev	-12.3936
▁residenc	-12.3936
technology	-12.3937
▁sham	-12.3938
▁entertain	-12.3938
sense	-12.3941
watch	-12.3942
ashi	-12.3943
jean	-12.3945
▁capitaliz	-12.3946
visibl	-12.3948
wanted	-12.3948
shot	-12.3951
▁shu	-12.3953
eth	-12.3963
▁doug	-12.3969
▁restructure	-12.3969
▁magnet	-12.3971
izing	-12.3972
▁sweat	-12.3972
▁sar	-12.3975
▁patron	-12.3975
▁prominen	-12.3978
▁pardo	-12.3978
▁hardline	-12.3978
▁snub	-12.3981
▁horm	-12.3982
▁ensu	-12.3984
▁mobilize	-12.3985
list	-12.3986
▁bankrupt	-12.3987
▁distract	-12.3989
▁pharmac	-12.399
▁luz	-12.3993
▁dysfunction	-12.3993
▁absurd	-12.3993
▁blizzard	-12.3993
▁complement	-12.3993
▁deforest	-12.3993
▁disadvantage	-12.3993
▁matthew	-12.3993
▁netscape	-12.3993
▁pacify	-12.3993
▁precarious	-12.3993
▁recharge	-12.3993
▁revamp	-12.3993
▁soprano	-12.3993
▁spontaneous	-12.3993
▁surcharge	-12.3993
▁thirteen	-12.3993
▁alligator	-12.3993
▁belarus	-12.3993
▁cuisine	-12.3993
▁transgender	-12.3993
▁inviting	-12.3993
▁tgv	-12.3993
▁detach	-12.3993
▁rupture	-12.3993
▁telecast	-12.3993
▁basilica	-12.3993
▁cambridge	-12.3993
▁senegal	-12.3993
▁theoretical	-12.3993
▁gymnast	-12.3993
▁solemn	-12.3993
▁rutger	-12.3993
▁landlord	-12.3993
▁wrinkle	-12.3993
▁zhao	-12.3993
▁anorexi	-12.3993
▁kashiwa	-12.3993
▁cosmetic	-12.3993
▁turbine	-12.3993
▁itinerar	-12.3993
▁wrack	-12.3993
▁pelvi	-12.3993
▁twitter	-12.3993
▁purple	-12.3993
▁jockey	-12.3993
▁mitch	-12.3993
▁dispel	-12.3993
▁osbourne	-12.3993
▁pharaoh	-12.3993
▁relentless	-12.3993
▁emphatic	-12.3993
▁vigorous	-12.3993
▁disconnect	-12.3993
▁pinpoint	-12.3993
▁malicious	-12.3993
▁commend	-12.3993
▁arrowhead	-12.3993
▁stymie	-12.3993
▁kirch	-12.3994
▁newcomer	-12.3994
▁affirm	-12.3994
▁effig	-12.3994
▁arraignment	-12.3994
▁mudslide	-12.3994
▁sandbag	-12.3994
▁ravine	-12.3994
▁taunt	-12.3994
▁triang	-12.3994
▁lizard	-12.3994
▁reclaim	-12.3994
▁screw	-12.3994
▁preemptive	-12.3994
▁shrunk	-12.3994
▁unfreez	-12.3994
▁humid	-12.3994
▁screenplay	-12.3994
▁spew	-12.3994
▁bolivia	-12.3994
▁sitcom	-12.3994
▁pleasant	-12.3995
▁intermedia	-12.3995
▁czar	-12.3995
▁sidewalk	-12.3995
▁vigilant	-12.3995
▁ghost	-12.3995
▁temptation	-12.3995
ngchon	-12.3995
▁katz	-12.3996
▁hamza	-12.3996
▁condom	-12.3996
▁arsen	-12.3996
▁paek	-12.3996
▁drummer	-12.3996
▁reneg	-12.3996
▁cremation	-12.3997
▁haq	-12.3997
▁shrugg	-12.3997
▁unlock	-12.3997
▁narco	-12.3997
▁dumpling	-12.3997
▁distraction	-12.3998
▁funnel	-12.3998
▁pinch	-12.3999
▁solace	-12.3999
▁compass	-12.4
▁newsweek	-12.4
▁derive	-12.4001
▁booth	-12.4001
gon	-12.4002
▁decoration	-12.4002
▁waive	-12.4002
▁fluid	-12.4003
▁jamestown	-12.4003
rai	-12.4004
▁surgical	-12.4005
▁baek	-12.4005
kistan	-12.4005
▁elysee	-12.4005
▁feedback	-12.4006
▁chinook	-12.4006
werp	-12.4007
▁laurent	-12.4007
▁riddle	-12.4008
▁complian	-12.4008
▁slap	-12.4009
▁slovakia	-12.4009
▁tasmania	-12.4009
▁mansion	-12.4009
▁marx	-12.401
▁contributor	-12.401
quille	-12.401
▁intestin	-12.401
▁handset	-12.4011
▁coo	-12.4014
▁totalitarian	-12.4015
▁ritz	-12.4017
▁playground	-12.4018
▁zahar	-12.4019
▁spectacle	-12.4021
mat	-12.4021
tilin	-12.4021
▁prevalen	-12.4021
▁siren	-12.4023
▁newsroom	-12.4024
eller	-12.4026
▁ignite	-12.4026
▁vonn	-12.4027
▁nobu	-12.4028
culty	-12.4029
▁taji	-12.4031
quet	-12.4032
▁heather	-12.4034
▁dweller	-12.4035
▁rhe	-12.4037
▁estonian	-12.4039
otherap	-12.4039
▁alban	-12.404
▁necessity	-12.4041
▁chiap	-12.4048
▁stain	-12.4051
▁offence	-12.4052
▁mold	-12.4052
▁abundan	-12.4054
▁rework	-12.4057
mara	-12.406
▁citation	-12.4062
▁directive	-12.4063
▁fluctuat	-12.4064
hni	-12.4065
nger	-12.4066
▁lb	-12.4067
▁taek	-12.4071
▁shade	-12.4075
veh	-12.4084
pine	-12.4084
▁merv	-12.4087
▁biti	-12.409
riano	-12.409
▁sneaker	-12.4092
▁angri	-12.4093
▁jok	-12.4094
▁shaw	-12.4097
varna	-12.4097
▁tsuyo	-12.4097
fold	-12.4099
▁stoning	-12.4099
uman	-12.41
▁timeline	-12.4102
nsei	-12.4102
▁insurer	-12.4103
▁shutter	-12.4104
▁candles	-12.4104
▁unsur	-12.4105
▁merck	-12.4106
▁khalil	-12.4112
▁pluck	-12.4114
uro	-12.4115
habi	-12.4115
▁salvage	-12.4118
fann	-12.4122
▁bashir	-12.4124
▁beast	-12.4134
effer	-12.4135
▁lek	-12.414
▁swelling	-12.4141
▁lemon	-12.4142
ych	-12.4142
▁navigat	-12.4143
bouc	-12.4143
ntana	-12.4145
▁kua	-12.4146
▁meg	-12.415
nate	-12.4151
▁cruiser	-12.4153
yak	-12.4153
▁shine	-12.4154
▁suck	-12.4154
wich	-12.4157
▁nan	-12.4159
andel	-12.4162
▁wonders	-12.4163
▁fond	-12.4164
▁haa	-12.4165
cyclist	-12.4169
▁explains	-12.4173
▁confiscate	-12.4179
▁bah	-12.4191
▁gregor	-12.4191
▁endless	-12.4191
▁ec	-12.4193
shin	-12.4195
oui	-12.4198
▁fractur	-12.4207
tractor	-12.4213
▁berg	-12.4213
▁reveren	-12.4216
▁couri	-12.4221
book	-12.4225
▁distincti	-12.4228
▁hush	-12.4236
▁marlboro	-12.4238
▁celesti	-12.424
lam	-12.4248
aux	-12.4249
▁scarce	-12.4255
▁shaun	-12.4257
▁fluor	-12.4257
▁baba	-12.426
▁emb	-12.427
▁outsider	-12.4275
dez	-12.4276
▁merchandise	-12.4277
▁brisk	-12.428
▁burge	-12.4283
tenberg	-12.4287
▁branc	-12.4293
ched	-12.4302
pulsion	-12.4303
▁assumption	-12.4304
▁rama	-12.431
▁ull	-12.4316
rdin	-12.4316
▁natali	-12.4321
inches	-12.4323
amba	-12.4324
mert	-12.4327
▁behave	-12.4331
▁mesh	-12.4338
▁barn	-12.4347
▁electro	-12.4349
▁py	-12.4354
▁vir	-12.4355
▁sara	-12.4356
thura	-12.4367
ii	-12.4371
dler	-12.4375
▁mri	-12.4375
▁espan	-12.4377
▁abd	-12.4378
▁homer	-12.4379
▁disguise	-12.4386
drome	-12.4391
▁mosle	-12.4394
▁deliberat	-12.4398
nda	-12.4398
nie	-12.4399
▁moderniz	-12.4401
gram	-12.4415
▁pause	-12.4417
bas	-12.4417
▁hijacking	-12.4417
▁exceeding	-12.4418
▁flyer	-12.4421
▁grapple	-12.4426
▁baa	-12.4433
▁inconvenience	-12.4439
tics	-12.4446
joy	-12.4448
▁conscript	-12.4449
dental	-12.4455
▁prag	-12.446
▁masha	-12.4461
oul	-12.4464
▁rational	-12.4468
ert	-12.447
ker	-12.4491
rock	-12.4491
gues	-12.4491
▁brace	-12.4492
▁wm	-12.4496
ammar	-12.4498
afe	-12.45
▁ft	-12.4502
▁abound	-12.4505
▁robbi	-12.4509
▁resettle	-12.4509
pun	-12.4511
▁lind	-12.4511
▁undertake	-12.4513
tai	-12.4515
▁fri	-12.4517
enne	-12.4517
▁turki	-12.4518
▁tira	-12.452
▁dishe	-12.452
holm	-12.4523
▁loser	-12.453
▁qual	-12.4534
vara	-12.4536
evic	-12.4544
chu	-12.4547
osa	-12.4558
lov	-12.4558
▁fume	-12.4562
avaro	-12.4562
▁ira	-12.4563
▁schu	-12.4564
elo	-12.4566
▁erode	-12.4567
mes	-12.4568
unker	-12.4568
▁barre	-12.4571
▁discourage	-12.4574
▁smithson	-12.4578
▁trafficker	-12.4589
▁awe	-12.4591
usch	-12.4594
▁adrian	-12.4611
▁dri	-12.4613
mate	-12.4624
▁joo	-12.4626
▁lou	-12.4627
▁geno	-12.463
mmunity	-12.4631
eij	-12.4638
ice	-12.464
rne	-12.4642
shan	-12.4642
▁lac	-12.4642
▁allerg	-12.4643
hoe	-12.4648
▁fabricat	-12.465
▁wald	-12.465
▁refin	-12.465
ika	-12.4651
ellen	-12.4655
▁venet	-12.4662
▁destruct	-12.4669
imon	-12.4671
▁gem	-12.4681
nz	-12.4685
▁dart	-12.4686
▁dine	-12.469
▁russ	-12.4698
oxid	-12.4699
tia	-12.4707
▁conceiv	-12.4709
▁kau	-12.471
▁blu	-12.4716
▁structur	-12.4717
▁adulter	-12.4719
▁duran	-12.472
▁plague	-12.4726
▁claud	-12.4727
onym	-12.4728
glio	-12.4738
gery	-12.4741
▁skier	-12.4742
ff	-12.4746
closure	-12.4747
▁pits	-12.4749
▁spar	-12.4754
▁dj	-12.476
ouad	-12.4771
pinal	-12.4772
gaz	-12.4775
▁casting	-12.4775
▁detainee	-12.4779
▁corpora	-12.4781
▁phon	-12.4781
▁abba	-12.4782
kova	-12.4782
ariya	-12.4786
▁mend	-12.4796
owed	-12.4808
▁jol	-12.4811
gay	-12.4812
▁graduat	-12.4821
▁disabilit	-12.4827
mega	-12.483
▁retiree	-12.483
▁cheese	-12.4835
▁characterize	-12.4837
▁licens	-12.4838
cat	-12.4841
▁repatriat	-12.4842
▁alga	-12.4855
▁toddlers	-12.4858
▁gat	-12.486
etcher	-12.4864
▁fracture	-12.487
▁activate	-12.4871
▁duo	-12.4878
ole	-12.4885
ameter	-12.4887
▁frankl	-12.4896
▁extradite	-12.4897
▁fruits	-12.4898
leban	-12.4899
▁tame	-12.49
▁natal	-12.49
▁tha	-12.4902
tian	-12.4909
zad	-12.4909
▁toleran	-12.4917
▁jian	-12.4919
▁sunda	-12.4922
mosh	-12.4923
word	-12.4924
▁caffe	-12.4927
comfortabl	-12.4928
▁appreciati	-12.4929
▁lid	-12.4929
▁atom	-12.4931
▁ruben	-12.4932
ducat	-12.4932
▁boo	-12.4933
▁conceive	-12.4934
▁fade	-12.494
cock	-12.4942
▁scarf	-12.4944
▁nois	-12.4947
boy	-12.4949
▁satisfy	-12.4949
▁cio	-12.4952
▁beneficia	-12.4956
badi	-12.496
garve	-12.4961
aimi	-12.4966
wha	-12.4972
▁elevat	-12.4973
▁ego	-12.4978
▁piro	-12.4979
▁lens	-12.4981
lift	-12.4988
▁alp	-12.4989
raged	-12.4993
▁sneak	-12.4995
▁imagin	-12.4995
▁decreas	-12.4999
▁wh	-12.5003
tsuo	-12.5007
mitag	-12.5018
oven	-12.502
▁blacks	-12.5021
▁bois	-12.5024
diari	-12.5025
lein	-12.5027
▁circu	-12.503
igan	-12.5032
ready	-12.5034
cube	-12.5038
walk	-12.5039
convenient	-12.504
predictabl	-12.5041
accurate	-12.5042
▁equ	-12.5043
effective	-12.5043
economic	-12.5043
government	-12.5043
affected	-12.5044
daughter	-12.5045
season	-12.5045
fox	-12.5048
▁sel	-12.5049
▁psycho	-12.5049
spring	-12.5049
▁defer	-12.505
help	-12.5051
accessib	-12.5052
match	-12.5056
roar	-12.5057
▁nativ	-12.5057
▁vik	-12.5058
▁suicid	-12.506
asahi	-12.5062
▁comprise	-12.5066
▁glamo	-12.507
heard	-12.5071
brew	-12.5071
yub	-12.5074
money	-12.5075
▁godd	-12.5077
▁enthusias	-12.5078
▁americ	-12.5088
▁iz	-12.5089
▁wolfe	-12.5091
▁numb	-12.5091
▁cripple	-12.5098
▁yoshi	-12.5099
▁flour	-12.5099
▁exploitati	-12.51
▁eavesdropp	-12.5102
▁distr	-12.5104
▁consequent	-12.5104
▁susceptib	-12.5104
▁immoral	-12.5104
▁liechtenstein	-12.5104
▁aeronautic	-12.5104
▁apprehend	-12.5104
▁boulevard	-12.5104
▁demolition	-12.5104
▁entrepreneur	-12.5104
▁friction	-12.5104
▁grizzl	-12.5104
▁handcuff	-12.5104
▁involuntar	-12.5104
▁kilowatt	-12.5104
▁microwave	-12.5104
▁occupy	-12.5104
▁recipient	-12.5104
▁remittance	-12.5104
▁straddl	-12.5104
▁unravel	-12.5104
▁uruguay	-12.5104
▁vicinity	-12.5104
▁banteng	-12.5104
▁detergent	-12.5104
▁avatar	-12.5104
▁derelict	-12.5104
▁manhunt	-12.5104
▁mcclinto	-12.5104
▁pundit	-12.5104
▁whirl	-12.5104
▁daimler	-12.5104
▁classify	-12.5104
▁graveyard	-12.5104
▁octopus	-12.5104
▁lodging	-12.5104
nthia	-12.5104
▁hemorrhag	-12.5104
▁magoni	-12.5104
▁smear	-12.5104
▁conspirator	-12.5104
▁marriot	-12.5104
▁turtle	-12.5104
▁wilkins	-12.5104
▁discord	-12.5104
▁indigen	-12.5104
▁imbalance	-12.5104
▁pupil	-12.5104
▁dissent	-12.5104
hygien	-12.5104
▁aviv	-12.5104
▁entail	-12.5104
▁quirk	-12.5104
▁nonviolen	-12.5104
▁acquaintance	-12.5104
▁procure	-12.5104
▁essay	-12.5105
▁gaffe	-12.5105
▁polygam	-12.5105
▁organisation	-12.5105
▁gharial	-12.5105
▁masterpiece	-12.5105
▁snowstorm	-12.5105
▁idris	-12.5105
▁roast	-12.5105
▁grievance	-12.5105
▁minibus	-12.5105
▁chipmaker	-12.5105
▁nongovernment	-12.5105
▁accommodation	-12.5105
▁graff	-12.5106
▁butterfl	-12.5106
▁scour	-12.5106
▁attire	-12.5106
▁overreact	-12.5106
▁clover	-12.5106
▁luxurious	-12.5106
▁entice	-12.5106
▁barbour	-12.5107
emic	-12.5107
orrow	-12.5107
▁haircut	-12.5107
▁wiretapp	-12.5107
rogba	-12.5107
▁termination	-12.5107
ilja	-12.5107
▁toxin	-12.5108
▁dangl	-12.5108
▁hague	-12.5108
▁sift	-12.5108
▁exemption	-12.5108
imeter	-12.5108
▁corral	-12.5108
▁curricul	-12.5108
▁aspiration	-12.5108
▁gigabyte	-12.5109
▁elevation	-12.5109
▁cair	-12.5109
▁rainbow	-12.5109
▁fringe	-12.5109
▁flawless	-12.5109
▁tamper	-12.5109
▁gartner	-12.5109
▁marvel	-12.511
▁carving	-12.511
▁downpour	-12.5111
▁novelist	-12.5111
tisa	-12.5111
▁sunlight	-12.5111
▁anthr	-12.5111
▁depot	-12.5111
▁doctrine	-12.5111
▁chick	-12.5111
▁organism	-12.5112
▁milos	-12.5112
choa	-12.5112
▁vander	-12.5112
▁yuri	-12.5113
▁admiral	-12.5113
▁carli	-12.5113
▁summar	-12.5114
▁walt	-12.5114
wire	-12.5114
okou	-12.5115
▁subscriber	-12.5115
▁premeditat	-12.5116
▁cynical	-12.5116
▁tenet	-12.5116
▁runaway	-12.5116
▁mound	-12.5117
ohn	-12.5118
▁injustice	-12.5118
▁filter	-12.5118
▁jabal	-12.5118
▁fiance	-12.5118
midt	-12.5118
▁holz	-12.5118
▁mccle	-12.5118
▁audition	-12.5119
▁adorn	-12.512
▁respectful	-12.512
▁composition	-12.5121
▁hoard	-12.5121
▁jolt	-12.5121
kfa	-12.5121
▁unsc	-12.5121
span	-12.5122
▁sauer	-12.5122
▁mongolia	-12.5123
▁fioren	-12.5124
▁obeid	-12.5126
▁galv	-12.5126
▁parr	-12.5127
▁maggi	-12.5128
▁sixteen	-12.5129
▁appa	-12.513
nberg	-12.5132
▁prim	-12.5132
▁tani	-12.5133
▁ventilat	-12.5133
▁weiss	-12.5134
▁covet	-12.5134
▁fiji	-12.5135
▁heller	-12.5136
▁worshipper	-12.5136
▁lux	-12.5137
▁worthless	-12.5137
▁corona	-12.5137
▁overpower	-12.5137
▁nye	-12.5138
▁lax	-12.5139
▁congregation	-12.5139
▁cache	-12.514
▁milita	-12.5141
▁oba	-12.5142
▁smol	-12.5142
▁inability	-12.5143
▁kisses	-12.5144
▁transformers	-12.5145
▁okay	-12.5145
▁borough	-12.5147
▁vulnerabilit	-12.515
▁veil	-12.5152
▁mukas	-12.5153
▁earnest	-12.5153
▁shann	-12.5153
▁polite	-12.5155
▁deteriorate	-12.5155
▁satan	-12.5156
▁nouri	-12.5161
▁institutional	-12.5161
iena	-12.5163
▁mwan	-12.5164
▁gravitation	-12.5164
▁latino	-12.5166
▁ashes	-12.5166
▁bolsh	-12.5168
▁alessandr	-12.5172
nant	-12.5174
▁bombard	-12.5176
▁sphere	-12.5177
▁bugg	-12.5178
▁scanner	-12.5178
▁stutt	-12.5178
▁pil	-12.5179
▁widower	-12.5179
▁mok	-12.518
▁rightful	-12.518
▁tao	-12.518
nova	-12.5181
▁mut	-12.5181
▁spite	-12.5182
▁trinit	-12.5182
▁rightist	-12.5183
rief	-12.5183
▁designation	-12.5186
▁wol	-12.519
guel	-12.519
▁indecen	-12.5191
environmentalist	-12.5191
thle	-12.5193
▁rubin	-12.5196
suit	-12.5196
▁zhi	-12.5198
▁hallow	-12.52
▁sharpen	-12.5202
▁meddl	-12.5204
▁bragg	-12.5207
rome	-12.5211
▁pressur	-12.5215
▁emitter	-12.5216
▁examples	-12.5217
▁calib	-12.5222
egan	-12.5224
doo	-12.5226
▁lankan	-12.5226
▁unha	-12.5226
▁dom	-12.5228
▁lick	-12.5229
▁qur	-12.5232
▁satisfactor	-12.5234
niels	-12.5234
▁tactical	-12.5243
▁llc	-12.5248
pick	-12.5249
▁wit	-12.5249
▁kristin	-12.5249
▁santos	-12.525
▁qing	-12.5252
▁beneficiar	-12.5255
ased	-12.5257
▁lombard	-12.5258
▁scarlet	-12.5265
▁matri	-12.5266
yung	-12.5268
▁registr	-12.5268
slaughter	-12.5269
▁thu	-12.527
▁fury	-12.5272
▁skylin	-12.5274
riyad	-12.5275
▁hiker	-12.5281
▁lauren	-12.5281
ecker	-12.5282
▁brew	-12.5283
▁yuca	-12.5285
▁corte	-12.5287
▁penetrat	-12.5289
▁arter	-12.5289
▁legg	-12.5294
▁twister	-12.5294
robe	-12.53
▁ancest	-12.53
▁embed	-12.5302
▁bonsa	-12.5307
gie	-12.5316
roz	-12.5319
▁kup	-12.5324
▁accessib	-12.5327
▁hashim	-12.5329
▁downside	-12.5329
▁curv	-12.5332
▁slick	-12.5332
▁consultati	-12.5333
▁tee	-12.5333
lastic	-12.5337
▁visitation	-12.5341
jid	-12.5342
mise	-12.5342
▁dictate	-12.5345
enay	-12.5345
▁kampu	-12.5346
▁hil	-12.5348
▁parish	-12.5348
▁bells	-12.5352
▁dp	-12.5354
▁sali	-12.5359
pears	-12.5361
▁skirt	-12.5364
▁slate	-12.5369
▁wink	-12.5371
▁dayton	-12.5372
lab	-12.5372
▁wealthie	-12.5375
rough	-12.5377
▁mod	-12.5377
▁goul	-12.5377
▁hoy	-12.5382
slow	-12.5382
▁knot	-12.5384
▁fest	-12.5389
▁sander	-12.5393
vision	-12.5393
▁mun	-12.5394
▁rok	-12.54
▁tat	-12.5402
▁ellis	-12.5404
▁moai	-12.5406
▁lonel	-12.5411
▁dominan	-12.5413
▁judd	-12.5415
▁distinguish	-12.5418
▁coupons	-12.542
▁yachts	-12.5421
▁legislat	-12.5422
▁santor	-12.543
▁yush	-12.543
▁campo	-12.5431
▁mello	-12.5434
pal	-12.5434
▁glea	-12.5436
afsha	-12.5437
▁equaliz	-12.544
▁damp	-12.5441
▁unfor	-12.5443
bei	-12.5444
▁fig	-12.5448
▁confuse	-12.5454
lissa	-12.5456
▁pontif	-12.5461
dka	-12.5465
gu	-12.5465
▁maur	-12.5466
▁likeness	-12.5468
ians	-12.5468
rani	-12.5472
▁disposa	-12.5473
▁pha	-12.5474
▁ichi	-12.5475
▁jaip	-12.5476
▁malt	-12.5477
▁cheng	-12.5477
▁councilor	-12.5477
rage	-12.5482
noble	-12.5486
escent	-12.5488
prk	-12.5491
▁qualifie	-12.5494
ollen	-12.5496
▁utilize	-12.5497
dolph	-12.5498
▁robes	-12.5498
▁hum	-12.551
ichi	-12.5513
ema	-12.5515
wage	-12.5516
▁gaill	-12.5521
▁rotte	-12.5523
▁jar	-12.5523
▁jia	-12.5531
cchi	-12.5532
▁matur	-12.5537
hor	-12.5538
▁sarco	-12.554
▁spik	-12.5542
▁perk	-12.5543
▁avian	-12.5556
aq	-12.5562
▁eclipse	-12.5564
young	-12.5569
▁chai	-12.5574
▁servers	-12.5578
▁tallie	-12.558
▁marul	-12.5581
elipe	-12.5581
zhn	-12.5582
▁humble	-12.5588
az	-12.559
oslo	-12.5592
▁defamat	-12.5593
▁kaz	-12.5597
napped	-12.5597
▁poet	-12.56
▁abductions	-12.5601
kka	-12.5605
iar	-12.562
▁stretche	-12.5623
▁misus	-12.5624
▁chon	-12.5628
souf	-12.5628
etsk	-12.563
▁breeder	-12.5632
haria	-12.5633
poly	-12.5634
issan	-12.5635
▁abide	-12.5635
▁unsee	-12.5635
▁tracker	-12.564
heng	-12.5641
▁terminate	-12.5657
▁gert	-12.5658
▁oral	-12.5659
▁clima	-12.5664
▁stitche	-12.5673
▁frederic	-12.5678
iba	-12.568
▁trooper	-12.5692
lem	-12.5701
▁unnerv	-12.5704
▁prof	-12.5705
▁renam	-12.5708
rshad	-12.5708
▁washing	-12.5724
▁attende	-12.5732
▁toast	-12.574
▁commons	-12.574
▁perceive	-12.5754
arat	-12.5759
medic	-12.5762
▁activat	-12.5772
▁aston	-12.5777
▁alleviate	-12.5787
▁mute	-12.5792
bach	-12.5796
▁holi	-12.5802
▁robe	-12.5803
▁colo	-12.5804
vp	-12.5812
▁kazu	-12.5816
sam	-12.5816
▁lange	-12.5817
keeper	-12.5831
erno	-12.5833
onic	-12.5836
▁afar	-12.5836
▁alta	-12.5839
▁deco	-12.5839
▁outfield	-12.5845
mps	-12.5848
▁relie	-12.585
osan	-12.5855
▁marian	-12.5856
▁dair	-12.586
▁cosm	-12.5861
▁dail	-12.5862
endo	-12.5865
ska	-12.5867
tri	-12.5874
▁kab	-12.5874
▁dona	-12.5874
▁mutilat	-12.5875
▁zub	-12.5877
▁skid	-12.589
ain	-12.589
low	-12.589
cu	-12.5893
achel	-12.59
▁blockbusters	-12.5902
▁desp	-12.5904
▁stranding	-12.5905
▁levin	-12.5919
eston	-12.5922
apolis	-12.5928
▁sock	-12.5931
▁kal	-12.5932
▁updat	-12.5938
fusion	-12.5945
▁christo	-12.5946
▁swell	-12.5956
▁duc	-12.5958
▁gila	-12.5958
▁meri	-12.5962
athan	-12.5964
ech	-12.5965
▁impersonat	-12.5966
▁intern	-12.5967
science	-12.597
▁mani	-12.5972
▁insert	-12.5973
▁stri	-12.5976
▁facilitat	-12.5978
▁cas	-12.5979
uni	-12.598
▁stimulat	-12.5987
gh	-12.5989
▁atta	-12.5989
▁wastes	-12.599
roid	-12.5994
▁jenn	-12.5994
pur	-12.5998
▁piz	-12.6002
▁tremor	-12.6005
▁hurdle	-12.6005
▁yacht	-12.6007
rou	-12.601
▁accomplishment	-12.601
▁penguin	-12.6017
poon	-12.6018
▁arc	-12.602
▁roadway	-12.6022
▁oppress	-12.6022
xi	-12.6029
▁pillar	-12.6034
▁proteins	-12.6036
dder	-12.6045
▁unt	-12.6052
▁idi	-12.6052
fe	-12.6064
▁marker	-12.6072
nne	-12.6072
▁mariner	-12.6096
▁defus	-12.6098
▁victori	-12.61
▁coma	-12.6102
lli	-12.6105
▁solan	-12.6115
▁forbid	-12.6119
▁coupon	-12.6125
lf	-12.6126
▁aspir	-12.6131
▁spotte	-12.6132
▁samp	-12.6134
▁guse	-12.6136
rail	-12.6137
▁assemble	-12.6148
▁kma	-12.6149
oise	-12.615
▁mara	-12.6155
▁stab	-12.6156
▁pear	-12.616
▁confe	-12.6162
▁aq	-12.6164
▁chil	-12.6171
lee	-12.6171
▁lik	-12.6172
omo	-12.6174
iti	-12.6179
ender	-12.6182
▁tama	-12.6184
▁liberaliz	-12.6194
ratt	-12.6199
fia	-12.62
▁stereo	-12.6205
tent	-12.6207
▁encircl	-12.6207
▁berger	-12.6209
▁yasuhi	-12.6227
▁hono	-12.6232
yud	-12.6233
▁rb	-12.6233
ppe	-12.6237
▁yul	-12.6242
▁suppressi	-12.6245
▁robb	-12.6246
▁tub	-12.6254
idge	-12.6254
load	-12.6254
▁logic	-12.6262
nix	-12.6264
zine	-12.6266
▁flore	-12.6267
comm	-12.6268
▁dipp	-12.6268
▁whaler	-12.627
▁thrust	-12.6275
uddin	-12.6278
▁mau	-12.6279
▁manipulate	-12.6279
embe	-12.628
ister	-12.628
nourishe	-12.628
gher	-12.6285
case	-12.629
realistic	-12.6291
bridge	-12.6291
▁demo	-12.6292
tooth	-12.6292
stroke	-12.6293
historic	-12.6293
brook	-12.6293
hawk	-12.6293
graduate	-12.6293
pour	-12.6295
style	-12.6296
▁euthan	-12.6298
swam	-12.6299
▁secre	-12.63
gawa	-12.6301
reason	-12.6302
fried	-12.6302
▁spoil	-12.6303
▁euph	-12.6304
siege	-12.6306
▁expo	-12.6307
nott	-12.6309
▁kum	-12.631
▁lieutenants	-12.6311
▁legalize	-12.6311
▁paralysi	-12.6311
osu	-12.6313
▁infuriate	-12.6318
iah	-12.6321
kaya	-12.6321
▁emer	-12.6326
master	-12.633
trayal	-12.6331
▁olympia	-12.6332
▁emir	-12.6334
▁disast	-12.6334
thma	-12.6336
▁lenien	-12.6339
▁scrub	-12.6344
lom	-12.6344
▁morris	-12.6345
▁beau	-12.6346
▁eject	-12.6347
▁homo	-12.6348
▁snag	-12.6348
▁bug	-12.6349
▁reconstruct	-12.635
slaught	-12.6352
▁bjor	-12.6353
▁spam	-12.6354
cussion	-12.6354
▁clarifi	-12.6354
▁dharams	-12.6354
▁incorrect	-12.6354
▁stupid	-12.6354
▁bikini	-12.6354
▁brazen	-12.6354
▁chechnya	-12.6354
▁dilemma	-12.6354
▁encroach	-12.6354
▁fountain	-12.6354
▁kiosk	-12.6354
▁mishandl	-12.6354
▁modify	-12.6354
▁montenegr	-12.6354
▁nanotube	-12.6354
▁orangutan	-12.6354
▁pablo	-12.6354
▁permafrost	-12.6354
▁pesticide	-12.6354
▁prejudice	-12.6354
▁remorse	-12.6354
▁reprimand	-12.6354
▁rheumato	-12.6354
▁scapegoat	-12.6354
▁semiconductor	-12.6354
▁subtitle	-12.6354
▁torchbearer	-12.6354
▁tumult	-12.6354
▁uninhabit	-12.6354
▁unpleasant	-12.6354
▁arrogan	-12.6354
▁blatant	-12.6354
▁linguistic	-12.6354
▁nullify	-12.6354
▁scully	-12.6354
▁entrench	-12.6354
▁mahmud	-12.6354
▁sapien	-12.6354
▁glorify	-12.6354
▁oleg	-12.6354
▁qantas	-12.6354
funct	-12.6354
▁glitch	-12.6354
▁shroud	-12.6354
▁tweak	-12.6354
▁archeologist	-12.6354
▁conversion	-12.6354
▁ernest	-12.6354
▁piercing	-12.6354
▁horizontal	-12.6354
▁thirst	-12.6354
▁scourge	-12.6354
▁outsourc	-12.6354
▁snoop	-12.6354
▁vivid	-12.6354
▁halper	-12.6354
▁electrocut	-12.6354
▁bookstore	-12.6354
▁picnic	-12.6355
▁zem	-12.6355
▁ivanko	-12.6355
▁blunder	-12.6355
▁irreversibl	-12.6355
▁reschedul	-12.6355
▁eradicat	-12.6355
▁assailant	-12.6355
▁tirade	-12.6355
▁fabian	-12.6355
▁chechen	-12.6355
▁timber	-12.6355
▁ovation	-12.6355
▁slaughterhouse	-12.6355
▁humbert	-12.6355
▁bombardier	-12.6355
▁gunbattle	-12.6356
▁undervalue	-12.6356
▁perennial	-12.6356
▁regroup	-12.6356
▁bancroft	-12.6356
▁calif	-12.6356
▁grue	-12.6356
▁pervasive	-12.6357
▁mulia	-12.6357
▁sunset	-12.6357
▁payroll	-12.6357
▁orchard	-12.6357
▁playboy	-12.6357
▁pharmacist	-12.6358
▁financier	-12.6358
▁dealership	-12.6358
▁neural	-12.6358
▁niece	-12.6358
▁exhaustive	-12.6358
▁tailor	-12.6359
▁turbulence	-12.6359
▁eros	-12.6359
▁eldor	-12.6359
▁rehearsal	-12.6359
▁giovan	-12.6359
▁livelihood	-12.6359
lobo	-12.6359
▁appliance	-12.6359
▁annex	-12.6359
osexual	-12.6359
▁trumpet	-12.6359
▁rapper	-12.636
▁hoax	-12.636
usnes	-12.636
▁mountaineer	-12.636
▁precis	-12.636
▁cylinder	-12.636
▁wolve	-12.636
▁mattress	-12.6361
▁excavation	-12.6361
▁deception	-12.6361
▁imperialist	-12.6361
▁realtor	-12.6361
▁crusade	-12.6362
▁persecut	-12.6362
▁contamination	-12.6362
▁lauder	-12.6363
▁socialite	-12.6363
▁neat	-12.6363
▁poach	-12.6363
▁microbe	-12.6363
▁feasibl	-12.6364
▁shave	-12.6364
▁snagg	-12.6365
▁appointee	-12.6365
▁lurk	-12.6365
▁audi	-12.6365
▁partition	-12.6365
▁postcard	-12.6365
▁plow	-12.6366
guide	-12.6366
▁reversal	-12.6366
▁distortion	-12.6366
▁monro	-12.6367
ternate	-12.6367
▁keyboard	-12.6369
ourage	-12.6369
▁alternate	-12.6369
▁trampled	-12.6369
mela	-12.6369
▁cjd	-12.637
▁witch	-12.637
▁bachel	-12.6371
▁huang	-12.6371
▁harmless	-12.6372
gam	-12.6372
▁stride	-12.6372
▁sitter	-12.6373
▁hoist	-12.6373
▁walton	-12.6374
▁relic	-12.6375
▁selloff	-12.6377
▁pedophile	-12.6378
▁acquittal	-12.6378
▁liar	-12.6379
▁stave	-12.638
▁defection	-12.6381
▁reeves	-12.6381
▁surre	-12.6381
▁clogg	-12.6382
▁baile	-12.6382
▁tasting	-12.6382
▁loft	-12.6383
▁schoolgirl	-12.6385
▁evangelist	-12.6386
▁haunt	-12.6387
▁wobble	-12.6388
gia	-12.6389
▁cutback	-12.6389
▁cristi	-12.639
▁spillway	-12.6391
▁yank	-12.6392
▁astro	-12.6393
▁protestant	-12.6394
▁cervi	-12.6395
▁cellar	-12.6398
▁backhand	-12.6398
▁beekeeper	-12.6399
▁parma	-12.64
▁bundle	-12.6401
▁limon	-12.6401
ulsan	-12.6402
▁pow	-12.6403
▁polk	-12.6405
ality	-12.6407
▁lobbie	-12.6408
▁tempt	-12.6411
▁pag	-12.6412
▁euthanize	-12.6412
▁makeover	-12.6413
▁recreation	-12.6416
▁curti	-12.6418
▁torri	-12.6421
▁kiln	-12.6421
▁kilo	-12.6422
▁freighter	-12.6423
aikon	-12.6426
▁etc	-12.6426
▁reput	-12.6427
▁convenient	-12.6428
▁ponder	-12.6428
▁showroom	-12.6431
▁spurt	-12.6432
▁cabo	-12.6433
▁prudent	-12.6435
kham	-12.6437
▁bids	-12.6438
▁bestsell	-12.6439
▁insur	-12.6442
▁grader	-12.6444
▁gonu	-12.6444
ingles	-12.6446
hall	-12.6447
lic	-12.6448
max	-12.6451
rash	-12.6456
▁subversi	-12.6458
▁alegr	-12.6459
▁culminate	-12.6459
▁compromis	-12.6459
▁illustrate	-12.646
▁leon	-12.6461
iman	-12.6462
pag	-12.6464
tter	-12.6464
extraterrestrial	-12.6465
▁shortcoming	-12.6465
alai	-12.6466
▁lent	-12.6467
▁midland	-12.6469
▁suff	-12.647
▁hendri	-12.6472
hamel	-12.6472
▁honduras	-12.6474
▁eyebrows	-12.6474
ucinic	-12.6476
▁balanc	-12.6477
▁bac	-12.6477
▁chamb	-12.6477
▁francesc	-12.6482
uli	-12.6485
▁allowance	-12.6485
▁denn	-12.6488
▁cav	-12.649
▁mum	-12.6492
▁shum	-12.6494
ttered	-12.6494
kar	-12.6495
▁conrad	-12.6495
raped	-12.6498
▁bloodie	-12.65
▁mama	-12.6502
ere	-12.6502
cott	-12.6506
▁afl	-12.6507
agong	-12.6508
▁nico	-12.651
▁roan	-12.651
▁suffocat	-12.6513
▁salad	-12.6514
ehead	-12.6514
▁allah	-12.652
▁lith	-12.6521
▁defaulter	-12.6521
▁keller	-12.6526
▁smog	-12.653
▁coral	-12.6532
imo	-12.6535
▁lar	-12.6535
mid	-12.654
▁krist	-12.6541
▁refuel	-12.6541
ile	-12.6545
▁curl	-12.6552
ex	-12.6556
▁spru	-12.6558
wind	-12.6559
▁homi	-12.6559
▁shuk	-12.656
▁haas	-12.656
▁marty	-12.6561
agliar	-12.6564
hue	-12.6565
▁molecul	-12.6565
▁gasp	-12.6565
weight	-12.657
▁implicat	-12.6571
▁patter	-12.6571
net	-12.6576
▁countrymen	-12.6576
▁bidders	-12.658
▁amir	-12.6581
pr	-12.6586
▁tas	-12.6596
▁piled	-12.6596
illo	-12.6597
▁hacke	-12.6599
eppel	-12.66
▁bao	-12.6605
for	-12.6606
rang	-12.6608
tui	-12.6617
▁rhon	-12.6617
agh	-12.6623
▁locke	-12.6638
epp	-12.6638
▁kins	-12.664
▁glid	-12.6645
▁labe	-12.6645
▁neutralize	-12.6647
▁adhere	-12.6656
ashkar	-12.6656
▁maximize	-12.6657
▁gut	-12.6658
▁siddiq	-12.6663
ough	-12.6667
▁insects	-12.6667
andra	-12.6671
passionate	-12.6671
▁fc	-12.6673
▁qata	-12.6677
▁hai	-12.6684
▁nou	-12.6691
link	-12.6693
▁functional	-12.6695
gura	-12.6696
▁billow	-12.6697
▁frightening	-12.67
ving	-12.6702
▁hemi	-12.6706
▁consula	-12.6712
▁tremors	-12.6716
▁hurdles	-12.6716
▁hasten	-12.6743
▁sule	-12.6745
▁fraz	-12.6746
▁ike	-12.6747
▁converter	-12.6747
ps	-12.6748
mas	-12.6765
ssels	-12.6766
▁wada	-12.6766
▁rena	-12.6767
isch	-12.6767
▁hos	-12.6769
▁stephens	-12.6769
▁rin	-12.6771
▁chilling	-12.6776
qi	-12.6779
nage	-12.6795
▁sheer	-12.6805
uto	-12.6809
▁strat	-12.6811
▁whisk	-12.6821
▁kost	-12.6825
▁illuminat	-12.6835
▁naka	-12.6842
▁median	-12.6843
▁lookout	-12.6846
ption	-12.6846
▁extort	-12.6856
ols	-12.6858
▁chery	-12.6862
▁isabell	-12.6862
▁inundate	-12.6867
aj	-12.6875
▁tab	-12.688
elman	-12.688
eef	-12.6882
▁ventur	-12.6883
isman	-12.6884
knesse	-12.6886
table	-12.6893
lix	-12.6895
erick	-12.69
▁crand	-12.6903
▁tep	-12.6904
▁hale	-12.6905
▁glue	-12.6907
rie	-12.6908
▁glamor	-12.6908
▁karr	-12.691
▁divulge	-12.691
▁nong	-12.6912
fm	-12.6919
▁eater	-12.6923
▁shir	-12.6924
kill	-12.693
▁murderer	-12.6937
pper	-12.6941
▁swede	-12.6944
▁tripp	-12.6945
▁acr	-12.6956
icker	-12.6963
▁seb	-12.6967
▁akh	-12.6971
lice	-12.6974
▁chem	-12.6981
jin	-12.6982
▁hatha	-12.6987
▁shahr	-12.6987
▁idle	-12.6989
▁commut	-12.6989
fid	-12.6993
▁tenzin	-12.6995
▁arr	-12.6997
iku	-12.7005
rum	-12.7016
isse	-12.7016
ib	-12.7026
uchi	-12.7034
▁pains	-12.7035
▁revitaliz	-12.7037
▁vern	-12.7038
▁foresee	-12.7038
▁marcos	-12.7058
user	-12.7062
ifa	-12.7064
▁hubb	-12.707
▁angle	-12.7072
▁alto	-12.7075
▁hab	-12.7076
▁muha	-12.7077
▁begg	-12.7079
▁mol	-12.7079
▁handler	-12.708
▁yasa	-12.7081
▁politicize	-12.7082
▁teres	-12.7084
▁basa	-12.7084
▁benit	-12.7093
▁tarnish	-12.7094
▁dor	-12.7097
mp	-12.7101
▁terminat	-12.7102
▁congesti	-12.7105
▁clai	-12.7121
mir	-12.7126
▁cau	-12.7131
▁hashem	-12.7133
▁inju	-12.7134
▁importer	-12.7134
liot	-12.7136
aden	-12.7136
▁askari	-12.714
▁incon	-12.7149
mb	-12.7151
tour	-12.7153
oto	-12.7155
xa	-12.7164
▁corners	-12.7169
▁grappl	-12.7183
ides	-12.7185
nch	-12.7199
oya	-12.7199
▁rah	-12.72
rus	-12.7202
▁tyle	-12.7203
▁ador	-12.7206
▁riche	-12.7214
▁crowe	-12.722
▁hp	-12.722
rance	-12.7221
▁demi	-12.7235
ien	-12.7242
▁sac	-12.7247
▁salvati	-12.7249
▁hiroshi	-12.7249
▁slamme	-12.7264
ety	-12.7269
▁zaina	-12.7274
▁hayd	-12.7275
▁caste	-12.7278
▁brow	-12.7281
hei	-12.7287
utt	-12.729
sco	-12.7292
▁carne	-12.7293
▁menac	-12.7294
itzer	-12.7303
illian	-12.7303
fu	-12.7304
▁socio	-12.7309
▁gravel	-12.7323
ency	-12.7323
aries	-12.7324
▁carol	-12.7328
▁huddl	-12.733
usted	-12.7333
▁chul	-12.7334
▁worrying	-12.7339
▁gwa	-12.7339
▁lau	-12.7343
▁dou	-12.7345
▁kla	-12.7357
oper	-12.7363
▁conven	-12.7368
▁compassion	-12.737
▁originat	-12.7373
▁petra	-12.7375
zer	-12.7382
enez	-12.7386
flation	-12.7394
zar	-12.7396
▁huddle	-12.74
acher	-12.7404
▁underlin	-12.7404
▁obi	-12.7407
terres	-12.7409
▁variation	-12.741
py	-12.7425
asco	-12.7425
gas	-12.7426
▁hander	-12.7429
▁helm	-12.7429
▁insect	-12.7434
rafa	-12.7437
uchov	-12.7437
reach	-12.7439
▁gorilla	-12.7447
▁stephan	-12.7449
▁semiti	-12.7449
▁antibiotic	-12.7449
▁tang	-12.745
lion	-12.7451
▁marti	-12.7455
▁integra	-12.7457
▁attendant	-12.7459
▁migrat	-12.7463
ellwe	-12.747
rick	-12.7474
▁unrel	-12.7479
▁spi	-12.7485
nier	-12.7486
zy	-12.7489
▁gha	-12.7492
▁helsin	-12.7498
▁puzzle	-12.7505
lander	-12.7506
lude	-12.7509
▁garro	-12.7524
▁inflat	-12.7525
▁baku	-12.7529
▁seab	-12.7529
▁grani	-12.753
▁stok	-12.7531
▁overtake	-12.7535
eu	-12.754
▁flam	-12.754
lb	-12.7551
▁bam	-12.7554
▁kuo	-12.7557
▁hoe	-12.7557
▁storie	-12.7559
glo	-12.7569
lson	-12.757
logy	-12.7572
pression	-12.7574
▁evacuat	-12.7574
dou	-12.7577
▁reset	-12.7577
▁tow	-12.7579
▁surprises	-12.7581
halifa	-12.7588
▁insure	-12.7592
▁clu	-12.7593
▁exhibited	-12.7593
osis	-12.7598
hbo	-12.7603
▁gur	-12.7605
du	-12.7613
▁entitle	-12.7619
speak	-12.7622
mple	-12.7623
▁paddle	-12.7624
erner	-12.7624
may	-12.7626
ldp	-12.7637
tle	-12.7655
▁lex	-12.7665
▁heli	-12.7668
mur	-12.7669
▁slavi	-12.7673
▁transmit	-12.7674
▁upgrad	-12.7674
▁advers	-12.7675
gart	-12.7676
▁yam	-12.7678
▁trim	-12.7679
otti	-12.7679
▁lamb	-12.768
▁halle	-12.7683
▁underse	-12.7686
make	-12.7689
ratify	-12.769
▁const	-12.7691
▁imag	-12.7698
bras	-12.77
announc	-12.7704
▁revol	-12.7707
▁necessit	-12.7713
girls	-12.7718
pleasure	-12.772
blood	-12.7721
meyer	-12.7721
account	-12.7721
electric	-12.7722
drift	-12.7722
first	-12.7722
proof	-12.7722
▁pino	-12.7722
fair	-12.7722
chrys	-12.7723
complete	-12.7723
▁destin	-12.7724
stopp	-12.7724
storm	-12.7724
boat	-12.7725
broken	-12.7726
famous	-12.7729
doubted	-12.7729
lund	-12.7733
▁faw	-12.7736
tight	-12.7737
izer	-12.7737
ep	-12.7739
▁bolivar	-12.774
kma	-12.7741
assa	-12.7744
▁reassur	-12.7744
tub	-12.7746
▁wrest	-12.7746
elho	-12.775
▁reunite	-12.7751
wenge	-12.7753
tical	-12.7754
linda	-12.7756
▁lyn	-12.7756
finger	-12.7757
einfeld	-12.7758
▁adm	-12.7758
▁identi	-12.7759
▁exclusi	-12.7762
▁dimension	-12.7762
▁allergi	-12.7762
▁automat	-12.7765
bard	-12.7766
▁sc	-12.7766
▁terroriz	-12.7767
ratchet	-12.7769
mulate	-12.7773
▁seren	-12.7773
▁enlarge	-12.7774
▁galler	-12.7775
▁hunke	-12.7775
cuz	-12.7775
▁exempt	-12.7778
▁manifest	-12.778
cken	-12.778
▁surroga	-12.7781
▁lace	-12.7781
found	-12.7782
ellin	-12.7782
▁disgr	-12.7783
nuptial	-12.7783
▁aberdeen	-12.7783
▁abstention	-12.7783
▁allegiance	-12.7783
▁anaconda	-12.7783
▁ascertain	-12.7783
▁avocado	-12.7783
▁caricature	-12.7783
▁constituent	-12.7783
▁contaminant	-12.7783
▁curiosit	-12.7783
▁dungeon	-12.7783
▁dwarf	-12.7783
▁elicit	-12.7783
▁embolden	-12.7783
▁etiquette	-12.7783
▁expenditure	-12.7783
▁geopolitic	-12.7783
▁greyhound	-12.7783
▁imperative	-12.7783
▁insomnia	-12.7783
▁instinct	-12.7783
▁leicester	-12.7783
▁limousine	-12.7783
▁maverick	-12.7783
▁nostalgi	-12.7783
▁overcrowd	-12.7783
▁pamphlet	-12.7783
▁piccolo	-12.7783
▁python	-12.7783
▁shockwave	-12.7783
▁succumb	-12.7783
▁trespass	-12.7783
▁unfavorabl	-12.7783
▁unmistakabl	-12.7783
▁unwelcome	-12.7783
▁uproot	-12.7783
▁vegetarian	-12.7783
▁vegetation	-12.7783
▁blasphem	-12.7783
▁cochran	-12.7783
▁jealous	-12.7783
▁stylish	-12.7783
▁blissitt	-12.7783
▁cocktail	-12.7783
▁culver	-12.7783
▁handshake	-12.7783
▁incarcerat	-12.7783
▁mothball	-12.7783
▁neighbour	-12.7783
▁questionnaire	-12.7783
▁schwartz	-12.7783
▁vehement	-12.7783
▁disgust	-12.7783
▁disparit	-12.7783
▁newsletter	-12.7783
▁whisper	-12.7783
▁astrophysic	-12.7783
▁encompass	-12.7783
▁inherent	-12.7783
▁necklace	-12.7783
▁wreath	-12.7783
▁anguish	-12.7783
▁lobster	-12.7783
▁magellan	-12.7783
▁wreak	-12.7783
▁parcel	-12.7783
▁songwriter	-12.7783
▁diagnosis	-12.7783
▁futile	-12.7783
▁thunderstorm	-12.7783
▁siphon	-12.7783
▁galile	-12.7783
▁proficien	-12.7783
▁ardent	-12.7783
▁xavi	-12.7783
▁homepage	-12.7783
▁horizon	-12.7783
▁shantytown	-12.7783
▁mortem	-12.7783
▁commence	-12.7783
▁hotspot	-12.7783
▁sororit	-12.7783
▁waheed	-12.7783
▁minaret	-12.7783
▁zogb	-12.7783
▁habitual	-12.7783
▁megawatt	-12.7783
▁conquer	-12.7783
▁bracket	-12.7783
▁rookie	-12.7783
▁soundtrack	-12.7783
▁boutique	-12.7783
▁franz	-12.7783
▁discredit	-12.7783
▁kindergarten	-12.7783
shep	-12.7783
▁enslav	-12.7783
▁ransack	-12.7783
▁hippo	-12.7783
▁silk	-12.7783
▁headscar	-12.7783
▁sculptor	-12.7783
▁intersection	-12.7783
▁macedonia	-12.7783
▁hinck	-12.7783
▁texture	-12.7783
▁trouser	-12.7783
▁peddl	-12.7783
▁exonerat	-12.7783
▁drench	-12.7784
▁auctioneer	-12.7784
▁sparse	-12.7784
▁fissi	-12.7784
▁notebook	-12.7784
▁lafa	-12.7784
▁reorganize	-12.7784
▁simmon	-12.7784
▁mujahid	-12.7784
venir	-12.7784
▁harrod	-12.7784
▁mcew	-12.7784
▁improvis	-12.7784
▁stockhausen	-12.7784
▁oxf	-12.7784
▁schill	-12.7784
▁horde	-12.7784
▁irving	-12.7785
▁anthropologist	-12.7785
▁pediatrician	-12.7785
▁arbitrat	-12.7785
▁cereal	-12.7785
▁backyard	-12.7785
▁roberson	-12.7785
▁clump	-12.7785
iyad	-12.7785
▁ferment	-12.7785
▁subdue	-12.7785
▁poetry	-12.7785
pena	-12.7785
▁hungarian	-12.7785
▁adamant	-12.7786
▁wig	-12.7786
▁snarl	-12.7786
▁koala	-12.7786
▁dividend	-12.7786
▁siem	-12.7786
▁outburst	-12.7786
▁spearhead	-12.7786
▁stringent	-12.7786
▁variable	-12.7787
▁spacesuit	-12.7787
▁platini	-12.7787
▁pumpkin	-12.7787
▁gersh	-12.7787
▁ventilator	-12.7787
▁guitarist	-12.7787
▁streamline	-12.7787
▁marque	-12.7787
▁subtle	-12.7787
▁inexperience	-12.7787
▁quail	-12.7787
▁niche	-12.7788
▁censure	-12.7788
▁magdalen	-12.7788
grass	-12.7788
▁angola	-12.7788
tacean	-12.7788
▁seafar	-12.7788
▁repay	-12.7789
▁dampen	-12.7789
▁zhong	-12.7789
▁foam	-12.7789
egis	-12.7789
▁cheek	-12.7789
▁vertical	-12.7789
▁earmark	-12.779
▁doctorate	-12.779
▁crossfire	-12.779
▁latif	-12.779
▁coax	-12.779
blanc	-12.779
dience	-12.779
▁flagship	-12.779
▁paranoi	-12.779
▁vaccinat	-12.779
▁lexus	-12.7791
▁unload	-12.7791
wan	-12.7791
▁meditation	-12.7791
▁loch	-12.7791
▁cali	-12.7792
▁pristin	-12.7792
▁kolk	-12.7792
▁impatient	-12.7792
▁delete	-12.7792
▁pelt	-12.7792
kagi	-12.7792
▁rapist	-12.7793
▁baham	-12.7793
▁strive	-12.7793
▁occurrence	-12.7793
▁accura	-12.7793
▁morrison	-12.7794
▁medina	-12.7794
▁blockade	-12.7794
▁slur	-12.7794
▁underdog	-12.7795
▁breathtaking	-12.7795
▁trove	-12.7796
▁potts	-12.7796
▁reposition	-12.7796
▁myeong	-12.7797
▁kurt	-12.7797
▁hollow	-12.7797
▁dani	-12.7798
ogury	-12.7798
▁aguil	-12.7799
▁holling	-12.7799
▁trimm	-12.78
▁intruder	-12.78
▁adversari	-12.78
▁raven	-12.78
▁peril	-12.7801
mund	-12.7801
▁swee	-12.7801
▁flopp	-12.7802
▁pix	-12.7802
▁upload	-12.7802
tomed	-12.7803
▁grassland	-12.7803
▁zombie	-12.7803
▁agitat	-12.7803
▁whip	-12.7803
▁wrongful	-12.7804
▁interception	-12.7804
▁saucer	-12.7804
▁ferre	-12.7804
▁waterboard	-12.7805
stage	-12.7805
▁equator	-12.7805
▁sanja	-12.7806
▁gadda	-12.7806
▁cramm	-12.7807
▁chronicle	-12.7807
▁align	-12.7807
▁efp	-12.7807
ktra	-12.7807
▁privatiz	-12.7808
▁notori	-12.7808
▁saeed	-12.7808
▁decry	-12.7809
▁donggu	-12.781
▁ghana	-12.781
▁trio	-12.7811
▁mukh	-12.7811
▁limitations	-12.7812
▁hypothes	-12.7812
ynov	-12.7813
▁tilt	-12.7813
▁sober	-12.7814
▁cavaliers	-12.7814
▁christen	-12.7814
▁badge	-12.7816
▁optical	-12.7817
▁kingsto	-12.7817
▁boj	-12.782
▁knockout	-12.7821
xter	-12.7822
▁cont	-12.7822
irelessly	-12.7823
▁resonat	-12.7824
▁sagg	-12.7824
▁fogg	-12.7824
▁infuriat	-12.7825
▁bolivarian	-12.7826
▁roberts	-12.7827
▁kwak	-12.7827
croft	-12.7829
▁bono	-12.783
vasive	-12.7831
▁dumb	-12.7832
ui	-12.7832
▁chua	-12.7833
▁analys	-12.7833
▁svet	-12.7835
▁quo	-12.7835
fication	-12.7836
▁rhy	-12.7837
▁brighten	-12.7837
▁bruise	-12.7839
▁mcde	-12.784
▁crematori	-12.7844
▁bode	-12.7844
▁olli	-12.7845
▁gand	-12.7847
▁scribe	-12.7848
▁colom	-12.7848
▁tril	-12.7849
istani	-12.7849
▁tata	-12.785
ip	-12.7851
▁abductor	-12.7852
▁kuwaiti	-12.7853
▁validate	-12.7853
▁ecolog	-12.7856
▁kiri	-12.7858
▁divo	-12.7858
▁reggi	-12.7859
bagh	-12.7859
▁loath	-12.7861
▁bumper	-12.7862
▁hurried	-12.7862
▁sesh	-12.7863
▁communiqu	-12.7867
dine	-12.7867
acle	-12.7868
▁haze	-12.7874
▁withhold	-12.7874
▁motorway	-12.7875
▁ral	-12.7875
▁parasite	-12.7876
▁poise	-12.7877
▁villain	-12.7879
▁brandish	-12.788
▁nutritional	-12.788
▁gani	-12.788
▁jali	-12.7882
▁toughen	-12.7883
▁bangladeshi	-12.7884
▁cola	-12.789
▁imply	-12.789
▁wesley	-12.7896
▁tram	-12.7898
▁ter	-12.7899
▁digest	-12.7903
guo	-12.7903
▁nang	-12.7905
▁continuously	-12.7909
▁commemorat	-12.7909
▁burger	-12.7909
▁kap	-12.7909
▁consolidati	-12.791
cesc	-12.791
▁durham	-12.791
▁hopeless	-12.7911
▁fraternit	-12.7912
ads	-12.7912
slav	-12.7915
▁arlen	-12.7918
nts	-12.7919
▁kaise	-12.7919
▁pend	-12.792
uca	-12.7922
▁atkins	-12.7926
baz	-12.7929
alph	-12.7929
▁dior	-12.7931
▁caul	-12.7933
▁pian	-12.7935
▁idiot	-12.7939
zburg	-12.7942
▁soba	-12.7942
hamble	-12.7943
▁mik	-12.7943
▁elevate	-12.7948
▁propeller	-12.7952
▁sellout	-12.7955
▁peni	-12.7959
▁moderat	-12.7963
▁yaki	-12.7964
▁mast	-12.7964
▁graphi	-12.7965
▁rene	-12.7966
▁shedd	-12.7967
▁sprinter	-12.7968
▁joking	-12.7972
suke	-12.7972
▁khaz	-12.7974
▁inscription	-12.7976
alo	-12.7978
▁hana	-12.7982
▁salem	-12.7982
sworth	-12.7984
▁specifi	-12.7988
▁lebr	-12.7992
▁fink	-12.7996
opoul	-12.8001
face	-12.8002
allest	-12.8006
▁mayo	-12.8007
▁padd	-12.8007
eiffe	-12.8007
▁buckle	-12.8008
babil	-12.8009
otto	-12.8009
▁postur	-12.8011
▁wanna	-12.8012
leak	-12.8015
desta	-12.8018
▁khu	-12.8021
▁smoothly	-12.8022
cragg	-12.8027
▁slipper	-12.8027
▁unionist	-12.8032
hofst	-12.8032
▁porto	-12.8036
assi	-12.8037
▁narrat	-12.8039
uku	-12.8042
▁grey	-12.8045
▁replie	-12.8046
▁payout	-12.8046
▁shrive	-12.8055
efe	-12.8057
▁rex	-12.8063
nmen	-12.8065
▁puzzl	-12.8068
▁billionaires	-12.8069
▁hanky	-12.8071
magh	-12.8075
▁airb	-12.8079
▁alaskan	-12.8079
▁marcia	-12.8082
untle	-12.8083
▁busi	-12.8084
mitt	-12.8085
▁rica	-12.8087
zhu	-12.8089
mission	-12.809
▁reside	-12.8092
tive	-12.8096
rko	-12.8099
▁oppressi	-12.81
▁harden	-12.8102
▁refine	-12.8102
umu	-12.8104
▁abou	-12.8104
▁getty	-12.8106
▁kwa	-12.8112
▁tarant	-12.812
▁cato	-12.8125
▁lease	-12.8127
▁rott	-12.8128
zzy	-12.8134
vuit	-12.8137
hara	-12.8139
currence	-12.8139
▁glance	-12.8143
▁gye	-12.8145
▁ponte	-12.8148
▁smiley	-12.815
shiro	-12.8153
▁polariz	-12.8155
▁reconvene	-12.8158
▁belated	-12.8159
stick	-12.8171
usa	-12.818
▁jima	-12.8181
uil	-12.8188
▁favorabl	-12.8189
▁strick	-12.8194
▁rancher	-12.8203
arro	-12.8205
illionaire	-12.8205
▁pillars	-12.8205
▁accomplishments	-12.8206
▁repress	-12.8207
dahn	-12.8208
▁genital	-12.8209
▁fak	-12.8214
byl	-12.8216
▁abb	-12.822
mposition	-12.8228
hat	-12.8228
ugh	-12.8233
▁info	-12.8237
▁dole	-12.8242
▁sab	-12.8247
▁zal	-12.8251
ridge	-12.8252
rkus	-12.8256
▁slop	-12.8256
gro	-12.8256
▁subsidiz	-12.826
▁alerts	-12.8263
ahi	-12.8263
np	-12.8265
iyan	-12.8265
▁bach	-12.8268
tick	-12.8273
▁intrigue	-12.8276
errone	-12.8279
inne	-12.8282
▁volk	-12.829
▁gol	-12.8291
▁herman	-12.8292
▁bucha	-12.8294
▁cruis	-12.8296
▁cer	-12.8296
urance	-12.8298
▁responsibl	-12.8298
▁lud	-12.83
mphan	-12.8311
yanni	-12.8314
▁youn	-12.8315
▁rai	-12.832
rw	-12.8322
iki	-12.8325
▁liner	-12.8335
▁bustl	-12.8335
▁conditional	-12.8347
▁riv	-12.835
▁batt	-12.8355
▁mach	-12.8361
fill	-12.8365
▁gloss	-12.8379
▁hosh	-12.8379
▁kah	-12.8381
▁sol	-12.8386
▁crisscross	-12.8389
▁notic	-12.8392
▁loren	-12.8396
tiana	-12.84
▁ridde	-12.8404
oga	-12.8405
gye	-12.8406
▁weave	-12.841
iable	-12.841
▁cube	-12.8413
▁merg	-12.8414
lla	-12.8419
▁proceeding	-12.8422
▁ble	-12.8422
▁sig	-12.8423
▁stra	-12.8429
▁calve	-12.8431
yong	-12.8435
▁azim	-12.8436
▁lark	-12.8443
▁patrioti	-12.8444
▁fah	-12.8447
▁vindicat	-12.8452
▁circl	-12.8453
▁tung	-12.8454
▁vari	-12.8456
▁vas	-12.8459
▁whi	-12.8459
served	-12.8463
▁stein	-12.8463
ebol	-12.847
▁promoter	-12.8482
▁brass	-12.8483
▁amal	-12.8484
▁baron	-12.8486
azar	-12.8488
▁choke	-12.849
scription	-12.8491
▁hasti	-12.8495
▁aft	-12.8496
▁gale	-12.8496
zing	-12.8497
▁nai	-12.8507
▁hyp	-12.8509
▁aches	-12.8511
▁beards	-12.8513
esha	-12.852
▁disco	-12.8525
▁workout	-12.8527
▁rive	-12.8529
hel	-12.853
▁lew	-12.8535
▁depress	-12.8536
▁hats	-12.8536
▁graf	-12.8542
shop	-12.8544
▁shard	-12.856
▁strangl	-12.8562
▁rus	-12.8563
took	-12.8566
▁harrie	-12.8569
▁wali	-12.8577
[...]
