<pad>	0
<s>	0
</s>	0
<unk>	0
▁.	-3.22181
을	-3.60519
는	-3.73173
의	-3.74912
▁	-3.76652
은	-3.99259
를	-4.08596
가	-4.34623
에	-4.37798
▁,	-4.43365
이	-4.4358
고	-4.71284
에서	-5.13059
한	-5.16381
로	-5.1915
▁이	-5.26704
▁일	-5.28118
인	-5.29436
▁그	-5.3625
으로	-5.43162
▁있다	-5.4688
과	-5.46897
와	-5.57106
▁고	-5.59085
도	-5.64451
▁수	-5.66374
▁밝혔다	-5.72072
▁말했다	-5.74388
할	-5.80856
▁년	-5.89938
▁있는	-5.92332
하고	-5.98212
지	-6.02706
다	-6.09639
▁전	-6.18996
▁대한	-6.22578
했다	-6.23934
▁위해	-6.24256
하는	-6.2583
▁이번	-6.29802
▁미국	-6.31116
▁전했다	-6.3216
▁월	-6.3295
▁한	-6.33102
▁지난	-6.39692
▁현지시간	-6.42576
▁정부	-6.42751
며	-6.43588
▁대해	-6.4989
던	-6.53077
▁중	-6.53616
▁미	-6.53964
▁며	-6.54219
된	-6.54437
나	-6.55497
기	-6.55854
해	-6.57639
▁것으로	-6.57867
▁명	-6.59287
▁것	-6.59809
에게	-6.6121
▁명이	-6.61512
▁것이라고	-6.62864
▁있다고	-6.6987
으며	-6.70362
▁그러나	-6.71674
▁것을	-6.72396
▁더	-6.76397
s	-6.76818
히	-6.77004
▁이라크	-6.77492
스	-6.79353
▁다른	-6.85261
게	-6.8727
자	-6.8852
▁명의	-6.88868
▁대통령	-6.91315
▁중국	-6.92508
하게	-6.92576
운	-6.94943
이다	-6.96284
▁한편	-6.96774
▁북한	-6.98892
▁또	-6.9999
▁이라고	-7.00143
▁약	-7.00505
▁오바마	-7.00685
▁만	-7.01706
▁주	-7.02188
지만	-7.02664
▁경찰	-7.04457
▁등	-7.05067
▁총리	-7.07018
▁대변인	-7.07871
▁후	-7.08421
들이	-7.09365
▁에	-7.10081
▁많은	-7.11264
하기	-7.11544
▁위한	-7.12174
리	-7.12288
▁우리	-7.13067
▁부시	-7.13198
▁통해	-7.13369
▁이후	-7.13961
만	-7.15427
하지	-7.16066
▁영국	-7.16648
▁대통령은	-7.16969
▁내	-7.17574
▁세	-7.18421
적인	-7.19017
▁가장	-7.19098
하며	-7.19192
▁두	-7.20547
▁동안	-7.21249
했으며	-7.21493
▁같은	-7.21657
까지	-7.22355
들	-7.22882
▁것이다	-7.23237
▁않았다	-7.25342
될	-7.26043
▁한국	-7.26087
▁말	-7.31178
시	-7.32232
▁개	-7.33975
트	-7.34048
▁주장했다	-7.34211
▁세계	-7.34394
▁한다	-7.36135
▁할	-7.36628
▁될	-7.36676
▁이들	-7.36836
▁바	-7.36965
▁현재	-7.37132
▁달러	-7.37166
라	-7.37249
▁문제	-7.37881
▁있	-7.37927
▁때	-7.38073
상	-7.38349
▁것은	-7.38548
▁관련	-7.38827
▁또한	-7.38964
드	-7.40292
▁이상	-7.41565
면	-7.41733
어	-7.42034
▁가	-7.429
▁일부	-7.43645
▁알	-7.44031
▁the	-7.44342
▁대	-7.44346
▁보도했다	-7.44418
서	-7.4493
▁덧붙였다	-7.45367
▁최근	-7.4549
및	-7.4562
▁시	-7.46028
▁지역	-7.4652
▁했다	-7.46774
▁경우	-7.4709
▁영화	-7.47306
▁있었다	-7.47388
사	-7.48293
으나	-7.49512
▁자신의	-7.50798
했다고	-7.50965
▁모든	-7.51283
▁것이	-7.523
▁후보	-7.52897
했던	-7.53703
▁새로	-7.54139
▁함께	-7.55457
▁시간	-7.55926
▁당시	-7.55956
▁미군	-7.56176
수	-7.56239
▁라고	-7.56749
▁일본	-7.59237
거	-7.60159
▁그리고	-7.60282
일	-7.60297
▁경제	-7.60447
▁조사	-7.61191
에따르면	-7.61764
▁계획	-7.62345
됐다	-7.62397
주	-7.62684
야	-7.62868
▁뒤	-7.63223
▁cnn	-7.63758
▁로	-7.64117
▁예정이다	-7.6623
▁수도	-7.6677
▁결과	-7.67332
▁모두	-7.67351
성	-7.67463
▁설명했다	-7.67465
▁to	-7.67947
▁있습니다	-7.68333
▁s	-7.6896
▁있으며	-7.69051
▁러시아	-7.70247
▁몇	-7.70684
▁파키스탄	-7.70718
▁처음	-7.70976
▁프랑스	-7.71214
라고	-7.72315
도록	-7.72499
▁아직	-7.72712
▁유엔	-7.7338
▁당국	-7.73558
보다	-7.7426
▁큰	-7.75006
▁없다	-7.75053
▁에서	-7.7555
▁공격	-7.75629
▁사실	-7.75853
▁이란	-7.76093
간	-7.76686
▁이스라엘	-7.77008
▁사고	-7.7704
▁하는	-7.77173
▁위	-7.77631
▁계속	-7.77635
▁차	-7.78294
▁경기	-7.78323
▁제	-7.79507
▁나	-7.79904
해야	-7.80333
▁회담	-7.80511
▁분	-7.80766
때문에	-7.80769
▁그녀	-7.80808
진	-7.80892
▁지난해	-7.81119
▁국가	-7.81142
▁올해	-7.81582
니	-7.8201
▁대통령이	-7.82279
▁민주당	-7.83599
▁사건	-7.83872
▁사람들	-7.83903
부	-7.84338
▁않을	-7.84458
들을	-7.8509
▁클린턴	-7.85093
이라고	-7.85325
▁열린	-7.85411
비	-7.85459
▁억	-7.85749
치	-7.85974
▁이날	-7.86514
▁지	-7.86667
하다	-7.86786
▁성명	-7.8734
한다	-7.88439
▁비	-7.88526
르	-7.88572
아	-7.89224
했습니다	-7.8939
▁번째	-7.90169
▁발표했다	-7.90773
▁라	-7.9092
▁발생한	-7.91463
크	-7.9166
적	-7.91801
면서	-7.92065
▁사	-7.92189
▁지원	-7.92287
▁받고	-7.92326
대	-7.92363
▁받았다	-7.92569
▁테러	-7.92663
▁존	-7.93569
선	-7.93847
장	-7.94015
▁다시	-7.94782
▁미국의	-7.94822
▁하고	-7.95027
▁발표	-7.95171
하	-7.95858
▁그들	-7.95995
▁여성	-7.96202
▁된다	-7.96423
▁of	-7.96645
▁관계자	-7.97067
▁달	-7.97165
▁이라	-7.97555
▁가운데	-7.97798
▁오	-7.97857
했	-7.9821
▁핵	-7.98263
▁a	-7.98764
하여	-7.99284
▁사람들이	-7.99553
▁반	-7.99584
▁사망했다	-7.99584
▁있을	-7.99593
입니다	-7.99713
▁주요	-8.00779
▁사람	-8.00791
▁의해	-8.01166
화	-8.01174
즈	-8.01875
▁이에	-8.02313
부터	-8.02814
▁아	-8.03131
었다	-8.03145
▁조	-8.03428
에도	-8.0343
▁됐다	-8.03911
▁초	-8.04535
▁장관	-8.04719
▁해	-8.04879
▁인해	-8.04976
▁국제	-8.05206
에따라	-8.05391
습니다	-8.05954
▁데	-8.06001
▁대부분	-8.06246
적으로	-8.0625
이나	-8.06261
당	-8.06647
▁안	-8.07149
▁첫	-8.07353
하지만	-8.07432
▁선거	-8.07716
▁결정	-8.0773
▁않은	-8.07867
▁채	-8.08022
▁관계	-8.08374
▁조치	-8.08399
▁사망	-8.08882
▁보고	-8.08903
▁시위	-8.09121
▁자	-8.09405
처럼	-8.09622
길	-8.0965
소	-8.10032
▁tv	-8.10578
▁혐의로	-8.10745
▁아프간	-8.10823
▁군	-8.11118
이며	-8.11216
▁지금	-8.11446
▁이미	-8.11544
세	-8.11582
▁거	-8.11896
▁연구	-8.12046
용	-8.12299
▁기록	-8.12546
전	-8.12719
▁번	-8.13315
▁승리	-8.13369
보	-8.13678
하면서	-8.14031
에서는	-8.14878
▁위치한	-8.15642
▁매우	-8.15857
원	-8.15904
▁있었	-8.16117
▁팔레스타인	-8.17045
▁원	-8.17231
▁이슬람	-8.17556
였	-8.17714
▁회사	-8.18141
로부터	-8.19109
▁없는	-8.19278
▁기자	-8.19587
▁방문	-8.19931
▁총	-8.19981
▁비난	-8.20141
프	-8.20163
▁정보	-8.20234
▁km	-8.20341
▁줄	-8.20359
▁마	-8.20731
le	-8.20928
▁유럽	-8.20969
▁추가	-8.21252
▁살	-8.21397
▁피해	-8.21509
마	-8.21633
▁in	-8.21747
되어	-8.21758
▁오늘	-8.21906
▁노	-8.22023
▁뉴욕	-8.22106
▁않고	-8.22195
▁의원	-8.22367
e	-8.22656
▁한다고	-8.2294
타	-8.23027
명	-8.23208
됐	-8.23235
▁조지	-8.23471
▁탈레반	-8.2349
▁대선	-8.23625
레	-8.23709
▁있다는	-8.24035
▁아이	-8.24165
▁강	-8.24176
▁지지	-8.24234
ing	-8.24477
▁호주	-8.24656
▁인도	-8.24822
▁년간	-8.25378
▁joins	-8.25485
▁어떤	-8.25485
▁정도	-8.25597
▁점	-8.25614
▁잘	-8.25677
▁지적했다	-8.26101
우	-8.26243
▁부	-8.26246
▁활동	-8.26367
▁대표	-8.26667
였다	-8.26738
식	-8.26743
▁독일	-8.26751
▁기	-8.26798
라는	-8.26909
디	-8.27117
▁혐의	-8.27476
▁소속	-8.27721
▁인터넷	-8.27812
▁원문기사보기	-8.28196
돼	-8.28283
▁포함	-8.28362
▁시장	-8.28368
▁다	-8.28521
▁새	-8.28783
했지만	-8.29065
▁감독	-8.29193
티	-8.29282
▁개의	-8.29295
▁내용	-8.29303
▁간	-8.29332
▁협상	-8.29521
안	-8.2957
제	-8.29633
▁우려	-8.29957
d	-8.30052
▁프로그램	-8.30055
바	-8.3046
▁하지	-8.30585
▁예정	-8.30651
▁w	-8.3071
▁대학	-8.30757
▁매케인	-8.3083
▁때문	-8.30949
▁부상	-8.31931
▁차량	-8.32022
y	-8.32112
▁없다고	-8.3238
▁구	-8.32528
▁여러	-8.32779
함	-8.32859
▁올림픽	-8.3306
▁최고	-8.33096
▁않는다	-8.33132
▁받은	-8.33576
▁보고서	-8.33712
질	-8.33726
▁m	-8.34013
▁못했다	-8.34046
▁발생했다	-8.34105
▁상원의원	-8.34679
▁입장	-8.34792
▁주장	-8.35134
▁성	-8.35249
▁개월	-8.35277
파	-8.35438
▁요구	-8.35741
▁사용	-8.35972
▁하	-8.36008
미	-8.36353
▁의회	-8.36468
합니다	-8.3654
되었다	-8.36642
▁관리	-8.36673
▁언론	-8.37369
▁상	-8.37536
▁박사	-8.37576
▁오후	-8.37891
코	-8.37915
▁보	-8.38178
▁폭탄	-8.38282
ed	-8.38553
관	-8.38569
▁시작	-8.38661
려	-8.38675
구	-8.39173
▁판매	-8.39175
린	-8.39493
국	-8.39858
▁카	-8.39932
▁전쟁	-8.40012
▁모습	-8.40045
▁북한이	-8.40059
권	-8.40448
되는	-8.40527
러	-8.40582
▁발생	-8.40652
이었다	-8.4072
▁보도	-8.40768
토	-8.41273
▁미얀마	-8.41378
▁도	-8.41588
▁인터뷰에서	-8.42082
▁단체	-8.42125
▁남자	-8.4226
▁자동차	-8.42583
▁준비	-8.42958
▁석방	-8.43365
오	-8.4355
▁생각	-8.43654
▁컴퓨터	-8.4366
▁앞으로	-8.43983
▁이러	-8.43993
▁있어	-8.44035
▁곳	-8.44369
▁된	-8.4437
산	-8.44381
▁기술	-8.4445
▁나는	-8.44606
▁터키	-8.44987
▁것에	-8.45069
▁갖고	-8.45134
▁현지	-8.45422
▁공화당	-8.45595
▁마지막	-8.45744
▁검찰	-8.45997
▁강조했다	-8.46037
차	-8.46146
▁방송	-8.46327
▁병원	-8.46419
▁ap	-8.4643
카	-8.46458
▁배	-8.46471
▁경찰이	-8.46901
되지	-8.47085
▁합의	-8.4715
▁개발	-8.4729
▁인쇄	-8.47395
▁떨어진	-8.47532
▁가진	-8.47669
내	-8.47799
▁상황	-8.48063
▁교수	-8.48347
▁무	-8.48378
▁반대	-8.48425
▁앞서	-8.48497
▁정책	-8.48539
▁해결	-8.48551
▁우주	-8.48625
▁변화	-8.48737
되고	-8.48983
▁오전	-8.49139
들에게	-8.49285
▁힐러리	-8.49302
▁남부	-8.49309
▁폭발	-8.4936
하는데	-8.49496
▁정	-8.49559
▁비난했다	-8.49649
▁주지사	-8.49755
▁사이	-8.4977
▁지도자	-8.49941
▁미국과	-8.50153
▁오는	-8.50167
물	-8.50294
▁독해	-8.50316
▁차례	-8.50364
▁스페인	-8.50535
▁평화	-8.50622
설명	-8.50701
▁물	-8.50797
▁않았	-8.50925
▁규모	-8.51022
▁버락	-8.5103
▁자신이	-8.51043
▁여	-8.51043
▁집	-8.51416
▁백악관	-8.51758
▁상태	-8.52151
▁날	-8.52216
▁아시아	-8.52521
▁증가	-8.52597
▁다음	-8.52843
▁피	-8.52913
▁야당	-8.52997
▁이어	-8.53246
▁노력	-8.53272
▁의사	-8.53504
▁미국이	-8.53595
▁원문	-8.53796
▁지난달	-8.5382
릴	-8.54237
▁없었다	-8.54297
▁투표	-8.54369
모	-8.54493
었던	-8.54649
▁도시	-8.54679
▁이탈리아	-8.55068
▁치료	-8.55145
▁좋은	-8.55568
▁무샤라프	-8.55826
▁인근	-8.55935
는데	-8.56129
▁지역에서	-8.56162
▁않	-8.56208
▁관한	-8.56509
법	-8.56635
▁있지만	-8.56674
▁볼	-8.56705
▁연방	-8.56759
하기로	-8.56998
▁신	-8.57021
▁이용	-8.57123
al	-8.57132
▁이를	-8.57241
▁아무	-8.57671
▁마리	-8.57731
▁전문가들	-8.58007
▁없이	-8.58075
▁가지	-8.58177
▁타	-8.5824
▁보인다	-8.58367
군	-8.58586
▁이런	-8.58594
▁영향	-8.58625
호	-8.58865
▁당	-8.58876
노	-8.5895
조	-8.59042
▁안전	-8.59241
▁여행	-8.5957
으로부터	-8.596
▁이름	-8.59604
브	-8.59635
정	-8.59716
▁파	-8.5999
▁최소	-8.60533
직	-8.60634
▁불	-8.60782
▁않다	-8.60969
단	-8.61043
▁까지	-8.61091
▁생산	-8.61142
▁금융	-8.6149
▁가족	-8.6162
▁사망자	-8.61659
▁불법	-8.6167
▁가능성	-8.61713
데	-8.6172
▁보다	-8.61742
▁미국은	-8.61792
▁저	-8.61834
▁양	-8.61916
▁미사일	-8.62322
들의	-8.62366
▁팀	-8.62514
▁장	-8.62657
▁이전	-8.62659
온	-8.62862
▁행사	-8.62912
▁모	-8.62978
▁김	-8.63023
▁연기	-8.63091
▁산	-8.6317
▁위협	-8.6317
▁밤	-8.6318
▁중요한	-8.63184
▁하나	-8.63268
▁리	-8.63292
▁공식	-8.63617
난	-8.63634
루	-8.64171
▁artic	-8.64187
▁최초	-8.64304
▁검사	-8.64356
▁년에	-8.64429
▁논의	-8.64719
▁for	-8.64807
▁만에	-8.64849
▁알카에다	-8.65504
▁상승	-8.65545
중	-8.65798
▁매	-8.65866
▁알려졌다	-8.65906
씨	-8.65912
박	-8.66002
▁사태	-8.66151
▁주둔	-8.6616
했었다	-8.66374
▁역사	-8.66412
▁포인트	-8.66548
▁비행기	-8.66585
▁외	-8.67033
▁발언	-8.67087
u	-8.67343
▁정치적	-8.67727
▁대통령과	-8.67754
하도록	-8.67899
▁돈	-8.67979
▁없	-8.68078
▁가격	-8.68262
계	-8.68414
임	-8.68531
▁말했습니다	-8.6865
▁법원	-8.68738
▁이야기	-8.68794
▁씨	-8.68808
▁용의자	-8.6881
터	-8.68872
▁필요	-8.68937
▁방법	-8.69051
▁은행	-8.69143
▁관심	-8.69163
▁반면	-8.69208
▁와	-8.69265
▁주민들	-8.69293
신	-8.69389
c	-8.69654
▁것입니다	-8.69657
▁역할	-8.69776
점	-8.69898
▁사망한	-8.69999
▁부토	-8.70013
▁재	-8.70305
▁코리아	-8.70881
▁무기	-8.70983
▁자신들	-8.71116
▁대해서	-8.71223
▁불구하	-8.71313
▁런던	-8.71323
▁유	-8.71426
▁자금	-8.71438
포	-8.71579
▁일간	-8.71695
▁서비스	-8.71725
▁회장	-8.71765
▁조직	-8.7178
▁정치	-8.71883
피	-8.71965
▁살해	-8.72085
▁호	-8.72209
▁학교	-8.72336
▁반군	-8.72354
▁자신	-8.72367
측	-8.72407
▁전에	-8.72477
▁최대	-8.72492
▁e	-8.72969
▁위험	-8.72987
▁골	-8.73216
▁인질	-8.73303
▁레	-8.73421
체	-8.73546
▁거래	-8.73614
▁관계자들	-8.73619
▁지구	-8.73619
▁코	-8.73731
▁한나라당	-8.73929
▁것이라는	-8.74039
▁열	-8.7418
▁출신	-8.74195
▁높은	-8.74239
▁인용	-8.74396
▁뉴스	-8.74652
들과	-8.74736
▁벌이	-8.7476
▁지난주	-8.74763
▁북부	-8.74835
력	-8.74896
방	-8.74952
▁언급	-8.75062
▁바그다드	-8.75091
▁의하면	-8.75225
됐다고	-8.75324
▁기업	-8.75329
▁올	-8.75337
더	-8.75366
▁군사	-8.75467
▁공	-8.75565
▁공급	-8.75611
사전	-8.75627
▁가능성이	-8.75797
▁강력	-8.75834
▁자살	-8.76133
해서	-8.7618
요	-8.76199
▁수사	-8.76244
▁발	-8.76297
▁게임	-8.76321
▁투자	-8.76488
▁소식	-8.76553
▁만명	-8.76601
▁적	-8.76721
▁더욱	-8.76763
▁뜻	-8.76778
▁건물	-8.76834
▁중단	-8.76966
▁선	-8.77132
▁심	-8.77185
▁시위대	-8.77244
여	-8.77418
발	-8.77473
▁왔다	-8.77498
▁소	-8.77509
▁못	-8.7752
▁알고	-8.77621
▁지역에	-8.77779
▁특	-8.77812
▁공동	-8.7804
▁선수	-8.78175
▁것이며	-8.78245
▁국경	-8.78353
자들	-8.78359
▁우승	-8.78699
▁아버지	-8.78718
시킬	-8.79055
츠	-8.79127
▁고위	-8.7936
▁부인	-8.79625
▁천	-8.79731
▁n	-8.80009
▁아니다	-8.80212
o	-8.80221
▁서울	-8.80293
위	-8.80295
▁필요한	-8.80312
▁어제	-8.80365
▁핵무기	-8.80662
▁앞	-8.80838
▁나라	-8.80858
▁이와	-8.8105
▁표	-8.81099
▁병력	-8.81104
이자	-8.81271
▁korea	-8.81495
▁법안	-8.81556
형	-8.81583
▁되는	-8.8166
▁하루	-8.81676
▁부족	-8.81816
▁아이들	-8.81944
▁시작했다	-8.81968
▁사르코지	-8.81998
▁감소	-8.82066
▁금지	-8.82187
▁확인	-8.82368
▁위기	-8.82494
▁운동	-8.8253
키	-8.82582
▁하마스	-8.82623
▁않는	-8.82626
▁티베트	-8.82672
▁라이스	-8.82706
▁행위	-8.82821
이라는	-8.83016
▁결국	-8.83022
▁요청	-8.83093
▁com	-8.83155
▁독립	-8.83343
▁아들	-8.83351
▁만달러	-8.83365
▁폭탄테러	-8.8343
▁아침	-8.83699
▁전화	-8.83735
▁발견	-8.83741
▁이제	-8.83868
▁그것	-8.83952
▁관련된	-8.83965
든	-8.83967
▁기간	-8.83968
▁법	-8.84161
동	-8.84194
▁기자회견에서	-8.84283
▁각	-8.84291
하겠다고	-8.84334
▁콜롬비아	-8.84379
▁포	-8.84428
▁동영상	-8.84525
회	-8.84647
▁행동	-8.84749
▁국방부	-8.848
▁공항	-8.84823
하자	-8.84928
▁건강	-8.85127
▁아니라	-8.85152
▁보였다	-8.85238
▁직접	-8.85342
▁la	-8.85447
문	-8.85494
▁충돌	-8.85588
▁이같	-8.85697
▁브라운	-8.85775
위원회	-8.85829
▁남성	-8.85925
▁노무현	-8.86115
▁캘리포니아	-8.86143
런	-8.86166
▁워싱턴	-8.86181
▁여부	-8.86206
▁위해서	-8.86405
▁and	-8.86481
시켰다	-8.86538
▁보호	-8.86546
▁사람이	-8.86685
▁억원	-8.86896
▁타고	-8.87002
▁스	-8.87052
실	-8.87142
▁받을	-8.87314
하면	-8.87469
된다	-8.87514
er	-8.8754
종	-8.87554
▁상원	-8.87595
n	-8.87604
▁있고	-8.87657
▁eu	-8.87921
하려	-8.87935
날	-8.88458
▁비행	-8.8859
▁자유	-8.88721
▁주택	-8.88835
친	-8.88892
▁보안	-8.89105
▁건설	-8.89125
란	-8.89343
▁역시	-8.89344
▁대화	-8.89462
학	-8.89833
▁특별	-8.89913
▁어떻게	-8.90044
▁대사	-8.90141
▁서	-8.9028
▁드	-8.90564
▁이유	-8.90622
▁수준	-8.90779
▁년까지	-8.90787
▁열리는	-8.90861
다고	-8.90902
▁음악	-8.90945
▁시신	-8.91058
▁받았	-8.91142
▁회의	-8.91172
▁이유로	-8.91338
▁베이징	-8.91471
한다고	-8.91619
▁협력	-8.91677
▁빌	-8.91726
▁곧	-8.91948
▁연설	-8.92007
▁판결	-8.92103
▁폴	-8.9215
▁문제에	-8.92208
▁철수	-8.92324
▁폐쇄	-8.92327
▁년대	-8.92369
▁국무부	-8.9263
▁사건에	-8.92706
▁손	-8.92802
그	-8.93021
▁문	-8.93066
▁으로	-8.93116
▁숨졌다	-8.93237
▁타임즈	-8.93383
▁에너지	-8.93502
긴	-8.93683
▁석유	-8.93725
▁데이비드	-8.93755
▁한국인	-8.9398
▁발사	-8.94075
▁위원회	-8.94079
▁아프가니스탄	-8.94169
급	-8.9421
▁신문	-8.94571
▁어	-8.94588
▁박	-8.94857
▁하락	-8.95307
▁기회	-8.95321
▁월에	-8.95354
▁호텔	-8.95372
감	-8.95372
▁온	-8.95378
▁체포	-8.95497
▁있게	-8.95529
유	-8.9559
▁대선후보	-8.95667
▁진행	-8.95814
▁말하는	-8.95884
▁방안	-8.95906
▁변호사	-8.96086
하던	-8.96097
▁실	-8.96123
▁과학자들	-8.96134
설	-8.96243
t	-8.96327
▁p	-8.96335
혀	-8.96411
▁공개	-8.965
▁같다	-8.96509
경	-8.96539
▁d	-8.96546
▁도로	-8.96607
▁증거	-8.96618
공	-8.96718
▁범죄	-8.96742
▁승인	-8.96899
▁있기	-8.96925
▁수술	-8.96935
▁내년	-8.9695
▁현	-8.96966
▁생활	-8.97017
▁남	-8.97053
▁양국	-8.97222
네	-8.97312
▁구조	-8.97328
▁전망	-8.97579
▁전세계	-8.97602
▁발견했다	-8.97775
▁아니	-8.97791
▁주변	-8.97841
▁너무	-8.97859
▁눈	-8.97974
▁교육	-8.97984
▁납치	-8.98012
▁대규모	-8.98013
▁요구했다	-8.98078
▁임무	-8.98092
▁통신	-8.98179
▁멕시코	-8.98396
▁종	-8.98397
버	-8.98415
▁입	-8.98454
▁생각한다	-8.98511
▁훈련	-8.98795
▁사회	-8.9894
b	-8.99158
하려는	-8.99761
▁길	-8.99813
▁우	-8.9987
▁어린이	-8.99988
▁비디오	-8.99999
▁의견	-9.00047
▁막	-9.00157
▁저장	-9.00179
▁만원	-9.00206
울	-9.00261
▁개인	-9.00271
▁동물	-9.00283
▁인구	-9.00313
▁재판	-9.00438
▁재개	-9.00443
▁화재	-9.00743
▁경고	-9.00755
▁성공	-9.008
▁나타났다	-9.0085
▁결혼	-9.00865
▁이동	-9.01064
▁정상	-9.01079
▁전투	-9.01177
▁약어표	-9.01209
▁앞두고	-9.01211
▁목표	-9.01232
▁힘	-9.01261
▁예정이라	-9.01328
▁포함한	-9.01451
▁co	-9.01456
▁대사관	-9.01476
▁비롯	-9.01621
재	-9.01892
교	-9.01927
반	-9.02218
▁성장	-9.02221
▁심각한	-9.0224
▁애	-9.02356
▁레바논	-9.02407
▁통	-9.02443
▁로버트	-9.02448
▁딸	-9.02566
▁관할	-9.02575
로서	-9.02639
▁전체	-9.02645
▁민간인	-9.02658
병	-9.0271
▁사진	-9.02772
▁억달러	-9.02859
▁인간	-9.02946
▁사업	-9.03077
심	-9.0309
▁했다고	-9.03229
▁아닌	-9.03273
▁것이라	-9.03349
▁태국	-9.03476
지는	-9.03597
▁편	-9.03682
▁방	-9.03719
▁난	-9.0372
▁여전	-9.03735
▁판사	-9.0374
슨	-9.03783
▁g	-9.03887
▁해외	-9.03893
▁안에	-9.04042
으로써	-9.04115
▁경선	-9.04171
▁출전	-9.04215
▁인	-9.04353
▁스타	-9.04403
▁못하	-9.04499
▁여객기	-9.04964
져	-9.04998
m	-9.05163
▁경기에서	-9.05188
▁들	-9.05415
▁제안	-9.05804
▁수치	-9.05828
영	-9.06083
▁인도네시아	-9.06161
▁대신	-9.06202
▁작전	-9.06452
▁촉구했다	-9.06464
▁수입	-9.06511
▁명과	-9.06523
너	-9.06581
st	-9.06617
▁작은	-9.06775
▁친구	-9.06928
속	-9.0695
▁국민	-9.07031
▁친	-9.07052
▁퍼센트	-9.07081
▁밝혀졌다	-9.07108
▁건	-9.07168
하라	-9.07205
▁가지고	-9.07276
▁시도	-9.07423
되었	-9.07432
▁항	-9.07524
▁치	-9.07534
▁산업	-9.076
▁그들의	-9.07705
▁인정	-9.0774
▁입은	-9.07813
▁마이클	-9.0795
▁헬기	-9.07998
▁마을	-9.08174
▁c	-9.08208
판	-9.08309
▁지도자들	-9.0831
▁이상이	-9.08368
스트	-9.08377
▁푸틴	-9.08386
▁규정	-9.08487
▁열차	-9.08555
▁대회	-9.0856
▁국민들	-9.0862
▁온라인	-9.08681
청	-9.08716
▁제재	-9.08864
▁예	-9.08981
▁선택	-9.09096
▁경쟁	-9.09117
▁안보	-9.09181
▁입었다	-9.09277
▁아기	-9.09316
역	-9.0949
▁예상	-9.09563
▁us	-9.0968
▁바로	-9.0969
▁폭력	-9.09707
▁시설	-9.10046
▁당신	-9.10155
연	-9.10241
▁알리	-9.10274
▁받아	-9.10323
▁이라크에서	-9.10398
▁환경	-9.1041
▁브라질	-9.10601
▁증시	-9.10615
▁네	-9.10676
▁최종	-9.11052
량	-9.11157
▁행정부	-9.11217
▁말한다	-9.11398
▁얼마	-9.11444
▁메시지	-9.11513
▁f	-9.11555
▁인권	-9.11568
▁라디오	-9.11621
▁부대	-9.11624
▁살고	-9.11827
▁연합	-9.11856
▁그들이	-9.11924
▁무장	-9.12012
▁un	-9.12114
▁본	-9.12243
▁이것	-9.12299
▁밝힌	-9.12404
▁배우	-9.12498
▁대의원	-9.12535
행	-9.12541
▁수단	-9.12585
▁아프리카	-9.12654
졌다	-9.12696
▁관리들	-9.12769
강	-9.12788
▁경고했다	-9.12798
▁대만	-9.12815
▁필요하다	-9.12918
p	-9.12929
▁만약	-9.12938
▁돌	-9.13006
r	-9.13033
▁그런	-9.13136
▁개선	-9.13198
▁보내	-9.13261
▁미국인	-9.13322
▁중인	-9.13403
▁도움	-9.13441
▁b	-9.135
▁속	-9.13599
▁서로	-9.13734
▁힐	-9.13792
▁외국	-9.13808
▁남편	-9.1402
▁출연	-9.14093
▁즉	-9.1415
후	-9.14215
▁운영	-9.14217
▁측	-9.14223
▁화요일	-9.14317
▁반응	-9.14417
▁의장	-9.14437
▁발표한	-9.14557
▁확보	-9.14712
▁비해	-9.14716
▁계약	-9.14789
▁책임	-9.14848
▁시스템	-9.1493
▁항공	-9.15016
▁여자	-9.15071
▁외국인	-9.15139
복	-9.15234
▁지수	-9.15292
▁벌였다	-9.15374
▁밝혔	-9.15376
론	-9.15668
▁관계자가	-9.15684
워	-9.15684
▁세금	-9.15721
▁홍콩	-9.15739
▁담	-9.15852
▁팔	-9.15914
▁가치	-9.16278
금	-9.16313
▁원인	-9.16329
▁지방	-9.1639
▁없을	-9.16405
▁광고	-9.1642
인한	-9.1656
▁스미스	-9.1659
▁소송	-9.16735
▁약속	-9.16897
▁시즌	-9.16935
건	-9.16972
▁여명	-9.16999
▁짐바브웨	-9.17067
▁과거	-9.17104
▁부부	-9.17265
▁기록했다	-9.17578
▁미국에서	-9.17599
▁같이	-9.17607
▁중동	-9.17664
a	-9.17701
▁공연	-9.17702
있는	-9.17835
▁상당	-9.17941
▁on	-9.17953
▁사무총장	-9.18026
▁내렸다	-9.18217
▁해안	-9.18435
▁시아파	-9.18509
▁연료	-9.18585
▁베	-9.1861
▁걸	-9.18718
▁주식	-9.18778
▁거리	-9.18922
▁밖에	-9.1893
▁만나	-9.19216
었다고	-9.19452
▁사임	-9.19568
▁디	-9.19614
▁총선	-9.19748
▁일정	-9.19857
▁일본의	-9.19963
▁각각	-9.19983
▁유지	-9.19998
▁권리	-9.20026
▁평균	-9.20119
▁앤	-9.20297
▁년부터	-9.20369
▁부통령	-9.20387
▁다리	-9.2046
▁정권	-9.20531
▁제작	-9.20597
▁해군	-9.20627
▁웹사이트	-9.20679
▁플로리다	-9.20688
▁작품	-9.20758
▁감시	-9.20761
▁비용	-9.20895
▁파업	-9.20979
▁기대	-9.21027
▁합의했다	-9.21352
▁가스	-9.21445
▁시험	-9.21464
▁이수지	-9.21464
▁않아	-9.21479
▁나오	-9.21493
▁제품	-9.21523
엔	-9.21626
▁국내	-9.21692
무	-9.21797
▁다양	-9.21857
통	-9.22094
▁개최	-9.22106
했을	-9.22261
▁처리	-9.22262
출	-9.22291
▁텍사스	-9.22336
▁사이에	-9.22394
▁환자	-9.22406
▁구성	-9.2254
▁소식통	-9.22606
작	-9.22753
▁위원장	-9.22832
▁주말	-9.22844
류	-9.22959
▁케냐	-9.22998
▁사건이	-9.23016
증	-9.23027
▁국영	-9.23059
▁과정에서	-9.23124
i	-9.23214
▁대가	-9.23255
▁학생	-9.23461
▁내무부	-9.23473
▁여름	-9.23482
▁걸쳐	-9.23488
▁발견됐다	-9.23556
▁인상	-9.23624
▁k	-9.23804
래	-9.23876
▁담당	-9.23942
▁암	-9.24163
▁완전	-9.24441
▁be	-9.24447
▁상황이	-9.2451
▁지명	-9.24535
석	-9.24544
▁것과	-9.24814
시켜	-9.24873
▁메	-9.24879
▁결정했다	-9.24952
▁강제	-9.2508
앞서	-9.25303
▁동부	-9.25381
민	-9.25425
▁선고	-9.25432
품	-9.25539
▁빈	-9.25542
▁주민	-9.25581
▁유일	-9.25617
▁이곳	-9.25637
▁부상했다	-9.25659
▁그룹	-9.25688
▁회	-9.25823
▁벌	-9.25945
팀	-9.26227
▁키	-9.26231
▁대상으로	-9.2625
▁하기	-9.26291
▁경	-9.26303
▁온몸	-9.26574
▁후세인	-9.26575
▁주재	-9.2667
▁캐나다	-9.26912
음	-9.27067
es	-9.27258
▁단	-9.27297
▁촬영	-9.27382
▁직원	-9.27567
▁바이러스	-9.2763
▁바란다	-9.27637
▁기사	-9.27773
▁어머니	-9.27775
▁되었다	-9.27872
▁갈	-9.28018
▁동	-9.28126
▁베네수엘라	-9.28161
▁익명	-9.28161
▁야후	-9.28171
▁알려진	-9.28179
▁h	-9.28213
de	-9.28279
▁페	-9.28405
▁불만	-9.28462
▁서부	-9.28626
▁곳에서	-9.28724
▁발견된	-9.2878
기도	-9.28813
해왔다	-9.28904
▁제공	-9.28918
줄	-9.28974
▁상대로	-9.29157
▁기상캐스터	-9.29234
▁국가들	-9.29386
▁마치	-9.29438
▁누	-9.29615
저	-9.29697
약	-9.29754
▁파병	-9.2978
▁차베스	-9.2978
▁로마	-9.29891
▁통제	-9.29957
▁남한	-9.30037
▁일까지	-9.30048
▁인기	-9.30059
▁여론	-9.30167
▁여론조사	-9.30218
▁북핵	-9.30313
▁이래	-9.30352
▁민주주의	-9.30407
▁희망	-9.30446
▁왕자	-9.30609
▁요청했다	-9.30663
기구	-9.3072
▁대변인이	-9.30879
▁통과	-9.30893
k	-9.30947
▁경찰에	-9.30956
▁책	-9.31037
▁패	-9.31092
▁집단	-9.31138
▁받는	-9.3117
▁항공사	-9.31193
▁추	-9.3135
▁유권자들	-9.31371
▁논쟁	-9.31406
▁사망하	-9.31458
▁진압	-9.31459
▁크게	-9.31499
▁자료	-9.31608
▁소녀	-9.31647
▁회복	-9.31726
▁받지	-9.31861
분	-9.31964
힌	-9.31966
었습니다	-9.31968
▁밝혔습니다	-9.32003
▁예상된다	-9.32034
하였다	-9.32096
▁하원	-9.32105
▁총격	-9.32154
▁루	-9.32263
▁사과	-9.32334
두	-9.32362
▁때까지	-9.32386
▁무장세력	-9.32462
▁접근	-9.3247
케	-9.32553
▁버스	-9.32585
▁변호사는	-9.32644
▁되고	-9.32994
▁사는	-9.33148
한다는	-9.33194
중인	-9.33242
▁수출	-9.33352
▁별	-9.33375
▁있지	-9.33416
▁놓	-9.33435
▁인터뷰	-9.3361
▁탑승	-9.3364
▁강한	-9.33682
▁쿠바	-9.33682
▁발전	-9.33728
▁센터	-9.33876
▁사퇴	-9.33902
록	-9.33979
▁수상	-9.34013
▁밝히	-9.34018
▁거대	-9.34073
▁최악	-9.34208
▁무장단체	-9.34222
색	-9.34232
▁나온	-9.34275
▁적이	-9.3444
▁전국	-9.34527
▁마크	-9.34569
▁연	-9.34587
▁암살	-9.34629
▁백	-9.34765
▁따른	-9.34781
▁의료	-9.34786
▁국회	-9.34792
▁실험	-9.34846
▁일부터	-9.35093
▁머리	-9.35129
하겠다	-9.35191
▁아니라고	-9.35203
▁도움이	-9.35228
▁음식	-9.35235
▁평가	-9.35328
▁세력	-9.35455
▁죽음	-9.35473
▁토	-9.35594
▁사실이	-9.35618
▁제한	-9.35628
▁수색	-9.3567
▁성폭행	-9.35915
▁u	-9.35977
▁받게	-9.36015
▁임기	-9.36033
▁의미	-9.36126
▁주간	-9.36342
▁헌법	-9.36444
▁필리핀	-9.36499
개	-9.36523
▁상원의원이	-9.36568
f	-9.36637
▁질문	-9.36706
▁한다는	-9.3679
▁적어	-9.36818
▁되어	-9.36877
▁기지	-9.36885
h	-9.36892
▁명령	-9.36903
층	-9.37042
▁nasa	-9.37081
▁매년	-9.37092
기로	-9.37213
처	-9.37362
▁차이	-9.37379
▁파리	-9.37379
▁월요일	-9.37392
▁위성	-9.37427
▁달리	-9.37452
▁동료	-9.37539
▁압력	-9.37672
▁파견	-9.37689
▁있음	-9.37735
등	-9.37814
▁확인했다	-9.3783
▁선수들	-9.37833
▁중국은	-9.37899
▁주도	-9.37906
▁정부와	-9.37913
▁이집트	-9.38021
▁시간이	-9.38021
대로	-9.38032
▁못한	-9.38081
▁가자지구	-9.38085
▁학생들	-9.38087
▁가능한	-9.38106
▁사우디	-9.38257
▁t	-9.38274
갈	-9.38348
▁무역	-9.3848
▁시리아	-9.38503
▁북한에	-9.38518
▁들어	-9.38563
▁가졌다	-9.38569
▁항공기	-9.3869
▁감염	-9.38701
▁파괴	-9.38825
▁칸	-9.38835
료	-9.38848
▁어느	-9.38852
▁언급했다	-9.3892
▁인질들	-9.38921
▁자세	-9.38963
▁고통	-9.38983
▁두고	-9.38987
▁나왔다	-9.39026
▁공격으로	-9.39289
▁기소	-9.39388
▁뇌	-9.39495
테	-9.3957
on	-9.39693
▁밝히지	-9.39715
▁개혁	-9.39748
▁찾아	-9.39852
업체	-9.39929
동안	-9.4009
▁보냈다	-9.40242
▁외교	-9.40363
본	-9.40515
▁사람들을	-9.4059
▁나머지	-9.40642
▁이끄는	-9.40644
▁명으로	-9.40654
▁영어	-9.40726
생	-9.40742
▁중에	-9.40825
▁사랑	-9.4092
▁구체적	-9.41253
다면	-9.41264
▁권력	-9.41272
▁인물	-9.41286
▁사형	-9.41313
▁향해	-9.41346
▁개국	-9.41367
▁긴장	-9.41374
▁사람들에게	-9.41485
▁부상자	-9.41531
락	-9.41542
았다	-9.41662
지역	-9.41738
▁지진	-9.41742
▁살인	-9.41779
▁관해	-9.41808
▁병사	-9.41846
▁식량	-9.41849
되기	-9.41908
▁신고	-9.4201
른	-9.42025
▁올랐다	-9.4207
▁병	-9.42167
▁아내	-9.4217
▁군대	-9.42274
▁안정	-9.42322
▁전시	-9.42347
튼	-9.42425
▁후에	-9.4243
▁희생자	-9.42433
▁공습	-9.42434
▁장면	-9.42448
▁제임스	-9.42469
탄	-9.42541
▁지나	-9.4255
▁일자리	-9.42597
▁인수	-9.42659
▁국무장관	-9.42684
▁싶다	-9.43088
▁잘못	-9.4309
▁소재	-9.43113
▁전기	-9.43119
▁의원들	-9.43374
▁허가	-9.434
▁업체	-9.43464
▁다음달	-9.43722
▁참석	-9.43741
업	-9.43764
▁흑인	-9.43787
커	-9.43868
▁막기	-9.43921
▁사령관	-9.43964
센터	-9.43992
▁위반	-9.44051
▁미군이	-9.44268
▁자회담	-9.44309
▁목숨	-9.44335
▁만큼	-9.44336
▁비밀	-9.44366
쉬	-9.44424
으로서	-9.44527
것	-9.4481
시키는	-9.44865
▁강화	-9.44894
▁예측	-9.44925
▁팬들	-9.44938
▁오른	-9.44982
▁기관	-9.4506
근	-9.4507
▁되지	-9.45074
▁숨지고	-9.45086
▁주장하고	-9.45089
▁설치	-9.45177
▁부모	-9.45378
▁질	-9.45451
▁허리케인	-9.45596
▁국방장관	-9.45599
▁수천명	-9.45618
l	-9.45629
▁자체	-9.45632
▁선정	-9.45669
▁커	-9.4576
▁고용	-9.45774
▁질문에	-9.45814
▁만들어	-9.45869
▁나이	-9.45974
▁위로	-9.46076
▁모델	-9.46123
▁소말리아	-9.46233
▁어떠한	-9.46233
▁제기	-9.46235
▁복귀	-9.46311
▁소리	-9.46406
▁비판	-9.46431
▁잡	-9.46795
들에	-9.46796
▁쇼	-9.46849
▁마음	-9.46908
▁왜	-9.46911
▁시기	-9.47165
▁마련	-9.47177
▁달러에	-9.47319
망	-9.47452
▁끝에	-9.47464
▁확대	-9.4752
하기도	-9.47534
▁마약	-9.47547
▁물론	-9.47548
▁해야	-9.47564
▁일반	-9.47609
▁계획이	-9.47846
▁곳에	-9.4799
▁당선인	-9.48018
▁유로	-9.4805
▁따라	-9.48058
▁시카고	-9.48097
▁받	-9.48146
▁사장	-9.48176
▁외무부	-9.48193
▁사원	-9.48205
양	-9.48208
▁수요일	-9.48232
▁임시	-9.48244
▁중앙	-9.4825
▁작업을	-9.48321
▁j	-9.48374
▁갖	-9.48394
▁문화	-9.48452
▁넘는	-9.48523
▁여성이	-9.48652
▁거부	-9.48741
▁실시	-9.48763
▁시민	-9.4883
▁직원들	-9.48848
▁석	-9.49017
▁붕괴	-9.49041
▁칼	-9.49109
▁움직임	-9.49184
▁되	-9.49286
▁뿐	-9.49314
쳐	-9.49552
▁접촉	-9.49583
▁정부에	-9.49642
▁입고	-9.49674
▁자리	-9.49834
▁해리	-9.49986
▁설명	-9.5001
▁유명한	-9.5002
▁경제적	-9.50112
▁베컴	-9.50144
▁찰스	-9.50166
장을	-9.50243
▁시행	-9.50269
▁양측	-9.50277
▁이란이	-9.50344
▁목적	-9.50406
▁이달	-9.50513
▁추진	-9.50523
▁도착	-9.50536
▁선언	-9.50542
▁참가	-9.50584
▁종교	-9.50796
▁fbi	-9.50811
▁교전	-9.50932
▁이라크에	-9.50952
▁심장	-9.50986
▁존스	-9.51054
▁발생해	-9.51107
▁제조	-9.51112
▁혼란	-9.51115
▁금	-9.51224
▁어려움	-9.51484
▁출마	-9.515
▁아베	-9.51549
▁추락	-9.51568
▁전력	-9.51598
리자	-9.51639
▁연구소	-9.51783
▁수익	-9.51819
▁대중	-9.5182
▁사상	-9.51821
▁사진을	-9.51899
▁아주	-9.52008
ion	-9.52043
▁관련해	-9.52109
▁미래	-9.52124
▁전문가	-9.52153
▁외무장관	-9.52157
▁휴대폰	-9.52157
▁긴급	-9.52159
▁구매	-9.52181
▁북	-9.52258
▁일요일	-9.52259
▁내려	-9.52272
▁넘	-9.52281
인들	-9.52325
▁자녀	-9.52374
마다	-9.52486
▁korean	-9.52494
▁나가	-9.52536
이었	-9.52636
▁사항	-9.5272
▁피해자	-9.52774
▁귀	-9.52857
▁상대	-9.52862
▁지도자인	-9.52886
▁진출	-9.52933
림	-9.52953
거리	-9.53009
메	-9.53017
▁부분	-9.53066
▁야	-9.53139
▁자국	-9.53148
▁병원에	-9.53148
▁잠	-9.53283
▁비슷	-9.53317
▁최고의	-9.5339
주의	-9.53437
베	-9.53456
▁신원	-9.53483
▁시상식	-9.53521
▁경험	-9.53531
▁국제사회	-9.53532
▁결의안	-9.53749
회사	-9.53893
▁누구	-9.53911
되	-9.53987
▁고문	-9.54113
▁게	-9.54223
▁선두	-9.54228
▁검토	-9.54229
▁유권자	-9.54256
▁총재	-9.54258
▁여명이	-9.54385
▁주민들이	-9.54417
▁주가	-9.54451
▁착륙	-9.54475
▁거주하	-9.54557
▁맥	-9.54573
▁교회	-9.54719
▁대법원	-9.54772
▁충격	-9.54785
▁현장	-9.54837
▁집중	-9.54862
▁작년	-9.54883
▁게이츠	-9.54908
▁로켓	-9.54912
▁절차	-9.54918
▁섬	-9.54919
▁사무실	-9.54925
▁공군	-9.55
▁샤	-9.55006
▁것인지	-9.5506
▁정당	-9.55154
▁승객	-9.55179
▁가질	-9.55208
▁분쟁	-9.55229
▁젊은	-9.55572
▁그리스	-9.55592
▁감	-9.55645
tal	-9.55646
▁체포됐다	-9.55677
만이	-9.557
▁끝	-9.55701
▁선거에서	-9.55714
각	-9.55747
▁유명	-9.55868
▁카운티	-9.55908
▁폭력사태	-9.55912
▁순간	-9.55961
▁인사	-9.56032
ar	-9.56047
▁선출	-9.56177
▁엘	-9.56184
▁교통	-9.56214
▁진	-9.56263
▁목표로	-9.56284
▁이전에	-9.56368
▁항의	-9.56404
▁월부터	-9.56433
▁빨	-9.56441
▁정상회담	-9.56446
▁목요일	-9.56455
▁위치	-9.56462
g	-9.56523
▁해제	-9.56565
▁여사	-9.56609
▁is	-9.56672
▁구속	-9.56779
▁반대하는	-9.56873
▁관광	-9.5689
▁노조	-9.56943
▁위에	-9.57001
▁보기	-9.57004
▁숨진	-9.57051
▁정말	-9.57178
▁방문한	-9.57197
▁현대	-9.57309
▁일이	-9.57317
▁id	-9.57419
▁수석	-9.575
▁쿠	-9.57501
▁배치	-9.57667
싼	-9.57732
▁군인	-9.57752
▁표현	-9.57796
▁대응	-9.57902
▁극	-9.58171
v	-9.58249
▁단지	-9.58415
▁코소보	-9.58452
▁이라크전	-9.58459
▁동결	-9.5846
▁총기	-9.58467
▁가까	-9.58649
▁보여주	-9.5866
▁연장	-9.58747
▁전략	-9.58796
▁판	-9.5884
▁임명	-9.5885
협회	-9.58931
▁실패	-9.58949
▁추정	-9.59021
있다	-9.59049
투	-9.59074
렸다	-9.59152
▁나타나	-9.59177
정부	-9.59272
시키고	-9.59278
▁스위스	-9.59282
▁여성들	-9.59368
▁퍼	-9.594
▁패배	-9.59531
▁올라	-9.59542
▁가량	-9.59665
▁약간	-9.59744
아니라	-9.59796
퍼	-9.59885
▁국립	-9.59898
▁잉글랜드	-9.59906
▁몇몇	-9.59907
▁신화통신	-9.59908
▁지지자들	-9.59973
▁매일	-9.60036
▁변	-9.60066
렌	-9.60069
▁있는지	-9.60072
▁전달	-9.60089
▁남북	-9.60093
or	-9.60181
▁들고	-9.60235
까	-9.60298
▁불리	-9.60373
▁보이는	-9.60381
액	-9.60476
▁판단	-9.60665
▁사이트	-9.6068
▁도중	-9.60765
▁차기	-9.60794
▁당했다	-9.60834
▁피트	-9.60837
▁마일	-9.60862
▁도전	-9.60894
▁회담에서	-9.60988
▁작업	-9.61189
되었습니다	-9.61202
▁윌리엄	-9.61235
센	-9.61267
▁걱정	-9.61291
▁연속	-9.61295
▁조건	-9.61363
▁bbc	-9.61386
▁고양이	-9.61391
▁유죄	-9.61423
▁밝혀지지	-9.61424
▁감사	-9.61479
▁카메라	-9.61492
▁대형	-9.61515
▁연합군	-9.61518
배	-9.61522
▁압박	-9.61675
했는데	-9.61702
▁약물	-9.61792
▁작성	-9.61866
쿠	-9.62048
▁다이애나	-9.62089
▁도쿄	-9.6211
▁결	-9.62127
▁블레어	-9.62129
▁스포츠	-9.62226
▁나토	-9.62238
▁소비자	-9.62258
었	-9.62329
▁체포했다	-9.62359
▁자주	-9.62372
지도	-9.62439
▁여당	-9.62511
▁세기	-9.62541
an	-9.62612
▁크	-9.62746
▁허용	-9.62825
▁올메르트	-9.62881
▁스스로	-9.62882
▁전까지	-9.62907
▁급	-9.62916
▁노래	-9.62921
▁군부	-9.62951
로써	-9.63012
▁효과	-9.63084
en	-9.63166
장관	-9.63277
▁관광객	-9.63292
집	-9.63411
▁오래	-9.63507
▁연설에서	-9.63558
ly	-9.6358
▁분기	-9.63595
w	-9.63605
▁오랫동안	-9.63638
▁탁신	-9.63638
▁할리우드	-9.63638
매	-9.63639
▁탄	-9.63661
▁핵심	-9.63701
▁주의	-9.63745
▁만든	-9.63771
▁실수	-9.63781
▁노동	-9.63867
▁한반도	-9.63955
▁취소	-9.64038
▁병원에서	-9.64193
▁아마	-9.64225
리아	-9.64248
▁가능	-9.64321
▁빠른	-9.64402
▁비상사태	-9.64404
▁확실히	-9.64459
▁대비	-9.64474
시키기	-9.64516
▁옷	-9.64574
▁분석	-9.64585
▁내부	-9.64689
▁이와같	-9.64821
▁영국의	-9.64832
▁장기	-9.64846
▁참여	-9.64856
▁성적	-9.6514
▁집회	-9.65152
▁주에서	-9.65163
▁겪고	-9.65171
▁그렇게	-9.65171
▁직후	-9.65179
하다고	-9.65312
▁높이	-9.65362
▁전통	-9.65413
▁뉴	-9.65638
▁굴	-9.65639
▁문서	-9.65754
▁됐	-9.65799
▁운행	-9.65832
▁new	-9.65838
▁버지니아	-9.65839
▁사기	-9.65919
▁홍보	-9.65946
▁담배	-9.65957
▁수백명	-9.65972
▁마무리	-9.65983
▁개봉	-9.65985
▁구호	-9.66006
▁동시	-9.66046
▁r	-9.66079
▁실제	-9.66219
▁프로젝트	-9.66292
▁유세	-9.66408
스러운	-9.66486
▁없어	-9.66552
턴	-9.66573
▁re	-9.66621
링	-9.66686
tp	-9.66693
▁기억	-9.66694
초	-9.66712
▁맞아	-9.66727
▁크리스토퍼	-9.66728
▁감축	-9.66732
▁산불	-9.6674
▁오랜	-9.66752
▁화성	-9.66769
▁조작	-9.66778
자인	-9.66974
▁글	-9.67056
▁투입	-9.67092
▁대책	-9.67252
▁테	-9.67444
▁이밖에	-9.67515
▁처벌	-9.67517
▁샤리프	-9.67519
▁원자로	-9.67537
남	-9.67565
▁조금	-9.6757
▁의심	-9.67595
▁제출	-9.67634
▁알게	-9.67699
▁단계	-9.67771
▁능력	-9.67805
이지만	-9.67828
했는지	-9.67894
▁차지했다	-9.68001
▁완화	-9.68005
▁여왕	-9.68084
▁실시된	-9.68132
▁애플	-9.68137
▁넣	-9.68164
▁북한과	-9.682
▁중심	-9.68219
▁크리스마스	-9.68305
▁민병대	-9.68308
▁우크라이나	-9.68308
▁증가했다	-9.68323
▁ms	-9.68332
▁스피어스	-9.68333
▁알려지	-9.68379
▁내각	-9.68396
▁cat	-9.68419
▁빠르	-9.68424
▁초기	-9.68424
단체	-9.68441
▁수천	-9.68453
▁윌리엄스	-9.68466
자들이	-9.68477
▁가족들	-9.68579
▁당선	-9.68587
▁집행	-9.68608
준	-9.68682
▁망명	-9.68752
▁집에서	-9.68778
▁생	-9.68794
▁수행	-9.68841
▁버	-9.68935
왔다	-9.68994
▁청와대	-9.68999
▁만명이	-9.69048
▁폭풍	-9.69084
▁둔	-9.6909
▁난민	-9.69104
▁iaea	-9.69108
▁보이고	-9.69126
니다	-9.69146
▁나타냈다	-9.69172
페	-9.69182
▁요	-9.69182
▁주년	-9.6919
ra	-9.69219
회의	-9.69236
▁수정	-9.69268
▁그러	-9.69271
▁한국은	-9.69273
▁목사	-9.69305
▁소장	-9.69366
▁위기에	-9.69468
만한	-9.69488
▁지배	-9.69514
절	-9.69539
▁보좌관	-9.69608
▁제거	-9.69639
담	-9.69669
▁조정	-9.69736
▁넘어	-9.69789
▁의원이	-9.69795
▁부인했다	-9.698
▁후보에	-9.69804
▁보건	-9.69839
▁말레이시아	-9.69874
▁따	-9.69892
▁높다	-9.69915
▁무가베	-9.69915
▁일어난	-9.69916
▁배럴	-9.69921
▁cia	-9.69924
▁수백	-9.69949
▁영상	-9.69956
▁날씨	-9.69972
▁받기	-9.70048
▁시작된	-9.70071
▁미국인들	-9.70091
▁발생할	-9.70201
하길	-9.70267
▁오르	-9.70284
▁블로그에	-9.703
▁속에	-9.70308
▁보안관	-9.70311
▁보장	-9.70386
▁상황에서	-9.70427
▁그중	-9.7044
▁법적	-9.70502
▁가수	-9.70556
인지	-9.70607
▁이미지	-9.70622
▁네덜란드	-9.70728
▁찾기	-9.70728
▁치안	-9.70791
▁말하고	-9.70876
번	-9.7093
▁없었	-9.7095
▁중이다	-9.71132
▁월까지	-9.71243
▁그에게	-9.71274
랑	-9.71402
▁세르비아	-9.7153
▁약속했다	-9.71537
▁먼저	-9.71552
▁스티브	-9.71553
▁찬성	-9.71577
▁않겠다	-9.71768
▁목소리	-9.71807
▁부정	-9.71856
▁공장	-9.71879
자가	-9.71889
▁경찰과	-9.7191
▁마감	-9.71997
▁구성된	-9.72011
다른	-9.72023
▁보낸	-9.72123
▁장소	-9.72126
▁어려	-9.72174
▁위험한	-9.72266
하였	-9.72293
ch	-9.723
▁등록	-9.72376
▁하워드	-9.7238
▁엄마	-9.72381
▁kg	-9.72386
▁ht	-9.72397
▁과학	-9.72413
▁기후	-9.72425
▁최신	-9.72459
▁듯	-9.7249
▁고든	-9.72501
▁작가	-9.72515
▁의혹	-9.72555
▁프라이머리	-9.7256
▁술	-9.72573
▁중국이	-9.72578
▁보이지	-9.72657
▁기자회견	-9.7266
겠다	-9.72678
▁이용해	-9.72682
▁하며	-9.72712
▁나무	-9.72736
▁일에	-9.72755
태	-9.72764
▁비상	-9.7277
지르	-9.72954
▁떠나	-9.72957
냐	-9.73064
▁협의	-9.73117
▁법률	-9.7316
▁north	-9.73207
▁나섰다	-9.73207
▁규제	-9.73209
▁네팔	-9.73212
▁asp	-9.73215
▁사례	-9.7323
▁영	-9.73236
▁대표팀	-9.73266
▁지급	-9.73304
▁시민들	-9.73318
▁마드리드	-9.73323
▁사용하는	-9.73344
▁헤	-9.73544
▁폐	-9.73587
▁수니파	-9.73655
기간	-9.73665
▁전자	-9.73672
▁남성이	-9.73689
족	-9.7373
▁사상자	-9.73787
씩	-9.73851
흐	-9.74007
▁머물	-9.74041
▁찾는	-9.74048
▁노대통령	-9.74052
입	-9.74136
▁의한	-9.74143
▁후보로	-9.74208
▁않기	-9.74223
▁대단	-9.74232
▁대표단	-9.74234
▁떨어져	-9.74251
▁수가	-9.74293
▁다쳤다	-9.743
▁크기	-9.7433
ment	-9.74373
표	-9.74459
▁실시한	-9.74699
▁긴	-9.74776
▁한미	-9.74805
▁현장에	-9.7482
▁못할	-9.74824
▁확산	-9.74869
▁쿠르드	-9.74889
▁캠프	-9.74895
▁침체	-9.74898
▁진입	-9.74903
▁알려져	-9.74908
▁밀	-9.74965
▁최소한	-9.74996
시킨	-9.75019
▁영향력	-9.75062
▁연구진	-9.75103
볼	-9.75141
▁홍수	-9.75347
▁대통령에게	-9.75463
▁증언	-9.75554
▁소지	-9.75609
▁집계	-9.75664
▁시작됐다	-9.75683
▁모하메드	-9.7575
▁아바스	-9.75784
▁축구	-9.7579
▁과정	-9.75815
랜드	-9.7583
▁분노	-9.75834
ce	-9.75886
빌	-9.75905
샤	-9.75928
▁있는데	-9.75945
▁만들	-9.75953
름	-9.75986
▁태도	-9.76088
▁촉구	-9.76328
▁권	-9.76401
▁테러로	-9.76527
▁장난감	-9.76615
▁출발	-9.76619
▁분위기	-9.76621
▁구글	-9.76626
▁원조	-9.76695
▁웹사이트에	-9.76705
▁인정했다	-9.76722
▁비자	-9.76748
승	-9.76773
▁만드는	-9.76822
▁역사적	-9.76845
방송	-9.7689
▁집권	-9.76938
▁시리즈	-9.76972
▁프리	-9.77008
▁니콜라	-9.77032
▁얼굴	-9.77079
▁나와	-9.77175
▁하락했다	-9.77249
▁해당	-9.77344
천	-9.7736
▁경계	-9.77474
▁정확한	-9.77481
▁farc	-9.77483
▁태풍	-9.77484
▁점령	-9.77506
▁주로	-9.77538
▁명에	-9.77553
▁없습니다	-9.77576
▁향	-9.77583
▁얻었다	-9.77619
이라	-9.77693
▁근무	-9.77697
▁경찰관	-9.77731
▁추정되	-9.7774
▁말한	-9.77876
▁당선자	-9.77937
▁실제로	-9.78109
▁슈	-9.7816
▁들었다	-9.78171
▁특사	-9.78242
▁박물관	-9.78305
▁확신	-9.78335
열	-9.78353
▁저녁	-9.78358
▁피터	-9.78359
▁본부	-9.78391
▁쉽게	-9.78599
▁전문	-9.78603
▁민간	-9.78675
년	-9.7882
▁당한	-9.78866
▁남북한	-9.79125
▁축하	-9.79165
▁부동산	-9.79167
▁소년	-9.79236
▁south	-9.79243
▁김정일	-9.79243
▁아르헨티나	-9.79243
▁테이프	-9.79244
▁도착했다	-9.79286
당국	-9.79379
▁놀라	-9.79411
▁대체	-9.79415
▁자신들이	-9.79441
겠다고	-9.79447
▁아부	-9.79479
언	-9.79597
▁가격이	-9.79714
▁세대	-9.79718
▁허	-9.79764
되면서	-9.79783
▁진행되	-9.79863
▁투	-9.79874
▁유사	-9.79999
▁강도	-9.8005
▁등이	-9.80076
▁토요일	-9.80136
▁말리키	-9.80136
▁임	-9.80138
▁콘돌	-9.80138
▁시대	-9.80287
▁중요하다	-9.80295
ies	-9.80312
▁후반	-9.80316
▁지불	-9.80382
▁떨어졌다	-9.80413
▁문제로	-9.80414
▁at	-9.80438
▁사용할	-9.80513
▁왕	-9.8061
범	-9.80616
▁살해한	-9.80791
▁보여	-9.80825
▁소비	-9.80851
편	-9.80866
▁성인	-9.80879
▁연루	-9.80916
▁운전	-9.80934
▁상황에	-9.80978
하려고	-9.81
▁i	-9.81014
▁개입	-9.81027
해졌다	-9.81032
▁한국과	-9.81033
▁with	-9.81037
씬	-9.81037
▁활용	-9.81043
▁총장	-9.81051
▁타격	-9.81056
▁침해	-9.81068
▁신속	-9.81078
▁휴가	-9.81102
▁입국	-9.81118
▁반발	-9.81133
▁백만	-9.81159
▁무사	-9.81262
▁하다	-9.81337
▁만들었다	-9.81368
은행	-9.8147
▁장치	-9.81605
▁고래	-9.81627
▁돼	-9.81654
▁장군	-9.81688
▁제시	-9.81733
▁깊	-9.81769
▁오하이오	-9.81825
리스	-9.81895
▁영국에서	-9.81906
▁징역	-9.81931
▁연락	-9.8196
말	-9.81993
국가	-9.82006
▁지출	-9.82026
외	-9.82028
▁시위자들	-9.82036
▁웹	-9.82042
▁우주선	-9.82083
▁기타	-9.82086
▁힐튼	-9.82196
때	-9.82241
▁숨	-9.82325
추	-9.82348
▁형	-9.82419
▁캐	-9.82428
▁이곳에서	-9.82434
달하는	-9.82536
▁맺	-9.8258
▁지적	-9.82688
▁영국군	-9.82798
▁적용	-9.82815
격	-9.82843
▁엘리자베스	-9.82864
▁드라마	-9.82865
▁검색어	-9.82911
▁않으면	-9.82913
▁참석한	-9.82932
▁결혼식	-9.82959
▁물질	-9.82984
▁방해	-9.82986
블	-9.8302
▁경기에	-9.83033
책	-9.831
▁교체	-9.83162
▁아파트	-9.83192
▁복제	-9.83194
▁기구	-9.83194
렸	-9.83268
활동	-9.83278
▁평	-9.83291
▁어린	-9.83337
▁미국에	-9.83442
▁월드컵	-9.83474
▁태	-9.83569
▁요구한	-9.83668
▁대처	-9.83676
▁승무원	-9.83696
▁외교부	-9.83753
▁토론	-9.8376
▁협조	-9.8379
▁긍정적	-9.8379
▁페일린	-9.8379
▁fta	-9.83796
▁페르베	-9.83798
▁모른다	-9.83808
▁유럽연합	-9.83812
▁들어가	-9.83834
광	-9.83875
수가	-9.83916
한다면	-9.83972
예	-9.83978
▁국장	-9.83995
▁환영	-9.8402
▁쉬	-9.84116
▁해고	-9.84191
▁민	-9.84197
▁속에서	-9.84229
▁국	-9.84244
▁자산	-9.843
▁제외	-9.84347
시설	-9.84428
▁수용	-9.8444
▁인식	-9.84463
▁요구하는	-9.84477
만에	-9.84535
▁없다는	-9.84544
▁체	-9.84633
▁소프트웨어	-9.84724
▁열린우리당	-9.84724
▁결론	-9.84737
놓고	-9.84739
▁끝난	-9.84748
▁방식	-9.84756
▁재정	-9.84782
▁통화	-9.84802
▁대출	-9.84836
▁협정	-9.84883
▁일반적	-9.84901
ic	-9.84971
졌	-9.84972
▁일환	-9.85044
▁클럽	-9.85063
먼	-9.85083
▁수반	-9.85091
빈	-9.85123
▁고려	-9.85132
▁보이	-9.85151
▁동맹	-9.85363
스타	-9.8551
▁오픈	-9.85622
▁예방	-9.85629
▁언제	-9.8566
▁싱가포르	-9.85668
▁잭슨	-9.85668
▁매들린	-9.85668
▁iraq	-9.85668
▁리버풀	-9.85668
▁벌금	-9.85672
▁현장에서	-9.85672
▁토니	-9.85681
▁갖추	-9.85703
▁개정	-9.85704
▁절반	-9.85705
▁귀국	-9.85711
▁신용	-9.85711
▁저지	-9.85748
▁조종사	-9.85771
▁공화당의	-9.85791
▁방어	-9.85817
살	-9.85991
▁체포된	-9.86026
▁임신	-9.86055
령	-9.86113
▁소유	-9.86379
▁포함되어	-9.86457
▁삼	-9.86472
▁핵실험	-9.86623
▁사이클론	-9.86625
▁범인	-9.86631
▁변경	-9.86637
▁걸어	-9.86767
맨	-9.86785
▁송	-9.86787
▁신뢰	-9.86901
▁선포	-9.86906
▁총선에서	-9.8693
▁자격	-9.86956
▁이틀	-9.86969
▁고속도로	-9.86998
▁조사하고	-9.87343
▁되면	-9.87451
▁심리	-9.87553
▁자살폭탄테러	-9.87578
▁cbs	-9.87582
▁뉴질랜드	-9.87582
▁론스타	-9.87585
▁케네디	-9.87585
▁축제	-9.87606
레이	-9.8761
▁루이스	-9.87613
▁나달	-9.87626
▁ceo	-9.87627
▁트럭	-9.87664
▁이것이	-9.87669
▁공식적으로	-9.87691
▁금리	-9.87708
▁성화	-9.87742
▁충분	-9.87786
한영	-9.8795
▁ac	-9.87958
▁취임	-9.87986
▁역	-9.88095
▁동의	-9.88146
▁부패	-9.88174
▁이들이	-9.88367
플	-9.88457
▁투자자들	-9.88537
▁한번	-9.88547
▁빠져	-9.88551
▁캠페인	-9.88552
▁뛰어	-9.88556
▁에이즈	-9.88561
▁지지하는	-9.88571
▁왔	-9.88575
▁실행	-9.88581
▁신경	-9.88601
▁압둘라	-9.88619
▁헤럴드	-9.88634
▁이르는	-9.88665
▁심슨	-9.88692
▁용의자들	-9.88711
▁회사들	-9.88738
▁이해	-9.88767
▁예산	-9.88785
▁터키군	-9.88813
▁세트	-9.88866
▁일어나	-9.89032
달	-9.8911
채	-9.89111
▁재산	-9.89118
▁이혼	-9.8913
▁지지율	-9.89174
▁길이	-9.89177
▁진정	-9.89323
▁동원	-9.89338
ation	-9.89384
▁대피	-9.89411
▁an	-9.89487
춘	-9.89498
▁우라늄	-9.89533
▁포르투갈	-9.89533
▁힘든	-9.89568
▁형성	-9.89668
▁중이라고	-9.89679
▁통합	-9.89713
▁풀	-9.89748
▁안보리	-9.89775
▁자연	-9.89828
▁성공했다	-9.89895
▁행진	-9.89909
▁곳으로	-9.89955
▁포드	-9.90012
▁엔	-9.90065
▁지지자	-9.90106
▁기자들	-9.90157
▁지진으로	-9.90202
으면	-9.90205
결	-9.9033
▁일본은	-9.90356
대한	-9.90359
▁수십	-9.90401
▁펜실베이니아	-9.90421
규	-9.90424
▁층	-9.90488
▁휘발유	-9.90523
▁반기문	-9.90525
▁육군	-9.9054
▁민주화	-9.90546
▁드러났다	-9.90551
▁평화적	-9.90565
▁원유	-9.90594
▁쥐	-9.90604
▁올렸다	-9.90644
현	-9.9069
▁주고	-9.90822
변	-9.90845
▁진술	-9.90848
▁중국과	-9.90903
▁테러가	-9.9099
▁총리와	-9.91073
▁그린	-9.91132
▁철회	-9.91223
시장	-9.91302
▁한국군	-9.91335
▁당선인은	-9.91385
▁조사에서	-9.91435
시간	-9.91459
▁목	-9.91493
▁워싱턴에서	-9.91495
▁시드	-9.91509
▁믿고	-9.91523
▁좋지	-9.91523
▁첼시	-9.91525
▁학살	-9.91526
▁ppp	-9.91527
▁로봇	-9.9153
▁주인공	-9.91533
▁나쁜	-9.91534
▁향후	-9.91535
▁차관보	-9.91548
▁소개	-9.91551
▁리비아	-9.91552
▁중국에서	-9.91626
▁학대	-9.91626
▁가입	-9.9163
술	-9.91641
▁설립	-9.91676
▁회담에	-9.91785
▁관	-9.91814
▁경선에서	-9.92054
골	-9.92099
▁근	-9.92198
목	-9.92203
▁아랍	-9.92266
▁주일	-9.92398
ia	-9.92413
▁벨	-9.92439
▁이하	-9.92467
▁교황	-9.92491
▁얘기	-9.92533
▁답변	-9.92537
▁휴전	-9.92538
▁내린	-9.92546
▁입양	-9.92553
▁센트	-9.92562
▁속도	-9.92659
▁통치	-9.92681
▁목격자들	-9.9273
▁해결하기	-9.92736
▁개월간	-9.92748
▁집에	-9.92858
▁학생들이	-9.92911
▁상품	-9.92982
▁전면	-9.93042
ational	-9.93063
습	-9.93088
▁참	-9.93134
▁포함해	-9.93161
▁지도부	-9.932
▁생명	-9.93278
▁밝혀	-9.93307
▁중에는	-9.93433
문제	-9.93468
▁해리포터	-9.93553
훨	-9.93553
▁국제유가	-9.93555
▁벌어진	-9.93557
▁불참	-9.93563
▁음모	-9.93566
▁필	-9.93567
▁아카데미	-9.936
▁반정부	-9.93602
▁잔해	-9.93668
▁협회	-9.93748
▁창	-9.9377
▁의도	-9.93775
▁했	-9.93897
▁공개했다	-9.94019
▁선거운동	-9.94044
▁편지	-9.94072
▁연결	-9.94083
창	-9.94093
▁수감	-9.94203
▁차지	-9.94291
▁정부군	-9.9438
▁울	-9.94405
▁잡지	-9.94438
▁대의	-9.9445
th	-9.94472
▁장비	-9.94554
▁가정	-9.94581
▁콘서트	-9.94584
▁장식	-9.94587
▁앨범	-9.94588
▁dna	-9.9459
▁방침	-9.94592
▁가득	-9.94609
▁체니	-9.94644
us	-9.94662
▁선물	-9.94675
▁신청	-9.94692
사건	-9.94732
▁손실	-9.94735
▁질환	-9.94774
었고	-9.9478
▁향하	-9.94851
▁폐지	-9.94896
▁격	-9.94897
항	-9.94903
▁랭킹	-9.9499
스터	-9.95059
▁응	-9.95113
▁회담이	-9.95195
▁충분한	-9.95202
▁승	-9.9537
in	-9.9543
▁벌인	-9.95513
▁바다	-9.95577
▁여기	-9.95595
▁맨체스터	-9.95624
▁화산	-9.95635
통신	-9.95638
▁진행된	-9.95644
▁영토	-9.95655
▁며칠	-9.95711
▁기념	-9.95722
▁레이스	-9.95769
▁요구하고	-9.95827
▁성향	-9.95927
▁의료진	-9.95987
▁공원	-9.96023
▁유리	-9.96061
▁수집	-9.9611
▁방법으로	-9.96142
머	-9.96148
▁바람	-9.9618
▁준	-9.96316
▁관광객들	-9.96391
▁주장하는	-9.96426
▁킹	-9.96435
▁l	-9.96451
▁언급하지	-9.96489
▁내에	-9.9654
▁매장	-9.96566
▁접	-9.96578
ro	-9.96579
▁정신	-9.96584
앙	-9.96657
▁부활	-9.96676
▁페더러	-9.96679
▁맨유	-9.96686
▁기능	-9.96695
▁짐	-9.96702
▁웨스트	-9.96706
▁예정이	-9.96715
▁특정	-9.9674
▁대북	-9.96788
▁기업들	-9.96818
▁것보다	-9.96891
▁who	-9.96899
▁바그다드에서	-9.96906
▁못했	-9.9692
▁밀란	-9.9696
▁보상	-9.96982
▁폭	-9.96992
합	-9.97001
▁콜	-9.97029
▁이익	-9.97051
▁외부	-9.97125
▁시절	-9.9717
필드	-9.97192
해지	-9.97193
▁방지	-9.97344
▁머	-9.97385
▁방문할	-9.97389
율	-9.97396
시키	-9.9742
▁계획에	-9.97473
정책	-9.97579
영한	-9.97588
레스	-9.97687
▁다니	-9.97735
▁이메일	-9.97743
▁다르푸르	-9.97743
▁대다수	-9.97746
▁접속	-9.97754
▁강경	-9.9781
▁성과	-9.97856
독	-9.97874
▁회원국	-9.97915
▁평양	-9.97938
▁혹	-9.98109
▁유가	-9.98148
▁대결	-9.98149
▁파타	-9.98284
▁지도	-9.98355
▁합	-9.98376
▁이스라엘과	-9.9839
둔	-9.98495
▁노동자	-9.98535
▁소니	-9.98536
▁고객	-9.98593
▁척	-9.98636
▁존재	-9.98675
조치	-9.98731
▁사드르	-9.98816
▁president	-9.98818
▁밖으로	-9.98818
▁헤즈볼라	-9.98818
▁세계대전	-9.98818
▁폭행	-9.98824
▁영변	-9.98825
▁리콜	-9.98827
▁야생	-9.98832
▁방문했다	-9.98836
▁대통령에	-9.98839
▁폭우	-9.98845
▁이웃	-9.98853
▁생각하고	-9.98927
▁원하는	-9.98944
▁다이아몬드	-9.98985
▁크리스	-9.9903
▁터	-9.99079
▁서명	-9.9912
▁잃었다	-9.99128
▁존슨	-9.99156
▁적절한	-9.99165
▁생존	-9.99196
▁협상이	-9.99209
x	-9.99212
▁지하	-9.9922
▁기도	-9.9923
염	-9.99281
▁마이크	-9.99355
▁스티븐	-9.99654
지에	-9.99661
낼	-9.99664
▁행	-9.99671
▁이번주	-9.99819
▁주는	-9.99836
▁지키	-9.99855
▁멸종	-9.99904
젠	-9.99905
▁온난화	-9.99905
므로	-9.99917
▁마틴	-9.99925
▁진실	-9.99929
▁출시	-9.99935
▁모습이	-9.99998
▁잠시	-10.0001
▁will	-10.0003
▁밖에서	-10.0005
▁장관이	-10.001
▁취할	-10.0012
▁아일랜드	-10.0013
▁아이들이	-10.0013
▁생존자	-10.0019
▁빅	-10.0021
▁발표된	-10.0025
▁상어	-10.0026
서는	-10.0043
▁이스라엘군	-10.0044
쯤	-10.0047
▁모양	-10.0047
▁분야	-10.005
▁힘들	-10.0051
▁강조	-10.0053
it	-10.0058
▁나서	-10.0066
랜	-10.0067
찬	-10.0075
립	-10.0083
▁질병	-10.0084
쇼	-10.009
▁내전	-10.0099
▁무릎	-10.01
▁태평양	-10.01
▁현지시각	-10.01
▁nbc	-10.0101
▁버마	-10.0104
▁심문	-10.0105
▁경찰서장	-10.011
▁목격자	-10.0112
▁의무	-10.0112
▁자기	-10.0112
▁바라고	-10.0117
▁포기	-10.012
▁심각	-10.0129
▁말합니다	-10.0135
▁말라	-10.0135
▁내용이	-10.0143
▁논란	-10.0165
▁올랐	-10.0173
▁예상했다	-10.0178
▁차드	-10.0181
톤	-10.0186
▁억류	-10.0197
원들	-10.02
▁기준	-10.0202
▁전망이	-10.0202
▁쿠데타	-10.0211
▁갑자	-10.0212
▁체결	-10.0213
▁우선	-10.0215
▁서방	-10.0217
▁보였	-10.0218
▁가자	-10.0218
▁보면	-10.0222
축	-10.0223
▁밑	-10.0223
▁경보	-10.0231
클	-10.0235
▁제도	-10.024
▁사건과	-10.0253
▁레이	-10.0266
▁면	-10.0275
▁스테	-10.0282
킬	-10.03
▁둘	-10.0307
겐	-10.0315
힐	-10.0318
▁찾고	-10.0324
▁일주일	-10.0325
▁핵시설	-10.0328
▁보통	-10.0329
▁수백만	-10.0332
▁대부분이	-10.0332
▁구제	-10.0338
▁사건으로	-10.0342
▁담당자	-10.0354
▁인하	-10.0361
▁아래	-10.0367
▁입원	-10.037
▁선박	-10.0376
▁사실상	-10.0385
관리	-10.0388
▁직	-10.0388
▁의식	-10.0393
▁가까이	-10.0397
▁보고했다	-10.0401
▁cm	-10.0414
▁묻	-10.0423
취	-10.0425
▁현재까지	-10.0429
▁공격이	-10.0432
섬	-10.0435
죠	-10.0437
▁달라이라마	-10.0437
▁이렇게	-10.0437
▁훌륭	-10.0437
▁파운드	-10.0438
▁격차	-10.044
▁일리노이주	-10.0444
▁수요	-10.0445
장이	-10.0447
▁달성	-10.0447
▁베트남	-10.0449
▁원제	-10.0454
▁원한다	-10.0462
▁만날	-10.0467
▁돌아가	-10.0467
자로	-10.0472
▁부문	-10.0484
들어	-10.0488
▁일본에서	-10.0504
▁외교적	-10.0507
▁사용되	-10.0519
불	-10.0528
겠	-10.0535
연합	-10.0537
만큼	-10.0549
손	-10.0549
▁나이지리아	-10.0552
▁흡연	-10.0552
▁카르자이	-10.0552
▁교환	-10.0553
▁최선	-10.0555
▁동반	-10.0555
▁걸릴	-10.0557
▁치러진	-10.056
▁신임	-10.056
▁업계	-10.0561
▁톤	-10.0561
▁신호	-10.0567
▁전반	-10.0579
▁환자들	-10.058
▁pa	-10.0581
탈	-10.0581
▁수감자	-10.0583
▁되기	-10.0586
움	-10.0592
▁영화제	-10.0594
▁대상	-10.0596
▁노출	-10.0598
▁교도소	-10.06
▁조사에	-10.0601
▁요원	-10.0602
▁가구	-10.0605
▁제안했다	-10.0607
▁as	-10.0607
▁벤	-10.0613
▁빛	-10.0613
▁남아	-10.062
▁실시되	-10.0624
▁케	-10.0632
▁입었	-10.0633
▁투어	-10.0645
▁광산	-10.0648
▁된다고	-10.0652
▁차전	-10.0664
▁다우존스	-10.0669
▁에드워즈	-10.0669
▁라운드	-10.0669
▁설득	-10.0669
▁폭동	-10.067
▁시작한	-10.0675
▁공중	-10.0675
불어	-10.0676
▁느끼	-10.068
▁각국	-10.0681
받	-10.0682
▁일본이	-10.0691
▁니	-10.0691
▁국제적	-10.0691
▁검색	-10.0695
▁있어서	-10.0715
▁본사	-10.0726
▁다우	-10.0733
▁근거	-10.075
▁동물원	-10.0752
려는	-10.0764
▁브	-10.0765
▁소환	-10.0765
▁국왕	-10.0784
돌	-10.0785
▁덴마크	-10.0786
▁오스트리아	-10.0786
▁복잡	-10.0786
▁노력하고	-10.0786
▁단순	-10.0787
▁공공	-10.079
▁사인	-10.0792
▁폐기	-10.0804
▁소수	-10.0808
▁절	-10.0816
▁프로	-10.0817
▁시장에서	-10.0817
▁시위에	-10.0831
쳤다	-10.0851
▁철도	-10.086
▁목적으로	-10.0869
▁감정	-10.087
▁군인들	-10.087
했음	-10.088
▁모인	-10.0888
▁맞서	-10.0889
▁지진이	-10.089
▁그것이	-10.0904
▁누군가	-10.0905
엘	-10.0907
▁봄	-10.0907
▁기존	-10.0907
▁성관계	-10.0908
▁매각	-10.0908
▁부담	-10.0909
▁소설	-10.091
▁삼성	-10.0913
▁북측	-10.0915
▁교	-10.0917
ri	-10.0917
▁책임자	-10.0917
▁그와	-10.092
▁죽	-10.0922
▁전투기	-10.0924
▁차관	-10.0926
▁복용	-10.0927
▁카드	-10.0931
▁웃	-10.0941
▁팬	-10.0942
▁지휘	-10.0945
있	-10.0947
개발	-10.0961
▁지연	-10.0962
슈	-10.0963
▁대기	-10.0969
▁합동	-10.0976
▁ba	-10.0988
빠진	-10.099
▁상점	-10.0992
칠	-10.1
▁주기	-10.1001
후드	-10.1006
려고	-10.1006
▁계속되고	-10.1008
▁상승했다	-10.1018
▁서울에서	-10.1019
셔	-10.1022
희	-10.1024
▁japan	-10.1026
▁많다	-10.1026
▁방글라데시	-10.1026
▁주한미군	-10.1026
▁고등학교	-10.1026
▁농축	-10.1026
▁마카오	-10.1026
▁칠레	-10.1027
▁새끼	-10.1027
▁커피	-10.1029
▁도입	-10.103
▁당신이	-10.1031
▁공산당	-10.1033
▁의지	-10.1041
라도	-10.1057
ir	-10.1058
re	-10.1062
▁내릴	-10.1063
▁대답	-10.1069
▁부근에서	-10.1075
▁즉각적	-10.1075
▁휴	-10.1076
▁부르	-10.1085
▁청소년	-10.1089
▁늘	-10.109
성이	-10.1094
▁수용소	-10.1096
▁마르	-10.1107
▁그림	-10.111
▁지시	-10.1127
▁경기장	-10.1132
▁어린이들	-10.1133
기관	-10.1134
랄	-10.1141
▁불안	-10.1144
사를	-10.1146
▁네트워크	-10.1148
▁스웨덴	-10.1148
▁순방	-10.1149
▁복구	-10.1149
▁검거	-10.1149
▁남아공	-10.1149
▁발병	-10.1153
▁상처	-10.1153
▁사담	-10.1154
▁부여	-10.1158
▁예비	-10.1159
▁기본	-10.1159
▁따라서	-10.116
▁점차	-10.1162
▁됩니다	-10.1163
▁보수	-10.1168
▁사전	-10.1169
▁조성	-10.1186
들도	-10.1191
▁국회의원	-10.1192
▁세우	-10.1197
▁회원	-10.121
▁전날	-10.1219
▁건의	-10.1221
▁재무장관	-10.123
▁벌였	-10.1232
▁표시	-10.1234
▁기반	-10.1235
▁체제	-10.1241
▁장애	-10.1248
이어	-10.125
▁구입	-10.1252
▁승리했다	-10.1253
▁악화	-10.126
▁둘러	-10.1261
▁화	-10.1263
▁추적	-10.1265
▁자리에서	-10.1266
▁왕세자	-10.1267
순	-10.1268
▁공항에서	-10.1268
웰	-10.1269
▁습격	-10.1271
▁혜택	-10.1271
▁카스트로	-10.1271
▁다니엘	-10.1272
▁증가하고	-10.1272
왔	-10.1273
▁극복	-10.1273
▁테러리스트	-10.1273
▁탐사	-10.1275
▁그래서	-10.1275
▁유감	-10.1277
▁내놓	-10.1277
▁무력	-10.1279
▁분명히	-10.1282
▁이뤄지	-10.1285
았	-10.1286
장에서	-10.1287
계획	-10.1287
▁행성	-10.1293
▁말까지	-10.1296
▁개방	-10.1297
▁시내	-10.1302
▁보관	-10.1308
▁사살	-10.1312
▁오브	-10.1324
자와	-10.1324
듯	-10.1325
▁식	-10.1337
▁기다리고	-10.1339
▁무대	-10.134
▁공격에	-10.1343
▁티	-10.1346
▁주석	-10.1363
킨	-10.137
▁반군이	-10.1373
▁나갈	-10.1376
▁손상	-10.1378
▁의회에	-10.1378
텔	-10.1382
드는	-10.1387
했기	-10.1389
▁희생자들	-10.1391
▁실종	-10.1393
▁uefa	-10.1396
▁얻기	-10.1396
▁ioc	-10.1396
▁챔피언스리그	-10.1396
되면	-10.1396
▁겨울	-10.1397
▁달라	-10.1398
▁가옥	-10.14
▁페루	-10.1401
▁무료	-10.1401
▁이중	-10.1402
로운	-10.1402
▁구출	-10.1403
▁파산	-10.1406
웠다	-10.1409
▁명단	-10.1412
▁수감자들	-10.1417
▁올린	-10.142
j	-10.1422
▁고발	-10.1426
스키	-10.1434
▁잇	-10.1437
▁plan	-10.1439
▁지켜	-10.1446
드시	-10.1453
시아	-10.1462
렛	-10.1467
▁허락	-10.1469
관계	-10.1473
시켰	-10.1473
▁펜	-10.1476
▁수상자	-10.1487
▁유치	-10.1494
▁그동안	-10.1496
선수	-10.1498
▁운영하	-10.1502
▁it	-10.1511
▁잔	-10.1517
덴	-10.1519
▁붉은	-10.1522
▁원문기사	-10.1523
▁정확히	-10.1523
▁파예드	-10.1523
▁완벽	-10.1523
▁북동부	-10.1523
▁알래스카	-10.1524
▁노예	-10.1527
▁의회에서	-10.1529
▁초점	-10.1537
▁열대	-10.1538
▁가졌	-10.1541
▁권한	-10.1542
▁조원	-10.1547
▁소식이	-10.1553
▁줄어들	-10.1556
▁고대	-10.1557
▁주지	-10.1565
▁사라	-10.158
▁못하는	-10.1581
▁모여	-10.1585
▁기독교	-10.159
▁경매	-10.1593
▁해병대	-10.1599
▁베이징에서	-10.1608
▁선언했다	-10.1613
▁연구원	-10.1617
▁만일	-10.1641
▁바이	-10.1649
▁블랙	-10.1651
▁활주로	-10.1651
▁숫자	-10.1651
▁심지어	-10.1651
▁철저	-10.1652
▁크루즈	-10.1652
▁저항	-10.1653
▁민감	-10.1653
▁자극	-10.1654
▁이사	-10.1659
▁거뒀다	-10.1659
▁페이지	-10.1663
▁의사들	-10.1663
봉	-10.1664
▁있다면	-10.1673
사는	-10.1675
▁거부했다	-10.1682
▁고향	-10.1683
▁유전자	-10.1684
▁형태	-10.1685
▁제공하는	-10.1687
▁운항	-10.1688
영화	-10.1695
▁샌프란시스코	-10.1696
▁공화국	-10.1699
항공	-10.1699
▁체계	-10.1716
▁낸	-10.1729
▁분명	-10.1729
▁음반	-10.1732
▁하면	-10.1748
행위	-10.1749
느	-10.1764
▁의회의	-10.1765
el	-10.1775
▁스리랑카	-10.1777
▁마찬가지	-10.1781
▁nato	-10.1781
▁폴란드	-10.1781
▁frb	-10.1782
▁커플	-10.1782
▁레알	-10.1782
▁철군	-10.1783
▁입증	-10.1784
▁중부	-10.1785
▁o	-10.1787
▁분열	-10.1787
▁결정에	-10.1788
대에	-10.1789
사가	-10.1789
▁현금	-10.1789
▁중지	-10.1795
▁곳이	-10.1798
▁실패했다	-10.1799
▁부정적	-10.18
애	-10.1803
▁보고서에서	-10.1805
숙	-10.181
▁군정	-10.1817
▁탈출	-10.1818
틀	-10.1823
자는	-10.1824
인들이	-10.1834
▁빙하	-10.1843
▁타이	-10.1846
▁대선에서	-10.1846
▁pc	-10.1849
▁수영	-10.1854
▁경영	-10.1855
▁생각하는	-10.1873
들로	-10.1883
▁깨	-10.1886
▁한국에서	-10.1886
ers	-10.1889
▁이양	-10.1891
▁현상	-10.1896
▁야기	-10.1899
▁곡	-10.19
▁방향	-10.1903
▁사망했	-10.1907
▁중독	-10.1908
▁사우디아라비아	-10.1913
▁보여줬다	-10.1917
▁소요	-10.1919
▁서신	-10.1919
▁공포	-10.192
▁호세	-10.1926
해줄	-10.1935
▁뼈	-10.1936
▁이주	-10.1939
▁늘어	-10.1942
▁싸움	-10.1949
▁절대	-10.1949
▁만난	-10.1956
▁보안군	-10.1957
▁이곳에	-10.196
▁안에서	-10.1968
▁폭탄이	-10.1969
▁보인다고	-10.1969
▁답	-10.1972
어야	-10.1978
▁혁명	-10.198
▁신체	-10.1982
▁납치된	-10.1984
▁뉴욕에서	-10.1996
▁강요	-10.2
▁전개	-10.2001
▁유나이티드	-10.2006
▁외교관	-10.202
▁선거에	-10.2023
▁폭격	-10.2031
▁챔피언	-10.2032
▁노벨	-10.2041
▁태양	-10.2045
▁잃은	-10.2046
▁크라이슬러	-10.2046
▁토마스	-10.2046
▁관찰	-10.2046
▁아이디어	-10.2047
▁색	-10.2048
▁신발	-10.2054
▁실종된	-10.2061
▁발간	-10.2065
▁캘리포니아주	-10.2068
il	-10.2073
▁살아	-10.2074
올	-10.2077
벌	-10.2079
딘	-10.2082
▁달간	-10.2086
▁계속되	-10.2087
▁런던에서	-10.2091
▁gm	-10.2092
▁고립	-10.2094
▁하게	-10.2103
▁좋아	-10.2107
▁대회에서	-10.2114
▁기대하고	-10.2114
▁라이트	-10.2118
▁증권	-10.2118
▁수업	-10.2121
▁년이	-10.2123
도시	-10.2128
▁베이	-10.2136
▁법정	-10.2136
▁여자친구	-10.2142
▁방송국	-10.2144
▁찬	-10.2147
▁독	-10.2149
상태	-10.215
겨	-10.2151
으	-10.2167
▁시장에	-10.2179
▁라스베이거스	-10.2181
▁동티모르	-10.2181
▁리조트	-10.2181
▁맞춰	-10.2181
▁타이틀	-10.2181
▁값	-10.2182
▁생긴	-10.2183
수록	-10.2183
▁인생	-10.2186
▁형제	-10.2187
▁발생하지	-10.2189
▁세계은행	-10.2191
▁쓰나미	-10.2192
▁피해가	-10.2196
▁중순	-10.2197
▁대량	-10.2199
▁무선	-10.2202
▁안전한	-10.2202
▁받아야	-10.2211
뿐	-10.2211
해주	-10.2212
▁콩고	-10.2217
▁성공적	-10.2222
▁이사회	-10.2223
▁근처	-10.2225
▁분간	-10.2232
▁수상했다	-10.2247
례	-10.2264
▁만화	-10.2264
▁해변	-10.2266
▁재단	-10.2267
▁오염	-10.227
▁사회적	-10.2272
▁주제	-10.2279
▁중요	-10.2283
▁이송	-10.2284
▁교사	-10.2294
더라	-10.2295
▁거두	-10.2307
▁일리노이	-10.231
▁데이	-10.231
▁성화봉송	-10.231
▁증명	-10.2316
▁김대중	-10.2318
▁엄격	-10.2318
▁논평	-10.2318
▁첫번째	-10.2318
▁두바이	-10.2319
▁불러	-10.232
▁하원의원	-10.232
▁은퇴	-10.232
▁회동	-10.2322
▁돌아오	-10.2323
낸	-10.2324
▁모기지	-10.2324
▁구금	-10.2325
▁바르셀로나	-10.2326
▁금요일	-10.2327
▁예전	-10.2328
▁높아지	-10.233
▁기계	-10.2332
▁감독이	-10.2332
▁총격전	-10.2333
▁케리	-10.2337
▁신부	-10.2339
▁누리	-10.2339
▁경제에	-10.2339
▁갖게	-10.234
▁난사	-10.2341
▁앞에	-10.2345
▁한때	-10.2347
▁린	-10.2356
컵	-10.2359
▁보낼	-10.2362
▁세상	-10.2362
▁표했다	-10.2372
▁시청	-10.2377
▁지시했다	-10.2377
시키려	-10.2381
▁명에게	-10.2391
▁mo	-10.2403
▁하던	-10.2404
▁승리한	-10.2406
▁측근	-10.2409
▁진전	-10.2412
▁출석	-10.2413
▁클린턴이	-10.2416
▁끌어	-10.2419
▁과학자	-10.2424
▁나누	-10.2439
▁봤다	-10.2439
▁넓	-10.2448
▁이스라엘이	-10.2454
▁운송	-10.2455
▁태어난	-10.2457
▁케이블	-10.2457
▁외환은행	-10.2457
▁우리나라	-10.2457
▁데이터	-10.2459
▁디자인	-10.2459
▁채택	-10.2459
▁불편	-10.246
▁헨리	-10.246
▁전역	-10.2461
▁본선	-10.2463
▁단속	-10.2463
▁리그	-10.2463
▁유력	-10.2464
▁항소	-10.2468
▁책임이	-10.2469
▁불길	-10.2473
▁진화	-10.2475
▁만들어진	-10.2479
▁위조	-10.2479
▁사용한	-10.248
▁보유하고	-10.2482
▁것이고	-10.2484
▁nu	-10.2486
▁광	-10.2489
▁하와이	-10.2493
우스	-10.2494
▁지역으로	-10.2498
▁보트	-10.25
▁기상	-10.2501
▁식품	-10.2502
▁중대	-10.2511
▁대학교	-10.2514
▁회의에서	-10.2518
▁니콜	-10.2519
▁주한	-10.2519
la	-10.2519
▁빚	-10.2547
▁no	-10.2547
▁의미한다	-10.255
▁보유	-10.2553
▁워	-10.2553
자들에게	-10.2555
▁호텔에서	-10.2555
▁도시에서	-10.256
▁거절	-10.2562
▁훼손	-10.2565
▁뿐만	-10.2567
▁이라크와	-10.2571
조차	-10.258
▁추방	-10.2584
▁인류	-10.2587
▁아이오와	-10.259
▁다수	-10.259
▁강타	-10.2593
▁거쳐	-10.2593
럽	-10.2595
▁요르단	-10.2597
▁외교통상부	-10.2597
▁앓고	-10.2598
▁휴대전화	-10.2598
▁떠	-10.2598
▁섹스	-10.2598
▁면담	-10.2599
▁abc	-10.26
▁해결책	-10.2601
▁신중	-10.2607
▁방화	-10.2608
▁마쳤다	-10.2608
▁오늘날	-10.2608
▁개표	-10.2609
▁친구들	-10.261
▁여권	-10.2611
▁간단	-10.2611
▁달러로	-10.2612
▁의석	-10.2613
▁가했다	-10.2613
▁아메리칸	-10.2616
▁지속	-10.2621
▁예수	-10.263
▁천만	-10.2633
▁프로그램에	-10.2633
▁중국에	-10.2644
▁이끌어	-10.2653
▁가는	-10.2655
▁상태에	-10.2657
▁응답자	-10.2659
지수	-10.266
뿐만	-10.2663
▁주장에	-10.2664
▁공간	-10.2669
▁죽은	-10.2673
▁몰	-10.2674
▁경쟁자	-10.2678
▁물건	-10.2687
쳤	-10.269
▁분리	-10.269
▁악	-10.2692
▁전쟁에	-10.2693
▁여성의	-10.2693
▁발생하는	-10.2703
▁비교	-10.2707
▁고어	-10.2707
션	-10.2708
▁민주	-10.2715
안에	-10.272
▁주목	-10.2723
당한	-10.2725
▁플레이	-10.273
전에	-10.2733
드라	-10.2736
리는	-10.274
▁협박	-10.2741
▁가슴	-10.2741
▁불능화	-10.2741
▁찾을	-10.2741
▁격렬	-10.2741
▁급등	-10.2742
▁종류	-10.2744
▁참석했다	-10.2746
▁무죄	-10.2746
▁발전소	-10.2755
▁획득	-10.2758
슬	-10.2759
▁추정된다	-10.2763
▁크리스티	-10.2767
▁전원	-10.2767
▁홀	-10.277
▁지속적	-10.2774
▁것이었다	-10.2779
▁백인	-10.2781
악	-10.2787
▁국민들에게	-10.2792
완	-10.2793
학자	-10.2795
▁부과	-10.2797
▁아동	-10.2801
▁논란이	-10.2801
▁당수	-10.2802
▁시에	-10.2802
스톤	-10.2802
▁제대	-10.2807
▁우리당	-10.2814
▁못한다	-10.2829
▁명예	-10.2831
▁비용이	-10.2838
▁주인	-10.284
▁동성애자	-10.2848
ial	-10.2849
릭	-10.2849
▁표명	-10.2849
▁미국측	-10.2851
세력	-10.2851
▁혐의에	-10.286
하고자	-10.2864
▁중재	-10.2871
북	-10.2875
▁벗어나	-10.2876
▁이후로	-10.2879
닝	-10.2881
▁코미디	-10.2885
짝	-10.2885
▁스코틀랜드	-10.2885
▁일으킨	-10.2885
▁와인하우스	-10.2886
▁송환	-10.2886
▁저지른	-10.2887
▁이행	-10.2887
▁끼	-10.289
▁나올	-10.289
▁낸시	-10.2893
▁요소	-10.2898
▁펼쳤다	-10.2898
▁한국에	-10.29
▁자원	-10.2902
▁폭스	-10.2904
▁de	-10.2909
▁순위	-10.2913
▁업무	-10.2921
▁법원에	-10.2923
▁파악	-10.2924
▁이내	-10.2928
이기	-10.2929
▁단체들	-10.2929
▁순찰	-10.2936
▁방영	-10.2946
▁물가	-10.2948
▁얼음	-10.2952
산업	-10.2955
▁돌아	-10.296
▁행복	-10.2963
스코	-10.2965
▁보지	-10.2967
▁식당	-10.2971
▁폭발물	-10.2979
▁만개	-10.2989
▁국방	-10.2994
▁불가능	-10.2998
▁지목	-10.3
▁사망자수	-10.3006
▁기금	-10.301
▁엄청	-10.3018
▁제기했다	-10.302
▁사용자	-10.3021
▁리처드	-10.3028
▁못해	-10.3028
▁곤잘레스	-10.3033
▁블라고예비치	-10.3033
▁블라디미	-10.3033
▁얻을	-10.3033
▁오사마빈라덴	-10.3033
▁합병	-10.3033
▁임금	-10.3034
▁고위관리	-10.3035
▁테스트	-10.3035
▁견해	-10.3041
▁이루어졌다	-10.3042
▁메일	-10.3047
▁쓴	-10.3048
▁적극적	-10.3049
▁시기에	-10.3055
▁답했다	-10.3064
▁의문	-10.3065
총	-10.3065
달라고	-10.3068
▁이라크군	-10.3075
▁세포	-10.3082
▁후보들	-10.3084
▁방법이	-10.3086
▁봉쇄	-10.3091
▁전해	-10.3094
주의자	-10.3094
▁주문	-10.3097
▁코트	-10.3099
대학	-10.3103
▁수퍼	-10.3104
▁마감했다	-10.3111
▁델	-10.3111
경제	-10.3118
pe	-10.3122
▁경찰서	-10.3127
없이	-10.3131
아야	-10.3135
▁초대	-10.3139
▁개장	-10.3147
▁나타내	-10.3147
▁몰아	-10.315
밀	-10.3156
백	-10.3156
▁에어버스	-10.316
▁에도	-10.3163
▁시점	-10.3169
▁취재	-10.3179
▁선거캠프	-10.3182
▁북서부	-10.3182
▁화장실	-10.3183
▁부총리	-10.3184
▁숀	-10.3184
틴	-10.3185
▁사막	-10.3186
▁government	-10.3187
▁노동당	-10.3188
▁분석가	-10.3188
▁상공	-10.3191
▁해양	-10.3194
누	-10.3201
▁작동	-10.3201
▁화해	-10.3202
▁전환	-10.3202
자금	-10.3208
▁병사들	-10.3209
환	-10.3211
▁만났다	-10.3216
에만	-10.3218
▁독도	-10.3222
▁재건	-10.3228
▁계	-10.3232
막	-10.324
▁문제들	-10.3259
▁하늘	-10.3259
▁그리	-10.3263
▁비판했다	-10.3265
▁얻어	-10.3272
람	-10.3273
운동	-10.3276
▁아프가니스탄에서	-10.3277
글	-10.3284
▁인종	-10.3301
▁자사	-10.3304
▁스키	-10.3307
▁발언에	-10.3311
▁압둘	-10.3323
▁우주비행사	-10.3323
▁조기	-10.3325
트리	-10.3325
▁백악관에서	-10.3325
▁짓	-10.3328
▁건축	-10.333
et	-10.3331
▁나스닥	-10.3333
▁샤라포바	-10.3333
▁리차드	-10.3333
▁리히터	-10.3333
▁복무	-10.3333
▁from	-10.3333
▁패트릭	-10.3334
▁핵프로그램	-10.3334
▁직업	-10.3334
▁다윈	-10.3335
▁왕실	-10.3336
▁강풍	-10.3336
▁진영	-10.3336
▁언어	-10.3341
▁생각했다	-10.3341
▁배경	-10.3342
▁전세계적으로	-10.3346
▁직전	-10.3346
▁정신적	-10.3349
▁해임	-10.3352
▁스타일	-10.3352
▁들어갔다	-10.3353
▁자유롭	-10.3354
▁시티	-10.3355
▁아니었다	-10.3355
▁차단	-10.3357
▁단어	-10.3365
▁중간	-10.3376
▁시민들이	-10.3379
▁작	-10.3383
히려	-10.3388
▁자제	-10.339
폭	-10.3394
▁합류	-10.3412
▁비치	-10.3416
▁라이	-10.3431
▁대상이	-10.3434
▁윌	-10.3436
드리	-10.3436
▁리드	-10.3447
▁트리	-10.3448
▁세인	-10.3449
▁취	-10.3451
▁공개된	-10.3455
▁맡은	-10.3462
▁골프	-10.3471
▁환	-10.3472
▁전역에	-10.3473
▁열어	-10.3476
▁그렇지	-10.3479
▁덮	-10.3482
▁붙	-10.3482
▁디즈니	-10.3487
▁캄보디아	-10.3487
▁남서부	-10.3487
▁받아들일	-10.3487
▁둘러싸	-10.3487
clear	-10.3487
▁영웅	-10.3488
▁케빈	-10.3488
▁원칙	-10.3488
▁축소	-10.349
▁수십명	-10.3491
▁법무부	-10.3494
▁이루	-10.3494
▁보복	-10.3495
▁공모	-10.3497
om	-10.3497
▁불과	-10.3499
▁공개적으로	-10.35
▁천명	-10.35
▁록	-10.3503
▁완전한	-10.3506
▁보호하기	-10.3522
▁논의하기	-10.3523
익	-10.3529
▁확실	-10.3534
▁가능하다	-10.3539
▁장례식	-10.354
▁법안이	-10.3546
▁탐	-10.3552
▁폭락	-10.3553
▁측정	-10.3553
▁공유	-10.3557
▁자신에게	-10.3562
ve	-10.3564
▁무엇	-10.3566
▁뒤에	-10.3569
▁시드니	-10.357
▁의학	-10.3573
▁대치	-10.3573
▁탈	-10.3578
▁거리에	-10.358
▁즉각	-10.3582
▁공항에	-10.3582
▁진술했다	-10.3584
▁불구	-10.3586
▁숨졌	-10.3588
ate	-10.3601
▁해적	-10.3615
▁출동	-10.3615
▁인근에	-10.3616
▁말해	-10.3624
▁시장이	-10.3639
▁오바마와	-10.3642
▁패션	-10.3642
▁유럽의	-10.3643
▁디지털	-10.3643
▁마이애미	-10.3643
▁비타민	-10.3643
▁알코올	-10.3643
▁중앙일보	-10.3643
됨	-10.3643
한글뉴스	-10.3643
▁가택연금	-10.3643
▁호랑이	-10.3643
▁거듭	-10.3644
▁활약	-10.3644
▁자치정부	-10.3644
▁라이벌	-10.3644
▁다우지수	-10.3644
▁산사태	-10.3645
▁새벽	-10.3645
▁취임식	-10.3649
▁천재	-10.3649
▁들여	-10.365
▁삭제	-10.3653
▁조류	-10.3654
▁만들고	-10.3654
lo	-10.3655
견	-10.3657
▁맥주	-10.3658
▁해산	-10.3663
▁타임스	-10.3663
▁떠났다	-10.3663
▁쌀	-10.3664
▁감염된	-10.3667
▁달려	-10.3668
▁이론	-10.3669
▁채널	-10.3669
▁계획은	-10.367
짜리	-10.3672
어스	-10.3674
▁우리에게	-10.3677
ol	-10.3678
▁소문	-10.3678
▁유대인	-10.368
▁영장	-10.3683
▁주위	-10.3687
▁한국인들	-10.3688
다시	-10.3692
▁지내	-10.3697
▁회사가	-10.3701
▁전부터	-10.3702
▁잡고	-10.3709
▁보는	-10.3711
▁세계적	-10.3713
했으	-10.3714
패	-10.3716
▁증가한	-10.3718
▁평가했다	-10.3721
▁동쪽	-10.3721
▁바라	-10.3722
▁청	-10.3724
암	-10.3729
▁모스크바	-10.3735
조사	-10.3737
▁주었다	-10.3739
▁한국이	-10.3744
▁싶어	-10.3756
▁푸	-10.3782
▁근로자	-10.3788
▁발굴	-10.3797
▁minister	-10.3802
▁토네이도	-10.3802
▁쌍둥이	-10.3802
▁천연가스	-10.3802
▁겨냥	-10.3802
▁법무장관	-10.3802
▁로이터	-10.3803
▁수석대표	-10.3803
▁마무	-10.3803
▁사생활	-10.3804
▁위안부	-10.3804
▁폭파	-10.3806
▁벨기에	-10.3807
▁무엇보다	-10.3807
▁예상되	-10.3807
제를	-10.3811
극	-10.3812
▁선발	-10.3813
▁북쪽	-10.3813
▁초반	-10.3815
▁치열한	-10.3821
▁형사	-10.3822
▁선전	-10.3822
ne	-10.3823
마자	-10.3824
▁것인가	-10.3831
▁눈에	-10.3831
▁연구팀	-10.3836
▁나에게	-10.3838
▁조합	-10.3843
▁상태로	-10.3844
▁연금	-10.3847
부대	-10.3848
▁데에	-10.3853
▁돼지	-10.3855
▁부서	-10.3855
▁걸린	-10.3862
▁호수	-10.3862
젤	-10.3862
▁올리	-10.3866
월	-10.387
베나	-10.3874
향	-10.3878
▁로비	-10.3878
is	-10.3879
▁노인	-10.3879
▁딕	-10.388
▁처	-10.3883
해질	-10.3884
왕	-10.3886
▁out	-10.3886
▁움직이	-10.3888
▁영국인	-10.3889
▁추산	-10.3889
▁예루살렘	-10.3889
▁가족과	-10.3891
▁배가	-10.3893
카운티	-10.3894
조직	-10.3897
▁키스	-10.3898
경찰	-10.39
▁투표에서	-10.3905
▁감행	-10.3906
▁분석가들	-10.3907
▁국민들이	-10.391
같은	-10.3914
ta	-10.3922
▁연관	-10.3924
▁나왔	-10.3929
▁연주	-10.3937
ft	-10.3941
▁인디애나	-10.3942
▁의존	-10.3942
▁부근	-10.3943
켓	-10.3951
▁조약	-10.3956
혜	-10.3956
▁쇼핑	-10.3959
넬	-10.3961
▁뿌리	-10.3963
▁쓰촨성	-10.3963
▁아메리카	-10.3963
▁결선투표	-10.3963
▁침몰	-10.3964
▁보스턴	-10.3964
▁파트너	-10.3964
▁다섯	-10.3964
▁은신처	-10.3964
▁황금	-10.3964
째	-10.3965
▁사찰단	-10.3965
▁엔진	-10.397
▁악어	-10.3972
▁재난	-10.3973
▁수위	-10.3973
▁생일	-10.3974
▁하락세	-10.3976
▁카터	-10.3976
▁경력	-10.3978
경기	-10.398
▁들어오	-10.398
▁상승세	-10.3981
▁world	-10.3981
스와	-10.3981
▁미칠	-10.3983
▁보내는	-10.3987
▁재무부	-10.3989
기에	-10.399
▁조명	-10.3992
▁보험	-10.3993
적이	-10.3998
▁구조대	-10.4006
▁아프간에서	-10.4019
▁알카에다와	-10.402
▁노스캐롤라이나	-10.4022
▁했었다	-10.4023
▁파티	-10.4038
▁피해자들	-10.4039
푸	-10.405
풍	-10.4051
▁밴드	-10.4052
▁사람에게	-10.4053
▁정지	-10.4053
▁이재민	-10.4057
됐었다	-10.4064
주는	-10.4078
▁수리	-10.4087
▁프레스	-10.4088
▁지점	-10.4099
▁현실	-10.4104
▁시한	-10.4104
률	-10.4108
▁상징	-10.411
▁차량에	-10.4116
▁연구에	-10.4117
▁최저	-10.4117
▁농	-10.412
▁경험이	-10.4126
▁pkk	-10.4127
▁늦게	-10.4127
▁마이크로소프트	-10.4127
▁비핵화	-10.4127
▁알렉산더	-10.4127
▁왼쪽	-10.4127
▁이산화탄소	-10.4127
▁좋다	-10.4127
▁키바키	-10.4127
▁득점	-10.4127
▁오딩가	-10.4127
▁거짓말	-10.4128
▁his	-10.4129
▁급격	-10.4129
▁참여한	-10.4129
▁영업	-10.4129
▁아이폰	-10.4129
▁할머니	-10.413
▁포경	-10.413
▁체중	-10.4131
▁체코	-10.4132
▁대립	-10.4136
▁초청	-10.414
▁분류	-10.4141
돼야	-10.4141
▁킬로미터	-10.4141
▁근로자들	-10.4142
되어야	-10.4143
▁날짜	-10.4153
▁원화	-10.416
▁노선	-10.416
▁밥	-10.4161
▁에드	-10.4166
▁경영진	-10.4167
▁내리	-10.4169
▁가동	-10.4171
▁총상	-10.4185
잔	-10.4193
▁자본	-10.4193
▁앨	-10.4197
▁인사들	-10.4202
▁기다리	-10.4203
▁제조업체	-10.4207
▁장면이	-10.4209
▁공사	-10.4209
▁떨어지	-10.4216
▁동기	-10.4221
▁일제	-10.4224
공격	-10.4226
▁흔들	-10.4226
▁치러	-10.4227
▁물이	-10.4227
상황	-10.4231
▁로한	-10.4234
녀	-10.4235
▁이란과	-10.4237
▁미국인들이	-10.4241
스타인	-10.4248
▁보석	-10.4255
▁테러와	-10.4259
pa	-10.426
▁보고서에	-10.4261
▁그대로	-10.4264
▁이식	-10.4266
▁급속	-10.427
니스	-10.4274
한번	-10.4275
▁정의	-10.4276
▁북미	-10.4278
▁화학	-10.4288
▁철	-10.4288
▁회견	-10.429
딩	-10.4292
▁옮겨	-10.4292
▁천주교	-10.4292
▁몸에	-10.4294
▁필라델피아	-10.4294
▁인플레이션	-10.4294
▁택시	-10.4294
▁over	-10.4294
▁탄압	-10.4295
▁사냥	-10.4296
▁소집	-10.4298
▁산림	-10.4298
▁성격	-10.4298
▁언론에	-10.43
▁소위	-10.4302
▁다음날	-10.4303
▁호소	-10.4304
▁이뤄졌다	-10.4313
▁만남	-10.4314
▁공기	-10.4318
▁스캔들	-10.4319
▁리치	-10.432
▁양국간	-10.4321
▁화재로	-10.4321
▁구조대원들	-10.4323
▁통일부	-10.4332
▁군사적	-10.4353
▁차량이	-10.4356
▁나오지	-10.4357
▁정치인	-10.436
▁만들기	-10.436
▁든	-10.4361
▁기록한	-10.4368
▁월요일에	-10.4373
▁것임	-10.4373
▁방식으로	-10.4374
델	-10.4376
된다고	-10.4376
▁투쟁	-10.4377
▁여론조사에서	-10.4378
착	-10.4383
▁홍수로	-10.4384
▁분만	-10.4393
▁살이	-10.4401
▁남동부	-10.4402
▁블	-10.441
▁극장	-10.4411
▁순	-10.4413
um	-10.4414
▁수상한	-10.4415
▁카페	-10.4417
받았다	-10.4418
작전	-10.4423
▁발생했	-10.4428
▁출판	-10.4435
▁시각	-10.4436
▁가족들이	-10.4437
▁존중	-10.4451
펠	-10.4454
▁기대한다	-10.4456
▁이루어지	-10.4458
▁진행자	-10.4459
▁음	-10.4462
se	-10.4462
▁탄핵	-10.4462
▁not	-10.4463
▁골키퍼	-10.4464
▁남자친구	-10.4464
닷컴	-10.4464
▁구멍	-10.4464
▁china	-10.4464
▁일간지	-10.4464
▁포럼	-10.4464
▁폭설	-10.4466
▁주최측	-10.4467
▁단어장	-10.4468
▁브랜드	-10.4468
▁진단	-10.4469
▁음주	-10.447
▁날개	-10.4471
▁가상	-10.4486
▁공대	-10.4488
▁특수	-10.4491
▁수사관들	-10.4498
▁구간	-10.45
▁관계에	-10.45
▁al	-10.4502
▁예술	-10.4506
▁예를들	-10.4507
베이	-10.4517
▁사법	-10.4517
니아	-10.4519
▁일본과	-10.4519
▁표명했다	-10.452
ese	-10.4524
▁쓰	-10.4525
▁세워	-10.4526
▁여행객	-10.4532
▁마비	-10.4533
철	-10.4535
▁사람들과	-10.4547
▁신사	-10.4547
▁미군과	-10.4548
놓	-10.4551
몬	-10.4551
▁바꾸	-10.4559
▁봉사	-10.4561
▁fa	-10.4562
▁희생	-10.4563
▁주장한	-10.4563
연맹	-10.457
▁숙	-10.4574
▁실망	-10.4575
▁사태에	-10.4575
▁세력이	-10.4583
사항	-10.4585
▁기소됐다	-10.4586
▁토지	-10.4587
▁모르	-10.4597
▁내일	-10.4598
da	-10.4611
▁전통적	-10.4611
지역에서	-10.4611
▁제작한	-10.4614
▁제공할	-10.462
갑	-10.4625
▁학	-10.4629
▁대륙	-10.4633
▁부상으로	-10.4633
▁맞는	-10.4636
▁사우스캐롤라이나	-10.4636
▁코끼리	-10.4636
▁후진타오	-10.4636
▁hiv	-10.4636
▁균형	-10.4637
립니다	-10.4637
▁종결	-10.4638
▁징역형	-10.4639
▁라덴	-10.4641
▁배후	-10.4644
▁다이	-10.4644
▁비율	-10.4646
▁용기	-10.4653
슨은	-10.4653
▁기온	-10.4654
▁비교적	-10.4654
▁day	-10.4655
▁정식	-10.4655
▁성장률	-10.4656
▁아난	-10.4657
▁보여준다	-10.4658
▁홈	-10.466
▁마리아	-10.4667
▁당국자	-10.4671
▁확인됐다	-10.4672
웨이	-10.4685
▁먼	-10.4688
▁고객들	-10.4694
택	-10.4701
▁출연한	-10.4701
▁벽	-10.4702
▁자신과	-10.4705
▁맡고	-10.4707
▁갔다	-10.4709
학교	-10.4711
▁생기	-10.4715
▁초안	-10.4724
▁이에따라	-10.4725
차량	-10.4729
▁위협이	-10.4729
▁하나로	-10.4735
▁받는다	-10.4738
▁조각	-10.4742
▁스톤	-10.4744
▁청문회	-10.475
▁최근에	-10.4751
얼	-10.4751
싱	-10.4755
놀	-10.4755
▁중이었다	-10.4769
장치	-10.4769
▁마시	-10.4773
▁올라가	-10.4775
찰	-10.4782
▁up	-10.4783
▁방송사	-10.4788
▁보잉	-10.4792
▁가게	-10.4792
▁토론회	-10.4792
▁폭발이	-10.4797
탕	-10.4799
▁치르	-10.4802
▁정상들	-10.4804
좌	-10.4808
▁시작했	-10.4811
▁뭄바이	-10.4811
▁선관위	-10.4811
▁쿠웨이트	-10.4811
▁테일러	-10.4811
▁스트레스	-10.4811
▁계좌	-10.4812
▁show	-10.4812
▁남극	-10.4813
▁줄리아니	-10.4814
▁케이트	-10.4815
▁스턴	-10.4815
▁여학생	-10.4815
▁미디어	-10.4819
▁제목	-10.4819
력이	-10.4821
▁화상	-10.4822
▁거주	-10.4834
▁낼	-10.4834
▁실적	-10.4836
▁피부	-10.484
▁일으켰다	-10.4841
▁정전	-10.4844
▁보일	-10.4854
스가	-10.4857
▁필요성	-10.4858
▁일어났다	-10.4864
해야만	-10.4866
▁결과에	-10.4867
▁군은	-10.4875
▁파도	-10.4876
▁가방	-10.4881
삼	-10.4884
버그	-10.4886
▁근처에서	-10.4896
그룹	-10.4899
▁도착한	-10.4899
▁이란에	-10.4902
▁날아	-10.4905
냈다	-10.4907
침	-10.4918
at	-10.4919
압	-10.4921
▁자택	-10.4933
알	-10.4934
▁과도	-10.4935
새	-10.4936
▁적절	-10.4936
▁대피했다	-10.4945
▁끝나	-10.495
▁사용해	-10.4958
▁특파원	-10.4963
▁올려	-10.4965
▁승려들	-10.4965
▁콘	-10.4965
▁애도	-10.4966
▁남부에서	-10.4969
▁문제의	-10.4972
▁놀	-10.4972
▁선포했다	-10.4973
되며	-10.4974
un	-10.4975
▁입을	-10.4976
▁유출	-10.498
▁가족이	-10.4982
▁하나인	-10.4982
▁다가	-10.4984
욕	-10.4985
▁비난하는	-10.4986
적이고	-10.4989
▁광범위	-10.499
▁다큐멘터리	-10.499
▁식료품	-10.499
▁에콰도르	-10.499
▁재검토	-10.499
▁탱크	-10.499
▁펠로시	-10.499
▁돌고래	-10.499
▁전당대회	-10.499
▁교통사고	-10.499
▁가벼	-10.499
▁예멘	-10.4991
▁헌	-10.4991
▁nba	-10.4991
▁슈퍼	-10.4991
▁지붕	-10.4991
▁소규모	-10.4991
▁구축	-10.4991
▁관영	-10.4992
▁보존	-10.4992
▁동생	-10.4993
▁회원국들	-10.4993
▁화려	-10.4994
▁관계당국	-10.4996
▁감바리	-10.4997
▁기쁘다	-10.4997
▁범행	-10.4998
▁묘사	-10.5001
▁치명적인	-10.5008
▁부산	-10.5011
▁기차	-10.5011
▁인원	-10.5015
▁발생하고	-10.5015
▁재판관	-10.502
▁파손	-10.5023
▁시체	-10.5025
▁조용	-10.5026
▁사용했다	-10.5032
▁서장	-10.5039
▁북쪽으로	-10.504
▁국적	-10.5043
▁수립	-10.5047
co	-10.505
▁손에	-10.5051
해진	-10.5052
▁중단했다	-10.5052
▁했습니다	-10.5053
▁물에	-10.5069
▁진행되는	-10.507
▁무게	-10.507
▁참석할	-10.5078
▁쓰고	-10.5087
▁총회	-10.5095
▁위인	-10.5095
ti	-10.5098
내내	-10.5101
▁이용하는	-10.5103
▁죄	-10.5106
▁노동자들	-10.5108
▁세계적으로	-10.5116
햄	-10.5121
치를	-10.5127
▁분에	-10.5128
▁내렸	-10.5134
▁제출했다	-10.5137
▁침입	-10.5145
▁착수	-10.5157
▁북극	-10.5158
닥	-10.5158
▁경호원	-10.5158
▁무슬림	-10.5161
ca	-10.5165
▁마라톤	-10.5168
▁지상	-10.5169
멸	-10.5169
▁근육	-10.517
▁배출	-10.5171
켈	-10.5171
▁dvd	-10.5172
▁과반수	-10.5172
▁국제원자력기구	-10.5172
▁돕기	-10.5172
▁듣고	-10.5172
▁샌디에이고	-10.5172
▁캐릭터	-10.5172
▁협약	-10.5172
▁횡령	-10.5172
▁감금	-10.5172
▁롬니	-10.5172
▁펀드	-10.5172
▁봉송	-10.5172
▁일어날	-10.5172
▁침공	-10.5172
▁소련	-10.5173
▁레이건	-10.5174
▁운명	-10.5174
▁검문소	-10.5175
▁기밀	-10.5175
▁신규	-10.5175
허	-10.5175
▁처해	-10.5177
▁판정	-10.5177
제도	-10.5178
▁거부권	-10.5178
▁뇌물	-10.5179
▁개정안	-10.518
▁경관	-10.518
국인	-10.5181
▁이륙	-10.5182
▁자문	-10.5183
▁마친	-10.5186
▁숲	-10.5187
▁늘어나	-10.5192
▁반박	-10.5194
age	-10.5195
▁충돌이	-10.5199
▁녹	-10.52
▁성당	-10.5201
▁일련	-10.5204
▁유럽에서	-10.5205
▁월드	-10.521
▁기부	-10.5213
▁부모들	-10.5213
▁여성들이	-10.5216
▁정책에	-10.5218
▁차지하고	-10.5218
▁보여주고	-10.5219
▁지정	-10.523
▁일치	-10.5232
▁팀이	-10.5237
라스	-10.5238
ty	-10.5241
▁지점에서	-10.5249
▁요리	-10.5251
▁해안에서	-10.5251
▁실시할	-10.5257
▁수배	-10.5259
▁근거로	-10.526
업자	-10.526
▁연구원들	-10.5265
▁고소	-10.527
▁하이	-10.5271
▁주장한다	-10.5278
▁예정인	-10.5278
▁대로	-10.5285
▁미스	-10.5286
▁신조	-10.5286
▁통신이	-10.5289
▁목격	-10.529
ary	-10.5292
▁이름이	-10.5292
▁보냈	-10.5298
곤	-10.5304
▁개시	-10.5312
연구소	-10.5314
갔다	-10.5316
▁공약	-10.5317
사태	-10.532
비아	-10.5327
▁적십자	-10.5341
▁맞추	-10.5342
▁론	-10.5343
▁생물	-10.5348
위원장	-10.535
▁x	-10.5351
얀	-10.5354
▁메르켈	-10.5357
▁연쇄	-10.5357
▁확장	-10.5357
▁지하철	-10.5357
▁party	-10.5358
▁발휘	-10.5358
▁녹음	-10.5358
▁특징	-10.5358
▁영화배우	-10.5359
▁부채	-10.536
▁저희	-10.536
▁당초	-10.5362
▁성직자	-10.5363
▁안전보장이사회	-10.5364
▁조지아주	-10.5365
▁래리	-10.5365
▁항구	-10.5367
▁모임	-10.5369
▁붙잡	-10.537
▁are	-10.5372
비치	-10.5372
▁지분	-10.5372
▁진보	-10.5373
▁승무원들	-10.5376
▁하미	-10.5378
▁여지	-10.5381
해왔	-10.5382
▁오하이오주	-10.5382
▁ha	-10.5382
▁서울시	-10.5383
▁md	-10.5386
▁생산량	-10.5392
▁운전사	-10.5394
▁선원	-10.5396
▁지원할	-10.5397
▁행사에	-10.5403
▁얼	-10.5405
▁운영하고	-10.5408
속도로	-10.5409
트라	-10.5414
▁원숭이	-10.5417
▁tr	-10.5418
사인	-10.542
▁흥분	-10.5422
▁실종자	-10.5423
▁나이트	-10.5429
▁냈다	-10.5429
▁이르	-10.5429
▁검은	-10.5429
▁달린	-10.543
▁최	-10.543
▁품	-10.5432
▁달러화	-10.5436
기업	-10.5439
▁누르	-10.5444
▁사용하지	-10.5448
▁보게	-10.545
▁요금	-10.5451
▁발견한	-10.5452
▁주식시장	-10.5453
▁펼치	-10.5453
▁있어야	-10.5454
▁투르	-10.5455
정보	-10.5466
▁레스토랑	-10.5468
▁계속될	-10.547
▁않았던	-10.547
▁확정	-10.5472
▁와인	-10.5475
▁확신한다	-10.5477
▁가해	-10.5484
▁상태에서	-10.5487
헌	-10.5489
몰	-10.5493
▁최고치	-10.5494
▁미치는	-10.5498
▁직원이	-10.5504
들로부터	-10.5507
▁주전	-10.5509
▁합의한	-10.5509
▁알아	-10.5514
거래	-10.5514
▁브리	-10.5519
▁소매	-10.5521
▁포로	-10.5526
▁셀	-10.5532
▁국가에서	-10.5533
▁중단할	-10.5535
▁st	-10.5537
▁데일리	-10.5539
▁후보자	-10.5542
▁미시시피	-10.5545
릿	-10.5545
픽	-10.5545
▁obama	-10.5546
▁낮추	-10.5546
▁마흐디	-10.5546
▁매니저	-10.5546
▁먹이	-10.5546
▁프랭크	-10.5546
▁항공우주국	-10.5546
▁애완견	-10.5546
▁줄기세포	-10.5546
▁난민촌	-10.5546
▁앤드류	-10.5546
▁생각이	-10.5546
▁귀환	-10.5547
▁빌딩	-10.5547
▁쿠퍼	-10.5547
▁탄생	-10.5548
▁레드	-10.5549
▁리처드슨	-10.5552
▁침대	-10.5553
▁쉽지	-10.5553
▁수사관	-10.5555
▁소형	-10.5555
▁수송	-10.5556
▁추세	-10.5556
▁원래	-10.5556
▁매체	-10.5557
▁밝혀진	-10.5557
▁공산주의	-10.556
송	-10.5565
▁정원	-10.5569
▁동의했다	-10.5574
▁일본에	-10.5576
▁후보와	-10.5576
측이	-10.5576
▁텍사스주	-10.5584
▁스타디움에서	-10.5585
벨	-10.5589
▁등급	-10.559
▁동료들	-10.559
▁직장	-10.5591
▁무어	-10.5594
▁다르다	-10.5597
▁증세	-10.5605
▁구역	-10.5605
▁깊이	-10.5605
포드	-10.5606
▁없게	-10.5614
▁어렵다	-10.5615
▁무리	-10.5615
▁테니스	-10.5617
▁황	-10.5624
▁맨	-10.5625
▁베르	-10.5626
▁윤	-10.5635
▁망	-10.5639
▁건물이	-10.5647
▁전달했다	-10.565
▁만족	-10.5655
▁딸이	-10.566
▁영화에	-10.5661
▁전부	-10.5666
▁작업에	-10.5668
존	-10.5669
▁일어났	-10.568
법원	-10.5689
▁추측	-10.569
▁아들이	-10.5692
참	-10.5693
능	-10.5694
▁동맹국	-10.5696
▁물품	-10.5697
꺼	-10.5697
어로	-10.5699
▁옆	-10.5704
▁교황은	-10.5706
▁화요일에	-10.5707
▁하락한	-10.5709
▁협상에	-10.5724
▁프레	-10.5726
▁통계	-10.5729
▁애리조나	-10.573
▁경호	-10.5734
▁소식통이	-10.5734
▁foreign	-10.5738
▁얻고	-10.5738
▁플라스틱	-10.5738
▁옐친	-10.5738
▁화이트	-10.5738
▁침략	-10.5738
▁경기부양책	-10.5738
▁말했	-10.5738
▁샘플	-10.5738
▁어깨	-10.5738
▁예비선거	-10.5738
▁헌법재판소	-10.5738
▁롤링	-10.5738
▁득표율	-10.5739
▁응급	-10.5739
▁솔직	-10.5739
▁복역	-10.5739
▁영양	-10.574
▁창출	-10.574
▁제정	-10.574
▁창문	-10.5741
▁다국적군	-10.5742
▁끝날	-10.5742
▁방출	-10.5743
▁졸리	-10.5743
▁키우	-10.5748
▁발포	-10.5748
▁교도소에	-10.5748
별	-10.5749
▁최저치	-10.5751
▁운전자	-10.5752
▁하루에	-10.5759
마리	-10.5762
▁결과로	-10.5764
▁news	-10.5767
▁견	-10.577
▁인력	-10.5774
▁식사	-10.5778
▁옆에	-10.5779
▁테러범	-10.578
▁경비	-10.5781
▁발견되었다	-10.5783
▁행정	-10.5783
▁늘리	-10.5786
량이	-10.5791
▁신문사	-10.5794
▁공개됐다	-10.5794
▁예정이었다	-10.581
▁치러지	-10.5813
▁청사	-10.5816
▁즐	-10.5819
▁바라는	-10.5823
▁해상	-10.5825
▁아르	-10.5828
사의	-10.5829
▁촬영한	-10.5829
▁전복	-10.5832
▁던지	-10.5832
▁인근에서	-10.5837
▁화물	-10.5838
▁전반적	-10.5842
소를	-10.5849
▁조건으로	-10.5853
▁승객들	-10.5856
타르	-10.5856
▁모색	-10.5858
▁학교에	-10.5869
▁카불	-10.5871
▁일으키	-10.5872
▁대항	-10.5873
▁겨	-10.5876
▁거절했다	-10.5883
▁후보인	-10.5898
▁무고	-10.5902
▁문제와	-10.5902
▁받아들이	-10.5903
▁ma	-10.5907
▁권고	-10.5909
▁자리에	-10.5913
▁따르	-10.5914
시킨다	-10.5917
▁게재	-10.5918
▁빈곤	-10.5923
▁메이	-10.5927
넷	-10.5929
▁방문하는	-10.5932
▁뮤지컬	-10.5934
▁윔블던	-10.5934
▁일으킬	-10.5934
▁퍼거슨	-10.5934
▁배터리	-10.5934
▁여겨지	-10.5934
▁프리미어리그	-10.5934
▁노르웨이	-10.5934
▁유혈사태	-10.5934
▁브리핑	-10.5934
▁데이빗	-10.5934
▁낙태	-10.5934
▁검증	-10.5934
▁상륙	-10.5935
▁빠질	-10.5935
▁외무성	-10.5935
▁생방송	-10.5935
▁오마르	-10.5936
▁로딕	-10.5937
▁실업률	-10.5938
▁서양	-10.5939
▁잡아	-10.5939
비용	-10.5939
▁알렉스	-10.594
▁백신	-10.594
▁조항	-10.594
▁드러냈다	-10.594
▁american	-10.5941
▁음성	-10.5941
▁이뤄진	-10.5941
▁접전	-10.5943
▁상호	-10.5943
▁본토	-10.5944
▁발행	-10.5945
▁번역	-10.5947
▁분량	-10.5952
▁지켜보	-10.5959
▁알렸다	-10.5959
대표	-10.5962
▁go	-10.5962
▁정상화	-10.5963
▁동일한	-10.5967
▁환호	-10.5969
▁즐기	-10.5969
금지	-10.5972
▁제리	-10.5972
▁포장	-10.5974
▁유도	-10.5974
▁싸	-10.5978
▁명인	-10.598
▁잡스	-10.598
▁알지	-10.5981
▁요인	-10.5984
im	-10.5995
▁소득	-10.5995
▁년만	-10.5999
▁자택에서	-10.6
▁후원	-10.6001
▁생각하지	-10.6018
▁매달	-10.6019
▁정권이	-10.6026
▁이민	-10.6028
▁일본인	-10.6031
▁국기	-10.6035
드로	-10.6041
▁심의	-10.6045
ac	-10.6052
육	-10.6054
▁지지한다	-10.6055
▁동물들	-10.6057
ity	-10.6065
▁테러에	-10.6065
▁포기하	-10.6072
▁비행사	-10.6074
검	-10.6076
에게서	-10.6076
▁연안	-10.6077
▁발표됐다	-10.6082
▁실질적	-10.6091
군이	-10.6097
귀	-10.6099
▁지대	-10.6103
▁노리	-10.6105
▁대표들	-10.6106
▁투표에	-10.6115
입어	-10.6117
▁취해	-10.6117
▁지지자들이	-10.6119
총리	-10.6123
웅	-10.613
▁느낄	-10.6134
▁얻는	-10.6134
▁오토바이	-10.6134
▁카트리나	-10.6134
▁파바로티	-10.6134
▁피라미드	-10.6134
▁징계	-10.6134
▁보이콧	-10.6134
▁정거장	-10.6134
▁라파엘	-10.6134
▁여섯	-10.6134
▁암컷	-10.6134
▁라이언	-10.6135
▁mbc	-10.6136
▁오른쪽	-10.6138
▁상대방	-10.6139
▁통증	-10.6139
혔다	-10.614
▁상원의원과	-10.6141
▁모금	-10.6142
▁돌파	-10.6142
▁멀리	-10.6144
▁빠지	-10.6145
▁지원하는	-10.6145
▁유산	-10.6149
세이	-10.6149
▁부실	-10.6149
▁플레이어	-10.615
▁법원에서	-10.615
▁사설	-10.6154
▁산타	-10.6154
▁처한	-10.6154
▁버리	-10.6156
▁감소했다	-10.6158
▁회의에	-10.6163
ts	-10.6166
▁않는다면	-10.617
▁플로리다주	-10.6175
▁해병	-10.618
오는	-10.6182
▁외치	-10.6184
▁앉아	-10.6184
▁쓸	-10.6187
▁레바논군	-10.6187
▁소유하고	-10.6188
▁국가로	-10.6189
쪽으로	-10.6197
리스트	-10.6206
▁용	-10.621
▁실시했다	-10.6212
▁남자들	-10.6213
▁참여할	-10.6214
▁입수	-10.6215
▁전해지	-10.6217
간에	-10.6219
▁래	-10.6226
▁계기	-10.6229
▁학생이	-10.6234
기록	-10.6239
▁국민의	-10.624
▁에어	-10.624
스럽게	-10.6244
▁약세	-10.6246
▁마을에서	-10.6266
▁몰고	-10.6266
▁코커스	-10.6269
▁두번째	-10.6283
▁무장대원	-10.6285
▁살해했다	-10.6298
▁제시했다	-10.6298
엄	-10.6304
헤	-10.6306
벽	-10.6308
▁단체인	-10.631
▁해서	-10.6311
됩니다	-10.6311
으면서	-10.6315
▁잠재적	-10.6316
▁반영	-10.6321
ist	-10.6323
보호	-10.6325
▁state	-10.6327
▁당국에	-10.6327
▁취한	-10.6327
니는	-10.6328
측에	-10.6329
▁감지	-10.6329
▁온도	-10.633
▁아름다	-10.6338
▁visit	-10.6338
▁관타나모	-10.6338
▁마돈나	-10.6338
▁imf	-10.6338
▁객실	-10.6338
▁불가리아	-10.6338
▁again	-10.6338
▁비틀즈	-10.6339
▁화합	-10.6339
▁함	-10.6339
▁fda	-10.6339
▁테러조직	-10.6343
▁서식지	-10.6346
▁차별	-10.6349
▁재임	-10.6349
▁전국적으로	-10.635
ll	-10.635
▁보급	-10.6351
▁재직	-10.6351
▁내려졌다	-10.6353
▁개편	-10.6353
▁도심	-10.6353
▁탄소	-10.6354
▁범인이	-10.6357
▁열렸다	-10.6365
▁리비	-10.6366
▁개인적	-10.6368
▁대학에서	-10.6376
▁다음주	-10.6379
본부	-10.6385
▁조지아	-10.6392
▁광장	-10.6393
▁클	-10.6394
▁불이	-10.6395
기지	-10.6399
z	-10.6402
▁포함돼	-10.6403
▁로스	-10.6407
▁방향으로	-10.6407
▁해소	-10.641
▁모건	-10.6412
▁원인이	-10.6413
▁군인들이	-10.6426
ha	-10.643
확실한	-10.6435
▁미터	-10.6441
▁커지	-10.6443
▁플라	-10.6445
됐을	-10.6447
로스	-10.6452
검사	-10.6463
이란	-10.6464
▁화면	-10.6466
▁제출한	-10.647
▁중심가	-10.6473
▁악화되	-10.6474
어서	-10.6482
ter	-10.6485
▁본다	-10.6485
ma	-10.6485
십	-10.6487
▁거부하	-10.6488
▁소식에	-10.6494
▁부당	-10.6495
▁프라이머리에서	-10.6499
으려	-10.65
▁최대의	-10.6501
정도	-10.6505
롭	-10.6507
▁이용한	-10.6509
시대	-10.6511
▁상승한	-10.6515
▁지불하	-10.6536
▁콜로라도	-10.6537
▁뉴욕주	-10.6537
▁청구	-10.654
▁농장	-10.6541
없는	-10.6544
▁부딪	-10.6546
▁경기침체	-10.6546
▁끔찍	-10.6546
▁아테네	-10.6546
룸	-10.6546
▁중남미	-10.6546
▁자유무역협정	-10.6546
▁히틀러	-10.6546
▁take	-10.6547
▁공룡	-10.6547
▁에이커	-10.6547
▁관람	-10.6547
▁벽돌	-10.6547
▁탈락	-10.6548
▁탄광	-10.6548
▁자선단체	-10.6548
▁talks	-10.6549
▁거짓	-10.6549
▁금액	-10.6549
▁점검	-10.6549
▁급증	-10.6549
국이	-10.655
▁범	-10.655
니까	-10.6551
▁nk	-10.6552
▁아마디	-10.6554
▁야구	-10.6555
▁자신감	-10.6555
▁고급	-10.6557
▁이틀간	-10.6557
▁접수	-10.6557
▁중요성	-10.6557
▁실린	-10.6559
▁인형	-10.6562
▁해주	-10.6563
▁존경	-10.6566
▁한국은행	-10.6566
▁촉진	-10.6568
▁남용	-10.6572
▁좋아하는	-10.6576
▁군함	-10.6578
▁강세	-10.658
▁세웠다	-10.6583
▁포함하여	-10.6583
▁싱	-10.6585
▁겸	-10.6589
▁여러분	-10.6594
▁유발	-10.6596
▁유튜브	-10.6599
▁라이브	-10.6601
웨	-10.6604
▁노력이	-10.6615
시오	-10.6617
▁당국자들	-10.6624
▁각자	-10.6624
▁손해	-10.6626
▁털	-10.6638
었는지	-10.6644
▁약화	-10.6645
▁대학생	-10.6647
▁so	-10.6653
▁소비자들	-10.6653
대가	-10.6656
▁fir	-10.6658
▁조사한	-10.6662
▁남편이	-10.6667
겠습니다	-10.6672
▁기소된	-10.6685
▁포함됐다	-10.6688
줬다	-10.6688
▁상하이	-10.669
▁사용하고	-10.6692
▁로브	-10.6696
▁법안에	-10.6697
▁맛	-10.6697
▁잃었	-10.6698
브라	-10.6699
▁미니	-10.6703
hi	-10.6709
▁dis	-10.6722
▁그래	-10.6728
▁여기에	-10.6734
다란	-10.6739
않게	-10.6739
▁do	-10.674
데이	-10.674
▁퇴임	-10.6743
▁국가들이	-10.6745
▁건너	-10.6746
▁위원	-10.6748
겼다	-10.675
▁경사	-10.6751
est	-10.6754
잉	-10.6756
▁매춘	-10.6759
▁opec	-10.6759
▁seoul	-10.6759
▁루아얄	-10.6759
▁우주왕복선	-10.6759
▁울포위츠	-10.6759
▁지지선언	-10.6759
▁허커비	-10.6759
▁징후	-10.6759
▁시라크	-10.6759
▁벌써	-10.6759
▁본격적	-10.676
▁농업	-10.676
▁직면	-10.676
▁파나마	-10.676
▁center	-10.676
▁드러내	-10.6761
▁범위	-10.6761
▁함유	-10.6761
▁술집	-10.6761
▁떠날	-10.6761
▁막대한	-10.6762
▁사이클	-10.6762
▁디스크	-10.6763
▁매매	-10.6764
▁소행성	-10.6765
▁통과시켰다	-10.6765
▁서류	-10.6766
▁연계	-10.6766
▁집권당	-10.6767
▁형식	-10.6767
▁승부	-10.6768
▁로저	-10.677
▁준수	-10.677
▁국방성	-10.677
주에서	-10.6772
지역에	-10.6773
버스	-10.6774
▁정계	-10.6775
▁연간	-10.6776
▁자동	-10.6778
vs	-10.678
▁얼마전	-10.6785
▁민족	-10.6787
▁벌어졌다	-10.6789
▁내정	-10.679
▁곰	-10.6793
네스	-10.6796
▁표면	-10.6799
▁호소했다	-10.68
▁내려진	-10.6805
장인	-10.6807
사회	-10.6808
▁있을지	-10.6811
▁재미있	-10.6814
사와	-10.6814
업계	-10.6816
▁있었습니다	-10.6823
전에서	-10.6824
ry	-10.6826
▁이어지	-10.6828
▁나선	-10.6829
▁완	-10.6852
▁세로	-10.6855
▁nation	-10.6857
▁보조	-10.6857
▁관여	-10.6861
▁승인했다	-10.6862
▁항의하	-10.6871
팅	-10.6872
▁전역에서	-10.6874
▁포함된	-10.6877
ver	-10.6879
진다	-10.688
분께	-10.6881
▁기분	-10.6881
▁고장	-10.6881
▁부족하다	-10.6889
▁매케인이	-10.6893
장으로	-10.6893
▁여부에	-10.6894
▁불에	-10.6894
▁어렵	-10.6897
▁베를린	-10.6898
▁바스라	-10.6902
▁건강이	-10.6903
▁촉발	-10.6906
▁출산	-10.6907
▁운동가들	-10.6907
▁타임	-10.691
▁하면서	-10.692
▁취하	-10.6922
▁참가자들	-10.6923
▁설	-10.6924
▁향상	-10.6926
▁대전	-10.6926
me	-10.6935
▁제공한	-10.6942
▁sc	-10.6944
▁도달	-10.6944
▁me	-10.6949
국장	-10.695
▁많아	-10.6951
▁바르	-10.6954
▁되찾	-10.6954
▁필요로	-10.6956
▁용의자로	-10.6957
충	-10.6957
램	-10.6961
팔	-10.6961
▁열고	-10.6968
▁소탕	-10.6971
뉴스	-10.6972
▁쓰레기	-10.6974
▁고이즈미	-10.6977
▁베네딕	-10.6977
▁쇠고기	-10.6977
▁싶지	-10.6977
▁옮기	-10.6977
▁조승희	-10.6977
톨	-10.6977
▁디자이너	-10.6977
▁포르노	-10.6977
▁교섭	-10.6977
▁외곽	-10.6977
▁북부에	-10.6977
▁저항세력	-10.6977
▁품목	-10.6977
▁경향	-10.6978
▁cdc	-10.6978
▁우울증	-10.6978
▁more	-10.6978
▁다룬	-10.6979
▁정착	-10.6979
▁벗어	-10.698
▁계산	-10.698
베르토	-10.6981
▁하자	-10.6982
▁취했다	-10.6983
▁지역사회	-10.6983
▁핵개발	-10.6983
▁상담	-10.6983
▁신분	-10.6983
▁왕세자비	-10.6984
▁도살	-10.6984
▁소동	-10.6987
▁대대적	-10.6988
▁에릭	-10.699
▁물체	-10.6991
▁통보	-10.6993
공사	-10.6994
▁업체들	-10.6995
▁일이라고	-10.6998
▁만년	-10.7
▁사체	-10.7003
▁나토군	-10.7004
▁지위	-10.7006
린다	-10.7007
▁뿐이다	-10.701
▁강전에서	-10.7012
▁희망한다	-10.7014
▁서서	-10.7018
물이	-10.702
▁결승전에서	-10.7026
▁대법원장	-10.7027
▁챔피언십	-10.7027
▁지휘관	-10.7036
▁점거	-10.7036
평	-10.7036
▁도시인	-10.7036
▁농민들	-10.7046
▁지식	-10.7047
▁적발	-10.7047
▁계속된	-10.7055
▁걸리	-10.7055
▁유전	-10.7059
▁진지	-10.7063
▁바위	-10.7064
▁모르는	-10.7066
▁돌려	-10.7069
▁고려하고	-10.707
▁상자	-10.7074
▁탈레반측	-10.7076
▁되며	-10.7094
▁갖는	-10.7099
대회	-10.7105
▁가족들과	-10.7108
▁혼	-10.711
▁게리	-10.7116
▁대통령직	-10.7117
▁저자	-10.7118
li	-10.7121
▁맡	-10.7122
되자	-10.7126
장에	-10.7128
▁의상	-10.7128
▁회장이	-10.7132
▁탑승객	-10.7133
▁합의에	-10.7133
▁추구하	-10.7136
▁ho	-10.7143
혈	-10.7146
▁흔	-10.7148
▁미국으로	-10.7151
ive	-10.7152
▁모자	-10.7156
했었	-10.7158
▁정보부	-10.7161
▁상영	-10.7165
▁요원들	-10.7169
▁봤	-10.7176
끼	-10.7181
▁들어간	-10.7181
▁사용자들	-10.7182
▁뉴햄프셔	-10.7182
▁맞이	-10.7183
▁윈	-10.7183
달러	-10.7184
▁무시	-10.7184
▁공격했다	-10.7185
짐	-10.7185
국으로	-10.7187
▁경매에	-10.7189
걸	-10.719
닌	-10.7191
▁슬	-10.7191
▁브라이언	-10.7192
▁다루	-10.7194
▁건강에	-10.7195
랭	-10.7199
▁노트북	-10.7199
▁뉴올리언스	-10.7199
▁두려움	-10.7199
▁맞고	-10.7199
▁심장마비	-10.7199
▁아닙니다	-10.7199
▁압바스	-10.7199
▁최첨단	-10.7199
▁톰슨	-10.7199
▁대서양	-10.7199
▁무너지	-10.7199
▁윈도우	-10.7199
▁부사장	-10.7199
▁온실가스	-10.7199
▁open	-10.7199
▁글로벌	-10.7199
▁이자율	-10.7199
▁멈추	-10.7199
▁우간다	-10.72
▁연례	-10.72
▁가짜	-10.72
▁붙여	-10.7201
▁파월	-10.7201
▁타밀	-10.7202
▁고유가	-10.7202
▁풍부	-10.7202
▁비서실장	-10.7202
▁갈등	-10.7202
▁관측	-10.7203
▁오프라	-10.7204
▁조사할	-10.7204
▁개막	-10.7205
▁구름	-10.7205
▁열심	-10.7208
▁받아왔다	-10.7208
▁발급	-10.7208
▁미첼	-10.7209
▁휴대	-10.7209
▁테러단체	-10.7209
▁경비대	-10.721
▁발발	-10.721
▁무슨	-10.721
▁기증	-10.7212
▁문구	-10.7213
▁은행들	-10.7213
▁스파이	-10.7219
▁파리에서	-10.7224
▁남측	-10.7224
▁my	-10.7226
▁참석하지	-10.7227
▁보건부	-10.7227
▁신화	-10.7228
해달라	-10.7228
▁헬	-10.7232
시위	-10.7236
▁독일인	-10.7237
▁정치인들	-10.7238
ice	-10.724
러스	-10.7245
▁직접적	-10.7247
▁부분이	-10.7257
▁마이	-10.7258
자르	-10.7264
▁기상청	-10.7268
▁가중	-10.727
▁time	-10.7271
▁러드	-10.7272
▁크레	-10.7276
▁완료	-10.7281
▁점수	-10.7283
▁by	-10.7283
▁확산되고	-10.7287
▁학교에서	-10.7288
▁반대로	-10.7289
▁v	-10.7298
▁su	-10.7301
▁has	-10.7305
▁증상	-10.7311
▁제작사	-10.7313
▁작업이	-10.7313
가격	-10.7315
▁착용	-10.7316
▁해적들	-10.7319
▁등장	-10.732
▁당해	-10.7321
▁결정적인	-10.7326
스런	-10.7331
▁달러가	-10.7336
혼	-10.7336
디아	-10.7337
end	-10.7339
렉	-10.7344
man	-10.7346
▁국제공항	-10.7348
▁테리	-10.7354
▁복	-10.7358
갔	-10.7359
로우	-10.7363
▁행위에	-10.7367
▁입지	-10.737
▁정리	-10.7378
▁사진이	-10.7386
▁명백	-10.7389
▁싸우	-10.7389
▁부지	-10.739
▁동성애	-10.7392
념	-10.7392
▁파키스탄군	-10.7397
▁시인	-10.7402
▁sh	-10.7403
id	-10.7404
▁반지	-10.7405
셀	-10.7408
폰	-10.7411
필	-10.7413
폐	-10.7414
▁보도에	-10.7417
▁반복	-10.7421
값	-10.7422
▁언론과	-10.7422
회담	-10.7422
▁출입	-10.7423
시스템	-10.7423
▁에베레스트	-10.7424
▁troop	-10.7426
▁그렇다	-10.7426
▁로드리게스	-10.7426
▁이브라힘	-10.7426
▁찾지	-10.7426
▁펼친	-10.7426
▁도요타	-10.7426
▁브래드	-10.7426
▁허드슨	-10.7426
▁플루토늄	-10.7426
▁빼앗	-10.7426
▁해수면	-10.7426
▁아마디네자드	-10.7426
▁인터폴	-10.7426
▁남아프리카	-10.7426
▁빅토리아	-10.7426
▁터널	-10.7426
▁의약품	-10.7427
▁남학생	-10.7427
▁금융위기	-10.7427
▁평화유지군	-10.7428
▁무덤	-10.7428
▁들어갈	-10.7429
▁이루어진	-10.743
▁예약	-10.7431
▁단행	-10.7431
스티	-10.7432
▁남성들	-10.7432
▁완성	-10.7432
▁밀려	-10.7432
▁채취	-10.7432
▁유통	-10.7434
▁고위급	-10.7435
▁구류	-10.7437
▁포터	-10.7438
▁십	-10.7438
▁양쪽	-10.7438
▁종이	-10.7439
▁배제	-10.7443
▁적합한	-10.7446
▁군사력	-10.7446
▁빠졌다	-10.7451
▁양보	-10.7451
▁경로	-10.7452
▁임대	-10.7452
▁서안	-10.7452
▁해체	-10.7453
▁준비하고	-10.7453
▁입법	-10.7453
▁되었	-10.7456
▁house	-10.7456
▁경쟁력	-10.7457
▁회수	-10.7459
▁선거법	-10.7463
roh	-10.7463
▁주연	-10.7464
▁체포됐	-10.7465
▁코치	-10.7467
▁베리	-10.7469
▁남부에	-10.747
▁나타내는	-10.7479
▁벌여	-10.748
▁불어	-10.7483
기자	-10.7486
▁au	-10.7486
▁향한	-10.7489
▁햄	-10.749
▁선수로	-10.7491
▁살았	-10.7494
▁멀	-10.75
▁미래에	-10.7503
ent	-10.751
▁너무나	-10.751
▁사면	-10.7512
▁공무원	-10.7512
▁정기적	-10.7514
▁턱	-10.7522
▁법정에서	-10.7532
▁르	-10.7533
▁시인했다	-10.7537
▁위험성	-10.7537
▁보인	-10.7539
▁넘기	-10.7544
▁all	-10.7552
리그	-10.7553
▁궤도	-10.7561
▁관객들	-10.7565
▁논	-10.7569
리안	-10.7572
▁뿐이라	-10.7574
▁변호	-10.7583
▁회전	-10.7584
▁목격했다	-10.7587
겼	-10.76
▁폴리	-10.7601
▁따뜻	-10.7601
혔	-10.7602
▁기본적	-10.7617
▁연구에서	-10.762
▁종료	-10.7627
▁연대	-10.7635
▁명성	-10.7637
퇴	-10.7639
▁야생동물	-10.7652
칸	-10.7657
규모	-10.7657
▁ai	-10.7658
덕	-10.7658
▁스타벅스	-10.7659
▁washington	-10.7659
▁york	-10.7659
▁나눴다	-10.7659
▁낮아	-10.7659
▁느낌	-10.7659
▁망원경	-10.7659
▁무승부	-10.7659
▁성추행	-10.7659
▁아라비아	-10.7659
▁자르다리	-10.7659
▁최우선	-10.7659
▁토크쇼	-10.7659
▁확률	-10.7659
찌	-10.7659
▁수류탄	-10.7659
▁시나리오	-10.7659
▁삭감	-10.7659
▁맥캔	-10.7659
▁에드워드	-10.7659
원들이	-10.7659
▁intern	-10.7659
▁하원의장	-10.7659
▁활발	-10.7659
▁남자아이	-10.766
▁긴밀	-10.766
▁교외	-10.766
▁머레이	-10.766
▁물고기	-10.766
▁외환	-10.7661
▁추격	-10.7661
▁송금	-10.7661
▁체류	-10.7661
▁실현	-10.7662
bush	-10.7665
▁뉴욕시	-10.7666
▁포스트	-10.7667
코프	-10.7668
▁상금	-10.7671
▁선임	-10.7672
▁센	-10.7673
▁해저	-10.7674
▁주에	-10.7676
▁우세	-10.7677
▁당부했다	-10.768
▁착수했다	-10.7682
▁저질렀다	-10.7682
▁은행에	-10.7682
▁사라졌다	-10.7684
사업	-10.7686
▁묻는	-10.7688
▁맡았다	-10.7689
▁총통	-10.769
▁상업	-10.7693
▁이득	-10.7693
▁상세	-10.7694
▁달한다	-10.7699
▁목록	-10.7701
▁군이	-10.7702
널리	-10.7706
▁차질	-10.7707
▁쪽	-10.7711
▁간주	-10.7711
▁해당하	-10.7714
▁신도들	-10.7715
ea	-10.7715
▁화가	-10.7721
▁위하여	-10.7727
▁의견이	-10.7728
▁개인적으로	-10.7729
관련	-10.7729
과정	-10.7732
▁생각해	-10.7732
▁국가에	-10.7733
▁촉구하	-10.7733
▁중심지	-10.7734
▁기적	-10.7734
▁부검	-10.7745
▁수행할	-10.7747
▁새롭	-10.7752
▁주최	-10.7754
▁프	-10.7754
▁제공했다	-10.7759
▁인터넷에	-10.7762
▁파키스탄에서	-10.7768
▁일어나는	-10.7771
▁압수	-10.778
소리	-10.7782
▁힘들다	-10.7789
▁성공한	-10.7792
▁one	-10.7797
▁분야에서	-10.7807
▁크다	-10.7811
▁방문해	-10.7812
▁이름으로	-10.7813
▁출연했다	-10.7815
▁브로	-10.7815
▁행동에	-10.7817
▁게릴라	-10.7822
▁멤버	-10.7827
▁강진이	-10.783
▁테러리스트들	-10.7831
▁차례의	-10.7831
▁방콕	-10.7832
▁다르	-10.7833
▁몰려	-10.7834
객	-10.7837
키로	-10.7838
▁장관과	-10.784
▁제시한	-10.7842
행사	-10.7845
▁칭	-10.7852
▁탈레반이	-10.7853
▁출생	-10.786
▁패스	-10.786
▁물러나	-10.7861
▁남아있는	-10.7862
▁하에	-10.7872
▁옹호	-10.7874
기술	-10.7879
▁암시	-10.7887
▁블루	-10.7888
징	-10.7892
▁모른다고	-10.7892
▁진전이	-10.7894
▁갤런	-10.7897
▁높게	-10.7897
▁뉴델리	-10.7897
▁똑같	-10.7897
▁메드베데프	-10.7897
▁서브프라임	-10.7897
▁아웅산수치	-10.7897
▁유죄판결	-10.7897
▁스크린	-10.7897
▁출구조사	-10.7897
▁국립공원	-10.7897
▁포셋	-10.7897
▁권총	-10.7898
▁증강	-10.7898
▁연패	-10.7898
▁say	-10.7898
▁중앙은행	-10.7899
▁단독	-10.7899
▁con	-10.7899
▁카를로스	-10.79
▁연구결과	-10.79
▁aig	-10.79
▁복원	-10.79
▁환율	-10.7901
▁연출	-10.7901
짓	-10.7902
▁연행	-10.7902
▁종교적	-10.7903
않	-10.7903
콜	-10.7904
▁여러번	-10.7904
폴	-10.7906
▁부처	-10.7908
▁수색작업	-10.7909
▁부품	-10.7909
▁인권단체	-10.791
감독	-10.791
▁ro	-10.7911
▁사실에	-10.7912
▁사용된	-10.7914
▁고조되	-10.7915
▁우즈	-10.7918
▁재활용	-10.7918
버렸다	-10.792
▁뛰	-10.792
▁its	-10.792
▁카리	-10.7921
▁체포되었다	-10.7923
▁se	-10.7926
▁루니	-10.7926
▁미성년자	-10.7927
▁안내	-10.7929
▁도구	-10.7931
▁도디	-10.7935
▁가난한	-10.7937
▁공정한	-10.7941
▁맡았	-10.7941
▁웨인	-10.7943
▁남아있다	-10.7944
▁증	-10.7946
▁업적	-10.7948
▁대리인	-10.795
▁정기	-10.795
rt	-10.7951
▁수면	-10.7951
내용	-10.7957
▁선고했다	-10.7959
▁두려워	-10.7964
화된	-10.797
▁매력	-10.797
▁제치	-10.7976
▁상당수	-10.7977
▁건물에	-10.7978
결과	-10.7981
▁미리	-10.7988
▁토대	-10.7988
▁주권	-10.7996
▁시사	-10.8002
▁표준	-10.8006
▁도착할	-10.8007
▁이슈	-10.8007
▁기아	-10.8008
▁열었다	-10.801
▁기분이	-10.8016
ga	-10.8021
▁신장	-10.8022
▁결심	-10.8023
▁자라	-10.8027
▁위원장이	-10.803
▁응답	-10.8036
▁출두	-10.804
▁영국과	-10.8046
▁안으로	-10.8047
▁홍	-10.805
▁말이	-10.8055
▁예정이었	-10.8055
▁궁	-10.8056
▁떨어졌	-10.8062
▁인민	-10.8064
▁재정적	-10.807
▁딘	-10.8074
▁출신으로	-10.8078
▁사무	-10.8081
▁때문이라	-10.8084
▁간에	-10.8085
▁판결이	-10.809
쪽	-10.8095
▁등에	-10.8095
▁방송에	-10.8099
▁이후에	-10.8101
▁수여	-10.8103
▁기각	-10.8104
▁석방됐다	-10.8108
▁제작자	-10.8111
▁받아들여	-10.8112
▁육	-10.8114
▁막아	-10.812
넨	-10.8136
▁사과했다	-10.8139
▁국가비상사태	-10.814
▁ibm	-10.8141
▁먹고	-10.8141
▁선거관리위원회	-10.8141
▁앞섰다	-10.8141
▁얻게	-10.8141
▁하이브리드	-10.8141
▁주유소	-10.8141
▁자전거	-10.8141
▁좌석	-10.8141
▁섹시	-10.8141
▁fifa	-10.8141
▁티벳	-10.8141
▁윈프리	-10.8141
윈	-10.8141
▁교착	-10.8141
▁최루탄	-10.8141
▁부양책	-10.8141
▁켈리	-10.8141
▁바꿀	-10.8141
▁데리고	-10.8142
▁bda	-10.8142
▁급습	-10.8142
▁이뤄질	-10.8142
▁상관	-10.8143
▁돌아갈	-10.8143
▁앨런	-10.8143
▁호송	-10.8143
▁설계	-10.8143
▁mdc	-10.8143
닉	-10.8143
▁독감	-10.8143
▁소년이	-10.8144
▁추모	-10.8144
▁재배치	-10.8146
▁통행	-10.8147
롱	-10.8148
▁줄이기	-10.815
▁심판	-10.815
▁휴일	-10.8151
▁개체수	-10.8151
▁보증	-10.8152
▁윌슨	-10.8154
곡	-10.8154
▁출장	-10.8154
▁서브	-10.8155
▁던진	-10.8156
벤	-10.8156
▁피난	-10.8157
▁해석	-10.8158
▁전형적	-10.8158
▁지구에	-10.816
▁인터	-10.816
▁여파	-10.8165
▁확산되	-10.8166
na	-10.8166
▁도난	-10.8168
수술	-10.817
▁않았습니다	-10.8173
▁탈북자	-10.8178
▁외국인들	-10.8179
▁아미	-10.818
▁골드	-10.8185
▁꽃	-10.8185
▁발견됐	-10.8185
▁산하	-10.8187
▁공개하지	-10.8191
▁반전	-10.8191
▁외상	-10.8195
▁전격	-10.8196
▁아프	-10.8201
▁권고했다	-10.8201
▁원장	-10.8201
▁명백한	-10.8203
▁cd	-10.8204
교육	-10.8205
▁김치	-10.8207
▁국회에서	-10.8207
▁드레스	-10.821
▁사라지	-10.8212
▁공주	-10.8214
▁메리	-10.822
▁피하기	-10.8223
나무	-10.8226
▁셰	-10.8231
라면	-10.8232
▁win	-10.8236
▁관객	-10.8241
▁수감된	-10.8241
▁분석했다	-10.8244
▁러	-10.8246
▁거부한	-10.8248
▁떠난	-10.8248
▁양자	-10.8251
▁판매량	-10.8254
▁것들	-10.8255
▁거리에서	-10.8258
▁이라크내	-10.8261
▁사안	-10.8261
데스	-10.8267
업자들	-10.8273
▁상상	-10.8274
▁war	-10.8275
▁활동에	-10.8275
▁그랜드	-10.8278
에르	-10.8281
▁발견되지	-10.8283
▁가리	-10.8285
▁지역인	-10.8289
▁준다	-10.8291
▁공격한	-10.8291
스케	-10.8297
▁차지하는	-10.8305
▁출신인	-10.8308
▁테러범들	-10.8315
▁방법에	-10.8318
▁th	-10.8328
▁모두에게	-10.8336
▁조언	-10.8342
▁축	-10.8344
▁개성	-10.8345
▁서쪽	-10.8347
▁얻었	-10.8351
라데	-10.8358
분야	-10.8359
▁의제	-10.8361
▁모아	-10.8364
▁아기들	-10.8368
▁동영상에서	-10.8368
▁이씨	-10.8371
▁후임	-10.8376
▁현상이	-10.8379
▁담고	-10.8381
▁네바다	-10.8382
룰	-10.8387
뜨	-10.8389
훈	-10.8389
콤	-10.839
▁데이비스	-10.839
냉	-10.839
▁military	-10.8391
▁국제우주정거장	-10.8391
▁맨해튼	-10.8391
▁무렵	-10.8391
▁바티칸	-10.8391
▁스탈린	-10.8391
▁유람선	-10.8391
▁호나우두	-10.8391
▁아스날	-10.8391
▁깨끗	-10.8391
▁국무총리	-10.8391
▁퇴진	-10.8391
▁언덕	-10.8391
▁행렬	-10.8391
황	-10.8391
▁시티그룹	-10.8391
▁요즘	-10.8391
▁왜곡	-10.8391
▁고안	-10.8392
▁유괴	-10.8392
▁국민투표	-10.8392
▁보조금	-10.8392
▁동참	-10.8392
▁자발적	-10.8392
▁절약	-10.8393
▁존스턴	-10.8393
▁자동차업계	-10.8393
▁연승	-10.8393
▁창설	-10.8394
됐는지	-10.8394
▁불안정	-10.8395
▁역임	-10.8395
▁가끔	-10.8395
▁모집	-10.8397
tor	-10.8397
▁열리	-10.8397
▁연방정부	-10.8397
▁의원들이	-10.8398
무라	-10.84
▁혼자	-10.8402
▁만능	-10.8403
▁피랍된	-10.8405
대사	-10.8405
▁시골	-10.8406
▁상병	-10.8406
▁합의문	-10.8406
▁부속	-10.8407
▁도청	-10.8408
▁수컷	-10.8408
▁위생	-10.8409
동맹	-10.8409
▁지원금	-10.841
▁ex	-10.8412
land	-10.8413
▁화장	-10.8414
▁준장	-10.8415
▁초에	-10.8417
▁눈물	-10.8419
▁젊은이들	-10.8424
▁지나가	-10.8428
▁유물	-10.8429
노조	-10.8431
▁코스	-10.8433
▁발매	-10.8433
▁군과	-10.8435
▁퀸	-10.8436
▁경주	-10.8438
▁출전하지	-10.8438
▁점이	-10.8441
▁매수	-10.8447
▁불가능하다	-10.845
▁조선	-10.8451
▁공개한	-10.8456
▁돌아와	-10.8457
▁행동이	-10.846
보기	-10.846
▁병력이	-10.8473
▁포트	-10.8474
pr	-10.8474
▁전용	-10.8477
의원	-10.8477
▁유럽과	-10.8477
▁단장	-10.8484
▁섭취	-10.8486
쟁	-10.8494
▁po	-10.8496
▁본드	-10.85
▁학생들에게	-10.85
▁bo	-10.8504
▁호주에서	-10.8508
ick	-10.8509
▁유해	-10.8512
카르	-10.8519
병원	-10.8531
▁인정하지	-10.8539
▁취하고	-10.8541
▁내지	-10.8553
▁아프간에	-10.8554
▁변화에	-10.8554
▁별도	-10.8555
▁참가한	-10.8562
▁am	-10.8563
▁판다	-10.8563
웠	-10.8572
▁영화에서	-10.8597
▁vi	-10.8597
▁지방에서	-10.86
▁이적	-10.8604
▁갔	-10.8608
▁남겨	-10.8615
▁회사에	-10.863
▁뉴저지	-10.8638
▁용납	-10.8639
흘	-10.8643
렐	-10.8644
▁밴	-10.8644
덤	-10.8645
▁서식하	-10.8646
two	-10.8647
▁음주운전	-10.8647
▁people	-10.8647
▁가즈프롬	-10.8647
▁내무장관	-10.8647
▁디트로이트	-10.8647
▁럼스펠드	-10.8647
▁마이스페이스	-10.8647
▁믿는다	-10.8647
▁박격포	-10.8647
▁억만장자	-10.8647
▁인명피해	-10.8647
▁저렴	-10.8647
▁창기라이	-10.8647
▁후지모리	-10.8647
▁apec	-10.8647
▁라호르	-10.8647
▁러닝메이트	-10.8647
▁피츠버그	-10.8647
▁코카인	-10.8647
▁가져올	-10.8647
▁알제리	-10.8647
▁국방위원장	-10.8648
▁아빠	-10.8648
▁미셸	-10.8648
▁돌아올	-10.8648
▁워렌	-10.8648
▁산맥	-10.8649
▁참배	-10.8649
▁lg	-10.8649
▁클라크	-10.865
▁굿	-10.8651
▁치매	-10.8651
▁발령	-10.8651
뉴	-10.8652
▁매입	-10.8653
▁광부	-10.8653
▁로켓포	-10.8653
▁부결	-10.8654
▁의심되는	-10.8655
▁파커	-10.8655
▁미라	-10.8656
▁회계	-10.8656
▁시민권	-10.8656
이라면	-10.8656
▁구조작업	-10.8662
빙	-10.8663
균	-10.8667
▁약탈	-10.8668
▁걸렸다	-10.867
자리	-10.8672
▁유인	-10.8673
홀	-10.8673
▁던졌다	-10.8674
▁민간인들	-10.8674
▁분경	-10.8675
▁재고	-10.8675
▁해방	-10.8677
스크	-10.8679
▁돌아왔다	-10.8679
▁않습니다	-10.8679
▁투표율	-10.8682
▁방송에서	-10.8684
조약	-10.8684
ut	-10.8686
▁납치한	-10.8687
▁부리	-10.8689
▁pro	-10.869
▁업무를	-10.8691
▁진행중	-10.8693
▁실패한	-10.8695
▁진행될	-10.8695
▁하비	-10.8697
▁당일	-10.8698
▁한달	-10.8699
▁인치	-10.8701
▁불과하다	-10.8704
▁강간	-10.8707
▁전사	-10.8708
▁전쟁이	-10.8712
▁평화상	-10.8714
▁자치	-10.8716
▁le	-10.8717
▁빌리	-10.8717
▁덜	-10.8719
▁호텔에	-10.8719
포트	-10.8719
▁have	-10.8724
▁민주당이	-10.8732
▁클린턴과	-10.8738
▁것이기	-10.8739
담당	-10.8745
▁나치	-10.8748
▁간부	-10.875
▁시작됐	-10.8752
버리	-10.8753
▁휘	-10.8755
어질	-10.8759
지원	-10.8764
tion	-10.877
▁북부에서	-10.8771
▁유기	-10.8773
▁인공	-10.8774
하러	-10.8775
▁세운	-10.8778
▁부상자들	-10.8779
▁찾아내	-10.878
▁여행객들	-10.8789
▁교도소에서	-10.879
▁계속할	-10.8795
▁연말	-10.8797
▁수락	-10.8798
▁롤	-10.88
▁가르	-10.8803
▁이스라엘에	-10.8803
▁파크	-10.8804
▁피랍	-10.8804
▁해안에	-10.8809
▁편의	-10.8818
▁벌어지	-10.8818
용으로	-10.8823
▁보좌관들	-10.8825
▁상사	-10.8825
▁te	-10.8828
▁이슬라마바드	-10.8832
호가	-10.8839
▁웨이	-10.8854
▁lo	-10.8855
▁프랑스에서	-10.8855
▁비극	-10.8856
▁군중들	-10.8859
소한	-10.8868
점으로	-10.8874
▁이끌었	-10.8876
식이	-10.8878
돼있다	-10.8885
더스	-10.8885
둘	-10.8888
▁가즈니	-10.8889
▁수사에	-10.8892
▁에티오피아	-10.8894
▁아는	-10.8898
▁위치해	-10.8899
핑	-10.8901
▁틀	-10.8905
냥	-10.8906
▁잇따	-10.8906
▁중점	-10.8907
둥	-10.8907
ff	-10.8908
▁이들에게	-10.8909
▁high	-10.891
▁금메달	-10.891
▁엘리베이터	-10.891
▁최고경영자	-10.891
껏	-10.891
넌	-10.891
▁associat	-10.891
▁북극곰	-10.891
▁secretary	-10.891
▁라모스	-10.891
▁남아프리카공화국	-10.891
▁돌아다니	-10.891
▁넬슨	-10.891
▁떠오르	-10.891
▁재배	-10.8911
▁포획	-10.8911
▁결합	-10.8912
▁설정	-10.8913
▁예선	-10.8913
▁처형	-10.8913
▁배심원단	-10.8914
▁진료	-10.8914
▁대테러	-10.8914
▁마찰	-10.8914
▁실무	-10.8915
fi	-10.8916
▁파편	-10.8916
▁포경선	-10.8916
▁밀러	-10.8917
▁난민들	-10.8918
▁아시아에서	-10.8919
스카	-10.8919
▁펄	-10.892
▁였다	-10.892
▁한명	-10.892
▁다가오	-10.8922
▁환수	-10.8923
▁석방된	-10.8924
▁사이버	-10.8924
▁던져	-10.8925
▁반등	-10.8926
▁사살했다	-10.8927
▁미셀	-10.8927
▁배포	-10.8929
▁소유주	-10.8931
▁사회당	-10.8932
▁거친	-10.8933
▁사라진	-10.8936
▁베어	-10.8937
▁찾았다	-10.8938
▁넣었다	-10.8938
▁쉬운	-10.8939
안토니오	-10.894
▁맞았다	-10.8942
콘	-10.8943
칼	-10.8945
▁기원	-10.8952
▁먼지	-10.8953
▁그곳에서	-10.8954
신문	-10.8954
▁대비해	-10.8956
▁di	-10.8956
▁열기	-10.8958
보드	-10.8959
▁전체가	-10.896
▁전파	-10.896
▁여단	-10.8963
▁캔	-10.8977
▁출	-10.8994
시장에서	-10.9007
▁수년	-10.9011
▁성분	-10.9011
▁선택했다	-10.9014
▁것일	-10.9014
▁독재자	-10.9015
▁확인하기	-10.9015
ara	-10.9021
▁전시회	-10.9027
▁기울	-10.903
▁월스트리트	-10.9032
▁정부군과	-10.9032
▁제공하기	-10.9036
▁대원들	-10.9037
▁써	-10.9042
▁부위	-10.9042
▁표시했다	-10.9045
▁남쪽	-10.9046
▁걸려	-10.9049
원인	-10.9054
▁폭로	-10.9055
▁보유한	-10.9067
▁로드	-10.9068
▁시간에	-10.9068
인데	-10.9071
▁약속한	-10.9073
▁일시적	-10.9074
▁이른	-10.9075
▁유지할	-10.9075
▁축출	-10.9079
▁과격	-10.9088
▁회원들	-10.909
▁모리	-10.9102
▁대선에	-10.9108
▁웨	-10.911
▁서한	-10.9111
버트	-10.9111
률이	-10.9117
룬	-10.9122
▁목적이	-10.9122
bc	-10.9122
ot	-10.9123
▁일원	-10.9124
▁바지	-10.9125
▁차지한	-10.9126
▁즐기는	-10.9129
라인	-10.913
▁만났	-10.9131
▁장소에서	-10.9131
▁년형	-10.9134
▁중상	-10.9137
▁사진들	-10.9139
▁당황	-10.9141
▁장교	-10.9145
▁일단	-10.9151
▁그들에게	-10.9155
▁소유한	-10.9161
▁수요일에	-10.9166
▁풀어	-10.9174
▁벗	-10.9176
▁오스카	-10.9178
▁휩쓸	-10.9178
▁투명	-10.9179
▁human	-10.918
▁굉장	-10.918
▁브루니	-10.918
▁시애틀	-10.918
▁엉덩이	-10.918
▁해수욕장	-10.918
▁그린피스	-10.918
▁크레이그	-10.918
▁대한민국	-10.9181
▁바하마	-10.9181
▁애완동물	-10.9181
▁카지노	-10.9181
▁낭비	-10.9181
▁덴버	-10.9181
▁흘러	-10.9181
▁고등법원	-10.9181
▁좌파	-10.9181
▁면접	-10.9181
▁브레이크	-10.9181
▁스콧	-10.9181
▁무소속	-10.9181
▁동굴	-10.9181
▁밝혀냈다	-10.9181
▁슈퍼볼	-10.9181
▁오늘밤	-10.9182
▁불황	-10.9182
▁장벽	-10.9183
▁추천	-10.9183
▁소총	-10.9183
▁절감	-10.9184
▁텐트	-10.9184
▁돌아온	-10.9184
▁정밀	-10.9184
▁외쳤다	-10.9185
▁생명체	-10.9185
▁승점	-10.9185
▁유골	-10.9185
▁창조	-10.9186
▁교내	-10.9186
▁치른	-10.9186
시티	-10.9186
▁금속	-10.9186
▁다행히	-10.9187
▁반환	-10.9187
▁보수당	-10.9188
▁소비자들이	-10.9189
▁휴식	-10.9189
▁매출	-10.9189
▁네바다주	-10.919
▁기념식	-10.9191
▁위축	-10.9191
▁느낀다	-10.9193
▁인도분	-10.9194
▁단식	-10.9195
칭	-10.9198
▁김씨	-10.9198
▁아민	-10.9198
▁밀어	-10.92
▁화제	-10.9203
▁헐	-10.9203
▁할지	-10.9203
▁남미	-10.9204
▁병사들이	-10.9205
▁공안	-10.9206
▁과제	-10.9207
▁소화	-10.921
타운	-10.9211
▁활동이	-10.9212
▁구단	-10.9213
▁제보	-10.9213
멜	-10.9215
▁출연해	-10.9218
▁버지니아주	-10.9218
▁받아들이지	-10.9218
척	-10.9219
▁나체	-10.922
▁경찰청	-10.9221
▁분야에	-10.9221
▁케이시	-10.9222
▁유지하	-10.9222
▁남쪽으로	-10.9227
ant	-10.9234
▁좋아한다	-10.9235
▁근처에	-10.9238
▁통해서	-10.9239
▁장성	-10.9239
때까지	-10.9242
▁지지자들에게	-10.9243
▁원치	-10.9243
▁이어졌다	-10.9244
ld	-10.925
▁위협에	-10.9252
▁확인되	-10.926
▁거래됐다	-10.9261
ci	-10.9265
▁fr	-10.9267
▁풍	-10.9269
▁알라	-10.9274
▁치를	-10.9277
▁내리는	-10.9277
▁국경지역	-10.928
▁살아남	-10.928
tu	-10.9281
ap	-10.9283
▁위안	-10.9283
▁대안	-10.9287
ah	-10.9289
되었는데	-10.9291
▁복장	-10.9291
▁강타한	-10.9293
▁위장	-10.9295
▁처음에	-10.9296
▁언급한	-10.9297
▁제일	-10.9298
▁na	-10.9302
▁번지	-10.9303
하겠	-10.9306
▁해왔다	-10.9309
▁전하고	-10.9309
▁입수한	-10.931
ke	-10.9311
▁재해	-10.9313
▁참여했다	-10.9313
▁탄도	-10.9314
▁클린턴에	-10.9315
▁러시아와	-10.9321
▁이라크인	-10.9324
위원	-10.9324
▁최고위	-10.9327
ish	-10.9334
▁성명서	-10.9337
▁폭력사태로	-10.9337
▁명단에	-10.9339
▁시일	-10.9347
▁신원이	-10.9347
▁법적으로	-10.9358
▁피어	-10.9359
tv	-10.9359
▁조국	-10.9362
ns	-10.9364
▁입어	-10.937
▁세트에서	-10.937
▁컵	-10.937
▁시청자들	-10.9374
▁자녀들	-10.9374
업체들	-10.9379
▁종식	-10.938
▁인정받	-10.9387
▁장기적	-10.9388
벨트	-10.9389
▁취소했다	-10.9399
▁목요일에	-10.94
▁활성화	-10.9407
▁재선	-10.9412
▁발이	-10.9417
▁sk	-10.9417
▁친환경	-10.942
▁받으	-10.9421
▁리오	-10.9421
▁밝히기	-10.9423
▁이민자들	-10.9434
▁좌절	-10.9438
▁안나	-10.9438
▁편집	-10.9438
▁상원에서	-10.944
학과	-10.944
▁못하다	-10.9443
▁방문에	-10.9444
▁피고인	-10.9445
▁우승자	-10.9451
장비	-10.9454
빗	-10.9457
bar	-10.9458
▁처방	-10.9458
▁england	-10.9458
▁기준금리	-10.9458
▁듣지	-10.9458
▁머리카락	-10.9458
▁버냉키	-10.9458
▁슬픔	-10.9458
▁원자바오	-10.9458
▁크로아티아	-10.9458
▁텔레비전	-10.9458
▁트라볼타	-10.9458
▁헬리콥터	-10.9458
▁호날두	-10.9458
▁규칙	-10.9458
▁유수프	-10.9458
▁침묵	-10.9458
▁스튜디오	-10.9458
▁바바라	-10.9458
▁휴스턴	-10.9458
▁감바	-10.9459
▁election	-10.9459
▁멸종위기	-10.9459
▁신용카드	-10.9459
▁놀랄	-10.9459
▁숨겨	-10.9459
▁모험	-10.9459
축구연맹	-10.946
▁대선주자	-10.946
▁논문	-10.946
▁요르단강	-10.946
▁남녀	-10.946
▁레이저	-10.9461
▁반체제	-10.9461
▁알려	-10.9461
▁도핑	-10.9461
▁구호품	-10.9462
▁전쟁에서	-10.9462
까요	-10.9463
▁금융시장	-10.9464
▁원주민	-10.9465
▁탐사선	-10.9466
▁대기업	-10.9469
▁역대	-10.9469
▁입력	-10.947
▁일어나지	-10.947
▁가택	-10.9473
▁코피	-10.9474
▁졸업	-10.9474
▁지나치	-10.9476
▁느끼는	-10.948
▁첫날	-10.9483
▁끝났다	-10.9483
▁폴슨	-10.9484
▁개발한	-10.9484
▁라울	-10.9485
▁경비원	-10.9489
▁시카고에서	-10.949
▁조씨	-10.9491
▁복지	-10.9492
▁이르기	-10.9493
▁압	-10.9493
▁선원들	-10.9493
▁여기서	-10.9497
▁계속하고	-10.95
투표	-10.9504
▁유명하다	-10.9505
맥	-10.9505
▁중단됐다	-10.9506
▁개설	-10.9506
▁약품	-10.9508
▁민주적	-10.9509
캐	-10.9509
착륙	-10.9509
서비스	-10.951
구조	-10.9515
▁결함	-10.9516
월드	-10.9519
▁세가	-10.9521
▁작용	-10.9525
▁가족들에게	-10.9528
▁선적	-10.9532
▁결정이	-10.9533
▁절도	-10.9535
▁이른다	-10.9536
▁탈레반과	-10.9539
▁총리직	-10.9541
▁군중	-10.9543
▁틸	-10.9548
▁시작될	-10.9551
▁투기	-10.9553
하에	-10.9556
▁결승전	-10.9557
▁개최된	-10.9557
▁sp	-10.9557
▁카르	-10.9558
▁중반	-10.956
스테	-10.9563
▁처분	-10.9565
▁쓰는	-10.958
▁세부	-10.959
▁과정에	-10.9592
▁강화할	-10.9594
▁쳐	-10.96
▁변호인	-10.9602
바르	-10.9603
▁탐험	-10.9609
▁배심원	-10.9612
▁조직원	-10.9615
▁대통령으로	-10.9617
텐	-10.9618
▁선박이	-10.9618
▁바닥에	-10.962
카드	-10.9623
▁강에	-10.9625
▁움직임이	-10.963
▁선출된	-10.9632
▁남아있	-10.9634
▁공무원들	-10.9636
▁집회에	-10.9637
▁멜	-10.964
▁돌입	-10.964
▁들어와	-10.9646
city	-10.9648
▁피살	-10.965
mb	-10.9651
▁충	-10.9653
사이트	-10.9654
▁농민	-10.9655
▁다수의	-10.9655
▁형태로	-10.9671
▁자카르타	-10.9676
치료	-10.9679
▁의자	-10.9686
▁날이	-10.9692
럴	-10.9693
▁급락	-10.9695
▁조치로	-10.9695
▁취하지	-10.9703
▁추락한	-10.9703
▁연구가	-10.9707
▁지수가	-10.9708
▁물어	-10.9713
▁미만	-10.9719
어요	-10.9721
▁변호사들	-10.9721
▁제이	-10.9729
▁요청한	-10.9731
▁넘겨	-10.9732
같이	-10.9735
▁구제금융	-10.9736
▁음료	-10.9737
▁교육부	-10.9738
▁세속주의	-10.9742
▁알바니아	-10.9742
닛	-10.9744
▁court	-10.9744
▁몸값	-10.9744
▁뮌헨	-10.9744
▁산타클로스	-10.9744
▁애니메이션	-10.9744
▁애틀랜타	-10.9744
▁칸다하르	-10.9744
▁식민지	-10.9744
▁맥케인	-10.9744
▁브루스	-10.9744
▁히드로	-10.9744
▁마사지	-10.9744
▁있으	-10.9745
▁적응	-10.9745
▁기획	-10.9746
▁모으	-10.9746
▁금년	-10.9747
▁집필	-10.9747
▁군사작전	-10.9747
▁가죽	-10.9748
▁출국	-10.9748
▁마침	-10.9749
▁새겨	-10.9749
▁권위	-10.975
▁소유권	-10.9751
▁추문	-10.9752
▁장거리	-10.9752
▁모래	-10.9754
▁복수	-10.9755
▁대폭	-10.9755
▁나와즈	-10.9755
▁불교	-10.9757
▁신병	-10.9758
▁주주들	-10.9758
▁다이애나비	-10.9759
▁받아들였다	-10.976
▁편안	-10.9762
▁대령	-10.9762
▁있겠	-10.9763
▁구경	-10.9763
▁모았다	-10.9763
▁예선전	-10.9765
▁효율적	-10.9767
▁알렌	-10.9768
po	-10.9769
▁상관없	-10.9775
▁관점에서	-10.9775
안보	-10.9776
▁폭격기	-10.9778
▁장기간	-10.978
▁자정	-10.978
ho	-10.978
▁인명	-10.9781
▁예정되어	-10.9783
디스	-10.9784
▁주소	-10.9785
▁태우고	-10.9786
궁	-10.9787
▁녹화	-10.9788
▁여아	-10.9789
▁참사	-10.9791
▁주말에	-10.9799
▁여야	-10.9803
▁시계	-10.9803
앤	-10.9804
▁차원에서	-10.9804
자동차	-10.9805
▁무시하	-10.9806
시에서	-10.9806
▁남성과	-10.9809
▁인도주의적	-10.981
▁내고	-10.981
▁발달	-10.9811
▁증언했다	-10.9811
베르	-10.9812
▁레이더	-10.9813
▁그곳에	-10.9814
슬리	-10.9816
▁데비	-10.9818
▁칼라	-10.9822
▁제외하고	-10.9823
▁or	-10.9823
▁입원했다	-10.9825
▁줄리	-10.9826
▁하더라	-10.9832
▁클로	-10.9835
▁대우	-10.9835
▁특별히	-10.9837
▁중심부	-10.9838
련	-10.9839
▁프로그램이	-10.9839
▁돈이	-10.984
▁구호단체	-10.9843
sa	-10.9847
▁프라	-10.9848
▁확신했다	-10.9857
▁생존자들	-10.986
▁조절	-10.986
▁확인된	-10.9875
▁week	-10.988
돼있	-10.9884
▁선장	-10.9887
▁이송됐다	-10.989
기금	-10.9892
▁들었	-10.9901
▁기울이	-10.9902
받은	-10.9905
▁내리고	-10.9908
▁있었기	-10.991
▁경제학자들	-10.9914
ard	-10.9918
▁대회에	-10.9922
기때문에	-10.9925
▁정치적으로	-10.9928
▁투자자	-10.9928
▁내게	-10.9929
▁평양에서	-10.9929
▁예술가	-10.9938
▁대답했다	-10.9938
▁국회의원들	-10.994
▁강화하고	-10.9942
▁초래	-10.9943
▁top	-10.9945
▁원하지	-10.9945
▁어린이들이	-10.9946
▁판결에	-10.9951
tri	-10.9955
▁명령했다	-10.9955
어진	-10.9969
▁개발에	-10.9986
▁제작된	-10.9988
▁일으키는	-10.9992
▁교전이	-10.9999
▁장악	-10.9999
▁내용에	-11.0002
▁묵	-11.0003
현정	-11.0011
▁열렸	-11.0011
▁재활	-11.0012
▁금연	-11.0015
▁필립	-11.0016
▁자랑	-11.0017
▁근무하	-11.0019
▁실업	-11.0019
▁주당	-11.002
일라	-11.0021
▁이슬람교	-11.0022
▁강행	-11.0025
▁세탁	-11.0036
▁적자	-11.0037
▁securit	-11.0038
▁끊임없	-11.0038
▁느꼈다	-11.0038
▁땅에	-11.0038
▁떨어질	-11.0038
▁마케팅	-11.0038
▁많지	-11.0038
▁베어스턴스	-11.0038
▁베탕쿠르	-11.0038
▁부적절	-11.0038
▁브리트니	-11.0038
▁비즈니스	-11.0038
▁썼다	-11.0038
▁아칸소	-11.0038
▁에르도간	-11.0038
▁에스토니아	-11.0038
▁오케스트라	-11.0038
▁타협	-11.0038
▁테러지원국	-11.0038
▁펭귄	-11.0038
▁캔자스	-11.0038
▁되돌아	-11.0038
▁오렌지	-11.0038
▁prim	-11.0038
▁맥도날드	-11.0038
▁소탕작전	-11.0038
▁수만명	-11.0039
▁고릴라	-11.0039
▁bank	-11.0039
▁남기	-11.004
▁영광	-11.004
▁만여명	-11.0041
최지	-11.0041
▁저택	-11.0041
▁버튼	-11.0041
▁조짐	-11.0043
▁영감	-11.0043
▁줄이는	-11.0043
▁엘리	-11.0044
▁타결	-11.0044
▁서약	-11.0046
▁개념	-11.0047
▁들어온	-11.0047
▁평소	-11.0048
▁지속되	-11.0048
▁분쟁이	-11.0049
▁포위	-11.0052
▁풀려났다	-11.0052
▁식수	-11.0053
냈	-11.0054
▁여유	-11.0054
▁파문	-11.0055
▁mm	-11.0055
▁입구	-11.0056
▁공조	-11.0056
▁가져다	-11.0059
▁경우에	-11.0059
▁갈라	-11.0061
▁연방준비제도이사회	-11.0063
▁적십자사	-11.0063
▁버전	-11.0065
▁겪었다	-11.0066
▁유용	-11.0068
▁하산	-11.007
▁잡았다	-11.007
▁앞선	-11.0071
▁미치지	-11.0072
▁액	-11.0072
▁국가인	-11.0078
농	-11.0081
▁없애	-11.0082
▁가자지구에서	-11.0084
있었다	-11.0088
▁갖기	-11.0089
연구	-11.0091
▁사회에	-11.0092
▁슛	-11.0092
▁방문객들	-11.0092
▁적극	-11.0095
▁해명	-11.0095
▁파일	-11.0096
킹	-11.0097
▁괴한	-11.0098
협정	-11.0104
홍	-11.0104
떼	-11.0104
▁붕괴된	-11.0105
김	-11.0108
▁전년	-11.0109
▁줬다	-11.0109
▁싶어한다	-11.0123
▁나아가	-11.0126
▁인도네시아에서	-11.0126
▁펼쳐	-11.013
▁주차	-11.0133
▁성지	-11.0133
타임	-11.0134
▁오바마에	-11.0141
▁도주	-11.0145
▁세관	-11.0145
▁청년	-11.015
▁보호하고	-11.0154
▁손자	-11.0158
▁파키스탄에	-11.0159
이기도	-11.016
▁말하면서	-11.016
▁건수	-11.0161
▁심사	-11.0163
▁행사에서	-11.0164
부분	-11.0166
▁중심에	-11.0171
▁동맹국들	-11.0172
▁프랑스와	-11.0182
▁비만	-11.0187
▁파손됐다	-11.0189
▁유지하기	-11.0191
▁국회에	-11.0193
pp	-11.0193
▁죽었다	-11.0195
▁한다면	-11.0196
▁통신사	-11.0197
▁재판이	-11.02
▁여사와	-11.0205
▁생산하는	-11.0206
▁지역이	-11.021
▁재판에	-11.0211
클리	-11.0215
▁말에	-11.0216
선거	-11.0216
▁오리	-11.0217
리어	-11.022
▁관광지	-11.0222
▁독재	-11.0225
▁소속의	-11.0225
한국	-11.0226
▁제공하고	-11.0228
당했다	-11.0228
▁쏟아	-11.0234
▁자금이	-11.0244
나갈	-11.0246
▁논의했다	-11.0246
▁ge	-11.0248
▁지원하기	-11.0252
▁바닥	-11.0254
▁부르는	-11.0255
▁사임했다	-11.0262
워드	-11.0268
▁물었다	-11.0269
▁공판	-11.0272
▁킨	-11.0278
fa	-11.0279
▁높아	-11.0283
▁추락했다	-11.0284
마르	-11.0284
▁가족에게	-11.0287
해준	-11.029
▁벌어졌	-11.0299
▁사람과	-11.0301
▁나타났	-11.0302
▁인접	-11.0307
▁요청할	-11.0308
ext	-11.0316
▁의장이	-11.0317
▁안된다	-11.0321
able	-11.0321
▁파파라치	-11.0323
널	-11.0325
옥	-11.0325
탁	-11.0326
받고	-11.0329
▁오클라호마	-11.0334
렘	-11.0334
▁자행	-11.0335
▁전체에	-11.0336
▁득표	-11.034
딜	-11.0341
te	-11.0341
겔	-11.0341
눌	-11.0341
렁	-11.0341
▁골든글로브	-11.0341
▁구호물품	-11.0341
▁뉴욕타임스	-11.0341
▁동유럽	-11.0341
▁야스쿠니	-11.0341
▁유니세프	-11.0341
▁일으켜	-11.0341
▁종합	-11.0341
▁좋게	-11.0341
▁침팬지	-11.0341
▁티셔츠	-11.0341
▁포괄적	-11.0341
▁항생제	-11.0341
▁황우석	-11.0341
▁흰색	-11.0341
캄	-11.0341
▁덕분에	-11.0341
▁안전에	-11.0341
▁유조선	-11.0341
▁다운로드	-11.0341
▁크로커	-11.0341
▁니케이	-11.0341
▁첩보	-11.0341
▁유적지	-11.0341
▁모로코	-11.0341
▁착취	-11.0342
▁혈액	-11.0342
▁press	-11.0342
▁트로피	-11.0342
▁바꿔	-11.0342
▁출범	-11.0342
르게	-11.0342
▁양키스	-11.0342
▁요새	-11.0342
▁kim	-11.0343
▁운반	-11.0343
▁wto	-11.0343
▁폭등	-11.0344
▁대략	-11.0344
▁패리스	-11.0344
▁복권	-11.0345
▁근교	-11.0345
▁어두운	-11.0345
▁하얀	-11.0345
▁현지경찰	-11.0345
▁스텔	-11.0345
▁풍선	-11.0345
후보	-11.0347
▁아이돌	-11.0348
▁거둔	-11.035
▁볼튼	-11.0351
▁상반기	-11.0351
▁영원	-11.0352
▁엘바	-11.0352
▁설문	-11.0352
▁차원	-11.0353
▁소란	-11.0355
▁지도자들과	-11.0356
▁명칭	-11.0357
▁입학	-11.0357
▁알려주	-11.0358
▁착용하	-11.036
▁뒤집	-11.0361
▁부유	-11.0362
▁제프리	-11.0362
▁쏘	-11.0363
▁타이어	-11.0365
▁조속	-11.0365
▁모르겠다	-11.0365
▁마을에	-11.0367
▁줄여	-11.0368
▁트레	-11.0368
레나	-11.0369
▁묘지	-11.0369
▁예상보다	-11.0372
▁분실	-11.0377
▁미시간	-11.0378
▁개최되	-11.0379
▁과시	-11.0381
▁기권	-11.0382
▁주장했지만	-11.0384
▁채권	-11.0385
▁제방	-11.0385
▁앙	-11.0387
▁중령	-11.0389
▁실어	-11.0391
▁시위자	-11.0392
▁주류	-11.0394
▁양성	-11.0395
▁기리	-11.0399
▁전염	-11.0399
▁투표할	-11.0401
▁클라	-11.0401
▁기술이	-11.0409
생활	-11.041
납	-11.0412
▁지낸	-11.0416
▁과장	-11.0422
▁참가하	-11.0423
▁사용하기	-11.0425
▁지구에서	-11.0428
사진	-11.0433
▁보도한	-11.0434
nt	-11.0439
▁사랑하는	-11.044
▁추구	-11.0441
ml	-11.0441
▁보낸다	-11.0441
▁보내기	-11.0446
▁장악하	-11.0462
학생	-11.0466
▁기자들이	-11.047
▁프레드	-11.0471
▁아시	-11.0472
▁끄	-11.0478
우드	-11.0482
▁장착	-11.0483
▁설치된	-11.0486
연대	-11.0491
▁제트	-11.0497
▁흥미	-11.0499
워진	-11.0502
받아	-11.0514
▁증인	-11.0515
▁올리고	-11.0518
▁몽	-11.0523
▁명에서	-11.0525
▁부문에서	-11.0528
베리	-11.0531
▁친척	-11.0538
▁있거	-11.054
▁가기	-11.054
차이	-11.0544
회견에서	-11.055
▁상의	-11.0551
▁사용한다	-11.0555
▁나타난	-11.0565
▁납	-11.0565
▁usa	-11.0566
▁이해할	-11.0569
▁신도	-11.0572
▁플	-11.0572
▁죽이	-11.0579
▁라인	-11.0581
잡	-11.0583
▁서울에	-11.0597
▁환경에	-11.06
▁칼리	-11.0606
▁클레	-11.0606
▁명시	-11.0607
▁시까지	-11.0616
▁전설	-11.0617
▁수명	-11.062
▁통일	-11.0621
느냐	-11.0622
▁사육	-11.0626
사이	-11.0627
▁파이	-11.0628
▁표결	-11.0636
▁우주인	-11.0638
▁국무장관이	-11.0639
▁당의	-11.0641
▁년전	-11.0643
▁지연되	-11.0644
▁아바	-11.0646
촌	-11.0646
리오	-11.0648
왈	-11.0648
▁피닉스	-11.0649
▁전략적	-11.0651
said	-11.0652
▁아랍에미리트	-11.0653
밍	-11.0654
▁afp	-11.0654
▁london	-11.0654
▁nfl	-11.0654
▁wfp	-11.0654
▁국회의사당	-11.0654
▁로스앤젤레스	-11.0654
▁마라도나	-11.0654
▁베이루트	-11.0654
▁불렀다	-11.0654
▁스튜어트	-11.0654
▁클루니	-11.0654
▁평화협상	-11.0654
▁되풀이	-11.0654
▁제니퍼	-11.0654
▁모바일	-11.0654
▁흐름	-11.0654
▁셰이크	-11.0654
▁교과서	-11.0654
▁린제이	-11.0654
▁lpga	-11.0654
▁잔혹	-11.0654
▁정해지지	-11.0654
▁취득	-11.0654
▁여자아이	-11.0654
▁페이스북	-11.0654
▁진흙	-11.0654
▁침범	-11.0654
▁칭찬	-11.0654
▁부장	-11.0655
▁학년	-11.0655
▁기술자	-11.0655
▁닉슨	-11.0655
▁도와주	-11.0655
▁가속화	-11.0655
▁연극	-11.0655
▁호킹	-11.0655
▁광부들	-11.0656
▁불평	-11.0656
▁워너	-11.0656
▁같습니다	-11.0656
▁학위	-11.0657
▁보호하는	-11.0657
▁스카이	-11.0657
▁점프하	-11.0658
▁모터	-11.0659
▁물러	-11.0659
▁추출	-11.0659
▁식물	-11.066
▁병역	-11.066
▁연임	-11.0661
former	-11.0661
▁극단주의자들	-11.0662
▁현행	-11.0663
▁기습	-11.0663
▁유행	-11.0664
▁뚫	-11.0666
▁우방	-11.0667
▁정교	-11.0667
▁전대통령	-11.0668
▁지방의	-11.0668
▁세인트	-11.0669
▁줄이고	-11.0673
▁참여하는	-11.0677
▁동전	-11.0677
▁인체	-11.0678
▁회부	-11.0679
▁격리	-11.0679
▁가축	-11.068
▁인계	-11.068
▁감시단	-11.0682
▁정오	-11.0683
려진	-11.0685
▁비유	-11.0686
▁참여하지	-11.0686
달라	-11.0688
▁기후변화	-11.0688
▁호화	-11.069
▁우리베	-11.0691
▁불화	-11.0693
▁자신에	-11.0693
▁참석해	-11.0694
▁그라운드	-11.0696
▁가자지구에	-11.0697
▁아이티	-11.0697
▁이룩	-11.0699
▁억제	-11.07
▁위협하	-11.07
어져	-11.0701
▁성공회	-11.0704
▁반미	-11.0705
▁시달리고	-11.0705
났다	-11.0705
▁거주지	-11.0706
▁머리에	-11.0711
▁실력	-11.0717
▁연방수사국	-11.0718
▁비교해	-11.0724
▁life	-11.0726
투어	-11.0726
▁자크	-11.0732
▁개조	-11.0732
▁무장대원들	-11.0736
버릴	-11.0737
ting	-11.0739
▁사제	-11.0741
▁만여	-11.0743
▁바다로	-11.0743
시즌	-11.0744
lee	-11.0745
개혁	-11.0745
▁위협했다	-11.0748
시켜야	-11.0748
▁이어질	-11.0752
▁공정	-11.0753
세계	-11.0755
▁수용할	-11.076
▁생성	-11.0761
▁thi	-11.0767
▁선정됐다	-11.0767
머리	-11.0767
▁끝나는	-11.0769
바리	-11.0771
▁서명했다	-11.0772
요원	-11.0773
버린	-11.0774
▁열정	-11.0774
▁봉	-11.0776
▁파손되	-11.078
▁전범	-11.0782
▁단기	-11.0782
여부	-11.0782
▁정신과	-11.0783
▁뉴욕에	-11.0785
작업	-11.0786
▁인기가	-11.0791
▁주교	-11.0791
▁해외에서	-11.0793
▁들어가는	-11.0797
▁때로	-11.0798
▁닐	-11.0804
▁청소년들	-11.0807
▁렌	-11.0808
▁적당	-11.0811
▁노력에	-11.0816
ig	-11.0816
▁의원들에게	-11.0818
하드	-11.0821
▁man	-11.0835
커스	-11.0841
ong	-11.0841
▁당했	-11.0847
rs	-11.0853
▁아내와	-11.0856
▁오픈에서	-11.0858
▁관리자	-11.086
▁리버	-11.0863
▁동영상에	-11.0867
호프	-11.087
레이크	-11.0871
▁염려	-11.0874
▁선언한	-11.0876
▁디스	-11.0879
▁일상적	-11.0887
▁어머니와	-11.0887
▁특이	-11.089
▁확보했다	-11.089
▁힐튼이	-11.0893
▁참가했다	-11.0893
전쟁	-11.0894
▁떼	-11.0898
▁학생들과	-11.0898
ight	-11.0903
▁당국과	-11.0905
▁중단하고	-11.091
▁유대	-11.0911
▁본국	-11.0912
▁에스	-11.0917
▁지니	-11.092
럼	-11.0921
▁이뤄	-11.0926
▁단계에	-11.0926
▁취급	-11.093
▁혼란에	-11.0935
am	-11.0936
▁정보국	-11.0938
▁참석하기	-11.0939
▁승자	-11.094
▁남편과	-11.0952
논	-11.0957
son	-11.0958
▁모스	-11.0962
퀴	-11.0965
▁선거전	-11.0965
▁확실하지	-11.0966
▁루이지애나	-11.0966
▁지지도	-11.0968
꾼	-11.0969
▁살아가	-11.097
제품	-11.0974
점에서	-11.0975
▁국민이	-11.0975
▁url	-11.0976
▁광우병	-11.0976
▁뉴캐슬	-11.0976
▁당나귀	-11.0976
▁매머드	-11.0976
▁몸무게	-11.0976
▁무너져	-11.0976
▁이르렀다	-11.0976
▁재확인	-11.0976
▁집무실	-11.0976
▁카자흐스탄	-11.0976
잎	-11.0976
▁국가주석	-11.0976
▁맞붙	-11.0976
마누엘	-11.0976
▁김선일	-11.0976
▁대주교	-11.0976
▁무너진	-11.0976
▁중산층	-11.0976
▁글래스고	-11.0976
▁예언자	-11.0976
▁지중해	-11.0976
▁영부인	-11.0976
▁세비야	-11.0976
▁퇴치	-11.0976
▁효력	-11.0976
▁수십억	-11.0977
▁fe	-11.0977
▁쇼핑몰	-11.0977
▁연휴	-11.0977
▁벌어들	-11.0977
▁아마존	-11.0977
▁왕복선	-11.0977
▁둘째	-11.0977
▁높아졌다	-11.0977
▁농담	-11.0977
▁공군기지	-11.0978
▁레논	-11.0978
▁예배	-11.0978
▁당원	-11.0978
▁취약	-11.0978
▁허블	-11.0978
▁유혈	-11.0978
▁몰래	-11.0978
book	-11.0979
▁할아버지	-11.0979
▁소방관	-11.0979
▁밤새	-11.098
▁공백	-11.098
▁may	-11.098
▁제안한	-11.0981
▁피닉스호	-11.0982
▁종양	-11.0983
▁사법부	-11.0984
▁천문학자들	-11.0985
▁제패	-11.0985
▁감량	-11.0985
▁폐기물	-11.0985
▁우연	-11.0986
▁계열사	-11.0987
▁기름	-11.0987
▁책정	-11.0988
▁난동	-11.0988
▁코너	-11.0989
▁이례적	-11.0989
▁감원	-11.099
▁부른	-11.0991
▁지속될	-11.0993
▁재발	-11.0994
▁정체	-11.0994
▁버진	-11.0994
▁꾸	-11.0995
▁off	-11.0996
▁강연	-11.0996
▁ban	-11.0996
▁페르	-11.0997
▁성경	-11.0997
▁결의안에	-11.0998
▁패한	-11.0998
학회	-11.0998
▁상위	-11.0998
▁있었는지	-11.1003
▁정상회의	-11.1006
▁가결	-11.1006
▁방치	-11.1008
▁inter	-11.1008
▁공학	-11.1008
▁공세	-11.1008
▁청소	-11.1009
▁시경	-11.1012
▁비난한	-11.1012
▁전송	-11.1012
▁나란	-11.1017
▁주장이	-11.1018
▁공부	-11.1019
▁work	-11.1022
▁고수	-11.1022
▁넣어	-11.1024
▁내정자	-11.1024
▁한쪽	-11.1025
▁페리	-11.1026
▁전례	-11.1026
롤	-11.1027
▁air	-11.1028
▁부통령이	-11.1028
지구	-11.103
▁채우	-11.103
▁되었습니다	-11.1033
▁라이프	-11.1034
▁지키기	-11.1034
▁고려해	-11.1035
▁헤어	-11.1035
▁광대	-11.1035
▁면적	-11.1036
▁사업가	-11.1038
▁비가	-11.104
▁원자력	-11.1042
▁기간에	-11.1042
국들	-11.1043
▁주가가	-11.1046
▁돌리	-11.1046
▁가정에	-11.1047
▁시작되었다	-11.105
▁현안	-11.1051
▁제약	-11.1052
▁중계	-11.1054
ance	-11.1056
▁비행기에	-11.106
▁발리	-11.1063
▁가서	-11.1063
▁여자들	-11.1065
▁낙	-11.1068
▁he	-11.1075
▁리서치	-11.1075
▁구상	-11.108
▁기소했다	-11.108
▁조사하기	-11.109
▁취임한	-11.109
회의에서	-11.1092
▁걸었다	-11.1093
▁연이	-11.1097
▁조사단	-11.1107
▁경영자	-11.1114
▁모스크바에서	-11.1117
▁문자	-11.112
▁빙	-11.1121
데르	-11.1124
▁공격수	-11.1127
미국	-11.1128
▁시점에서	-11.1128
▁증진	-11.113
▁노스	-11.1133
ain	-11.1137
전선	-11.1139
▁수비	-11.1149
▁연기했다	-11.1152
레오	-11.1153
▁you	-11.1157
▁출전한	-11.1162
▁총격으로	-11.1165
▁총선에	-11.1167
봐야	-11.1169
▁강사	-11.1177
바로	-11.1181
▁발의	-11.1189
▁가져	-11.1201
▁포기했다	-11.1203
▁pi	-11.1203
▁노동부	-11.1206
▁요구에	-11.1212
▁새해	-11.1215
▁탈출했다	-11.1216
▁미치	-11.1216
▁시작되는	-11.1221
▁모술	-11.1228
▁금지하고	-11.1229
▁협상단	-11.1231
▁구하기	-11.1232
첼	-11.1236
메르	-11.1237
법안	-11.1237
▁의혹에	-11.1239
▁관리인	-11.1242
▁안드레	-11.1248
ian	-11.1251
▁재무	-11.1252
ail	-11.1255
▁산책	-11.1259
▁주인이	-11.126
▁시스템이	-11.1262
▁제공한다	-11.1265
▁판결했다	-11.1268
▁균	-11.1271
▁산악	-11.1273
▁선고받	-11.1275
ine	-11.1276
▁불가피	-11.1279
▁측면	-11.1283
▁펜실베니아	-11.129
▁위스콘신	-11.1293
▁짜	-11.1294
▁켄터키	-11.1295
▁측에서	-11.1299
▁인도에서	-11.1303
▁플래	-11.1304
▁메릴랜드	-11.1304
▁오해	-11.1305
▁group	-11.131
▁그루지아	-11.131
▁도널드	-11.131
▁마흐무드	-11.131
▁벤자민	-11.131
▁상파울루	-11.131
▁세계보건기구	-11.131
▁우주정거장	-11.131
▁잃지	-11.131
▁커뮤니티	-11.131
▁촛불	-11.131
▁부작용	-11.131
▁안락사	-11.131
▁피아노	-11.131
▁닥터	-11.131
▁자서전	-11.131
▁호르몬	-11.131
▁불쾌	-11.131
▁퇴장	-11.131
▁office	-11.131
▁침투	-11.131
▁타이완	-11.131
▁지뢰	-11.1311
▁여배우	-11.1311
▁양육권	-11.1311
▁두뇌	-11.1311
▁녹색	-11.1311
▁풍경	-11.1311
▁조셉	-11.1311
▁쿠르드족	-11.1312
▁승객들이	-11.1312
▁홈런	-11.1312
▁선데이	-11.1313
▁연방법원	-11.1313
▁control	-11.1313
▁자회담에	-11.1313
▁해킹	-11.1314
▁국가안보	-11.1314
▁인디아나	-11.1314
▁재벌	-11.1314
▁침수	-11.1314
▁토양	-11.1314
▁아끼	-11.1315
▁언제든	-11.1315
▁수비수	-11.1315
▁유예	-11.1316
▁지닌	-11.1316
▁임박	-11.1317
▁정보기관	-11.1317
▁토론토	-11.1318
▁구단주	-11.1321
▁조종	-11.1321
▁후퇴	-11.1322
▁기초	-11.1322
▁약혼	-11.1323
▁나가는	-11.1324
▁교량	-11.1324
▁필리스	-11.1324
▁경기도	-11.1325
▁문신	-11.1325
▁비준	-11.1326
▁활기	-11.1327
▁독일에서	-11.1329
▁닷	-11.1329
▁닭	-11.133
▁만명에	-11.1331
▁차림	-11.1331
▁군복	-11.1331
▁일축했다	-11.1332
▁결장	-11.1332
▁구형	-11.1335
▁하버드	-11.1338
▁get	-11.1338
▁요트	-11.1339
▁지하드	-11.134
▁감면	-11.134
▁군데	-11.1348
▁엄	-11.135
▁비방	-11.1352
▁발부	-11.1353
▁하도록	-11.1354
▁시설에	-11.1354
▁팜	-11.1354
▁국회의	-11.1355
▁확실하다	-11.1355
▁그럼	-11.1359
▁꺼	-11.136
▁군부대	-11.1366
▁산소	-11.1367
ster	-11.1371
▁런던에	-11.1373
▁시장과	-11.1375
▁비평	-11.1378
▁모욕	-11.1386
▁자선	-11.1389
개의	-11.1391
▁듀	-11.1394
▁만나기	-11.1395
▁숨기	-11.1399
종일	-11.1401
▁카라	-11.1401
▁범죄에	-11.1403
▁사회주의	-11.1406
답	-11.1406
▁거론	-11.141
어졌다	-11.141
웬	-11.1411
▁안되	-11.1413
▁알았다	-11.1414
쓰	-11.1414
솔	-11.1415
▁하트	-11.1419
▁경찰서에	-11.1419
▁도시로	-11.1419
힘	-11.1421
▁이베이	-11.1422
▁고무	-11.1428
▁착	-11.1428
▁엠	-11.1428
▁벌어지고	-11.1429
▁끈	-11.1429
▁기반으로	-11.1432
▁아이들과	-11.1434
▁제공해	-11.1434
▁부장관	-11.1437
▁들리	-11.1438
ction	-11.1439
▁추진하고	-11.144
▁판사들	-11.1445
▁과학적	-11.1451
▁밝혀내	-11.1451
▁미소	-11.1466
▁장려	-11.1468
두고	-11.1469
▁부상당	-11.1469
▁포함된다	-11.1473
자료	-11.1474
▁시작해	-11.1479
▁표현했다	-11.1479
▁강진	-11.148
▁물리치	-11.1482
▁관계자들과	-11.1484
ai	-11.1489
▁중에서	-11.1491
▁우드	-11.1492
▁상원의원에	-11.1493
▁언	-11.1493
▁향했다	-11.1498
▁신문에	-11.15
aw	-11.1512
▁관중	-11.1513
▁만료	-11.1521
체제	-11.1522
▁가고	-11.1524
하르	-11.153
구역	-11.1531
▁북부지역	-11.1541
▁내년에	-11.1543
bi	-11.1545
▁사이트에	-11.1551
▁기다려	-11.1551
▁감옥	-11.1551
다소	-11.1552
▁취소됐다	-11.1555
직원	-11.1555
▁벽에	-11.1565
▁인자	-11.1569
▁소식통들	-11.1573
▁내장	-11.1588
지오	-11.1588
일정	-11.1592
▁아이들에게	-11.1593
▁문제점	-11.1601
렌스	-11.1603
▁났다	-11.1608
▁보호할	-11.1609
죄로	-11.1617
스틴	-11.1626
▁지냈	-11.1628
▁유입	-11.163
▁동일	-11.1631
기위해	-11.1632
▁배급	-11.1636
▁콩	-11.1643
▁그때	-11.1643
▁국정원	-11.1643
효	-11.1646
▁반대한다	-11.1646
▁검토하	-11.1647
▁매사추세츠	-11.1648
튜	-11.1653
▁모니터	-11.1654
▁치솟	-11.1654
즘	-11.1654
팩	-11.1654
▁death	-11.1654
▁police	-11.1654
▁service	-11.1654
▁그루지야	-11.1654
▁냄새	-11.1654
▁매코맥	-11.1654
▁맥코맥	-11.1654
▁메사추세츠	-11.1654
▁몸집	-11.1654
▁미드필더	-11.1654
▁박테리아	-11.1654
▁뱅크	-11.1654
▁블룸버그	-11.1654
▁슈워제네거	-11.1654
▁스피처	-11.1654
▁아스널	-11.1654
▁악영향	-11.1654
▁알자와히리	-11.1654
▁암스트롱	-11.1654
▁오징어	-11.1654
▁캠벨	-11.1654
▁케르비엘	-11.1654
▁프로듀서	-11.1654
▁수하르토	-11.1654
▁오키나와	-11.1654
▁이스탄불	-11.1654
▁재정경제부	-11.1654
▁친선경기	-11.1654
▁동계올림픽	-11.1654
▁바쿠바	-11.1654
▁흥행	-11.1654
▁research	-11.1654
▁도덕적	-11.1655
▁방사능	-11.1655
▁홈페이지에	-11.1655
▁중서부	-11.1655
▁침착	-11.1655
▁무하메드	-11.1655
▁속옷	-11.1655
▁계곡	-11.1655
▁종신형	-11.1655
▁도시에	-11.1655
▁탔다	-11.1656
▁면밀	-11.1656
▁태양열	-11.1656
▁생겨	-11.1656
▁대피령	-11.1656
▁환경보호	-11.1656
▁블록	-11.1656
▁아닐	-11.1657
▁요격	-11.1657
▁맹세	-11.1657
▁아담	-11.1658
▁화석	-11.1658
▁적대적	-11.1658
▁불안감	-11.1658
▁품질	-11.1659
▁무산	-11.166
▁총알	-11.166
▁피셔	-11.166
▁소령	-11.166
▁외교관계	-11.1661
▁국왕이	-11.1661
▁교토	-11.1661
▁존드로	-11.1662
▁성행위	-11.1662
▁여년	-11.1663
▁수백만명	-11.1663
▁지침	-11.1663
▁항복	-11.1663
▁곡물	-11.1663
▁대학살	-11.1664
이션	-11.1664
▁참전	-11.1665
▁도망	-11.1666
▁원격	-11.1666
▁배제하지	-11.1666
▁가르치	-11.1667
▁용서	-11.1667
▁같았다	-11.1668
▁정통	-11.1669
▁얼리	-11.167
▁제트기	-11.1672
▁지표	-11.1673
▁사원에서	-11.1674
몬드	-11.1675
▁아카데미상	-11.1676
▁산악지역	-11.1676
▁후보들이	-11.1678
▁시범	-11.1678
▁필립스	-11.168
공항	-11.1682
▁만찬	-11.1684
▁인정한	-11.1685
ted	-11.1687
▁남았다	-11.1688
▁구제안	-11.1689
▁크리스티나	-11.169
▁진행됐다	-11.169
▁혼다	-11.1691
▁댄	-11.1691
▁리타	-11.1692
야만	-11.1699
▁지문	-11.1699
▁운하	-11.17
▁붐	-11.1701
▁빵	-11.1701
▁미술	-11.1703
▁정책이	-11.1706
▁단서	-11.1709
▁back	-11.171
▁지속된	-11.171
▁가난	-11.1711
▁생겼다	-11.1713
조정	-11.1718
▁상아	-11.172
▁장악한	-11.1722
▁일방적	-11.1727
▁우리들	-11.1727
▁성전	-11.1728
▁du	-11.1728
▁캐리	-11.1728
▁시위대와	-11.1728
▁부진	-11.1733
▁솔	-11.1733
▁팬들에게	-11.1738
께	-11.1738
▁확인해	-11.174
▁포기하지	-11.1741
▁결의	-11.1741
▁곤	-11.1742
았던	-11.1742
▁윤리	-11.1744
▁확인하는	-11.1744
아누	-11.1747
▁z	-11.175
▁칼로	-11.1751
▁감옥에	-11.1759
▁집안	-11.1761
비오	-11.1762
▁일째	-11.1767
▁춤	-11.1768
통이	-11.177
▁강조하고	-11.1771
밀리에	-11.1771
▁아프가니스탄에	-11.1773
▁기한	-11.1775
빛	-11.1775
▁그레	-11.1776
▁돌보	-11.1788
▁급진	-11.1791
▁말했지만	-11.1792
▁환영했다	-11.1793
▁통로	-11.1796
▁미친	-11.1799
▁반군과	-11.1801
▁임명된	-11.1809
을때	-11.1817
▁말로	-11.1818
▁이브	-11.1828
va	-11.1829
▁금지하는	-11.1831
중이다	-11.1833
▁걸려있	-11.1842
▁조치에	-11.1842
ny	-11.1846
파르	-11.1848
▁목격한	-11.185
tic	-11.1858
▁임원	-11.1858
▁반대했다	-11.1864
▁공원에서	-11.1872
▁중국인	-11.1873
ng	-11.1876
▁후보에게	-11.1878
▁실직	-11.1881
▁car	-11.1885
▁모의	-11.1888
▁헤이	-11.1888
베스	-11.189
국민	-11.1892
오르	-11.1896
▁미군측	-11.1898
아나	-11.1904
▁듯한	-11.1907
▁장소로	-11.1909
to	-11.1912
▁광장에	-11.1914
▁고고학자들	-11.1922
▁제작자들	-11.1922
▁부근에	-11.1928
▁로라	-11.1934
▁납치범들	-11.1948
▁주거	-11.1949
▁기숙사	-11.195
▁일으켰	-11.1952
▁같	-11.1954
▁쌍	-11.1954
▁나라들	-11.1955
▁면에서	-11.1956
▁움직임에	-11.1957
▁저가	-11.1959
▁경제와	-11.1971
해진다	-11.1972
건물	-11.1972
▁중국인들	-11.1977
▁박탈	-11.198
▁건물에서	-11.198
부문	-11.1983
▁제품에	-11.1984
▁법정에	-11.1984
▁폰	-11.1994
▁손님	-11.1994
흉	-11.2
▁스탠	-11.2
▁leader	-11.2
▁사무실에서	-11.2003
픈	-11.2006
문화	-11.2008
▁연령	-11.201
▁천억	-11.201
틱	-11.2011
▁캐롤	-11.2011
▁bmw	-11.2011
▁market	-11.2011
▁구스마오	-11.2011
▁놀랐다	-11.2011
▁뉴멕시코	-11.2011
▁만장일치	-11.2011
▁모하마드	-11.2011
▁브리티시	-11.2011
▁사형집행	-11.2011
▁승용차	-11.2011
▁실업수당	-11.2011
▁애틀란타	-11.2011
▁자메이카	-11.2011
▁캠퍼스	-11.2011
▁캥거루	-11.2011
▁클리블랜드	-11.2011
▁탈라바니	-11.2011
▁펼칠	-11.2011
▁피추시킨	-11.2011
▁united	-11.2012
▁김계관	-11.2012
▁세실리아	-11.2012
▁크누트	-11.2012
▁깃발	-11.2012
▁비영리	-11.2012
▁냉동	-11.2012
▁염두	-11.2012
▁economic	-11.2012
▁퍼트레이어스	-11.2012
▁뜨거	-11.2012
▁벨몬트	-11.2012
▁월드시리즈	-11.2012
▁issue	-11.2012
▁제라드	-11.2012
▁러셀	-11.2012
▁미망인	-11.2012
▁공략	-11.2012
▁노왁	-11.2012
▁구조조정	-11.2013
▁메뉴	-11.2013
▁전염병	-11.2013
▁face	-11.2013
▁펠리	-11.2013
▁유효	-11.2013
▁무엇인지	-11.2013
▁검찰총장	-11.2013
▁격추	-11.2013
▁평범	-11.2014
▁완공	-11.2014
▁보석금	-11.2014
▁사마라	-11.2014
▁간섭	-11.2014
▁외교정책	-11.2014
▁천억원	-11.2014
▁감추	-11.2015
▁페리노	-11.2015
▁밀림	-11.2015
▁악재	-11.2015
▁방북	-11.2015
▁보상금	-11.2015
▁want	-11.2015
▁멈	-11.2015
▁제이미	-11.2015
▁eta	-11.2015
▁건립	-11.2015
▁교황청	-11.2016
▁국영방송	-11.2016
▁탄약	-11.2016
▁다짐	-11.2017
▁chin	-11.2017
▁행방	-11.2017
▁머피	-11.2017
▁발목	-11.2017
▁주치의	-11.2018
▁북동쪽	-11.2018
roll	-11.2019
▁야심	-11.2019
▁피플	-11.2019
▁타입	-11.202
▁안겨	-11.202
세스	-11.202
▁구타	-11.2022
▁세균	-11.2022
시기	-11.2022
▁폭풍우	-11.2023
▁편집자	-11.2024
▁월마트	-11.2024
▁왔습니다	-11.2024
▁악성	-11.2024
▁최상	-11.2024
▁북서쪽	-11.2025
놨다	-11.2025
▁중단하라	-11.2026
▁순찰대	-11.2028
▁대피소	-11.2029
▁종파	-11.203
디어	-11.203
▁중장	-11.2031
▁유포	-11.2032
▁교회에서	-11.2032
▁것이냐	-11.2036
▁안건	-11.2036
▁번영	-11.2037
▁was	-11.2039
▁안심	-11.204
▁대도시	-11.2042
▁터미널	-11.2042
▁상원의원직	-11.2044
ell	-11.2046
▁만든다	-11.2046
▁드는	-11.2046
▁공개되지	-11.2047
레즈	-11.2049
▁지났	-11.2054
▁기내	-11.2056
▁유아	-11.2058
▁속한	-11.2062
▁자리잡고	-11.2063
▁범죄자들	-11.2064
▁관료	-11.2066
▁갖는다	-11.2071
▁빈민가	-11.2072
▁신고했다	-11.2074
▁전달한	-11.2074
▁당장	-11.208
▁메달	-11.2081
▁아버지와	-11.2082
▁지질	-11.2088
▁연관된	-11.2089
▁치고	-11.2092
▁바퀴	-11.2093
▁큐	-11.2095
▁양상	-11.2096
▁만들었	-11.2097
티아	-11.2101
리노	-11.2101
▁환영한다	-11.2103
▁흐르	-11.2104
▁전반적으로	-11.2105
▁매트	-11.2107
ni	-11.2109
▁브라	-11.2114
▁막고	-11.2118
▁제인	-11.212
▁카페인	-11.2121
▁지도자로	-11.2122
▁비극적	-11.2123
▁감독상	-11.2128
▁전당	-11.213
▁포착	-11.2134
▁배로	-11.2136
율이	-11.2137
▁보여주기	-11.2137
▁칩	-11.2139
▁소유자	-11.2139
섭	-11.2139
▁하나이다	-11.2141
멘	-11.2142
셰	-11.2144
▁든다	-11.2144
핀	-11.2144
▁둔화	-11.2145
펜	-11.2145
▁발견되	-11.2147
▁거치	-11.2156
▁살해하겠다	-11.2158
▁그쳤다	-11.2159
주택	-11.2159
▁민주당과	-11.2165
min	-11.2169
라니	-11.217
▁방한	-11.217
▁반도	-11.2173
▁피해지역	-11.2179
▁gu	-11.218
▁떨어지는	-11.2182
▁일정이	-11.2183
▁불안한	-11.2187
▁묘	-11.2194
▁비서	-11.2197
▁들어있는	-11.2201
▁블로그	-11.2204
▁제조사	-11.2204
병력	-11.2205
▁인정하	-11.2206
▁모르고	-11.2207
▁기자들과	-11.2209
▁페이스	-11.221
▁개최지	-11.2212
▁얼음이	-11.2215
엑	-11.2215
▁시작되	-11.2218
▁무장괴한	-11.2222
▁국민에게	-11.2228
▁주지사와	-11.223
▁시판	-11.2235
▁릭	-11.2236
▁물리	-11.224
▁핀	-11.2246
▁흔적	-11.2249
▁fire	-11.2251
▁세라	-11.2253
▁전설적	-11.2253
▁시리아와	-11.2253
▁철수시키	-11.2257
ee	-11.2264
▁목소리로	-11.2264
프리	-11.2265
프레	-11.2266
▁미국에서는	-11.2266
▁대변	-11.2269
▁갑작스	-11.2269
▁다음과	-11.2273
▁시도한	-11.2275
▁기어	-11.2277
▁미트	-11.2283
세포	-11.2285
▁이라크전에	-11.2292
▁내로	-11.2296
득	-11.2302
▁진행할	-11.2303
자들과	-11.2311
▁열려	-11.2318
▁줄기	-11.2325
▁부탁	-11.2332
▁오지	-11.2336
▁영국으로	-11.234
▁고속	-11.2343
▁최대한	-11.2348
▁국가들과	-11.2356
직에서	-11.2356
▁암호	-11.2367
단이	-11.2367
줘	-11.237
ber	-11.2372
▁당연	-11.2372
▁케이	-11.2373
▁델타	-11.2375
▁전미	-11.2375
▁링	-11.2376
▁미화	-11.2376
▁덧붙	-11.2376
▁콜린	-11.2377
▁덕	-11.238
삭	-11.2381
▁내셔널	-11.2382
▁머무	-11.2382
믹	-11.2382
▁consumer	-11.2382
▁general	-11.2382
▁넘어섰다	-11.2382
▁따돌리	-11.2382
▁무책임	-11.2382
▁브로드웨이	-11.2382
▁색깔	-11.2382
▁에탄올	-11.2382
▁여동생	-11.2382
▁올바른	-11.2382
▁웨스트버지니아	-11.2382
▁초등학교	-11.2382
▁호흡기	-11.2382
▁흡수	-11.2382
▁peace	-11.2382
▁댈러스	-11.2382
▁저작권	-11.2382
▁최우수	-11.2382
▁financ	-11.2382
▁하반기	-11.2382
▁change	-11.2382
▁이벤트	-11.2382
▁도메인	-11.2382
▁chief	-11.2382
▁셔츠	-11.2382
▁하리리	-11.2382
▁다뤄	-11.2382
▁습관	-11.2382
▁앙겔	-11.2382
▁화염	-11.2382
▁수하물	-11.2382
트로터	-11.2382
▁겁니다	-11.2382
▁make	-11.2382
▁투데이	-11.2383
▁비평가들	-11.2383
▁압승	-11.2383
▁빨간색	-11.2383
▁유혹	-11.2383
▁어휘	-11.2383
▁이루어	-11.2383
▁홀랜드	-11.2383
▁열쇠	-11.2383
▁후계자	-11.2383
▁디스커버리호	-11.2384
▁결백	-11.2384
▁평결	-11.2384
▁부회장	-11.2384
▁코스피	-11.2384
▁에이미	-11.2384
▁영입	-11.2385
▁삼림	-11.2385
▁글렌	-11.2385
▁자치구	-11.2385
▁이른바	-11.2385
▁초대형	-11.2386
▁제재조치	-11.2386
▁스위	-11.2387
▁사업에	-11.2387
▁영역	-11.2387
▁어려워	-11.2388
▁벌금형	-11.2388
▁허위	-11.2388
▁데니스	-11.2389
▁도쿄에서	-11.2391
▁독점	-11.2391
▁개헌	-11.2392
▁경위	-11.2393
▁공통	-11.2394
▁외출	-11.2395
▁담겨있다	-11.2395
▁소감	-11.2398
▁자매	-11.2398
▁자회담에서	-11.2399
▁올리는	-11.24
▁공방	-11.2402
▁agenc	-11.2402
▁ta	-11.2403
▁실내	-11.2403
▁늘어났다	-11.2403
▁악화될	-11.2404
▁걸프	-11.2404
▁오락	-11.2404
▁시술	-11.2404
▁리더	-11.2406
▁퇴직	-11.2406
▁올릴	-11.2406
▁노동력	-11.2408
▁자회사	-11.2408
▁대담	-11.241
▁동성	-11.2412
▁분출	-11.2413
▁자유당	-11.2416
▁투표권	-11.2416
▁불가피하다	-11.2416
▁도왔다	-11.2417
▁상정	-11.2417
▁놓았다	-11.2417
세요	-11.2418
공장	-11.2418
▁백악관에	-11.242
▁초래할	-11.2421
▁우파	-11.2422
▁후보작	-11.2423
▁입장권	-11.2423
ba	-11.2424
▁란	-11.2425
▁장착된	-11.2426
▁차가	-11.2428
▁경찰들	-11.2431
▁사이즈	-11.2435
▁조카	-11.2436
▁박수	-11.2436
▁딜러	-11.2436
▁에디	-11.2439
▁보았다	-11.2443
▁방사	-11.2443
▁위법	-11.2444
▁정비	-11.2445
▁iss	-11.2445
▁후임자	-11.2445
트릭	-11.2445
▁부자	-11.2446
▁여개	-11.2447
ii	-11.2448
▁상태였다	-11.2448
▁정한	-11.2452
▁지미	-11.2461
▁수잔	-11.2463
▁납치됐다	-11.2465
▁될지	-11.2469
▁폐쇄했다	-11.2473
▁운동가	-11.2473
▁따뜻하	-11.2475
▁했을	-11.2478
▁관해서	-11.2478
▁입원한	-11.2479
▁암살된	-11.248
▁위기로	-11.2482
▁지목했다	-11.2483
▁고백	-11.2483
▁확인한	-11.2485
관계자	-11.2488
▁국정	-11.2497
▁수성	-11.25
into	-11.2503
해져	-11.2503
▁부인과	-11.2504
▁용인	-11.2504
이라도	-11.2507
▁발생했던	-11.2508
▁그날	-11.2509
▁마련했다	-11.251
접	-11.2519
컴	-11.2525
굴	-11.2526
▁중유	-11.2528
탑	-11.2529
묘	-11.2529
▁내리기	-11.2532
▁정당이	-11.2533
푸르	-11.2534
환경	-11.2535
테러	-11.2536
하우스	-11.2537
▁여진이	-11.2542
대책	-11.2543
생산	-11.2543
▁여러분들	-11.2549
▁맡아	-11.2549
▁인적	-11.2552
way	-11.2554
▁무엇이	-11.2554
▁웹사이트에서	-11.2557
▁워터	-11.2561
▁이탈	-11.2563
▁잃어버	-11.2564
▁펼치고	-11.2567
연구원	-11.2568
▁star	-11.2571
▁pf	-11.2572
▁알리기	-11.2575
▁우주에서	-11.2578
▁톱	-11.2579
▁피신	-11.2582
시키지	-11.2584
▁시도했다	-11.2589
▁복합	-11.2591
▁내주	-11.2592
▁일년	-11.2606
▁개발도상국	-11.2614
▁임신한	-11.2616
▁북한에서	-11.2617
▁괜찮	-11.2623
▁공격할	-11.2626
▁수행하	-11.2628
져야	-11.2633
▁주민이	-11.2633
과정에서	-11.2635
▁봐	-11.264
▁각료	-11.2642
▁si	-11.2647
었으	-11.2652
▁예상되는	-11.2652
▁끝내	-11.2661
▁고려할	-11.2661
▁선보	-11.2666
iz	-11.2668
▁관심사	-11.2671
▁다음으로	-11.2679
▁공개할	-11.2683
▁per	-11.2686
시스	-11.2687
▁게이	-11.2688
▁장관들	-11.2689
▁악의	-11.269
▁녹아	-11.2692
▁루스	-11.2698
시키는데	-11.2703
▁상업적	-11.2704
▁없기	-11.2705
▁측에	-11.2707
룩	-11.2711
▁납치했다	-11.2711
▁마련하기	-11.2715
▁직면한	-11.2719
대사관	-11.2723
▁조달	-11.2725
▁참가자	-11.2731
▁펼쳤	-11.2733
▁올렸	-11.2734
쉽	-11.2736
▁후보자들	-11.2736
▁사진에	-11.2743
▁국세청	-11.2755
▁데뷔	-11.2756
▁정찰	-11.2757
헤르	-11.276
쁜	-11.2762
낭	-11.2764
▁업	-11.2764
렬	-11.2765
쇠	-11.2765
▁영구	-11.2765
▁소방관들	-11.2765
▁끌려	-11.2766
덩	-11.2766
▁baghdad	-11.2766
▁pakistan	-11.2766
▁ufo	-11.2766
▁과테말라	-11.2766
▁국가보안법	-11.2766
▁높였다	-11.2766
▁닌텐도	-11.2766
▁두개골	-11.2766
▁리얼리티	-11.2766
▁마호메트	-11.2766
▁베테랑	-11.2766
▁보건복지부	-11.2766
▁엔터테인먼트	-11.2766
▁정동영	-11.2766
▁조선중앙통신	-11.2766
▁조코비치	-11.2766
▁집행유예	-11.2766
▁추수감사절	-11.2766
▁토마토	-11.2766
▁퍼레이드	-11.2766
▁bbk	-11.2766
▁health	-11.2766
▁당분간	-11.2766
▁싱가폴	-11.2766
▁열렬한	-11.2766
겹	-11.2766
무장혁명군	-11.2766
▁의구심	-11.2767
▁제네바	-11.2767
▁좌익	-11.2767
▁콜레라	-11.2767
▁뉴욕증시	-11.2767
▁수족관	-11.2767
▁태어나	-11.2767
▁white	-11.2767
▁유태인	-11.2767
▁링컨	-11.2767
▁원내대표	-11.2767
▁가볍	-11.2767
▁규명	-11.2767
▁대지진	-11.2767
▁의료보험	-11.2767
▁신용위기	-11.2767
▁결렬	-11.2767
▁꾸준	-11.2767
▁힌두교	-11.2767
▁검출	-11.2767
▁혼합	-11.2767
▁삼엄	-11.2768
▁티켓	-11.2768
▁참패	-11.2768
▁free	-11.2768
▁코미디언	-11.2768
▁과잉	-11.2768
▁비공개	-11.2768
위기	-11.2768
▁배럭	-11.2768
▁연합뉴스	-11.2768
▁워커	-11.2769
▁설교	-11.2769
▁호주오픈	-11.2769
▁영예	-11.2769
▁노리에가	-11.277
▁세번째	-11.277
▁신념	-11.277
▁검진	-11.277
▁격분	-11.277
▁사찰	-11.277
▁광경	-11.277
▁이정인	-11.2771
▁응원	-11.2771
▁서있	-11.2771
▁관행	-11.2771
▁태양계	-11.2772
▁깜	-11.2772
▁포스터	-11.2772
▁권유	-11.2773
▁계단	-11.2773
▁극심	-11.2773
▁더이상	-11.2773
▁지폐	-11.2774
▁보수파	-11.2774
▁저격	-11.2774
▁필수	-11.2774
▁부부의	-11.2775
▁재생	-11.2778
▁레저	-11.2779
▁히트	-11.2779
▁발작	-11.2779
▁여성에게	-11.278
▁남겼다	-11.2781
▁suv	-11.2781
▁섞	-11.2781
▁단호	-11.2781
▁비자금	-11.2782
▁밀수	-11.2782
▁시사회	-11.2782
▁풍자	-11.2785
▁돌아갔다	-11.2785
▁dc	-11.2785
▁보류	-11.2785
▁맡게	-11.2785
▁기념일	-11.2785
▁연예	-11.2786
▁사우스	-11.2786
▁빨간	-11.279
▁거래가	-11.279
▁zan	-11.279
▁체인	-11.2791
▁장난	-11.2792
▁국면	-11.2795
▁야간	-11.2795
▁발견돼	-11.2796
▁정상적으로	-11.2798
▁인플루엔자	-11.28
▁호우	-11.2801
▁나라에서	-11.2803
▁현직	-11.2803
▁방문이	-11.2803
▁애쓰고	-11.2805
▁통신과	-11.2805
▁석상	-11.2805
▁미사	-11.2806
피크	-11.2807
▁단백질	-11.2809
▁제프	-11.2811
▁성사	-11.2812
▁작곡가	-11.2816
▁이끌었다	-11.2818
▁하마스와	-11.2824
▁결승에서	-11.2832
▁취해야	-11.2832
▁년째	-11.2834
▁범죄자	-11.2834
▁심정	-11.2837
▁잡혀있	-11.284
▁비율이	-11.284
▁달에	-11.2849
▁찬사	-11.2849
▁지명자	-11.2852
▁논의하고	-11.2852
▁붙이	-11.2856
▁흔들리	-11.2856
▁계층	-11.2859
▁판매되	-11.2862
▁시민단체	-11.2864
▁가려	-11.2876
▁부수	-11.2879
▁길에	-11.2883
▁정보가	-11.2886
▁와서	-11.2888
▁페이	-11.2891
▁리사	-11.2891
▁하원에서	-11.2891
tive	-11.2893
▁팔려	-11.2894
▁분기에	-11.29
▁코커스에서	-11.29
졌습니다	-11.2901
▁친구들과	-11.2901
▁진행하는	-11.2901
▁나르	-11.2902
▁통상	-11.2904
▁감자	-11.2909
▁베를린에서	-11.2909
▁잡기	-11.291
▁돌입했다	-11.2914
▁오고	-11.2914
응	-11.2915
▁강화했다	-11.2918
전문	-11.2918
▁배정	-11.2919
▁가격에	-11.292
▁문화적	-11.2926
교회	-11.2927
몽	-11.2927
컨	-11.2927
▁식으로	-11.2929
오픈	-11.2932
▁제기한	-11.2932
돈	-11.2933
떨어진	-11.2933
▁홀에서	-11.2934
▁수의사	-11.2934
▁보아	-11.2935
▁가할	-11.2937
▁결승전에	-11.2938
▁살아있는	-11.2943
▁조사했다	-11.2945
▁어디에	-11.2947
▁어디	-11.2948
▁수반과	-11.2949
▁첸	-11.2952
▁가두	-11.2954
▁나갔다	-11.2956
하일	-11.2957
▁해변에서	-11.2958
▁사무소	-11.2961
▁hd	-11.2969
▁파고	-11.297
▁러시아에서	-11.2972
▁기관들	-11.2976
▁앤더슨	-11.2976
주재	-11.2981
첨	-11.2982
▁개국이	-11.2982
▁람	-11.2983
수준	-11.2983
▁유지하는	-11.2984
▁재판소	-11.2985
▁미수	-11.2985
▁여행사	-11.2986
▁정치범	-11.2993
▁폭발했다	-11.3003
데일	-11.3006
▁arm	-11.3008
▁의견에	-11.301
▁비리	-11.3019
수사	-11.3023
▁공격하는	-11.3023
▁동원해	-11.3032
▁참모	-11.3038
▁개헌안	-11.3038
▁계획한	-11.3045
▁가담	-11.3046
발전	-11.3046
▁사태로	-11.3051
▁갇혀	-11.3058
▁요한	-11.3064
▁시작하는	-11.3064
▁대원	-11.3065
▁빼	-11.3071
▁헌신	-11.3071
모어	-11.3077
▁기념하기	-11.3079
▁윤리적	-11.3081
▁초과	-11.3081
▁파르	-11.3086
▁공장에서	-11.3086
▁대리	-11.3091
▁개막식	-11.3091
▁주문했다	-11.3096
▁재미	-11.3096
▁양곤	-11.3098
▁하는데	-11.3099
▁방문객	-11.3099
▁맞이하	-11.3104
▁위반한	-11.3106
▁방문했	-11.3122
줘야	-11.3123
티드	-11.3125
▁시작하기	-11.3132
▁구조대원	-11.3136
▁바탕	-11.3136
▁칠	-11.314
▁무기한	-11.3142
디오	-11.3145
ure	-11.3148
▁q	-11.3149
▁주사	-11.3152
▁america	-11.3153
▁도움으로	-11.3153
롬	-11.3156
▁year	-11.3157
▁중동평화	-11.3161
▁쇼에	-11.3164
▁홈페이지	-11.3166
▁wild	-11.3166
▁갤럭시	-11.3166
▁곤돌라	-11.3166
▁농작물	-11.3166
▁동남아시아	-11.3166
▁라왈핀디	-11.3166
▁로맨틱	-11.3166
▁루마니아	-11.3166
▁마닐라	-11.3166
▁맞지	-11.3166
▁무혐의	-11.3166
▁아웅산수지	-11.3166
▁얀코비치	-11.3166
▁엔데버호	-11.3166
▁이데올로기	-11.3166
▁짝짓기	-11.3166
▁카라카스	-11.3166
▁카톨릭	-11.3166
▁타블로이드	-11.3166
▁페널티킥	-11.3166
▁폴라로이드	-11.3166
▁횟수	-11.3166
돋	-11.3166
룽	-11.3166
▁내비쳤다	-11.3166
▁대중교통	-11.3166
▁로페즈	-11.3166
▁백화점	-11.3166
▁유망주	-11.3166
▁카리스마	-11.3166
▁페르난도	-11.3166
▁뮤직	-11.3167
▁자이툰	-11.3167
▁ftse	-11.3167
▁테이블	-11.3167
▁살모넬라균	-11.3167
▁소아과	-11.3167
▁보스니아	-11.3167
▁평론가들	-11.3167
▁동점골	-11.3167
▁소수민족	-11.3167
▁대통합민주신당	-11.3167
▁결승골	-11.3167
▁밀접	-11.3167
▁범람	-11.3167
▁가자시티	-11.3167
▁나중에	-11.3167
▁부정선거	-11.3167
▁패널	-11.3168
▁관광산업	-11.3168
▁울머	-11.3169
▁선택한	-11.3169
준다	-11.3169
▁난폭	-11.317
▁평생	-11.317
▁오스틴	-11.3171
▁표적이	-11.3171
▁기둥	-11.3171
▁종말	-11.3172
▁결별	-11.3172
▁경제성장률	-11.3173
▁온천	-11.3173
▁지칭	-11.3173
▁심장병	-11.3174
▁매사추세츠주	-11.3174
▁면허	-11.3174
▁도착했을	-11.3174
▁연구조사	-11.3174
▁바이오	-11.3175
▁동행	-11.3175
▁감동	-11.3175
▁억압	-11.3175
net	-11.3176
▁페퍼	-11.3176
▁숨지게	-11.3176
▁면제	-11.3176
▁외각	-11.3177
▁바스크	-11.3177
▁세레나	-11.3177
▁과실	-11.3178
▁책임감	-11.3178
▁관세	-11.318
▁천연	-11.3181
▁사절	-11.3182
▁감안	-11.3182
▁무너졌다	-11.3183
▁낙관적	-11.3183
▁버렸다	-11.3183
▁줄어	-11.3185
▁삼았다	-11.3186
▁버크	-11.3186
▁조업	-11.3188
▁연예인	-11.3194
▁대승	-11.3195
▁국민당	-11.3197
▁반란	-11.3198
▁여정	-11.3198
느라	-11.32
▁이끈	-11.32
▁brit	-11.3201
▁많았다	-11.3202
▁독자	-11.3203
▁행운	-11.3205
▁투수	-11.3207
▁어선	-11.321
▁프린스	-11.3211
▁that	-11.3212
▁질서	-11.3213
▁파악하	-11.3213
▁누드	-11.3214
oo	-11.3214
▁양당	-11.3215
▁넘어서	-11.3217
▁하는지	-11.322
센터에서	-11.3223
전문가	-11.3226
▁good	-11.3227
▁샘	-11.323
▁맹	-11.3237
베키	-11.3239
▁후임으로	-11.3239
▁정치에	-11.324
▁움직	-11.324
▁주자	-11.3243
▁번식	-11.3245
▁report	-11.3246
▁뒤에서	-11.3246
▁이룬	-11.325
▁덩어리	-11.325
▁전선	-11.3253
▁의뢰인	-11.3254
▁대처하기	-11.3257
▁살해됐다	-11.3263
▁걸스	-11.3264
▁감기	-11.3265
▁모닝	-11.3265
▁신비	-11.3269
방법	-11.3271
▁죽을	-11.3275
▁불과했다	-11.3277
▁방콕에서	-11.3278
▁포기할	-11.3279
▁유명인사	-11.3282
헤드	-11.3286
▁행동으로	-11.3287
▁하락했	-11.3288
▁전통적으로	-11.3289
▁감행했다	-11.329
ious	-11.3292
▁지사	-11.3293
노프	-11.3295
▁동남	-11.3295
▁당원들	-11.3297
▁줄어들었다	-11.3298
▁지정된	-11.3299
▁충고	-11.3302
우주	-11.3305
▁바스라에서	-11.3307
▁발생하기	-11.3313
pt	-11.3315
▁괴	-11.3317
▁내기	-11.3319
▁퇴원	-11.3322
군과	-11.3322
▁경선이	-11.3322
▁맡기	-11.3323
▁용의	-11.3323
▁별로	-11.3324
게이트	-11.3326
▁거라고	-11.3329
▁도시들	-11.3332
억	-11.3344
▁행한	-11.3346
▁말하지	-11.3347
즐	-11.3348
▁구입한	-11.3349
▁수감됐다	-11.3349
보고서	-11.3351
▁분명한	-11.3352
▁제안에	-11.3353
▁국경지역에	-11.3354
fc	-11.3354
▁로한이	-11.3355
▁도로에	-11.3356
코스	-11.3356
▁퍼지	-11.3365
사람	-11.3366
▁물질이	-11.3369
▁소방	-11.3369
노동	-11.3372
▁선보였	-11.3373
▁start	-11.3375
▁결승	-11.3376
통제	-11.3376
▁심화	-11.3379
▁이란에서	-11.338
동물	-11.3385
▁험	-11.339
총장	-11.339
▁정직	-11.3392
▁이목	-11.3393
▁태국에서	-11.3394
▁발표하지	-11.3398
스텐	-11.3401
▁관광객이	-11.3403
▁지구로	-11.3408
▁후안	-11.3411
모토	-11.3412
▁파괴됐다	-11.3413
▁협정에	-11.3415
처리	-11.3415
▁탑	-11.3418
▁안다	-11.343
▁남지	-11.343
론자들	-11.3434
▁이어진	-11.3435
세르	-11.3441
▁위치에	-11.3444
▁직면해	-11.345
▁발생한다	-11.3452
▁강전	-11.346
▁자연적	-11.3461
▁공직	-11.3467
어지고	-11.3476
▁다쳤	-11.3477
▁민주당원들	-11.3482
▁call	-11.3483
▁이외	-11.349
▁ps	-11.3491
▁제어	-11.3493
▁down	-11.3494
▁의뢰	-11.3495
▁통근	-11.3495
▁지원한	-11.3502
▁놓여	-11.3506
ew	-11.3511
▁br	-11.3512
▁섬에	-11.3515
▁방송과	-11.3515
▁일요일에	-11.3519
▁복용한	-11.352
▁관료들	-11.3524
▁살리	-11.3526
▁획득했다	-11.353
▁보여준	-11.3532
▁맞았	-11.3532
되게	-11.3536
▁선호	-11.3547
▁게임에서	-11.3548
▁감염자	-11.3549
▁한반도에서	-11.3552
▁정부로부터	-11.3552
▁승리하는	-11.3555
▁단체에	-11.3556
▁괴한들	-11.3558
▁사정	-11.3562
님	-11.3568
▁여객기에	-11.3569
▁버몬트	-11.3573
법에	-11.3574
▁나눠	-11.3577
▁경제성장	-11.3577
▁다국적	-11.3577
쾌	-11.358
▁주장해	-11.3582
▁oecd	-11.3583
▁wwf	-11.3583
▁가톨릭	-11.3583
▁금융제재	-11.3583
▁몬타나	-11.3583
▁무크타다	-11.3583
▁버시바우	-11.3583
▁부정부패	-11.3583
▁브뤼셀	-11.3583
▁사카쉬빌리	-11.3583
▁임산부	-11.3583
▁쫓겨	-11.3583
▁컨퍼런스	-11.3583
▁콘크리트	-11.3583
▁콜레스테롤	-11.3583
▁프리메라리가	-11.3583
▁합참의장	-11.3583
윗	-11.3583
쿤	-11.3583
▁로널드	-11.3583
▁휴양지	-11.3583
▁기번스	-11.3583
▁오마바	-11.3583
▁팔루자	-11.3583
▁횡단	-11.3583
▁힉스	-11.3583
▁about	-11.3583
▁쟁점	-11.3583
▁뒤덮	-11.3583
▁이소연	-11.3583
▁주니어	-11.3583
▁크리켓	-11.3583
▁아지즈	-11.3583
▁페인트	-11.3583
▁농촌	-11.3584
▁home	-11.3584
▁근접	-11.3584
▁소요사태	-11.3584
▁번호판	-11.3584
▁와중에	-11.3584
▁여객선	-11.3584
▁호르타	-11.3585
▁불쾌감	-11.3585
▁흉기	-11.3585
▁동북아	-11.3585
▁간첩	-11.3585
▁평창	-11.3585
▁엄중	-11.3585
▁최후	-11.3586
▁통계청	-11.3586
▁싸울	-11.3586
▁연애	-11.3586
▁이루어질	-11.3586
▁총격사건	-11.3587
▁연습	-11.3587
▁평등	-11.3587
▁활력	-11.3588
▁패션계	-11.3588
▁피델	-11.3588
▁단절	-11.3588
스테이트	-11.3589
▁말라위	-11.3589
▁정글	-11.3589
▁팔렸다	-11.3589
▁금지령	-11.359
▁포격	-11.359
▁union	-11.359
▁평방	-11.3591
▁황제	-11.3591
▁테네시주	-11.3591
▁예금	-11.3591
▁변동	-11.3592
돌프	-11.3592
▁추모식	-11.3592
▁rights	-11.3592
▁테러공격	-11.3593
▁본래	-11.3593
▁수년간	-11.3593
▁지나친	-11.3593
▁저지르	-11.3593
▁석방했다	-11.3594
▁베스트	-11.3594
▁즐거	-11.3594
▁완수	-11.3594
▁울프	-11.3595
▁철거	-11.3596
▁스탠리	-11.3596
▁급파	-11.3597
▁핵문제	-11.3598
▁테마	-11.3598
▁뉴저지주	-11.3599
▁반격	-11.3599
▁사격	-11.3601
▁태아	-11.3601
▁터진	-11.3601
▁질식	-11.3602
▁건조	-11.3602
▁액수	-11.3602
▁구분	-11.3603
롭게	-11.3605
▁앙리	-11.3605
▁정유	-11.3606
▁인도와	-11.3606
▁데이트	-11.3606
▁경찰청장	-11.3607
▁신종	-11.3607
▁지도력	-11.3607
▁스노	-11.3608
▁분양	-11.361
▁일본인들	-11.3611
▁루이	-11.3611
▁피고인들	-11.3612
▁휩싸였다	-11.3612
▁외모	-11.3613
▁상실	-11.3613
▁발사된	-11.3614
▁안개	-11.3614
▁ak	-11.3615
▁두목	-11.3615
▁분명하다	-11.3615
▁공습이	-11.3616
be	-11.3617
▁가즈니주	-11.3617
▁겐	-11.3617
▁만톤	-11.3619
▁상징적인	-11.3619
▁문학	-11.3619
▁조그	-11.3621
▁반감	-11.3622
▁우주비행사들	-11.3622
▁허리	-11.3623
▁한국정부	-11.3625
▁선박에	-11.3626
▁과일	-11.3626
▁접근할	-11.3626
▁작용할	-11.3629
▁도박	-11.3629
▁하겠다	-11.363
▁인파	-11.3632
▁미쳤다	-11.3636
▁작품상	-11.3638
▁보수적인	-11.3638
▁열린다	-11.3639
▁앤드	-11.3639
▁억류된	-11.3639
▁열리기	-11.364
▁아카	-11.3645
작업을	-11.3649
주기	-11.3651
▁배아	-11.3653
▁이건	-11.3653
▁중년	-11.3655
▁발사한	-11.3658
▁학자들	-11.3659
▁높이고	-11.3665
▁압도	-11.3666
▁심각하다	-11.3667
간다	-11.3669
▁침	-11.367
▁만행	-11.3671
▁당선된	-11.3671
▁전술	-11.3672
죄	-11.3674
▁박물관에	-11.3675
▁개혁안	-11.3676
▁외교관들	-11.3677
▁거물	-11.3679
▁독일과	-11.368
▁맺었다	-11.3684
▁끝내고	-11.3685
▁노동자들이	-11.3686
▁아랍어	-11.369
▁쉐	-11.3691
▁일반인들	-11.3692
▁투자가들	-11.3693
ef	-11.3694
▁만족한다	-11.3694
▁동해	-11.3695
마른	-11.3698
▁이용자들	-11.3699
▁이동했다	-11.37
▁은행이	-11.3702
▁해치	-11.3703
험	-11.3704
▁켄	-11.3705
io	-11.3709
▁피로	-11.3711
▁가하고	-11.3712
▁차지할	-11.3713
아웃	-11.3713
▁교도	-11.3714
▁수직	-11.3717
ical	-11.3724
사이드	-11.373
▁수습	-11.3732
▁이견	-11.3734
▁여성으로	-11.3739
▁열리고	-11.374
▁치료제	-11.3741
▁경쟁에서	-11.3743
▁ka	-11.3747
▁등장하	-11.3748
▁빚어	-11.3753
▁방위	-11.3754
마드	-11.3758
회에서	-11.3763
장소	-11.3773
▁엑스	-11.3773
▁전임	-11.3773
▁시대에	-11.3776
▁결정될	-11.3776
▁발사했다	-11.378
▁설립한	-11.3782
▁can	-11.3783
안전	-11.3783
▁앤더슨은	-11.3785
사실	-11.3786
▁공격하기	-11.3787
▁관대	-11.379
코트	-11.3793
mas	-11.3793
▁고정	-11.3794
▁마르코	-11.3795
머스	-11.3797
여행	-11.3798
▁표기	-11.3798
▁들어가기	-11.3799
증권	-11.3803
학자인	-11.3805
▁참가국들	-11.3808
▁마이크로	-11.3808
▁플로	-11.3809
▁고집	-11.3811
더미	-11.3812
파인	-11.3813
▁장소에	-11.3814
▁합의안	-11.3817
▁통과한	-11.3819
▁파괴된	-11.3823
▁워싱턴에	-11.3824
문서	-11.3826
▁지지율로	-11.383
▁실려	-11.3832
▁대학생들	-11.3836
▁중재자	-11.3839
중국	-11.3841
▁난자	-11.3844
▁sa	-11.3853
ner	-11.3858
▁클럽에서	-11.386
ney	-11.3864
퍼스	-11.3869
▁증가시키	-11.387
코르	-11.3871
▁장례식에	-11.3871
▁시스템에	-11.3871
▁특파원이	-11.3875
▁하에서	-11.3882
▁내용이다	-11.3889
▁판매하는	-11.389
▁수퍼대의원	-11.3891
ors	-11.3893
▁되면서	-11.3897
▁경의	-11.3903
킨스	-11.3906
▁명명	-11.3909
▁지점에	-11.3916
▁san	-11.3917
▁노력으로	-11.3917
▁미국내	-11.3919
▁의원들과	-11.3922
▁교착상태	-11.3926
▁치르는	-11.3939
▁반군에	-11.3942
게임	-11.3942
▁인정하고	-11.395
▁쓰이	-11.3951
▁고전	-11.3952
▁울리	-11.3953
▁곳곳	-11.3953
▁최근까지	-11.396
바니	-11.3962
▁들어갔	-11.3965
▁토로	-11.3967
유지	-11.3967
▁나갔	-11.3969
▁만대	-11.3971
▁겪었	-11.3977
▁pop	-11.3978
▁비전	-11.3987
▁강화하기	-11.3992
▁도달했다	-11.3993
▁중태라	-11.3994
해졌	-11.3995
▁충돌했다	-11.3996
▁제기되	-11.4001
▁저널	-11.4002
▁법무	-11.4003
럭	-11.4008
▁테네시	-11.401
▁검문	-11.4012
▁간다	-11.4013
▁부상당했다	-11.4013
롯	-11.4014
탔	-11.4016
▁풀려	-11.4017
▁진정시키	-11.4017
▁전문의	-11.4017
▁선거일	-11.4018
▁페트로	-11.4018
▁냉전	-11.4018
셜	-11.4018
▁australia	-11.4018
▁school	-11.4018
▁그린스펀	-11.4018
▁급상승	-11.4018
▁낙하산	-11.4018
▁농산물	-11.4018
▁대량살상무기	-11.4018
▁디얄라	-11.4018
▁라우터바흐	-11.4018
▁선거캠페인	-11.4018
▁슈나이더	-11.4018
▁앨라배마	-11.4018
▁언색호	-11.4018
▁오차범위	-11.4018
▁잃게	-11.4018
▁지구온난화	-11.4018
▁카메론	-11.4018
▁테헤란	-11.4018
쭉	-11.4018
▁롱고리아	-11.4018
▁마스터스	-11.4018
▁올랜도	-11.4018
▁유시프	-11.4018
▁저녁식사	-11.4018
▁퇴역	-11.4018
▁획기적	-11.4018
▁클레이코트	-11.4018
▁administration	-11.4018
▁정부청사	-11.4018
▁괴롭	-11.4018
▁황교수	-11.4018
▁리더십	-11.4018
▁졸릭	-11.4018
▁사냥꾼	-11.4018
▁fun	-11.4018
▁six	-11.4018
▁검열	-11.4018
▁tax	-11.4019
▁poll	-11.4019
▁aid	-11.4019
▁gnp	-11.4019
▁자살폭탄	-11.4019
▁아르빌	-11.4019
▁검시관	-11.4019
▁줄어든	-11.402
▁호킨스	-11.402
▁토끼	-11.402
▁안젤리	-11.402
▁무엇인가	-11.402
▁동맹관계	-11.402
▁우편	-11.402
▁반도체	-11.402
▁자본주의	-11.402
▁그린랜드	-11.4021
▁보도자료	-11.4021
▁친밀	-11.4022
▁발송	-11.4022
▁아바타	-11.4022
▁재능	-11.4022
▁기념품	-11.4022
▁증산	-11.4022
▁교역	-11.4022
▁불경기	-11.4023
▁증오	-11.4023
▁자유로운	-11.4024
단계	-11.4024
▁게임에	-11.4024
▁늘어난	-11.4024
▁내다봤	-11.4024
▁친절	-11.4025
▁샤론	-11.4025
▁jp	-11.4026
▁서열	-11.4026
▁살짜리	-11.4026
▁회색	-11.4026
▁순회	-11.4026
▁주머니	-11.4026
▁섬유	-11.4026
▁교차	-11.4026
▁악명	-11.4027
▁탈세	-11.4027
▁잔디	-11.4027
물질	-11.4027
▁선거자금	-11.4027
▁출간	-11.4028
▁한국전쟁	-11.4028
▁누설	-11.4029
▁라틴	-11.4029
▁인천	-11.403
▁미시간주	-11.403
▁물리적	-11.4031
▁상표	-11.4031
▁총살	-11.4031
▁지난밤	-11.4032
▁베이비	-11.4032
▁동요	-11.4032
▁없음	-11.4033
▁호위	-11.4033
▁시몬	-11.4034
▁십만	-11.4034
▁작년에	-11.4034
▁온실	-11.4035
▁정상에	-11.4036
▁파워	-11.4036
▁태어났다	-11.4038
▁생선	-11.4039
▁노벨상	-11.4039
런스	-11.4039
▁신설	-11.4041
▁스파이스	-11.4041
▁들어보	-11.4041
▁참수	-11.4041
▁탈당	-11.4043
▁끌어들이	-11.4046
▁유타	-11.4047
▁루디	-11.4048
▁피터슨	-11.4048
▁어미	-11.4049
▁양호	-11.4049
▁오만	-11.4049
▁램	-11.405
▁제조회사	-11.4051
▁본즈	-11.4051
▁종전	-11.4053
▁국토안보부	-11.4053
▁선제	-11.4054
▁설립자	-11.4055
▁받았습니다	-11.4057
up	-11.4059
▁단일	-11.4061
▁모였다	-11.4061
▁진상	-11.4063
▁비행선	-11.4063
▁경유	-11.4065
▁죄수	-11.4065
벨리	-11.4066
▁피우	-11.4066
▁보호소	-11.4066
▁주입	-11.4067
▁자루	-11.4071
▁통과할	-11.4072
▁못하면	-11.4073
▁경상	-11.4074
▁주정부	-11.4074
▁허용하는	-11.4074
▁의사당	-11.4075
▁이라크인들	-11.4075
▁주둔군	-11.4076
▁서울시장	-11.4077
▁적군	-11.4077
▁이민법	-11.4078
▁mi	-11.4079
▁중국정부	-11.4079
▁끝나지	-11.4079
▁싱글	-11.408
▁매케인과	-11.408
out	-11.4081
▁kt	-11.4081
▁만들어내	-11.4081
▁년대에	-11.4082
▁들어서	-11.4085
▁기여	-11.4085
▁들어주	-11.4086
▁프로그램과	-11.4088
▁되려	-11.4088
▁돌아가는	-11.409
▁관여하	-11.409
▁토로했다	-11.4092
▁기대된다	-11.4095
▁비공식	-11.4098
▁줄었다	-11.41
▁신성	-11.41
▁서쪽으로	-11.41
▁외계인	-11.4101
▁불거	-11.4102
▁놀이	-11.4105
▁졸	-11.4105
▁한가지	-11.4105
▁내리지	-11.4107
▁실종됐다고	-11.411
▁밝혀지	-11.411
▁성능	-11.4115
one	-11.4116
▁효과적인	-11.4118
▁자란	-11.4119
ern	-11.4121
▁타운	-11.4122
di	-11.4122
▁의미하는	-11.4123
▁알려졌	-11.4127
▁대신해	-11.4127
▁샤프	-11.4127
▁활	-11.4129
▁서부지역	-11.4129
마이어	-11.4129
▁린다	-11.413
▁무서	-11.413
▁생활에	-11.4132
▁파업이	-11.4136
▁근거지	-11.4142
▁말했었다	-11.4143
▁금지된	-11.4147
▁생각된다	-11.4154
▁점에서	-11.4156
▁외곽에서	-11.4157
▁위크	-11.416
마저	-11.4161
▁싶어하	-11.4163
▁qu	-11.4166
▁항해	-11.4166
▁의원과	-11.4167
cent	-11.4169
▁생각할	-11.4169
▁격려	-11.417
▁작전에	-11.4171
▁지불할	-11.4171
▁배에	-11.4171
▁살상	-11.4174
▁정국	-11.4176
▁해준다	-11.4178
윤	-11.418
팀이	-11.4183
▁해결하는	-11.419
리코	-11.4193
▁요구해	-11.4194
uni	-11.4195
재단	-11.4202
▁로즈	-11.4204
ok	-11.4205
치기	-11.4206
▁건물들	-11.4208
▁시선	-11.4213
▁실시됐다	-11.4218
▁식당에서	-11.4218
▁나아	-11.422
▁연인	-11.4222
▁팔레스타인과	-11.4223
▁공해	-11.4224
▁공급받	-11.4225
▁일종	-11.4225
▁증거로	-11.4226
라트	-11.4227
괴	-11.4231
휴	-11.4233
head	-11.4233
톱	-11.4234
팬	-11.4237
혁명	-11.424
글리	-11.424
▁수행했다	-11.424
번호	-11.4244
▁바비	-11.4246
▁효과적	-11.4246
지점	-11.4249
▁순간에	-11.4252
▁생각되	-11.4253
▁수행한	-11.4254
▁마련된	-11.4257
der	-11.4263
▁지배하	-11.4266
▁시작한다	-11.4267
방안	-11.4275
러운	-11.4278
▁국내에서	-11.428
▁행위로	-11.429
범죄	-11.429
▁아프리카에서	-11.4301
▁주도하고	-11.4303
▁멘	-11.4306
ame	-11.4308
▁작고	-11.4308
▁아파트에서	-11.4313
화물	-11.4315
▁보도된	-11.4317
▁파기	-11.4322
▁지방에	-11.4323
▁다스	-11.4335
▁적지	-11.4335
▁브레	-11.4347
별로	-11.4348
▁제품들	-11.4348
정권	-11.4354
▁배달	-11.4356
▁여진	-11.4358
▁성공할	-11.4359
▁일이었다	-11.436
▁되어야	-11.4366
▁일본군	-11.437
대상	-11.4376
▁정말로	-11.4379
교수	-11.4381
▁sun	-11.4382
예프	-11.4385
lin	-11.4386
▁간부들	-11.4386
▁여행자	-11.4387
▁영화화	-11.4387
▁def	-11.4388
ze	-11.4388
▁후송	-11.439
▁카라치	-11.4391
▁지어	-11.4391
▁결함이	-11.4393
▁가사	-11.4393
▁압도적	-11.4395
▁나비	-11.4399
▁연기됐다	-11.4401
▁요인이	-11.4403
▁선포한	-11.4404
▁하스	-11.4406
▁운전자들	-11.4407
▁모여들	-11.441
▁진출에	-11.4414
▁떠났	-11.4415
▁내야	-11.4417
▁친구와	-11.4427
▁도착해	-11.4435
▁중단된	-11.4438
▁위반했다	-11.4439
▁선박들	-11.444
▁대조	-11.4446
▁파견했다	-11.4459
▁우려하는	-11.4461
▁조직원들	-11.4463
▁피의자	-11.4464
▁휩싸	-11.4465
▁구조됐다	-11.4466
므	-11.4467
▁총기난사	-11.4472
▁손해배상	-11.4472
파이낸셜	-11.4472
헴	-11.4472
▁beijing	-11.4472
▁claim	-11.4472
▁defense	-11.4472
▁hsbc	-11.4472
▁movie	-11.4472
▁nymex	-11.4472
▁society	-11.4472
▁street	-11.4472
▁summit	-11.4472
▁system	-11.4472
▁가라앉	-11.4472
▁국제사면위원회	-11.4472
▁김경준	-11.4472
▁낮게	-11.4472
▁돈세탁	-11.4472
▁땅콩	-11.4472
▁맞춘	-11.4472
▁몰디브	-11.4472
▁믿음	-11.4472
▁베스트셀러	-11.4472
▁신천옹	-11.4472
▁아라파트	-11.4472
▁아이슬란드	-11.4472
▁애널리스트	-11.4472
▁우비넨	-11.4472
▁자이언트	-11.4472
▁전화통화	-11.4472
▁찍었다	-11.4472
▁콘텐트	-11.4472
▁페르난데스	-11.4472
▁푸에르토리코	-11.4472
▁해리왕자	-11.4472
▁황박사	-11.4472
밭	-11.4472
윙	-11.4472
▁가금류	-11.4472
▁가석방	-11.4472
▁무중력	-11.4472
▁갱신	-11.4473
▁자부심	-11.4473
▁폭넓	-11.4473
▁발레리	-11.4473
▁오페라	-11.4473
▁프리킥	-11.4473
▁차세대	-11.4473
▁진원지	-11.4473
▁후쿠다	-11.4473
▁놀랍	-11.4473
▁플레이오프	-11.4473
▁남서쪽	-11.4473
▁라시드	-11.4473
▁트레킹	-11.4473
▁브라더스	-11.4473
▁딜리	-11.4473
▁강아지	-11.4473
▁익사	-11.4473
▁프레슬리	-11.4473
▁설문조사	-11.4473
▁선제골	-11.4473
▁삭스	-11.4473
▁아이팟	-11.4473
▁왕궁	-11.4473
▁푸켓	-11.4473
▁화폐	-11.4473
▁공동성명	-11.4474
▁다툼	-11.4474
▁삼성그룹	-11.4474
▁gps	-11.4474
▁포옹	-11.4474
▁탑재	-11.4474
▁인디언	-11.4474
▁이틀째	-11.4474
▁침실	-11.4474
▁지방선거	-11.4474
▁메이저	-11.4474
▁투항	-11.4475
▁물러난	-11.4475
▁기부금	-11.4475
▁프라임	-11.4475
▁기차역	-11.4475
▁미술관	-11.4476
▁지저스	-11.4476
▁보건당국	-11.4476
▁웃음	-11.4476
▁fund	-11.4476
▁우익	-11.4476
▁단축	-11.4477
▁post	-11.4477
▁않으려	-11.4477
▁헌터	-11.4477
▁감각	-11.4477
▁방위군	-11.4478
▁터너	-11.4478
▁빈번	-11.4478
▁다룰	-11.4478
▁석탄	-11.4479
▁해산물	-11.4479
▁무패	-11.4479
▁정교회	-11.4479
▁직위	-11.4479
▁데이브	-11.448
▁선진국	-11.448
▁동등	-11.448
▁교정	-11.448
▁시께	-11.448
▁왕위	-11.4481
▁공표	-11.4481
▁대기권	-11.4482
▁북경	-11.4482
▁복부	-11.4482
▁변형	-11.4482
▁선언문	-11.4483
▁프로디	-11.4483
▁공범	-11.4483
▁live	-11.4483
▁사이먼	-11.4483
▁디에고	-11.4484
▁나이키	-11.4484
▁국토	-11.4485
▁린치	-11.4488
▁연정	-11.4488
▁콜린스	-11.4489
▁조각상	-11.4489
▁break	-11.449
▁서버	-11.449
▁판명	-11.4491
▁나온다	-11.4491
▁몬	-11.4492
블리	-11.4492
▁우주복	-11.4493
부장	-11.4494
▁영아	-11.4495
▁콜로라도주	-11.4495
▁보리스	-11.4495
▁골든	-11.4495
▁선동	-11.4495
▁손님들	-11.4496
▁비정부	-11.4498
▁공항으로	-11.4498
▁시합	-11.4499
▁바그다드에	-11.45
▁역전	-11.45
▁호박	-11.45
▁솜	-11.4501
▁펴	-11.4501
▁채무	-11.4502
▁예보	-11.4502
▁결성	-11.4503
▁좋았다	-11.4503
▁풀어주	-11.4503
▁실바	-11.4504
▁폐허	-11.4504
▁리터	-11.4504
▁포도	-11.4505
▁sg	-11.4505
▁낙찰	-11.4507
조건	-11.4507
▁하위	-11.4507
▁주립	-11.4511
▁능력이	-11.4511
▁제작진	-11.4512
▁딴	-11.4512
▁상임	-11.4512
▁설치한	-11.4512
▁장관급	-11.4513
슬러	-11.4513
▁근본주의	-11.4514
▁내려오	-11.4517
▁시민이	-11.4517
▁저명	-11.4519
▁주차장에서	-11.452
▁의류	-11.4524
▁연어	-11.4524
▁무장세력들	-11.4526
▁툴	-11.4526
ge	-11.4526
no	-11.4527
▁게시	-11.453
▁돌아간	-11.4531
허가	-11.4533
▁다루는	-11.4533
▁경호원들	-11.4534
▁정부기관	-11.4536
▁보험사	-11.4536
▁목표물	-11.4536
▁비중	-11.4537
▁주식시장이	-11.4539
▁단계적	-11.4541
▁접어들	-11.4542
▁곳곳에서	-11.4542
▁국제법	-11.4543
속에	-11.4545
▁세르	-11.4545
▁쓰지	-11.4547
▁승려	-11.4548
▁그럴	-11.455
▁본부장	-11.4552
▁몰린	-11.4555
▁영해	-11.4555
▁감독과	-11.4557
▁버스에	-11.4559
▁시사했다	-11.456
▁we	-11.4561
▁친구인	-11.4562
▁남부지역에서	-11.4562
▁동부에	-11.4563
▁교황이	-11.4564
▁후속	-11.4566
▁겁	-11.4568
▁소행	-11.4569
▁발표하면서	-11.4571
▁주목할	-11.4573
▁하퍼	-11.4576
▁기르	-11.4577
▁하사	-11.4578
▁아크	-11.4581
▁확인하지	-11.4582
▁한국계	-11.4587
▁템	-11.4588
▁병이	-11.4588
▁당선됐다	-11.4588
▁경제학자	-11.4593
▁팔리	-11.4594
▁배상	-11.4597
▁관여한	-11.4597
▁갇혀있	-11.4598
und	-11.4599
나마	-11.46
▁움직이는	-11.46
▁산업이	-11.4601
▁닉	-11.4603
▁이스트	-11.4604
▁일부분	-11.4604
▁잔인	-11.4607
▁재료	-11.4609
▁일삼	-11.4609
▁결혼했다	-11.4611
▁간호사	-11.4611
▁교통부	-11.4614
▁영화들	-11.4616
▁노력했다	-11.4616
▁박스	-11.4617
해줬다	-11.4618
▁가계	-11.4619
▁떠나지	-11.4624
▁줬	-11.4627
▁타이거	-11.4629
▁제시할	-11.4631
▁공화당원들	-11.4631
▁숨지	-11.4634
▁자신만	-11.4635
▁희생자들이	-11.4645
▁전반에	-11.4645
▁우주로	-11.4646
▁설립된	-11.4646
▁법에	-11.4652
▁담겨	-11.4653
▁space	-11.4659
▁토론회에서	-11.4668
▁개들	-11.4678
▁완화하기	-11.468
▁계속됐다	-11.4681
▁이용자	-11.4682
대통령	-11.4683
학원	-11.4683
▁베이징에	-11.4683
form	-11.4684
었기	-11.4685
됐기	-11.4686
▁이유에	-11.4688
매치	-11.4697
특	-11.4702
▁결심했다	-11.4705
▁바람에	-11.4706
딕	-11.4708
풀	-11.471
▁압수했다	-11.4711
라이트	-11.4711
탐	-11.4712
q	-11.4713
책임자	-11.4714
밴드	-11.4715
투쟁	-11.4715
nd	-11.4716
분쟁	-11.4717
▁결정하기	-11.4717
▁사건에서	-11.4717
▁목록에	-11.4719
▁인터넷에서	-11.472
▁esta	-11.4722
▁red	-11.4727
▁신체적	-11.4728
▁사항이	-11.4728
모양	-11.4729
요금	-11.473
리트	-11.4732
▁프로젝트에	-11.4734
체계	-11.474
▁진도	-11.4745
▁수행하는	-11.4746
▁폭락했다	-11.4749
▁국제적으로	-11.4751
▁한국측	-11.4751
▁작가들	-11.4754
▁참가국	-11.4757
▁가정에서	-11.4758
▁알바	-11.4759
▁신자	-11.4762
빌리	-11.4766
▁퇴원했다	-11.4767
▁결정된	-11.4767
▁지아	-11.4768
실적	-11.4769
mar	-11.4775
리드	-11.4777
▁이혼했다	-11.478
하기위해	-11.478
▁한반도에	-11.4783
▁내부에	-11.4785
▁이행하	-11.4788
ls	-11.4792
▁나사	-11.4792
▁그곳	-11.4795
▁철학	-11.4799
▁악화된	-11.4802
웠던	-11.4802
케르	-11.4803
북한	-11.4807
▁ira	-11.4808
▁차지했	-11.4813
▁앉아있	-11.4814
▁중단시키	-11.4815
ncy	-11.4818
▁발표했	-11.4818
▁ph	-11.4825
번에	-11.4825
▁뒤지	-11.4829
▁지원했다	-11.4829
▁반군들	-11.483
▁과정이	-11.4833
illi	-11.4851
▁홍콩에서	-11.4852
▁집회에서	-11.4858
▁노출되	-11.4858
▁레바논에서	-11.4858
▁직원과	-11.486
▁ko	-11.4866
스러워	-11.4867
▁잡혀	-11.4868
▁여인	-11.4869
▁전제	-11.487
▁시점에	-11.4872
▁유대인들	-11.4874
▁블리	-11.4875
▁선정했다	-11.4876
여금	-11.4879
바인	-11.488
▁ag	-11.488
▁부분에	-11.488
▁캘리포니아에서	-11.4881
▁항의했다	-11.4889
▁북한군	-11.4889
▁방문하고	-11.4889
▁돌아왔	-11.4892
▁소방대원	-11.4895
▁매력적	-11.4896
▁실종됐다	-11.4896
▁치열	-11.4898
▁찾았	-11.4898
▁돼있다	-11.4899
▁느껴	-11.4902
▁젊은이들이	-11.4908
▁창고	-11.491
▁나타냈	-11.491
▁불행	-11.4911
▁지명에	-11.4913
▁일조	-11.4916
▁사고기	-11.4921
▁근본	-11.4925
▁중력	-11.4935
▁protest	-11.4937
▁드리	-11.4939
▁미네소타	-11.4939
회장	-11.4939
끔	-11.494
▁미주리	-11.4942
▁주장했	-11.4943
흥	-11.4944
▁세웠	-11.4944
용품	-11.4946
셋	-11.4947
▁agree	-11.4948
▁촉구하고	-11.4948
▁얼룩	-11.4948
벡	-11.4949
▁black	-11.4949
▁candidate	-11.4949
▁ecb	-11.4949
▁official	-11.4949
▁public	-11.4949
▁science	-11.4949
▁가로질러	-11.4949
▁그랜드슬램	-11.4949
▁라스무센	-11.4949
▁레드삭스	-11.4949
▁맞교환	-11.4949
▁매릴랜드	-11.4949
▁믿지	-11.4949
▁불필요	-11.4949
▁비아그라	-11.4949
▁빈라덴	-11.4949
▁생태계	-11.4949
▁소렌스탐	-11.4949
▁스콜세지	-11.4949
▁스탤론	-11.4949
▁식이요법	-11.4949
▁신용경색	-11.4949
▁싫어하	-11.4949
▁얼어붙	-11.4949
▁와지리스탄	-11.4949
▁유네스코	-11.4949
▁제너럴	-11.4949
▁주미대사	-11.4949
▁질렀다	-11.4949
▁코네티컷	-11.4949
▁투탕카멘	-11.4949
▁팽팽	-11.4949
▁펌프	-11.4949
▁포틀랜드	-11.4949
▁푸에르타	-11.4949
긋	-11.4949
덟	-11.4949
▁russia	-11.4949
▁알자지라	-11.4949
▁국가정보원	-11.4949
▁마터호른	-11.4949
▁아메드	-11.4949
▁고마움	-11.4949
▁로드맵	-11.4949
▁만델라	-11.4949
▁남동쪽	-11.4949
▁가이트너	-11.4949
▁헝가리	-11.4949
▁밀리밴드	-11.4949
▁텔레콤	-11.4949
▁본거지	-11.4949
▁핑크	-11.4949
▁이뤄져야	-11.4949
▁파이프라인	-11.4949
▁아로요	-11.4949
▁외딴	-11.4949
▁거세지	-11.4949
▁journal	-11.4949
▁블레이크	-11.4949
▁납북	-11.4949
인당	-11.4949
▁commission	-11.495
▁투옥	-11.495
▁몬테	-11.495
▁버클리	-11.495
▁불러일으키	-11.495
ease	-11.495
▁park	-11.495
▁완승	-11.495
▁재처리	-11.4951
▁신분증	-11.4951
▁우호적	-11.4951
▁음란물	-11.4951
▁점유율	-11.4951
▁청색	-11.4952
▁faa	-11.4952
▁보험금	-11.4952
▁철강	-11.4952
▁나이로비	-11.4953
▁정황	-11.4953
▁로얄	-11.4953
▁전인대	-11.4953
▁러브	-11.4953
▁사절단	-11.4953
▁정확하게	-11.4954
▁증권거래소	-11.4954
▁함정	-11.4954
▁그래함	-11.4954
▁사촌	-11.4955
▁잠재력	-11.4955
▁위안화	-11.4955
▁교실	-11.4955
▁hit	-11.4955
▁봅	-11.4955
▁바이든	-11.4955
▁버려진	-11.4955
▁wti	-11.4956
▁대표와	-11.4956
▁투병	-11.4956
▁부착	-11.4957
▁절단	-11.4957
▁유머	-11.4957
▁붙였다	-11.4957
▁경색	-11.4957
▁화물선	-11.4958
▁은폐	-11.4958
▁forces	-11.4958
▁진심	-11.4958
▁첫째	-11.4958
메모리얼	-11.4958
▁있느냐	-11.4959
▁사탕	-11.4959
▁긴장감	-11.4959
▁노엘	-11.496
▁통역	-11.496
▁육상	-11.4961
▁있을까	-11.4962
▁앞서있다	-11.4963
▁파타당	-11.4963
▁인준	-11.4963
▁마샤	-11.4965
▁육성	-11.4965
▁대통령궁	-11.4966
▁엔화	-11.4966
▁판결문	-11.4968
▁시청률	-11.4968
▁드문	-11.497
▁애정	-11.4971
▁쿠즈	-11.4972
▁정당화	-11.4972
▁달렸다	-11.4972
▁투하	-11.4973
▁자체적으로	-11.4974
▁줄리아	-11.4974
▁분배	-11.4976
▁박차	-11.4977
▁장애물	-11.4979
▁금융계	-11.498
▁루즈	-11.498
▁공공장소에서	-11.498
▁치우	-11.498
▁장점	-11.498
▁가이드	-11.4982
▁히스	-11.4982
▁대열	-11.4982
▁높았다	-11.4983
▁감행한	-11.4984
▁실험에	-11.4985
▁경찰관들	-11.4986
▁미얀마에서	-11.4986
▁금주	-11.4986
▁감수	-11.4987
▁내달	-11.4988
▁일정에	-11.4988
▁팔아	-11.4988
▁들어있	-11.4989
▁취업	-11.499
▁발명	-11.4991
▁합법적으로	-11.4992
▁전념	-11.4994
▁치아	-11.4994
▁치료법	-11.4994
▁금연법	-11.4996
▁더미	-11.4996
▁펜실베이니아주	-11.4999
▁들어왔다	-11.5001
▁서울대	-11.5003
▁크라우	-11.5005
▁수영장	-11.5005
▁남부지역	-11.5005
than	-11.5006
▁동상	-11.5009
▁들소	-11.5009
▁합법적인	-11.501
▁테러범이	-11.5011
▁신선	-11.5018
▁왕국	-11.5019
▁이사장	-11.5022
▁의존하고	-11.5026
시민	-11.5028
▁문어	-11.5031
▁사우	-11.5032
▁출판사	-11.5034
▁예상치	-11.5035
▁양곤에서	-11.5036
▁투표소	-11.5036
▁사단	-11.5037
▁샬	-11.5038
▁견디	-11.5038
▁인종차별	-11.5038
▁라파	-11.5039
▁십대	-11.5039
ps	-11.5042
▁납치범	-11.5042
▁대통령으로서	-11.5043
▁국가와	-11.5043
▁비티	-11.5046
▁올드	-11.5046
▁호주군	-11.5049
▁교착상태에	-11.5052
▁전용기	-11.5052
▁심리학	-11.5053
▁측면에서	-11.5054
▁이행할	-11.5054
▁주심	-11.5058
▁실질적으로	-11.5058
▁조화	-11.5059
▁빼고	-11.5061
내려	-11.5061
ms	-11.5062
▁혼인	-11.5064
▁우주센터	-11.5064
▁생물학적	-11.5066
▁음와	-11.507
▁배우자	-11.5071
▁다치	-11.5074
▁분리주의자들	-11.5075
ence	-11.5078
레시	-11.508
▁영화관	-11.508
▁만회	-11.5082
▁목에	-11.5089
▁이슬라마바드에서	-11.5093
▁명만	-11.5101
▁손상된	-11.5102
▁변수	-11.5106
▁토레	-11.5108
▁등정	-11.5111
▁전사들	-11.5111
▁카불에서	-11.5114
▁이끌어내	-11.5119
▁적게	-11.5122
▁조사팀	-11.5126
▁측근들	-11.5127
▁연맹	-11.5128
▁친척들	-11.5131
머니	-11.5135
▁자바	-11.5137
▁고고학자	-11.5144
▁집중적	-11.5145
▁충돌해	-11.515
▁궤도에	-11.5153
▁임명했다	-11.5156
▁자식	-11.5156
▁랩	-11.5157
▁처했다	-11.5159
▁착용한	-11.5159
▁대응할	-11.516
▁서명한	-11.5161
내기	-11.5166
▁연결하	-11.5168
훈련	-11.5169
▁발효	-11.5169
▁등록된	-11.5169
줬	-11.517
어드	-11.5171
▁중위	-11.5171
▁과다	-11.5172
닐	-11.5178
란다	-11.5182
▁엔지니어	-11.5184
▁확보해	-11.5187
▁수용소에	-11.5187
▁잃어	-11.5188
켜	-11.5188
▁바라보	-11.5193
▁경찰관이	-11.5193
▁다운	-11.5194
▁모델로	-11.5197
▁작전이	-11.5202
촉	-11.5207
첸	-11.5208
▁유전적	-11.5209
사무소	-11.5211
털	-11.5212
week	-11.5212
메스	-11.5214
핵	-11.5214
금융	-11.5216
음악	-11.5218
민족	-11.5219
노스	-11.5221
az	-11.5223
▁제조업	-11.5228
▁강화된	-11.5229
▁오르기	-11.523
▁시도하	-11.5232
▁입히	-11.5234
tt	-11.5239
이라크	-11.524
▁컨	-11.5241
ship	-11.5241
부족	-11.5242
▁우려해	-11.5243
▁fc	-11.5247
공원	-11.5251
▁벨리	-11.5251
▁결의안이	-11.5252
▁극적	-11.5257
▁메가	-11.5258
카트	-11.526
▁하우스	-11.5263
▁가나	-11.5263
▁하와	-11.5263
▁붕괴되	-11.5263
▁일반인	-11.5265
▁포기한	-11.5265
▁치명적	-11.5265
▁전비	-11.5267
▁행정부에	-11.527
▁팔레스타인인들	-11.5271
상품	-11.5276
▁중단됐	-11.5276
▁검	-11.5279
▁폭발물이	-11.5285
▁노인들	-11.5289
▁고등	-11.5289
▁회복하고	-11.5292
▁확보에	-11.5294
▁충족	-11.5295
▁프로그램에서	-11.5296
▁글로	-11.5296
red	-11.5298
▁cur	-11.5299
▁대면	-11.53
uri	-11.5301
▁파괴되	-11.5306
▁관계자와	-11.5318
▁pre	-11.5318
▁민영	-11.5334
▁무장세력과	-11.5335
▁합법적	-11.534
▁나이에	-11.534
티스	-11.5344
▁벌여왔	-11.5345
cy	-11.5347
▁마련해	-11.5348
▁소행이라	-11.5348
ition	-11.5349
▁서기	-11.5349
▁조차	-11.535
▁요구한다	-11.5352
투자	-11.5354
▁해법	-11.5356
▁걸리는	-11.5357
▁교회에	-11.5365
수단	-11.5365
▁공로	-11.5366
▁타지	-11.5373
▁기업체	-11.5373
파크	-11.5374
▁월말	-11.5377
▁위험하다	-11.5378
아주	-11.538
▁통과하	-11.538
▁자들	-11.5383
▁외계	-11.5384
▁의문이	-11.5384
▁호스	-11.5387
▁공산	-11.539
▁이뤄졌	-11.5394
▁격돌한	-11.5395
▁가혹	-11.5397
▁몰리	-11.5404
▁만나고	-11.5409
day	-11.5411
que	-11.5411
▁조세	-11.5411
컷	-11.5412
▁중앙정보	-11.5413
▁트럭이	-11.5414
▁근본적	-11.5415
▁미끄러	-11.5416
▁시행되	-11.5418
▁심리학자	-11.5419
▁올림픽에서	-11.5419
▁연구자들	-11.5421
▁정규	-11.5421
▁나이로	-11.5422
▁태어났	-11.5426
▁해역	-11.5429
낸다	-11.5431
▁밀집	-11.5434
ful	-11.5435
▁이용했다	-11.5439
▁기록됐다	-11.5441
획	-11.5442
▁수단으로	-11.5444
▁뒤따	-11.5445
▁메모리	-11.5446
랙	-11.5448
돔	-11.5448
펀	-11.5449
엽	-11.5449
▁통과된	-11.5449
▁앵커	-11.5449
랫	-11.5449
ough	-11.5449
▁rctv	-11.5449
▁uae	-11.5449
▁window	-11.5449
▁www	-11.5449
▁갖췄다	-11.5449
▁갤러리	-11.5449
▁끊어	-11.5449
▁나이트클럽	-11.5449
▁네그로폰테	-11.5449
▁뉴욕상업거래소	-11.5449
▁뚜렷	-11.5449
▁매카트니	-11.5449
▁명확한	-11.5449
▁쓰러져	-11.5449
▁아흐마디네자드	-11.5449
▁영유권	-11.5449
▁와이오밍	-11.5449
▁즈보나레바	-11.5449
▁초콜릿	-11.5449
▁해안경비대	-11.5449
▁햇볕	-11.5449
▁현수막	-11.5449
▁흑자	-11.5449
뜯	-11.5449
팍	-11.5449
푼	-11.5449
▁신생아	-11.5449
▁자민당	-11.5449
▁glob	-11.5449
▁support	-11.5449
▁홈구장	-11.5449
▁갱단	-11.5449
▁아폴로	-11.5449
▁피해여성	-11.5449
▁딜런	-11.5449
▁로날드	-11.5449
▁포츠머스	-11.5449
▁마리화나	-11.5449
▁몰아넣	-11.5449
▁무자비	-11.5449
▁프리츨	-11.5449
▁함부르크	-11.5449
▁아이다호	-11.5449
▁강원도	-11.5449
▁해들리	-11.5449
▁휴이트	-11.5449
▁마스리	-11.5449
▁발자국	-11.5449
▁독특	-11.5449
▁food	-11.5449
▁게놈	-11.5449
▁연못	-11.5449
▁흘리	-11.5449
▁봉착	-11.5449
▁rock	-11.5449
▁룰라	-11.5449
▁다이앤	-11.5449
▁에어웨이	-11.5449
▁가르시아	-11.5449
▁오스만	-11.5449
▁혜성	-11.545
▁혐의와	-11.545
▁눈보라	-11.545
▁출항	-11.545
▁웰스	-11.545
▁혼잡	-11.545
▁게시판	-11.545
▁창업자	-11.545
▁무하마	-11.545
▁도미니카	-11.545
▁순결	-11.545
▁잡혔다	-11.5451
▁잠비아	-11.5451
▁크로스	-11.5451
▁라싸	-11.5451
▁척추	-11.5451
▁제이슨	-11.5451
▁매도프	-11.5451
▁사무국장	-11.5452
▁막으려	-11.5452
▁내놓았다	-11.5452
▁거슬러	-11.5452
▁사령관이	-11.5452
▁돌풍	-11.5452
▁선고받았다	-11.5453
▁test	-11.5453
▁야외	-11.5454
▁바랍	-11.5454
▁파이프	-11.5454
▁참의원	-11.5454
▁인질극	-11.5454
▁단언	-11.5454
▁기원전	-11.5454
▁묻혀	-11.5455
▁훔쳐	-11.5455
▁떨어졌습니다	-11.5455
▁법령	-11.5457
▁재앙	-11.5457
▁mid	-11.5457
▁독립국가	-11.5458
▁투여	-11.5458
▁해리슨	-11.5458
▁사라질	-11.5459
▁인텔	-11.5459
▁악마	-11.5459
▁걸음	-11.5459
▁비참	-11.5459
▁막았다	-11.5459
▁조사결과	-11.546
▁초드리	-11.546
▁도착하자	-11.546
▁green	-11.5461
▁인수위원회	-11.5461
▁관리들과	-11.5461
▁복사	-11.5462
▁조립	-11.5464
▁농부들	-11.5464
▁카이로	-11.5465
▁순수	-11.5465
▁공작	-11.5465
▁태세	-11.5466
▁남긴	-11.5467
▁실감	-11.5467
능력	-11.5467
▁바다에	-11.5469
▁부양	-11.547
▁승진	-11.547
▁prosecutor	-11.5471
▁살리기	-11.5471
▁혈	-11.5471
▁구두	-11.5472
▁다행	-11.5472
▁케이스	-11.5472
▁목성	-11.5474
▁배역	-11.5474
▁연구하는	-11.5475
비드	-11.5475
▁번개	-11.5475
▁편집장	-11.5476
▁아이오와주	-11.5476
▁힐러리경	-11.5476
▁가져왔다	-11.5476
▁별개	-11.5477
▁기술자들	-11.5481
▁점심	-11.5482
▁따내	-11.5484
적이지	-11.5485
▁서구	-11.5485
▁정박	-11.5487
▁임상	-11.5488
▁구성원	-11.549
ill	-11.549
▁기종	-11.5491
▁레이드	-11.5492
▁예산안	-11.5492
▁손길	-11.5492
하느냐	-11.5492
▁멍	-11.5492
▁그래픽	-11.5493
▁센트럴	-11.5493
▁지방법원	-11.5495
▁버드	-11.5496
▁추종자들	-11.5499
▁동거	-11.55
▁불명	-11.55
▁동력	-11.55
▁죽였다	-11.55
▁포즈	-11.55
▁마루	-11.5501
▁도피	-11.5501
▁미션	-11.5502
▁리우	-11.5503
▁포크	-11.5506
▁스티	-11.5507
▁토드	-11.5508
▁참석하는	-11.5509
▁카디	-11.5511
▁low	-11.5517
▁티나	-11.5518
▁중립	-11.5518
다르	-11.5519
▁ser	-11.5524
▁없었고	-11.5525
▁마시는	-11.5526
▁따라잡	-11.5527
▁캐나다에서	-11.5527
▁본인	-11.5527
▁띠	-11.553
▁관광객들에게	-11.5531
▁개정된	-11.5532
▁빨라	-11.5536
▁기용	-11.554
uck	-11.5542
▁끌어내	-11.5542
▁조심	-11.5542
▁공개될	-11.5544
▁기각했다	-11.5548
▁발표되지	-11.5551
▁적도	-11.5552
▁만연	-11.5557
▁추락해	-11.5558
▁북해	-11.5558
아갈	-11.5558
▁무거	-11.556
▁이제까지	-11.5562
판매	-11.5568
▁공격해	-11.5568
▁중태	-11.5569
▁정해진	-11.5575
▁집어	-11.5577
▁본회의	-11.5579
▁났	-11.5582
▁ump	-11.5584
스프링스	-11.5585
ile	-11.5586
▁마주	-11.5589
▁연행됐다	-11.5589
▁두번째로	-11.5592
▁지지했다	-11.5593
▁지나간	-11.5593
▁길게	-11.5593
▁나타난다	-11.5594
▁여왕이	-11.5601
건설	-11.5605
ord	-11.5605
▁쓰인	-11.5605
▁부분에서	-11.5609
▁주시하	-11.561
▁슈퍼대의원	-11.5612
▁빌라	-11.5612
▁숨어	-11.5614
▁신뢰할	-11.5615
▁잘라	-11.5623
▁잡았	-11.5625
▁노린	-11.5629
브리지	-11.563
▁몰아내	-11.563
▁운영되	-11.5631
▁해일	-11.5637
▁ver	-11.5637
water	-11.5641
▁chi	-11.5641
▁교사들	-11.5644
데릭	-11.565
▁위협받	-11.5652
▁버린	-11.5653
▁이집트에서	-11.5653
▁가져가	-11.5655
light	-11.5656
비안	-11.5656
▁이겨	-11.5659
▁광장에서	-11.566
▁law	-11.5662
▁주석이	-11.5677
봤다	-11.5677
▁째	-11.5682
▁지켜보고	-11.5691
워스	-11.5691
▁ya	-11.5695
▁라드	-11.5699
벨라	-11.57
▁전경	-11.57
▁조사관	-11.5705
▁결정하지	-11.5707
▁주최한	-11.5714
물리학	-11.5715
▁납치됐	-11.5716
▁발견해	-11.5718
▁head	-11.5719
▁가야	-11.572
보면	-11.572
▁경기장에서	-11.5725
ark	-11.5727
▁차이나	-11.5729
휘	-11.5731
▁무대에	-11.5733
앞	-11.5736
재판소	-11.5736
끄	-11.5737
전략	-11.574
앨	-11.574
▁월스트리트에서	-11.5741
▁높이기	-11.5741
▁동물원에서	-11.5742
ust	-11.5744
배우	-11.5745
▁외곽에	-11.5746
▁심리적	-11.5749
▁들려	-11.5751
▁아서	-11.5752
▁월터	-11.5754
관광	-11.5754
▁구속했다	-11.5758
연방	-11.5761
에너지	-11.5764
▁상점들	-11.5766
▁북한측	-11.5771
▁여당이	-11.5772
▁보내지	-11.5774
▁주도하	-11.5774
▁제국	-11.5775
▁대장	-11.5779
▁시간만	-11.5782
▁구속됐다	-11.5782
▁션	-11.5784
단지	-11.5784
▁샌프란시스코에서	-11.5787
▁동의한다	-11.5789
신원	-11.5792
▁생산된	-11.5813
▁제한하	-11.5818
▁운항이	-11.5821
전화	-11.5849
마크	-11.5849
있으며	-11.5853
▁정신병	-11.5857
▁방문한다	-11.5871
▁내부에서	-11.5871
요원들	-11.5871
▁고속도로에서	-11.5875
▁mp	-11.5877
카니	-11.5877
▁앗아	-11.5878
▁실종됐	-11.5884
▁대상자	-11.5887
▁아사	-11.5889
▁않았다면	-11.5894
▁모가디슈	-11.5896
▁마드리드에서	-11.59
▁센터에서	-11.5902
▁방에서	-11.5907
모리	-11.591
▁나간	-11.5913
▁heart	-11.5913
▁십년	-11.5913
▁효율	-11.592
바드	-11.592
▁조사하는	-11.5925
▁들어왔	-11.5927
▁많았	-11.5928
▁sen	-11.5928
▁설립했다	-11.5929
▁구사	-11.5933
▁차장	-11.5935
▁금요일에	-11.5938
▁하루만	-11.594
▁놓인	-11.5944
텍	-11.5945
▁정보원	-11.5947
스탄	-11.5949
평가	-11.5959
▁절반이	-11.596
▁시청자	-11.596
▁right	-11.5964
▁원주민들	-11.5966
븐	-11.5967
▁아비	-11.5967
▁업무에	-11.5967
ag	-11.5968
▁수개월	-11.5968
칙	-11.597
첩	-11.5971
▁농부	-11.5972
듬	-11.5973
깃	-11.5973
▁meet	-11.5973
▁혐오	-11.5974
▁첨단	-11.5975
뮤	-11.5975
employ	-11.5975
▁북대서양	-11.5975
▁economy	-11.5975
▁hostage	-11.5975
▁strike	-11.5975
▁travel	-11.5975
▁가깝게	-11.5975
▁가솔린	-11.5975
▁꿀벌	-11.5975
▁끌었	-11.5975
▁낳았다	-11.5975
▁니스텔로이	-11.5975
▁동성결혼	-11.5975
▁디스플레이	-11.5975
▁르완다	-11.5975
▁리트비넨코	-11.5975
▁메르세데스	-11.5975
▁몸싸움	-11.5975
▁미항공우주국	-11.5975
▁박정희	-11.5975
▁방코델타아시아	-11.5975
▁베를루스코니	-11.5975
▁불매운동	-11.5975
▁성매매	-11.5975
▁스즈키	-11.5975
▁아제르바이잔	-11.5975
▁앙카라	-11.5975
▁애틀랜티스호	-11.5975
▁요하네스버그	-11.5975
▁인공위성	-11.5975
▁자르카위	-11.5975
▁정권인수팀	-11.5975
▁조선일보	-11.5975
▁좋겠다	-11.5975
▁찍힌	-11.5975
▁칠면조	-11.5975
▁키드먼	-11.5975
▁토튼햄	-11.5975
▁핸드폰	-11.5975
넥	-11.5975
늬	-11.5975
옌	-11.5975
콥	-11.5975
펙	-11.5975
▁power	-11.5975
▁usgs	-11.5975
▁노워크	-11.5975
▁선거유세	-11.5975
▁순이익	-11.5975
▁영사관	-11.5975
▁잠수함	-11.5975
▁재규어	-11.5975
▁합법화	-11.5975
▁니제르	-11.5975
▁밀라노	-11.5975
▁나뉘어	-11.5975
▁원자재	-11.5975
▁카펠로	-11.5975
▁오사카	-11.5975
▁사직서	-11.5975
▁비너스	-11.5975
▁징조	-11.5975
▁와일드	-11.5975
▁핀란드	-11.5975
▁막바지	-11.5975
▁셰퍼드	-11.5975
▁옥스포드	-11.5975
▁좌우	-11.5975
▁대운하	-11.5975
▁버틀러	-11.5975
▁사형선고	-11.5975
▁관절염	-11.5975
▁블랙워터	-11.5975
▁심장질환	-11.5975
▁반세기	-11.5975
▁페라로	-11.5975
▁프라이스	-11.5975
▁참혹	-11.5975
▁묵념	-11.5975
▁반짝이	-11.5975
▁하이킹	-11.5976
▁노숙자	-11.5976
▁즐거움	-11.5976
▁그리핀	-11.5976
▁bill	-11.5976
▁체첸	-11.5976
▁역전승	-11.5976
point	-11.5976
▁액션	-11.5976
▁파란색	-11.5976
▁드라이브	-11.5976
▁빠져나가	-11.5976
▁음향	-11.5976
▁휘말	-11.5976
▁인내심	-11.5976
▁move	-11.5976
▁번화가	-11.5976
▁그린존	-11.5976
▁부유층	-11.5977
▁군복무	-11.5977
▁재건축	-11.5977
▁크리스틴	-11.5977
▁바오로	-11.5977
▁쏟아져	-11.5977
▁관례	-11.5977
▁곤경에	-11.5977
▁형벌	-11.5977
▁정회장	-11.5977
▁휴먼	-11.5977
▁쉽다	-11.5978
▁파라오	-11.5978
▁소방차	-11.5978
▁불빛	-11.5978
▁soldiers	-11.5978
▁가정집	-11.5978
▁오닐	-11.5979
▁연봉	-11.5979
▁꾸미	-11.5979
▁괴물	-11.5979
▁생물체	-11.598
▁환급	-11.598
▁직무	-11.598
▁이송됐으	-11.5981
▁같아	-11.5981
▁연합통신	-11.5981
▁아흐메드	-11.5981
▁마스크	-11.5981
▁라이더	-11.5981
▁카타르	-11.5982
▁난항	-11.5982
▁어디서	-11.5982
▁꼬리	-11.5982
▁부국장	-11.5982
▁숨져	-11.5982
시킴	-11.5982
▁접종	-11.5982
▁리틀	-11.5982
▁요구사항	-11.5983
▁deal	-11.5983
▁미주리주	-11.5983
▁샤리아	-11.5983
▁가져오	-11.5983
▁푸미	-11.5983
▁카누	-11.5983
▁우표	-11.5983
▁제약회사	-11.5984
▁기념하	-11.5984
▁드러나	-11.5985
▁기다렸다	-11.5985
▁표범	-11.5985
▁티모	-11.5985
▁반란군	-11.5985
▁사귀	-11.5985
▁과거사	-11.5986
▁난처	-11.5987
▁친분	-11.5987
▁미시건주	-11.5987
▁속출	-11.5987
▁휘트	-11.5989
▁유타주	-11.5989
▁경감	-11.5989
▁사과문	-11.599
▁구제금융안	-11.5991
▁백만명	-11.5991
▁지켜봤다	-11.5991
▁aft	-11.5992
▁루이지애나주	-11.5992
▁카렌	-11.5992
▁각료회의	-11.5993
▁타개	-11.5994
▁테디	-11.5994
▁사립	-11.5994
▁그레이스	-11.5994
▁만들어졌다	-11.5995
▁굽	-11.5995
▁애리조나주	-11.5997
▁생길	-11.5997
▁그런데	-11.5997
▁선교	-11.5997
▁며칠간	-11.5997
▁김영	-11.5998
▁여건	-11.5999
뒀다	-11.5999
▁넘겼다	-11.5999
▁매설	-11.6
▁벤치	-11.6002
ey	-11.6002
▁형량	-11.6004
변화	-11.6004
브레	-11.6005
▁회복세	-11.6005
▁않았기	-11.6005
▁펜실베니아주	-11.6006
▁표정	-11.6006
▁해커	-11.6006
▁외신	-11.6007
▁치타	-11.601
▁기기	-11.6011
▁거행	-11.6013
clu	-11.6013
▁놓치	-11.6014
our	-11.6015
▁들렸다	-11.6015
▁문명	-11.6015
▁연관성	-11.6016
▁블루스	-11.6016
▁들어있다	-11.6016
▁힘들었	-11.6017
▁urge	-11.602
▁확정된	-11.602
▁반경	-11.6023
▁총력	-11.6024
▁통과했다	-11.6024
▁주장했었다	-11.6024
▁돌진	-11.6025
▁구직	-11.6026
▁소원	-11.6026
▁날려	-11.6027
▁인내	-11.6029
▁해외로	-11.6029
▁카카	-11.6029
▁이빨	-11.6029
▁의약	-11.603
▁압도적으로	-11.6032
ness	-11.6033
▁책상	-11.6039
▁수송기	-11.6039
▁민족주의	-11.604
▁불행한	-11.6041
▁보잉사	-11.6041
▁기준에	-11.6042
▁최다	-11.6042
▁적들	-11.6043
▁루트	-11.6043
▁끝나기	-11.6043
▁입원해	-11.6043
▁벌인다	-11.6043
▁롭	-11.6044
▁쉴	-11.6045
▁찔	-11.6047
▁레비	-11.6048
▁우수	-11.605
▁은신	-11.6054
▁가담한	-11.6054
▁나포	-11.6056
▁천국	-11.6058
▁퓨	-11.6061
▁저하	-11.6061
▁자질	-11.6064
▁국가적	-11.6065
▁구속력	-11.6065
▁질병에	-11.6065
▁산책로	-11.6067
▁나노	-11.6068
▁개체	-11.6069
▁예상한	-11.6069
▁명절	-11.607
▁복도	-11.6072
▁언론들	-11.6073
▁cut	-11.6075
▁상징으로	-11.6077
▁한창	-11.6079
▁독자적	-11.6082
▁해왔	-11.6085
▁주행	-11.6085
▁스트리트	-11.6087
ism	-11.6087
tter	-11.6088
▁모색하고	-11.6092
▁가시	-11.6096
▁여론조사에	-11.6099
▁컬	-11.6101
▁국경지역에서	-11.6107
▁정서	-11.6111
▁이겼다	-11.6115
타카	-11.6115
▁병장	-11.6122
▁건스	-11.6123
▁호전	-11.6126
▁매도	-11.6127
▁고민	-11.6128
▁인종적	-11.6129
▁인사들과	-11.613
베라	-11.613
▁교류	-11.6131
▁단계로	-11.6133
루드	-11.6134
▁추방된	-11.6136
▁석유회사	-11.6141
ling	-11.6143
▁다닐	-11.6143
▁법규	-11.6152
▁지시한	-11.6154
▁진압하기	-11.6154
▁남쪽에	-11.6157
단체인	-11.6159
▁청문회에서	-11.6164
hot	-11.6167
action	-11.6177
▁사원에	-11.6177
▁고독	-11.6181
▁클레이	-11.6187
바락	-11.6189
곳	-11.6189
▁희생됐다	-11.6191
▁che	-11.6192
▁행복한	-11.6193
▁실직자	-11.6199
▁분주	-11.62
▁권했다	-11.62
▁도발적	-11.62
▁추측이	-11.62
▁물건들	-11.6204
arly	-11.6205
▁이재민들	-11.6208
정치	-11.6209
▁자랑하	-11.6211
가렛	-11.6215
▁조심스럽	-11.6216
▁프린	-11.6219
▁결혼한	-11.622
▁크루	-11.6225
▁얼굴에	-11.6228
▁거부할	-11.6232
빨	-11.6239
▁이르다	-11.6245
▁목적지	-11.6248
▁환경에서	-11.6253
▁시드니에서	-11.6254
마트	-11.6261
▁참여하고	-11.6264
▁죽었	-11.6265
▁증상이	-11.6267
▁매춘부	-11.627
▁콜로	-11.6273
화씨	-11.6273
려져	-11.6277
밤	-11.6277
▁자원봉사자들	-11.6279
▁프로그램들	-11.6279
▁의거	-11.6283
▁때보다	-11.6283
▁보스	-11.6283
▁wid	-11.6283
▁부각	-11.6285
▁마티	-11.6289
사령관	-11.6289
▁주어진	-11.6289
▁살아있	-11.629
랩	-11.6292
▁임원들	-11.6294
턱	-11.6295
붙	-11.6296
시리즈	-11.6296
▁동원됐다	-11.6297
▁소녀들	-11.6297
뒤	-11.6297
최초	-11.6298
▁이어져	-11.6299
▁bp	-11.63
ck	-11.6305
진압	-11.6308
할때	-11.631
▁져야	-11.6313
▁에바	-11.6315
▁지지해	-11.6318
▁번호	-11.6322
▁만들어지	-11.6325
▁비난해	-11.6328
▁섭	-11.6328
▁세상에	-11.633
▁아나	-11.6338
▁북쪽에	-11.6339
▁후보였	-11.6344
▁이동하	-11.6351
방식	-11.6353
▁어기	-11.636
▁미미	-11.636
▁국무장관과	-11.6362
ler	-11.6363
▁아프간군	-11.6366
▁부문에	-11.6366
▁os	-11.6369
스트라	-11.637
▁별장	-11.6379
▁조사관들	-11.6383
▁권장	-11.639
▁사용된다	-11.6393
철도	-11.6394
▁죽고	-11.6395
리언	-11.6401
▁유학	-11.6402
▁명이었다	-11.6403
▁위원회에서	-11.6409
▁달했다	-11.6412
▁제작했다	-11.6419
▁기독교인	-11.6419
관리국	-11.642
거래소	-11.6423
▁정상회담에	-11.6423
심리	-11.6429
▁느끼지	-11.6433
▁상반	-11.6436
▁생겼	-11.6438
▁시달리	-11.6439
▁다해	-11.6441
▁노출된	-11.6443
▁존재하	-11.6453
지역으로	-11.6458
▁허용했다	-11.6459
▁따르지	-11.6468
▁손실이	-11.647
▁전차	-11.6472
▁촉진시키	-11.6475
▁설명하지	-11.648
▁현대적	-11.6488
▁좋았	-11.6494
▁벌이다	-11.6494
대학교	-11.6495
▁단계에서	-11.6499
▁롱	-11.6506
▁국무	-11.6511
▁덧붙였	-11.6512
▁corp	-11.6515
▁계열	-11.6515
▁set	-11.6515
▁극단주의	-11.6516
▁터뜨	-11.6517
▁역설	-11.6519
▁훔	-11.652
▁바람직	-11.652
클라	-11.6525
옹	-11.6527
▁대위	-11.6527
▁신행정수도	-11.6528
▁kill	-11.6529
▁힌두	-11.653
주간	-11.653
▁살모넬라	-11.653
쯔	-11.6531
▁business	-11.6531
▁california	-11.6531
▁committee	-11.6531
▁dead	-11.6531
▁epl	-11.6531
▁grow	-11.6531
▁isaf	-11.6531
▁million	-11.6531
▁nhc	-11.6531
▁paris	-11.6531
▁return	-11.6531
▁개성공단	-11.6531
▁걸림돌	-11.6531
▁경기후퇴	-11.6531
▁국제올림픽위원회	-11.6531
▁금강산	-11.6531
▁긱스	-11.6531
▁남우주연상	-11.6531
▁늦추	-11.6531
▁독극물	-11.6531
▁라크시미	-11.6531
▁부패혐의	-11.6531
▁상임이사국	-11.6531
▁새크라멘토	-11.6531
▁샌안토니오	-11.6531
▁서둘러	-11.6531
▁선거기부금	-11.6531
▁세골렌	-11.6531
▁아프카니스탄	-11.6531
▁악천후	-11.6531
▁애슐리	-11.6531
▁엑스파일	-11.6531
▁여러차례	-11.6531
▁옮겼다	-11.6531
▁유엔사무총장	-11.6531
▁이바노비치	-11.6531
▁재결합	-11.6531
▁제퍼슨	-11.6531
▁지켰다	-11.6531
▁췌장암	-11.6531
▁쿠즈넷소바	-11.6531
▁키티호크	-11.6531
▁하드웨어	-11.6531
▁헐리우드	-11.6531
▁홍석현	-11.6531
▁히스패닉	-11.6531
쥬	-11.6531
캇	-11.6531
▁expect	-11.6531
▁뉴잉글랜드	-11.6531
▁승부차기	-11.6531
▁깁슨	-11.6531
▁나타날	-11.6531
▁불공정	-11.6531
▁석유수출	-11.6531
▁유동성	-11.6531
▁추기경	-11.6531
▁다둘라	-11.6531
▁대법관	-11.6531
▁깁스	-11.6531
▁루카스	-11.6531
▁산체스	-11.6531
▁스프레이	-11.6531
▁희귀	-11.6531
▁하니야	-11.6531
▁회교도	-11.6531
▁백과사전	-11.6531
▁무효	-11.6531
▁즐겁	-11.6531
▁어쩔	-11.6531
▁개구리	-11.6531
▁욕구	-11.6531
▁music	-11.6531
▁바시르	-11.6531
▁height	-11.6531
▁캐롤라인	-11.6531
▁진짜	-11.6531
▁진상조사	-11.6531
▁어렸을	-11.6531
ress	-11.6531
▁교도통신	-11.6531
▁적혀있	-11.6531
▁게이머	-11.6531
▁글로리아	-11.6531
▁탈퇴	-11.6531
▁바레인	-11.6532
▁즐겨	-11.6532
▁sex	-11.6532
▁기념행사	-11.6532
▁four	-11.6532
▁출현	-11.6532
▁항구도시	-11.6532
▁밀매	-11.6532
▁궁금	-11.6532
▁진척	-11.6532
▁잠자리	-11.6532
▁uci	-11.6532
▁그만두	-11.6532
▁핵연료	-11.6533
▁big	-11.6533
▁벌어질	-11.6533
▁오래전부터	-11.6533
▁case	-11.6533
▁어워드	-11.6533
▁내보냈	-11.6533
▁양육	-11.6534
▁쿠마르	-11.6534
▁잠겨	-11.6534
▁컬럼비아호	-11.6534
▁주어지	-11.6534
▁어윈	-11.6534
▁액체	-11.6534
▁플루	-11.6534
▁들어올	-11.6534
▁빙산	-11.6534
▁호황	-11.6534
▁소방서	-11.6534
▁디젤	-11.6534
▁평화협정	-11.6535
▁실망감	-11.6535
▁무척	-11.6535
▁찰리	-11.6535
▁야채	-11.6536
▁오디오	-11.6536
imp	-11.6536
▁루머	-11.6536
▁이어갔다	-11.6537
▁거래되	-11.6537
▁지었다	-11.6537
▁돌파구	-11.6537
▁국제축구연맹	-11.6537
▁오리건주	-11.6537
▁항공편	-11.6538
▁변호사와	-11.6538
▁지하실	-11.6538
▁에밀리	-11.6538
▁중동평화회의	-11.6538
▁사진기자	-11.6538
▁attacks	-11.6538
▁기네스	-11.6538
▁변호인단	-11.6539
▁강철	-11.654
▁수익금	-11.654
민들	-11.654
▁의논	-11.654
▁충성	-11.654
▁꺼내	-11.6541
▁누출	-11.6541
▁빅토	-11.6542
▁이뤘	-11.6542
▁집결	-11.6542
▁모여들었다	-11.6543
▁왕조	-11.6543
▁출산율	-11.6544
▁과속	-11.6544
▁진동	-11.6544
▁밝혀질	-11.6544
▁탈선	-11.6544
▁현저	-11.6544
▁표본	-11.6545
▁과감	-11.6545
▁ces	-11.6545
▁제왕	-11.6546
▁기대감	-11.6546
▁부의장	-11.6547
▁어류	-11.6547
▁궁극적으로	-11.6548
▁종사하	-11.6549
▁아담스	-11.6549
▁소유즈	-11.6551
▁bid	-11.6551
▁로렌스	-11.6554
자산	-11.6554
▁비스타	-11.6555
▁won	-11.6555
▁통제권	-11.6555
▁franc	-11.6555
▁만평	-11.6555
▁정복	-11.6557
▁상태였	-11.6557
▁코란	-11.6557
▁토티	-11.6558
▁망치	-11.6558
▁감당	-11.6558
▁말레이시아에서	-11.6559
eic	-11.656
▁안았다	-11.6561
▁king	-11.6561
▁않을까	-11.6562
▁친미	-11.6563
▁재계	-11.6563
▁난관	-11.6564
▁조장하	-11.6564
▁로렌	-11.6567
▁점유	-11.6568
▁적법	-11.6568
▁사료	-11.6568
▁수사팀	-11.6568
프랑	-11.6568
▁금지했다	-11.6569
▁알아야	-11.6569
▁관람객	-11.6569
▁가져야	-11.657
▁표결에	-11.6571
▁성실	-11.6572
▁분개	-11.6572
▁준결승전에서	-11.6575
▁북극해	-11.6575
▁거울	-11.6576
▁자재	-11.6578
▁불량	-11.6579
▁썩	-11.6579
▁원형	-11.6581
▁되는데	-11.6581
▁bet	-11.6584
▁옮겨졌다	-11.6584
▁배우들	-11.6584
▁요청했	-11.6586
▁소비자들에게	-11.6586
▁운동화	-11.6589
잡이	-11.6591
▁스티븐스	-11.6591
▁야드	-11.6591
▁분리된	-11.6592
▁벗어나기	-11.6593
▁리마	-11.6594
▁변하지	-11.6594
▁바탕으로	-11.6594
▁가혹한	-11.6597
▁지냈다	-11.6597
▁주관	-11.6598
▁체스	-11.6599
▁제압	-11.6601
▁확정됐다	-11.6603
▁자국민	-11.6606
▁새우	-11.6608
▁청와대에서	-11.6608
▁세기에	-11.6609
▁계획이었다	-11.6612
▁눈으로	-11.6612
▁음식점	-11.6614
▁그녀에게	-11.6615
링턴	-11.6617
▁계약서	-11.6617
▁주말까지	-11.662
▁군용	-11.6623
▁육지	-11.6625
▁명씩	-11.6627
▁클라인	-11.6628
▁충격적	-11.6631
▁한국어	-11.6632
코브	-11.6633
▁내역	-11.6633
▁반대해	-11.6634
▁쿠폰	-11.6637
▁카라치에서	-11.664
▁담당하	-11.6641
▁위권	-11.6643
▁삼바	-11.6644
▁선서	-11.6644
바오	-11.6649
▁사임한	-11.6651
▁발표되	-11.6652
▁inc	-11.6654
▁축하하기	-11.6655
▁되자	-11.6656
▁중심부에서	-11.6656
▁트럭에	-11.6663
탈루	-11.6666
▁공약으로	-11.667
▁자동차회사	-11.6673
▁다양성	-11.6673
▁바꾸기	-11.6679
▁생명에	-11.668
▁생사	-11.6681
▁통제하는	-11.6694
▁대미	-11.6695
▁떠나기	-11.6696
▁철회할	-11.6708
▁농장에서	-11.6718
▁우주국	-11.6718
▁농구	-11.6718
▁가루	-11.672
▁사라져	-11.6723
드미	-11.6726
▁플로리다에서	-11.673
▁사령부	-11.6734
▁주식시장에서	-11.6739
▁생산성	-11.675
▁신뢰도	-11.675
▁결정적	-11.6759
▁타계했다	-11.676
go	-11.6762
▁다녀	-11.6767
▁관중들	-11.6775
▁자백	-11.6776
하든	-11.6777
▁시신들	-11.6779
▁부위에	-11.6781
▁살아있다	-11.6783
▁under	-11.6784
▁베니스	-11.6785
▁화면에	-11.6785
nts	-11.6789
▁예루살렘에서	-11.6796
▁장애인	-11.6799
▁허가했다	-11.6799
▁누구에게	-11.6801
났	-11.6812
▁회사측	-11.6815
상태에	-11.6815
▁합류했다	-11.6819
▁중심부에	-11.6825
▁혁신적	-11.6826
▁참석자들	-11.6827
▁통신원	-11.683
▁중단해야	-11.6836
▁그외	-11.6837
▁당사자들	-11.6838
▁협력해	-11.6852
▁팀장	-11.6854
▁블로거	-11.6855
▁의대	-11.686
con	-11.687
▁흔적이	-11.6871
▁제공되	-11.6876
▁거점	-11.6877
▁자백했다	-11.6878
타스	-11.6879
원장	-11.688
space	-11.688
▁회의적	-11.6881
▁개별	-11.6882
▁환자에게	-11.6884
랭킹	-11.6885
▁폭도	-11.6885
검찰	-11.6886
ore	-11.6887
▁way	-11.6889
▁컴	-11.689
▁딸들	-11.6891
▁라만	-11.6892
▁파티에	-11.6892
▁웬	-11.6893
업무	-11.6894
▁거주자	-11.6897
▁마련하고	-11.6898
▁정부측	-11.6898
누르	-11.6899
라프	-11.6899
집단	-11.69
▁물자	-11.69
▁납부	-11.6902
▁지휘자	-11.6905
신청	-11.6908
▁흥분한	-11.691
▁제한된	-11.6911
▁이해하는	-11.6915
▁보장하	-11.6916
▁출연할	-11.6919
▁집권한	-11.6926
▁시작된다	-11.6927
▁전화기	-11.6928
▁존재하지	-11.6929
시절	-11.6934
중단	-11.6937
▁사자	-11.6938
ble	-11.6938
▁대중들	-11.6941
▁사회에서	-11.6943
▁냈	-11.6944
▁신자들	-11.6959
▁넘었다	-11.6978
▁감소하고	-11.6978
▁전해진	-11.6983
감시	-11.6985
보관소	-11.7005
▁발사됐다	-11.7007
▁텐	-11.7008
ama	-11.7012
▁경제학	-11.7013
▁작동되	-11.7013
▁적었다	-11.7019
운영	-11.7021
▁알았	-11.7023
▁일생	-11.7036
글판	-11.7041
▁취하기	-11.7043
▁대항하는	-11.7043
▁유독	-11.705
ham	-11.705
▁보라	-11.7055
▁다나	-11.7057
받았	-11.7061
▁분리주의	-11.7072
▁나토군이	-11.7075
▁해변에	-11.7076
▁일부에서	-11.7076
▁소실	-11.7083
▁cas	-11.7086
▁메디컬	-11.7094
▁worker	-11.7101
▁주차장	-11.7102
▁이슬람교도들	-11.7103
▁str	-11.7103
혁	-11.7105
▁미시건	-11.7105
▁브랜	-11.7108
▁준결승	-11.7109
▁pm	-11.7109
▁경쟁자들	-11.7115
셉	-11.7115
둬	-11.7116
륜	-11.7117
왓	-11.7117
▁act	-11.7117
▁죽어	-11.7117
툰	-11.7119
▁church	-11.7119
▁demand	-11.7119
▁eads	-11.7119
▁earth	-11.7119
▁industr	-11.7119
▁iwc	-11.7119
▁organization	-11.7119
▁program	-11.7119
▁unhcr	-11.7119
▁고르바초프	-11.7119
▁공상과학	-11.7119
▁구소련	-11.7119
▁뇌졸중	-11.7119
▁더글라스	-11.7119
▁듣게	-11.7119
▁리우데자네이루	-11.7119
▁메릴린치	-11.7119
▁몰랐다	-11.7119
▁미확인	-11.7119
▁민주노동당	-11.7119
▁바나프샤	-11.7119
▁볼티모어	-11.7119
▁블래터	-11.7119
▁스필버그	-11.7119
▁시에라리온	-11.7119
▁식품의약국	-11.7119
▁신시내티	-11.7119
▁아디다스	-11.7119
▁암스테르담	-11.7119
▁여중생	-11.7119
▁예방접종	-11.7119
▁위태롭게	-11.7119
▁인신매매	-11.7119
▁정찰위성	-11.7119
▁조류독감	-11.7119
▁좁혀	-11.7119
▁준이치로	-11.7119
▁찍어	-11.7119
▁타이타닉	-11.7119
▁트러스트	-11.7119
▁트리폴리	-11.7119
▁포유류	-11.7119
▁햇빛	-11.7119
▁확립	-11.7119
▁흩어져	-11.7119
띤	-11.7119
샨	-11.7119
텀	-11.7119
퐁	-11.7119
▁마스터즈	-11.7119
▁상무부	-11.7119
▁자페타	-11.7119
▁정보통신부	-11.7119
▁존엄성	-11.7119
▁항공모함	-11.7119
▁헤드폰	-11.7119
▁irna	-11.7119
▁kbs	-11.7119
▁사이언스	-11.7119
▁언젠가	-11.7119
▁영업이익	-11.7119
▁낭독	-11.7119
▁다이어트	-11.7119
▁메이도프	-11.7119
▁에스트라다	-11.7119
▁타디치	-11.7119
▁노던록	-11.7119
▁어울리	-11.7119
▁흥정	-11.7119
▁버나드	-11.7119
▁카펫	-11.7119
▁대성당	-11.7119
▁스틸러스	-11.7119
▁치뤄	-11.7119
▁놀이공원	-11.7119
▁쿼터백	-11.7119
▁버크헤드	-11.7119
▁트랙	-11.7119
▁고등학생	-11.7119
▁사진작가	-11.7119
▁강대국	-11.7119
▁패트로스	-11.7119
cross	-11.7119
▁검정색	-11.7119
▁경수로	-11.7119
▁senate	-11.7119
▁thai	-11.7119
▁통합민주당	-11.7119
▁슬픈	-11.7119
▁북아일랜드	-11.7119
▁정착촌	-11.7119
▁작가조합	-11.7119
▁고아원	-11.7119
▁출혈	-11.7119
▁국영언론	-11.7119
▁당뇨병	-11.7119
▁빈민층	-11.7119
▁씨앗	-11.7119
▁도망쳤다	-11.712
▁체험	-11.712
▁gdp	-11.712
▁블랙홀	-11.712
▁휴전협정	-11.712
▁클릭	-11.712
▁결정하는	-11.712
▁검역	-11.712
▁식별	-11.712
▁볼드윈	-11.712
▁극도로	-11.712
▁압력에	-11.7121
▁헬렌	-11.7121
▁tsa	-11.7121
▁항의시위	-11.7121
▁총파업	-11.7121
▁십자가	-11.7121
▁리옹	-11.7121
▁출처	-11.7121
▁유대교	-11.7121
▁신흥	-11.7121
▁계승	-11.7121
▁축복	-11.7122
▁키팅	-11.7122
▁다저스	-11.7122
▁force	-11.7122
▁조세프	-11.7122
▁몰락	-11.7122
▁무효화	-11.7122
▁부활절	-11.7122
▁절망	-11.7123
▁크랜	-11.7123
▁탄원서	-11.7123
무차관	-11.7123
▁연립	-11.7123
▁무장조직	-11.7123
▁살인사건	-11.7124
▁보건장관	-11.7124
▁내륙	-11.7124
▁용감	-11.7124
▁ask	-11.7124
▁국민과	-11.7124
▁올라왔다	-11.7124
▁mtv	-11.7124
▁제휴	-11.7125
▁특혜	-11.7125
▁머무르	-11.7125
▁작위	-11.7125
▁완구	-11.7126
▁로리언	-11.7126
▁엔론	-11.7126
▁프린트	-11.7126
▁최신작	-11.7126
▁피켓	-11.7127
▁종목	-11.7127
▁야망	-11.7127
▁운용	-11.7127
▁흠	-11.7127
▁소년병	-11.7127
▁환경단체	-11.7128
▁청산	-11.7128
▁바다위	-11.7128
▁돌렸다	-11.7128
▁켄트	-11.7128
▁절정	-11.7129
▁상환	-11.7129
▁근방	-11.7129
▁물리학자	-11.713
▁견제	-11.7131
▁최장	-11.7131
▁넘긴	-11.7131
▁국무회의	-11.7131
▁최적	-11.7131
▁통신망	-11.7131
▁오델	-11.7132
▁폴락	-11.7132
▁할렘	-11.7133
▁강탈	-11.7133
▁황소	-11.7135
▁귀중	-11.7135
▁aids	-11.7135
▁관제	-11.7136
▁years	-11.7136
▁차이점	-11.7138
▁공석	-11.7138
▁동점	-11.7138
▁오찬	-11.7138
없	-11.7141
▁휴전선	-11.7142
▁악수	-11.7142
ird	-11.7143
▁경찰국장	-11.7144
▁배출량	-11.7144
▁타워	-11.7144
▁밀크	-11.7146
▁지상군	-11.7147
▁격전	-11.7147
▁테크	-11.7149
▁결선	-11.7149
운동단체	-11.7151
▁파란	-11.7151
▁관점	-11.7151
▁주의보	-11.7151
▁틸리	-11.7152
▁소포	-11.7152
▁어조	-11.7153
▁원석	-11.7154
▁도보	-11.7155
▁진술서	-11.7155
▁배아줄기세포	-11.7156
▁인터내셔널	-11.7156
▁관용	-11.7156
▁정문	-11.7156
▁체력	-11.716
▁처사	-11.716
▁의장직	-11.7161
▁다량	-11.7161
▁되도록	-11.7162
▁보내졌다	-11.7163
▁통과시키	-11.7163
▁실명	-11.7163
▁중요하게	-11.7164
▁캐시	-11.7164
▁쇼에서	-11.7164
▁부친	-11.7165
▁실업자	-11.7165
학술	-11.7167
▁기자실	-11.7168
▁베일	-11.7169
됐음	-11.7169
▁찾아야	-11.717
▁희생된	-11.7171
▁cru	-11.7171
▁내외	-11.7171
▁천원	-11.7173
군사훈련	-11.7175
▁마신	-11.7178
행해진	-11.7178
▁손잡	-11.7179
▁고객들에게	-11.7179
▁수천만	-11.718
투성이	-11.7182
▁에너지부	-11.7184
▁뻔	-11.7185
▁헌법상	-11.7186
표한다	-11.7186
▁구조물	-11.7186
▁넘쳐	-11.7189
▁사업체	-11.7189
▁마카	-11.719
▁불법적으로	-11.7191
▁숨어있	-11.7193
▁마오	-11.7195
▁빛나	-11.7196
▁민주당원	-11.7197
▁소치	-11.7197
▁양식	-11.7199
▁노동조합	-11.7201
▁공동체	-11.7202
▁부탁했다	-11.7205
▁유지될	-11.7208
▁정찰기	-11.7208
▁장르	-11.7209
▁이슬람교도	-11.7209
▁교장	-11.721
▁반대파	-11.7213
▁패했다	-11.7214
▁시급	-11.7216
▁wh	-11.7217
사르	-11.7218
▁피지	-11.7219
▁집계됐다	-11.7221
▁기지에서	-11.7222
블라	-11.7228
▁급락했다	-11.7229
▁범인들	-11.7229
헌재	-11.723
▁주었	-11.723
▁딱	-11.723
▁당선되	-11.7231
▁밀리	-11.7233
▁스토	-11.7234
▁평양에	-11.7236
▁세울	-11.7238
▁말하자	-11.724
▁영화계	-11.7241
▁오르지	-11.7243
▁미렌	-11.7243
▁놈	-11.7245
▁크리	-11.7246
▁수신	-11.7247
프레드	-11.7248
▁달아	-11.7249
▁억명	-11.7249
well	-11.725
▁부모님	-11.7251
▁개통	-11.7253
▁태워	-11.7254
▁신청했다	-11.7257
▁맞이했다	-11.7257
▁문화원	-11.7259
때로	-11.726
로윈	-11.726
▁자카르타에서	-11.7263
롤라	-11.7263
▁꼬	-11.7266
▁합의했	-11.7267
▁묵인	-11.7269
▁총리실	-11.727
▁홀리	-11.7271
▁승리해야	-11.7271
▁후회	-11.7272
▁건물들이	-11.7274
▁셈	-11.7275
▁살기	-11.7275
▁자동차업체	-11.7275
▁오프	-11.7276
▁볼트	-11.7276
▁보석으로	-11.7283
▁수출국	-11.7284
▁지역구	-11.7284
▁조니	-11.7286
ash	-11.7287
▁파장	-11.7288
▁자진	-11.7289
▁대구	-11.7289
▁워싱턴주	-11.7289
▁재개했다	-11.7295
데라	-11.7299
▁비슷하다	-11.7301
▁해안지역	-11.7305
▁향상시키	-11.7305
▁깨어	-11.7312
▁gra	-11.7313
▁목장	-11.7318
호선	-11.7319
▁한동안	-11.732
▁수염	-11.7321
▁ad	-11.7323
▁개제	-11.7325
▁갖지	-11.7326
▁대응하기	-11.7328
▁않았었다	-11.7336
베르트	-11.7337
▁왔었다	-11.7347
▁발견되었	-11.7348
▁뷰	-11.735
▁흥미로	-11.735
▁지도부와	-11.7354
나단	-11.7354
인민당	-11.7361
담당자	-11.7366
▁사망률	-11.7366
▁일축	-11.7367
지도자	-11.7379
▁뒷받침	-11.7379
▁정했다	-11.7385
▁장착한	-11.7386
노동자당	-11.7388
▁유가족들	-11.7391
대비	-11.7395
▁전후	-11.7399
▁이민자	-11.7403
▁수니파와	-11.7406
▁월경	-11.7408
▁당사자	-11.7409
▁위력	-11.7409
▁일으키고	-11.7409
금치	-11.7415
▁장군과	-11.7415
time	-11.7416
▁터지	-11.7417
▁모아이	-11.7418
▁채워	-11.7419
▁초까지	-11.7422
▁하늘에서	-11.7423
▁도드	-11.7425
▁잠들	-11.743
▁없다면	-11.7431
▁천장	-11.7432
론자	-11.7433
ube	-11.7442
▁패배한	-11.7442
▁올라와	-11.745
▁바라지	-11.7452
▁보자	-11.7452
해냈다	-11.7454
▁아들에게	-11.7459
쿠르	-11.7461
▁사라졌	-11.7462
▁경매에서	-11.7464
정지	-11.7475
▁여러분이	-11.7475
▁임명됐다	-11.7482
바라크	-11.7488
▁생물학자	-11.7488
▁보이기	-11.7496
꾸	-11.75
nois	-11.7501
▁지원자들	-11.7502
뷰	-11.7503
틸	-11.7504
눈	-11.7506
프로그램	-11.7507
▁청년들	-11.7508
▁해결되	-11.7508
공화국	-11.7509
▁실시하고	-11.751
잘	-11.7511
테니스	-11.7512
반응	-11.7512
처분	-11.7514
▁인용했다	-11.7518
▁대행	-11.7522
▁베니	-11.7523
▁타계	-11.7534
방위	-11.7536
재정	-11.7539
▁바커	-11.7539
▁사르	-11.7539
▁영하	-11.754
ite	-11.754
리프	-11.7545
마라	-11.7545
▁조각들	-11.7548
▁주도했다	-11.7549
▁시작되었	-11.7553
▁통상적	-11.7553
▁실적이	-11.7555
아래	-11.7557
▁중단되	-11.7557
tory	-11.7564
▁토론회에	-11.7564
had	-11.7564
▁유명인사들	-11.7566
▁폭도들	-11.7577
▁만부	-11.7581
▁유튜브에	-11.7585
▁고려하	-11.7591
▁강타했다	-11.7595
▁제압하	-11.7606
▁죽음으로	-11.7607
▁지장	-11.7611
▁기여한	-11.7615
ator	-11.7615
▁비공식적	-11.7629
▁사유	-11.763
▁라벨	-11.7635
▁come	-11.7648
▁선보이	-11.7649
▁베드	-11.7653
▁맺어	-11.7653
▁정당한	-11.7655
▁타마	-11.7656
저널	-11.7661
▁않겠	-11.7663
▁다르지	-11.7666
▁불확실	-11.7667
▁선호하	-11.7669
▁태우	-11.7671
▁생중계	-11.7679
▁베트남전	-11.7681
▁달링	-11.7681
▁스타디움	-11.7682
▁시위대들	-11.7684
▁시도했으	-11.7687
▁라마	-11.7694
▁관람객들	-11.7701
▁케냐에서	-11.7705
▁거뒀	-11.7708
국적	-11.7712
▁모국	-11.7715
ana	-11.7718
▁빠졌	-11.7721
▁연구실	-11.7723
융	-11.7724
▁알렉산드	-11.7726
▁우주비행	-11.7726
▁천문학	-11.7728
dom	-11.7729
레이즈	-11.7733
▁변했다	-11.7734
▁팬이	-11.7735
▁면역	-11.7738
▁전해드	-11.7738
▁지불했다	-11.7739
▁생각했	-11.774
own	-11.7742
▁불러일으	-11.7742
▁수마트라	-11.7743
▁trans	-11.7744
▁급증했다	-11.7744
톡	-11.7744
▁냉각	-11.7744
뚜	-11.7744
▁academy	-11.7744
▁capital	-11.7744
▁conference	-11.7744
▁country	-11.7744
▁institute	-11.7744
▁second	-11.7744
▁갤론	-11.7744
▁건강검진	-11.7744
▁국가평의회	-11.7744
▁나미비아	-11.7744
▁나폴리타노	-11.7744
▁남동생	-11.7744
▁냉장고	-11.7744
▁대검찰청	-11.7744
▁디카프리오	-11.7744
▁떠올랐다	-11.7744
▁래드클리프	-11.7744
▁리투아니아	-11.7744
▁멜버른	-11.7744
▁멤피스	-11.7744
▁모레스모	-11.7744
▁바랐다	-11.7744
▁밸리	-11.7744
▁부동층	-11.7744
▁부총재	-11.7744
▁불균형	-11.7744
▁불러일으켰다	-11.7744
▁블록버스터	-11.7744
▁사무차장	-11.7744
▁사이언톨로지	-11.7744
▁알츠하이머	-11.7744
▁알카티리	-11.7744
▁옥수수	-11.7744
▁옵션	-11.7744
▁이스마일	-11.7744
▁전자메일	-11.7744
▁찾으려	-11.7744
▁츠방기라이	-11.7744
▁퀘벡	-11.7744
▁트레일러	-11.7744
▁프랑크푸르트	-11.7744
▁플레이스테이션	-11.7744
▁혹등고래	-11.7744
▁휠체어	-11.7744
▁흡입	-11.7744
랏	-11.7744
벵	-11.7744
쑤	-11.7744
윅	-11.7744
▁christ	-11.7744
▁job	-11.7744
▁기울여야	-11.7744
▁매몰된	-11.7744
▁볼리비아	-11.7744
▁카르발라	-11.7744
팡	-11.7744
▁구속영장	-11.7744
▁배트맨	-11.7744
▁비무장지대	-11.7744
▁인수제안	-11.7744
▁재경부	-11.7744
▁헬만드	-11.7744
▁리브니	-11.7744
▁사로잡	-11.7744
▁서두르	-11.7744
▁wall	-11.7744
▁레코드	-11.7744
▁산악지대	-11.7744
▁자위대	-11.7744
▁메케인	-11.7744
▁스콜스	-11.7744
▁중질유	-11.7744
▁산시성	-11.7744
▁원동력	-11.7744
▁따돌렸	-11.7744
▁로드아일랜드	-11.7744
▁불가사의	-11.7744
▁africa	-11.7744
▁수수료	-11.7744
▁threaten	-11.7744
▁올림피	-11.7744
▁희미	-11.7744
▁깨달았다	-11.7744
▁엘리엇	-11.7744
▁화학물질	-11.7744
▁train	-11.7744
▁bomb	-11.7744
▁압델	-11.7744
▁철폐	-11.7745
▁벗겨	-11.7745
▁그래미	-11.7745
▁메인	-11.7745
▁교훈	-11.7745
▁레빈슨	-11.7745
▁국가안보회의	-11.7745
기동대	-11.7745
▁이루어졌	-11.7745
▁trial	-11.7745
▁abn	-11.7745
▁watch	-11.7745
▁추억	-11.7745
▁봉투	-11.7745
▁list	-11.7746
▁불륜	-11.7746
▁도서관	-11.7746
▁마피아	-11.7746
▁당첨	-11.7746
▁차량폭탄	-11.7746
▁부대변인	-11.7746
▁별칭	-11.7746
▁슬림	-11.7746
▁숙박	-11.7746
▁멜론	-11.7746
▁killed	-11.7746
▁도둑	-11.7747
▁입후보	-11.7747
▁그레그	-11.7747
▁게시물	-11.7747
▁스튜	-11.7747
▁축구선수	-11.7747
▁장례	-11.7747
▁우주여행	-11.7747
▁놀라움	-11.7747
▁생애	-11.7747
▁대리모	-11.7747
▁정몽	-11.7747
▁예상됩니다	-11.7747
▁알라위	-11.7747
▁필름	-11.7748
▁나눈	-11.7748
▁우려했다	-11.7749
▁파키스탄인민당	-11.7749
▁벤처	-11.7749
▁케이프	-11.7749
▁청원서	-11.7749
▁대슐	-11.7749
▁제국주의	-11.7749
▁공헌	-11.7749
▁로빈슨	-11.775
▁집값	-11.775
▁태생	-11.775
▁신기록	-11.775
▁프로스트	-11.775
▁출입국	-11.775
▁범죄행위	-11.775
▁단결	-11.775
▁우편물	-11.775
▁오웬	-11.7751
▁생생	-11.7751
▁누구인지	-11.7751
▁학계	-11.7751
▁인권문제	-11.7751
▁증파	-11.7751
▁관통	-11.7751
▁단편	-11.7751
▁홀더	-11.7751
▁공공연	-11.7751
▁절실	-11.7752
▁랜디	-11.7753
▁팻	-11.7753
▁조롱	-11.7753
▁코웰	-11.7753
▁불법행위	-11.7753
▁법무상	-11.7753
▁대피시켰다	-11.7753
▁지방정부	-11.7753
▁centr	-11.7753
▁언니	-11.7754
▁자동차산업	-11.7754
▁실망했다	-11.7754
▁지명되기	-11.7754
▁레빈	-11.7754
▁조직위	-11.7756
▁바꾼	-11.7757
▁아델	-11.7757
▁이맘	-11.7757
▁골절	-11.7757
▁생체	-11.7758
▁od	-11.7758
▁허브	-11.7758
▁물러났다	-11.7758
▁자폭	-11.7758
▁군사정부	-11.7758
▁생계	-11.7758
▁신년	-11.7758
▁메인주	-11.7759
▁신랑	-11.7759
▁팬더	-11.776
▁포탄	-11.776
▁증대	-11.7761
▁왕관	-11.7761
▁흉내	-11.7761
▁무력화	-11.7762
▁주연상	-11.7762
▁마술	-11.7762
▁놓여있다	-11.7762
▁건축물	-11.7763
▁브라이언트	-11.7763
▁찾아온	-11.7764
▁루터	-11.7765
▁풀려나	-11.7765
▁비축	-11.7767
▁해골	-11.7767
▁호건	-11.7767
▁발판	-11.7768
▁변명	-11.7768
▁감사원	-11.7769
▁우위	-11.777
공학	-11.7771
▁거액	-11.7772
▁과오	-11.7772
그너	-11.7772
▁중단시켰다	-11.7773
▁동의안	-11.7774
▁부주의	-11.7774
▁외국인들이	-11.7774
▁국회의장	-11.7774
▁경미	-11.7774
▁부분적으로	-11.7775
펠드	-11.7775
▁유실	-11.7775
▁우정	-11.7776
▁꾸며	-11.7777
▁there	-11.7777
▁times	-11.7778
▁유로화	-11.7778
▁분노한	-11.778
▁던졌	-11.778
▁주일간	-11.778
▁states	-11.7781
▁찾아냈다	-11.7781
▁남북간	-11.7782
▁모방	-11.7783
▁도출	-11.7784
▁궁지에	-11.7786
▁신씨	-11.7789
▁반사	-11.779
▁궁전	-11.7793
▁있냐	-11.7794
▁차분	-11.7795
▁주최하	-11.7795
▁깨진	-11.7795
키마	-11.7797
▁당내	-11.7797
▁상속	-11.7798
▁신차	-11.7799
▁벗기	-11.7801
▁말해주	-11.7801
▁자리잡	-11.7802
▁jon	-11.7803
▁당파	-11.7804
▁하나였다	-11.7806
▁친부	-11.7806
▁유니버	-11.7806
▁보았	-11.7807
▁섬에서	-11.7808
▁박탈당	-11.7808
▁등장한다	-11.7808
▁요리사	-11.781
▁주범	-11.7811
▁주립대학	-11.7814
우트	-11.7815
▁순교자	-11.7819
▁연상	-11.7819
▁있었는데	-11.7819
▁생산업체	-11.7821
▁설명할	-11.7821
▁소방대원들	-11.7823
rate	-11.7826
▁정세	-11.7827
▁대금	-11.7828
▁키트	-11.783
▁통과되	-11.7833
▁소매업	-11.7835
▁대개	-11.7837
▁정치인들이	-11.7838
▁유발할	-11.7839
▁살레	-11.7841
▁기뻐	-11.7843
▁구매자	-11.7843
▁합쳐	-11.7845
▁밝혀져	-11.7845
▁킴	-11.7847
▁east	-11.7856
▁xp	-11.7856
▁오바	-11.7857
▁경찰서로	-11.7858
▁크라	-11.7859
▁영국인들	-11.786
▁좋아지	-11.7863
▁발표되었다	-11.7866
시피	-11.7868
▁종업원	-11.7868
▁교대	-11.787
▁제출된	-11.7871
ek	-11.7872
▁늘었다	-11.7872
▁편리	-11.7874
▁개막식에	-11.7875
▁펼쳐지	-11.7879
▁가속	-11.788
▁의사회	-11.7881
▁위함	-11.7882
▁살해되	-11.7885
▁받아들이기	-11.7886
▁죽어가	-11.7888
▁부모에게	-11.7888
rm	-11.789
▁emi	-11.7891
▁비판하는	-11.7891
▁입소	-11.7893
▁예외	-11.7893
▁놓았	-11.7897
▁art	-11.7898
▁애플사	-11.7899
브론	-11.7899
▁코드	-11.7902
렉스	-11.7902
보라	-11.7903
받지	-11.7905
▁bl	-11.7906
키스	-11.7909
▁직원들에게	-11.7909
▁주변국들	-11.7909
공유	-11.7909
▁장갑	-11.7912
▁유지해	-11.7913
▁돌아보	-11.7913
▁정면	-11.7913
▁쥐들	-11.7913
▁해당한다	-11.7922
▁테러리스트들이	-11.7923
▁노르	-11.7925
▁흙	-11.7926
▁dai	-11.7929
▁결승에	-11.7939
▁목록에서	-11.7943
버렸	-11.7943
▁영국으로부터	-11.7944
gle	-11.7949
▁사이트에서	-11.7955
버거	-11.7962
▁감정적	-11.7963
▁초고속	-11.7965
▁유사하다	-11.7967
분별	-11.7968
▁전락	-11.7971
▁올라갔	-11.7973
▁남동부에서	-11.7978
▁상대적	-11.7983
▁rate	-11.7985
▁쓰여	-11.7988
▁축출된	-11.7991
▁베티	-11.7991
▁축구팬들	-11.7995
▁안면	-11.8003
▁특성	-11.8013
▁에드로	-11.8013
▁위헌	-11.8019
▁단원	-11.802
키야	-11.802
▁죽인	-11.8023
▁착륙했다	-11.8029
▁인부	-11.8039
▁파라	-11.804
▁촉	-11.8046
▁묘사한	-11.8047
▁케인	-11.805
▁탐험가	-11.805
▁켜	-11.8056
ka	-11.8056
매장	-11.8069
▁명중	-11.807
war	-11.807
저스	-11.8071
▁슬로	-11.8077
자본	-11.8077
▁나간다	-11.8081
ague	-11.8085
bra	-11.8089
▁공정하	-11.8092
사미	-11.8093
▁확산됐다	-11.8096
▁제조업체들	-11.8099
▁출발한	-11.8103
늘	-11.8111
▁회복할	-11.8113
▁대비하고	-11.8114
▁sw	-11.8114
끈	-11.8117
▁정보통	-11.8125
▁교수들	-11.813
▁아타	-11.8131
▁참석한다	-11.8138
▁폐쇄됐다	-11.8143
▁압박했다	-11.8148
▁축구팬	-11.8149
▁알려왔	-11.8151
▁관계없	-11.8152
있게	-11.8155
혹	-11.8156
▁반기	-11.8156
티브	-11.8169
사령부	-11.8171
페이스	-11.8173
▁인정한다	-11.8173
칩	-11.8173
엠	-11.8174
쥐	-11.8176
잠	-11.8177
▁월드컵에서	-11.818
▁yout	-11.8185
▁존재한다	-11.8188
▁언론사	-11.8189
km	-11.8192
▁열정적	-11.8195
워터	-11.8198
▁삼아	-11.8203
▁지나면	-11.8209
퍼트	-11.8211
제작	-11.8214
▁rep	-11.8214
▁연결된	-11.8214
기남	-11.8216
▁신문들	-11.8216
▁전신	-11.8217
▁시도할	-11.8221
▁딸에게	-11.8237
행진	-11.8239
bel	-11.8242
▁방영되	-11.8246
트너	-11.8251
▁추진해	-11.8251
▁웨스	-11.8258
line	-11.8258
▁나쁘	-11.8278
▁인도주의	-11.8286
▁강화하	-11.8289
▁공적	-11.8289
▁이외에	-11.8292
▁남성에게	-11.8307
▁카바	-11.8314
▁들지	-11.8315
▁관리하는	-11.8319
▁경신	-11.8323
▁탈북자들	-11.8327
▁폐쇄하기	-11.8329
▁hel	-11.8329
▁공개되	-11.8331
▁주마	-11.8336
▁저질렀	-11.8342
ous	-11.8342
▁vote	-11.8349
▁적합	-11.8355
▁stop	-11.836
▁순례	-11.8362
▁걸렸	-11.8367
▁비싸	-11.8375
략	-11.8375
▁싶었	-11.8377
uch	-11.8384
객들	-11.8387
▁마쳤	-11.8389
▁창립	-11.839
▁입찰	-11.839
랍	-11.8398
▁진열	-11.8399
캣	-11.8403
얄	-11.8403
해준다	-11.8404
홉	-11.8407
▁디스커버리	-11.8407
▁마텔	-11.8408
▁콜롬	-11.8408
▁도미니	-11.8408
콕	-11.8409
궈	-11.841
▁무시했다	-11.841
▁오피니언	-11.841
갓	-11.841
▁depart	-11.841
▁invest	-11.841
긍	-11.841
▁alliance	-11.841
▁federal	-11.841
▁hyun	-11.841
▁iucn	-11.841
▁joint	-11.841
▁major	-11.841
▁problem	-11.841
▁record	-11.841
▁국제영화제	-11.841
▁남태평양	-11.841
▁다비덴코	-11.841
▁댓글	-11.841
▁루고보이	-11.841
▁만토바니	-11.841
▁무기징역	-11.841
▁미식축구	-11.841
▁발렌시아	-11.841
▁부드러운	-11.841
▁비정상적	-11.841
▁세컨드라이프	-11.841
▁슈퍼마켓	-11.841
▁아르메니아	-11.841
▁애틀랜틱	-11.841
▁어소시에이션	-11.841
▁유투브	-11.841
▁잉그리드	-11.841
▁출퇴근	-11.841
▁칼데론	-11.841
▁캠브리지	-11.841
▁키프로스	-11.841
▁타임스퀘어	-11.841
▁티크리트	-11.841
▁프랑수아	-11.841
▁하르툼	-11.841
▁해밀턴	-11.841
덱	-11.841
▁끊겼	-11.841
▁대배심	-11.841
▁빈센트	-11.841
▁서유럽	-11.841
▁서포터	-11.841
▁스타워즈	-11.841
▁시트콤	-11.841
▁전두환	-11.841
▁크라이튼	-11.841
▁테러리즘	-11.841
▁파딜라	-11.841
▁패터슨	-11.841
▁buy	-11.841
▁politic	-11.841
▁어리석	-11.841
▁여기저기	-11.841
▁즐긴다	-11.841
▁georg	-11.841
▁아메바	-11.841
▁핵폐기	-11.841
▁dax	-11.841
▁은하계	-11.841
▁제레미	-11.841
▁보너스	-11.841
▁peta	-11.8411
▁돌려보내	-11.8411
▁바이에른	-11.8411
▁미생물	-11.8411
▁국가안보보좌관	-11.8411
▁유연한	-11.8411
▁종지부	-11.8411
▁금리인하	-11.8411
▁무언가	-11.8411
▁아스카리	-11.8411
▁전비법안	-11.8411
▁어쩌	-11.8411
▁뛰어넘	-11.8411
▁말리부	-11.8411
▁구제금융법안	-11.8411
▁부녀자	-11.8411
▁선거인단	-11.8411
▁세르게이	-11.8411
▁벗어났다	-11.8411
▁알라스카	-11.8411
▁소비에트	-11.8411
▁갑작스럽	-11.8411
▁어둠	-11.8411
▁some	-11.8411
▁탈옥	-11.8411
▁산업자원부	-11.8411
▁마지드	-11.8411
▁얼룩말	-11.8411
▁베이징올림픽	-11.8411
도날드	-11.8411
▁용도로	-11.8411
▁소방당국	-11.8411
▁just	-11.8412
▁thre	-11.8412
▁수감생활	-11.8412
▁작별	-11.8412
▁겨누	-11.8412
▁홈경기	-11.8412
▁건강보험	-11.8412
▁낫다	-11.8412
▁군사행동	-11.8412
▁폭발사고	-11.8412
▁미뤄	-11.8412
▁십먼	-11.8412
▁슈렉	-11.8412
▁북극광	-11.8413
▁포털	-11.8413
▁스마트	-11.8413
▁루시디	-11.8413
▁우발적	-11.8413
▁약물검사	-11.8413
▁층짜리	-11.8413
▁피난처	-11.8413
▁압류	-11.8413
▁디즈니랜드	-11.8413
▁날카로	-11.8413
▁비밀요원	-11.8413
▁업종	-11.8413
▁콜롬보	-11.8413
▁봉급	-11.8414
▁order	-11.8414
▁머독	-11.8414
▁보험회사	-11.8414
▁복음	-11.8414
▁드럼	-11.8414
▁부정행위	-11.8414
▁meeting	-11.8414
▁비웃	-11.8414
▁푸른	-11.8414
▁페드로	-11.8414
▁기관총	-11.8414
▁싸워	-11.8414
▁give	-11.8414
▁cac	-11.8415
▁스노우	-11.8415
▁축구스타	-11.8415
▁교각	-11.8415
▁근절	-11.8415
▁필사적	-11.8415
▁형편	-11.8415
▁알렉	-11.8415
▁간접	-11.8415
▁케이티	-11.8415
▁결말	-11.8416
▁편견	-11.8416
▁윈터	-11.8416
▁애견	-11.8416
▁마쓰	-11.8416
▁암살사건	-11.8416
▁로지스	-11.8417
▁자치권	-11.8417
▁반테러	-11.8417
▁today	-11.8417
▁경합	-11.8417
▁하렐	-11.8417
▁합작	-11.8417
▁투명성	-11.8417
▁에베레스트산	-11.8417
▁짐작	-11.8417
▁아프리카연합	-11.8417
▁계급	-11.8417
▁girls	-11.8417
▁애완용	-11.8417
▁수감돼	-11.8418
▁듀크	-11.8418
▁요한슨	-11.8418
▁원정	-11.8419
▁휴회	-11.8419
▁선례	-11.8419
▁사망원인	-11.8419
▁가디언	-11.8419
▁속편	-11.8419
▁당신들	-11.8419
▁헝	-11.842
▁소도시	-11.842
▁주택시장	-11.842
▁안타깝게	-11.842
▁난입	-11.8421
▁폭력배	-11.8421
▁실천	-11.8421
▁상향	-11.8421
▁연합정부	-11.8421
▁발머	-11.8421
▁무례	-11.8421
▁설전	-11.8421
▁uk	-11.8422
▁대국민	-11.8422
▁부시대통령	-11.8422
▁보스톤	-11.8423
▁해산시키기	-11.8423
▁변함없	-11.8423
ger	-11.8423
▁투자은행	-11.8423
▁평온	-11.8424
▁플래시	-11.8424
▁설비	-11.8425
▁her	-11.8425
▁거머쥐었	-11.8425
▁과연	-11.8426
▁야유	-11.8426
wood	-11.8426
▁들어설	-11.8426
▁무레이	-11.8427
▁버몬트주	-11.8427
▁놀란	-11.8428
▁상업용	-11.8428
▁결단	-11.8428
▁불확실성	-11.8428
▁일기장	-11.8428
▁입건	-11.8429
▁인권단체들	-11.8429
▁종교단체	-11.843
▁메모	-11.843
▁음료수	-11.843
▁조엘	-11.843
▁김양	-11.843
▁국세청장	-11.843
▁매료	-11.8432
▁용납하지	-11.8432
▁가장자리	-11.8432
▁근본주의자들	-11.8434
▁담요	-11.8435
▁용량	-11.8435
▁공금	-11.8435
▁역설했다	-11.8435
▁속력	-11.8436
랜스	-11.8436
▁매복	-11.8437
▁아샤	-11.8438
▁유영	-11.8438
▁난방	-11.8438
▁은둔	-11.8439
▁위독	-11.8439
▁경계선	-11.844
▁심각성	-11.844
▁꺼리	-11.8441
▁토미	-11.8441
▁천여	-11.8441
▁왕비	-11.8442
물라	-11.8442
▁토레스	-11.8442
스쿨	-11.8443
▁군사위원회	-11.8443
▁싶었다	-11.8444
▁골드만	-11.8444
▁요크	-11.8444
▁검찰청	-11.8445
▁서점	-11.8446
▁호스트	-11.8447
▁것인데	-11.8448
▁아쉬	-11.8448
▁시립	-11.8449
▁로빈	-11.8451
▁펼쳐진	-11.8451
▁레노	-11.8452
▁동부지역	-11.8452
▁고의적으로	-11.8453
▁거품	-11.8453
▁커뮤니케이션	-11.8453
▁리츠	-11.8454
▁번복	-11.8455
▁소모	-11.8456
▁매직	-11.8457
▁당부	-11.8457
먼트	-11.846
▁교리	-11.8462
정규직	-11.8462
▁게르	-11.8462
▁뉴햄프셔주	-11.8463
▁관장	-11.8463
▁정치국	-11.8463
▁페니	-11.8465
ki	-11.8467
▁거주민	-11.8467
▁나오기	-11.8468
▁아파	-11.8468
▁요구했었다	-11.8469
▁유출된	-11.847
▁money	-11.847
▁등장했다	-11.8472
▁설사	-11.8472
▁끝내기	-11.8474
▁옹호하	-11.8475
▁오버	-11.8477
▁함대	-11.8477
▁기울이지	-11.8478
▁성범죄자	-11.8478
▁보물	-11.8479
▁간직	-11.8479
▁엄청나	-11.8479
▁mon	-11.8482
▁기자단	-11.8483
▁소실됐다	-11.8484
▁국어	-11.8486
▁잠재	-11.8487
▁로케	-11.8489
▁속해	-11.8491
▁구성원들	-11.8492
▁불안해	-11.8492
▁외화	-11.8493
▁인류학	-11.8494
▁해역에서	-11.8494
▁전반전	-11.8494
▁청장	-11.8494
▁조치들	-11.8497
▁이윤	-11.8497
▁원내	-11.8497
▁주의회	-11.8499
▁추적하	-11.8503
▁지형	-11.8504
▁기미	-11.8508
▁알바로	-11.8508
den	-11.8511
▁지원국	-11.8513
▁분단	-11.8518
▁피랍됐	-11.8521
▁나누어	-11.8521
▁수혈	-11.8522
▁기자였	-11.8523
eve	-11.8523
▁유니	-11.8524
▁밝혀졌	-11.8526
▁간주되	-11.8526
▁기숙사에서	-11.8528
▁이루기	-11.8531
▁키니	-11.8534
▁거기에	-11.8535
▁건강상	-11.8538
▁출동했다	-11.8539
▁헨	-11.8541
▁출발했다	-11.8541
np	-11.8542
▁맛봤	-11.8542
투스	-11.8542
▁안정성	-11.8543
▁채용	-11.8544
▁사육사들	-11.8545
▁안정화	-11.8546
▁야스	-11.8547
타그	-11.8552
▁과학기술	-11.8556
▁뒤진	-11.8558
▁아니었	-11.8561
▁등반	-11.8562
▁도하	-11.8564
▁용지	-11.8567
▁크레인	-11.857
▁다크	-11.8571
▁투표자	-11.8579
▁환경적	-11.8581
▁활동가들	-11.8582
▁시차	-11.8591
▁같지	-11.8593
▁가문	-11.8596
▁저서	-11.8597
셰르	-11.8602
ang	-11.8603
▁고심하	-11.8604
▁보수주의	-11.8604
성분	-11.8605
dy	-11.8608
▁유서	-11.861
▁여자친구와	-11.8613
▁김만	-11.8613
▁org	-11.8614
▁제출해야	-11.8615
▁유나이티드와	-11.8616
환자	-11.862
▁선수들에게	-11.8623
였음	-11.8624
▁각료들	-11.8627
▁버렸	-11.8627
해주기	-11.8628
person	-11.8629
▁상하이에서	-11.8636
ino	-11.8643
▁납세자들	-11.8644
▁접어	-11.8645
▁적용할	-11.8646
tan	-11.8649
▁경제팀	-11.8651
lb	-11.8653
▁안전성	-11.8654
▁봉인	-11.8655
▁los	-11.8656
▁line	-11.8658
▁더위	-11.8664
▁선출됐다	-11.8666
▁구사하	-11.8666
극적으로	-11.8679
▁피난민	-11.868
▁ab	-11.8684
▁공직자	-11.8685
▁헤리	-11.8685
▁초소	-11.8687
▁부패와	-11.8694
▁레스토랑에서	-11.8696
▁계획안	-11.8699
▁구리	-11.87
▁거절한	-11.8701
▁상인들	-11.8709
▁추산되	-11.8711
▁표현할	-11.8712
▁팔린	-11.8718
▁생산되	-11.8723
ray	-11.8731
▁자비	-11.8732
▁끝나면	-11.8733
▁나일	-11.8733
▁근대	-11.8738
▁특파원들	-11.8744
▁일쯤	-11.8747
▁발전기	-11.8747
▁월급	-11.8751
란드	-11.8754
▁직면하	-11.8756
▁sur	-11.8757
▁사망자들	-11.8763
▁대피하	-11.8764
봤	-11.8766
부장관	-11.8768
▁경쟁사	-11.8776
▁메카	-11.8787
▁무능	-11.8788
히코	-11.8797
▁장악했다	-11.8804
▁제소	-11.8819
▁조율	-11.8819
그리	-11.8822
ast	-11.8824
▁미대사	-11.8824
▁india	-11.8824
▁우려된다	-11.8831
▁표하고	-11.8836
▁상징인	-11.8843
▁인물들	-11.8852
▁인도적	-11.8857
▁모기	-11.8862
▁빠	-11.8863
▁보리	-11.8868
포르	-11.887
활	-11.8876
죽	-11.8876
잡지	-11.8877
▁성대	-11.8878
▁sup	-11.8881
봐	-11.8883
▁비난한다	-11.8886
폭탄	-11.8887
춤	-11.8888
보험	-11.8888
▁구매자들	-11.889
잇	-11.889
월드컵	-11.889
▁약화시키	-11.8891
▁싶어하지	-11.8892
▁요인들	-11.8894
▁도발	-11.8895
모델	-11.8899
나갔다	-11.8902
▁전사자	-11.8906
열차	-11.8909
장애	-11.891
계약	-11.8913
소득	-11.8913
제조	-11.8915
대결	-11.8918
▁개최국	-11.8918
▁중단하겠다	-11.892
모건	-11.892
하듯	-11.892
▁그러면	-11.8933
▁매장에서	-11.8936
인구가	-11.8937
집회	-11.8937
소니	-11.8937
by	-11.8942
▁전장에	-11.8946
일본	-11.8954
▁당혹	-11.8957
▁거론되	-11.8957
▁모욕적	-11.8968
▁생물학	-11.897
▁mc	-11.8976
ali	-11.8987
▁재기	-11.8994
▁한국전	-11.8997
▁참여하기	-11.9004
식품	-11.9013
▁제시하지	-11.9015
▁수감됐	-11.9016
▁막지	-11.9023
▁자행한	-11.9024
▁성교	-11.9024
▁후보간	-11.9027
▁미성년	-11.9032
▁상승했	-11.9033
▁나타낸	-11.9035
러진	-11.9036
▁확보하고	-11.9046
aut	-11.9049
▁무차별	-11.9049
nel	-11.9059
side	-11.9061
▁패트	-11.9067
▁높았	-11.9073
aba	-11.9078
성명	-11.9078
쿨	-11.908
자격	-11.908
요리	-11.9082
▁강조하는	-11.9083
▁매리	-11.9084
▁조종사들	-11.9089
일간	-11.9097
▁유언	-11.9098
▁안타깝	-11.9114
▁참모총장	-11.9114
▁곤란	-11.9114
▁터무니	-11.9117
▁제마	-11.9118
슐	-11.9119
둑	-11.9119
▁회복되	-11.9119
슬라브	-11.9122
▁프란시스	-11.9122
▁lead	-11.9123
▁경기부양	-11.9124
궐	-11.9125
▁솔로몬	-11.9125
팽	-11.9125
▁crisis	-11.9125
▁europe	-11.9125
▁great	-11.9125
▁스프린트	-11.9125
▁아름답	-11.9125
▁아쿠아리움	-11.9125
▁와코비아	-11.9125
껴	-11.9125
륭	-11.9125
through	-11.9125
▁campaign	-11.9125
▁council	-11.9125
▁envoy	-11.9125
▁illegal	-11.9125
▁john	-11.9125
▁kkk	-11.9125
▁microsoft	-11.9125
▁number	-11.9125
▁refugee	-11.9125
▁safe	-11.9125
▁sncf	-11.9125
▁unveil	-11.9125
▁withdraw	-11.9125
▁고혈압	-11.9125
▁나스랄라	-11.9125
▁네브라스카	-11.9125
▁뉴욕타임즈	-11.9125
▁다녔다	-11.9125
▁대기오염	-11.9125
▁대선예비후보	-11.9125
▁델라웨어	-11.9125
▁독립선언	-11.9125
▁뒷좌석	-11.9125
▁드림라이너	-11.9125
▁레오나르도	-11.9125
▁루프트한	-11.9125
▁마르세유	-11.9125
▁만파운드	-11.9125
▁머물렀다	-11.9125
▁먹었다	-11.9125
▁메탄가스	-11.9125
▁믿어지	-11.9125
▁바예스테로스	-11.9125
▁박스오피스	-11.9125
▁발렌타인	-11.9125
▁북방한계선	-11.9125
▁분리독립	-11.9125
▁비디오테이프	-11.9125
▁사우스다코타	-11.9125
▁스머프	-11.9125
▁스테로이드	-11.9125
▁시니오라	-11.9125
▁시베리아	-11.9125
▁아리조나	-11.9125
▁애국전선	-11.9125
▁에메랄드	-11.9125
▁오마이뉴스	-11.9125
▁울프위츠	-11.9125
▁워싱턴포스트	-11.9125
▁인공심장	-11.9125
▁자와히리	-11.9125
▁조기총선	-11.9125
▁최연소	-11.9125
▁카메룬	-11.9125
▁카스파로프	-11.9125
▁컨소시엄	-11.9125
▁클랩튼	-11.9125
▁클리닉	-11.9125
▁펠릭스	-11.9125
▁폴란스키	-11.9125
▁현충일	-11.9125
▁홀로코스트	-11.9125
▁히말라야	-11.9125
프로농구	-11.9125
▁prevent	-11.9125
▁rbs	-11.9125
▁공청회	-11.9125
▁극단적인	-11.9125
▁다빈치	-11.9125
▁라말라	-11.9125
▁모토로라	-11.9125
▁목걸이	-11.9125
▁스릴러	-11.9125
▁알레르기	-11.9125
▁에버튼	-11.9125
▁외할머니	-11.9125
▁크로포드	-11.9125
▁부끄러	-11.9125
▁빔보	-11.9125
▁카제미	-11.9125
어느때보다	-11.9125
▁우체국	-11.9125
▁현기증	-11.9125
▁산티아고	-11.9125
▁아세안	-11.9125
▁카우치	-11.9125
▁허덕이	-11.9125
▁omx	-11.9125
▁김일성	-11.9125
▁분화구	-11.9125
▁퇴근	-11.9125
▁알메이다	-11.9125
▁엘비스	-11.9125
▁임상실험	-11.9125
▁direct	-11.9125
▁트레이드	-11.9125
▁삼성전자	-11.9125
▁퇴출	-11.9125
▁불도저	-11.9125
▁오피스	-11.9125
▁떠다니	-11.9125
▁아침식사	-11.9125
▁스프링스틴	-11.9125
▁민주변화	-11.9125
▁메세지	-11.9125
▁세비르	-11.9125
▁etc	-11.9125
▁stock	-11.9125
▁트레이시	-11.9125
▁손가락	-11.9125
▁행정명령	-11.9125
▁리프트	-11.9125
▁추도식	-11.9125
▁니가타	-11.9125
▁디아즈	-11.9125
▁듀프레	-11.9125
▁쓰러진	-11.9125
▁현명한	-11.9125
▁버핏	-11.9125
▁가오리	-11.9125
▁민주변화운동	-11.9125
▁월경작전	-11.9125
▁엔터프라이즈	-11.9125
▁히트곡	-11.9125
▁탐지기	-11.9125
▁종합병원	-11.9125
▁재가동	-11.9125
▁불상사	-11.9125
▁결론지었다	-11.9125
▁빠져나갔다	-11.9125
▁슬럼	-11.9125
▁헐값	-11.9125
▁히잡	-11.9125
▁적임자	-11.9125
▁missile	-11.9125
▁홍보담당자	-11.9126
▁슬램	-11.9126
▁출몰	-11.9126
▁골드버그	-11.9126
▁구급차	-11.9126
▁블랙베리	-11.9126
▁데이비스컵	-11.9126
▁쥐스틴	-11.9126
▁완패	-11.9126
▁평의회	-11.9126
▁constitutional	-11.9126
▁바꿨	-11.9126
▁동북	-11.9126
▁강제진압	-11.9126
▁올라간다	-11.9126
▁천수이	-11.9126
▁사기꾼	-11.9126
▁용암	-11.9126
로프트	-11.9126
▁겸손	-11.9126
▁아름다움	-11.9126
▁놀이기구	-11.9126
▁마샬	-11.9126
▁베풀	-11.9126
▁감기약	-11.9126
▁선거운동본부	-11.9127
▁스페이스	-11.9127
▁enter	-11.9127
▁목욕	-11.9127
▁패션쇼	-11.9127
▁청취	-11.9127
▁노골적	-11.9127
▁출근	-11.9127
▁수세기	-11.9127
▁비겁	-11.9127
▁남아시아	-11.9127
▁fight	-11.9127
▁갈망하	-11.9128
▁유니티	-11.9128
▁공동기자회견에	-11.9128
▁금전적	-11.9128
▁환경부	-11.9128
▁육류	-11.9128
▁달려있다	-11.9128
▁폭염	-11.9128
▁사형제도	-11.9128
▁검은색	-11.9128
phone	-11.9128
▁night	-11.9128
▁라디오뉴스	-11.9129
▁옐로	-11.9129
▁완강	-11.9129
▁주모자	-11.9129
less	-11.9129
▁관습	-11.9129
▁가져온	-11.9129
▁숙박비	-11.9129
▁tam	-11.9129
▁베이커	-11.9129
▁입혔다	-11.913
▁도와준	-11.913
▁뉴먼	-11.913
▁응급실	-11.913
▁실용적	-11.9131
▁상무위원	-11.9131
other	-11.9131
▁올리버	-11.9131
▁축구협회	-11.9131
▁채굴	-11.9131
▁잠입	-11.9131
▁산업지수	-11.9132
▁유명해졌다	-11.9132
▁성폭행범	-11.9132
▁아이콘	-11.9132
▁사무국	-11.9132
▁담합	-11.9132
▁임시정부	-11.9133
▁처방전	-11.9133
▁sola	-11.9133
▁경영자들	-11.9133
▁검시	-11.9133
▁터졌다	-11.9133
▁과열	-11.9133
▁열악	-11.9133
▁자궁	-11.9133
▁auto	-11.9134
▁화산재	-11.9134
▁청원	-11.9134
광장	-11.9134
▁스토리	-11.9135
▁어두	-11.9135
디언	-11.9135
▁모스크	-11.9136
▁west	-11.9136
▁하향	-11.9136
▁교신	-11.9136
프로축구	-11.9136
▁소득세	-11.9136
▁wta	-11.9136
▁에릭슨	-11.9137
▁잠복	-11.9137
▁신랄	-11.9137
▁회생	-11.9137
▁구슬	-11.9138
▁독려	-11.9138
▁담았다	-11.9138
▁정치활동	-11.9138
▁수상작	-11.9138
▁떼어	-11.9139
▁장시간	-11.9139
▁변종	-11.914
▁양빈	-11.914
자키	-11.914
▁털어	-11.914
▁즉석	-11.9141
▁모빌	-11.9141
▁성취	-11.9141
▁감형	-11.9142
▁진학	-11.9142
▁통치권	-11.9142
▁벗어나지	-11.9142
▁축적	-11.9142
even	-11.9143
▁칼리드	-11.9144
▁거칠	-11.9144
▁추위	-11.9146
▁친지들	-11.9146
▁간격	-11.9146
▁행보	-11.9146
▁혼자서	-11.9146
▁usb	-11.9147
▁응용	-11.9147
▁친교	-11.9147
ready	-11.9147
▁표출	-11.9148
▁나빠지	-11.9148
▁파탄	-11.9148
▁자율	-11.9149
▁연주자	-11.9149
▁영구적	-11.9149
▁칭하며	-11.9149
▁rai	-11.915
▁월터스	-11.915
▁의향	-11.915
▁달아나	-11.9151
▁돌발	-11.9151
▁계절	-11.9151
▁석권	-11.9152
▁경고문	-11.9152
▁아예	-11.9152
▁동조	-11.9152
▁단단	-11.9152
pass	-11.9153
▁않음	-11.9153
▁없어질	-11.9153
▁재연	-11.9154
▁카본	-11.9154
▁국정원장	-11.9154
▁도매	-11.9155
▁인도양	-11.9156
▁propos	-11.9157
리포트	-11.9157
▁보수주의자들	-11.9157
▁증명서	-11.9157
▁실체	-11.9157
툴라	-11.9159
▁형법	-11.916
▁쓰러졌다	-11.9161
▁인출	-11.9161
▁세월	-11.9161
▁별명	-11.9161
▁위스콘신주	-11.9162
▁상류	-11.9162
▁그라이브	-11.9163
▁의문사	-11.9163
▁유형	-11.9163
▁그렇지만	-11.9164
▁nations	-11.9164
▁모친	-11.9164
▁만들어낸	-11.9164
▁아래서	-11.9164
lum	-11.9166
▁atp	-11.9168
▁소중	-11.9168
▁농성	-11.917
▁공단	-11.917
▁영국항공	-11.9171
▁사본	-11.9172
▁보고됐다	-11.9174
▁피력	-11.9174
▁폰다	-11.9174
▁시작하자	-11.9175
▁저조	-11.9177
▁동화	-11.9177
▁올림픽위원회	-11.9178
▁병원측	-11.9178
▁특권	-11.9178
▁건전	-11.9178
▁연비	-11.9179
▁아론	-11.9179
▁원정경기에서	-11.918
▁배신	-11.918
▁이민국	-11.918
▁저지대	-11.9182
▁푸드	-11.9187
퍼드	-11.9188
▁중학교	-11.9189
▁맘	-11.9189
▁보장받	-11.9194
거래소에서	-11.9196
보르	-11.9196
▁주거지	-11.9197
▁초보	-11.9198
▁불타	-11.92
▁케네	-11.92
▁실시간	-11.9201
▁녹스	-11.9202
▁부호	-11.9202
▁신청자	-11.9202
▁정당성	-11.9202
▁강행할	-11.9202
▁뉴욕시장	-11.9203
▁동부지역에서	-11.9204
▁피랍됐다	-11.9209
▁얻어야	-11.921
▁기법	-11.921
nsc	-11.9211
▁받아들여지	-11.9211
▁소비량	-11.9212
▁페어	-11.9212
▁감독관	-11.9214
▁나타낸다	-11.9215
▁입성	-11.9216
▁선진	-11.9216
▁시에나	-11.9217
▁낙관	-11.9218
▁호르	-11.9219
▁최소화	-11.9219
▁마우	-11.9223
▁설치했다	-11.9223
▁오노	-11.9225
▁맞서기	-11.9227
▁무시한	-11.9228
▁통과시킨	-11.9231
▁마시지	-11.9231
▁islami	-11.9232
▁모가디슈에서	-11.9234
▁공급하기	-11.9235
▁거미	-11.9237
▁거주지역	-11.9238
▁cl	-11.9239
▁들어간다	-11.9239
▁제거하는	-11.9242
▁만족할	-11.9244
▁국가대표팀	-11.9245
주민들	-11.9247
▁힘들어	-11.9249
▁이루어지지	-11.925
▁트로	-11.9252
▁제외됐다	-11.9256
▁확보하기	-11.9259
▁분산	-11.9262
▁캘	-11.9262
▁잡히	-11.9263
▁로키	-11.9264
▁프라하	-11.9265
▁개종	-11.9266
우먼	-11.9268
▁노력해야	-11.9269
▁충분하다	-11.9272
▁스키장	-11.9274
▁무성	-11.9276
▁멜로	-11.9279
ina	-11.928
▁비명	-11.9285
▁발사해	-11.9288
▁resign	-11.9296
▁조언했다	-11.9297
플랜	-11.9302
▁살았다	-11.9304
▁가설	-11.9304
▁취지	-11.9306
▁상원의원들	-11.9313
▁보여주었다	-11.9316
▁안치	-11.9317
▁모술에서	-11.9319
▁사죄	-11.932
▁정하지	-11.932
▁샤리	-11.9321
▁페러	-11.9322
슈아	-11.9323
▁사랑한다	-11.9324
▁가든	-11.9328
했어야	-11.9328
▁입게	-11.9329
▁제안했	-11.9333
▁작품들	-11.9339
▁신고서	-11.934
끌어냈다	-11.9342
▁발견하게	-11.9347
▁갑작스러	-11.9349
rry	-11.9356
▁고려해야	-11.9356
웃	-11.9358
gy	-11.9358
ada	-11.936
▁석방되	-11.9361
▁고소했다	-11.9361
▁디나	-11.9363
▁개헌안에	-11.9367
▁구성했다	-11.9372
▁벤와	-11.9382
▁전달하는	-11.9382
▁철로	-11.9388
▁제조업자	-11.939
회사들	-11.9399
▁도서	-11.9399
▁자료들	-11.9404
▁let	-11.9407
▁작성했다	-11.9414
▁변기	-11.9418
▁연안에서	-11.9418
▁물려	-11.942
▁메이어	-11.9421
▁알레	-11.9426
▁필리	-11.9432
▁구역에서	-11.9437
▁무장괴한들	-11.9446
치오	-11.9447
hoo	-11.9447
▁기소장	-11.9449
▁mac	-11.9452
▁어부들	-11.9459
▁배심원들	-11.946
▁분파	-11.9462
▁재정비	-11.9465
▁인하했다	-11.9473
▁배치되어	-11.9474
▁돌아가기	-11.9474
▁취했	-11.9484
▁가파	-11.9488
do	-11.9488
▁적기	-11.9491
재산권	-11.9499
▁알프레	-11.9519
워졌다	-11.9521
▁지상에서	-11.9522
▁주간지	-11.9523
▁도슨	-11.9537
대장	-11.9543
▁사퇴했다	-11.9544
▁버려	-11.9547
▁검사들	-11.9551
▁표준시	-11.9555
▁일본측	-11.9561
ago	-11.9565
▁노스캐롤라이나에서	-11.9566
▁보행	-11.9568
테오	-11.9571
▁보수적	-11.9571
▁부정했다	-11.9578
▁봉쇄했다	-11.9582
▁포착했다	-11.9585
▁수행하기	-11.959
젤리	-11.959
▁사망하기	-11.9608
최	-11.9617
▁두려워하	-11.9617
▁평화롭	-11.9623
▁시설들	-11.9637
▁기장	-11.9644
▁슈퍼대의원들	-11.9645
▁보안국	-11.9646
큐	-11.9649
보좌관	-11.9649
싸	-11.965
▁확정했다	-11.9651
행동	-11.9654
켄	-11.9655
졸	-11.9656
듀	-11.9657
낙	-11.9657
▁구입했다	-11.9658
기상청	-11.9659
빅	-11.966
평균	-11.966
미사일	-11.9661
리서치	-11.9663
축구	-11.9664
▁인기있	-11.9664
포인트	-11.9666
평화	-11.9672
조합	-11.9672
등록	-11.9672
소송	-11.9673
▁나와있	-11.9676
결정	-11.9676
▁연행했다	-11.9677
조각	-11.968
술라	-11.968
보낼	-11.9681
▁추측되	-11.9683
다닐	-11.9691
▁제작됐다	-11.9692
cle	-11.9692
▁지휘관들	-11.9697
증세	-11.9702
▁원만	-11.9704
▁전해왔	-11.9704
▁warn	-11.9704
불안	-11.9707
▁제거했다	-11.971
세워	-11.971
▁정해졌	-11.971
▁회피	-11.9715
▁포로로	-11.9716
수익	-11.9717
▁정당들	-11.9732
▁부족해	-11.9736
men	-11.9738
▁둔화되	-11.9738
드윈	-11.9738
▁붕괴됐다	-11.974
▁배치된	-11.9741
▁멀어	-11.9751
▁마련하는	-11.9753
해발	-11.9757
쳐야	-11.9761
▁전달하기	-11.9762
▁안전하다	-11.9764
▁환호하	-11.9766
테드	-11.9781
무대	-11.9785
연금	-11.9798
▁빈민	-11.9802
▁부과했다	-11.9807
▁서적	-11.981
▁행성들	-11.9814
노브	-11.9821
하원	-11.9824
▁심기	-11.9825
▁끝났	-11.9826
오브	-11.9827
▁절대적	-11.9836
공간	-11.9841
▁남았	-11.9843
▁준결승전	-11.9846
▁쫓아	-11.9851
▁윌리암	-11.9858
▁if	-11.9863
▁드러냈	-11.9868
▁빠뜨	-11.9872
reme	-11.9879
▁price	-11.9882
▁붙어	-11.9882
▁떨어뜨	-11.9882
▁늘려	-11.9884
▁실시됐	-11.9886
▁알래스카주	-11.9888
옐	-11.989
▁트래	-11.989
ween	-11.9893
▁elect	-11.9893
뭉	-11.9893
벳	-11.9894
놔	-11.9894
쿼	-11.9894
퀘	-11.9894
▁children	-11.9894
▁french	-11.9894
▁intelligen	-11.9894
▁investigation	-11.9894
▁israel	-11.9894
▁nhk	-11.9894
▁push	-11.9894
▁radio	-11.9894
▁terror	-11.9894
▁toward	-11.9894
▁ucla	-11.9894
▁가깝다	-11.9894
▁광저우	-11.9894
▁국제통화기금	-11.9894
▁나뭇가지	-11.9894
▁노스다코타	-11.9894
▁닫았	-11.9894
▁댕기열	-11.9894
▁데이터베이스	-11.9894
▁도마뱀	-11.9894
▁동아시아	-11.9894
▁롤러코스터	-11.9894
▁만배럴	-11.9894
▁맨하탄	-11.9894
▁명확하지	-11.9894
▁무사콸라	-11.9894
▁밀워키	-11.9894
▁보궐선거	-11.9894
▁브래들리	-11.9894
▁비무장	-11.9894
▁사파테로	-11.9894
▁선글라스	-11.9894
▁선덜랜드	-11.9894
▁세계경제포럼	-11.9894
▁스펙터	-11.9894
▁스폰서	-11.9894
▁쌓아	-11.9894
▁아틀레티코	-11.9894
▁에두아르	-11.9894
▁여우주연상	-11.9894
▁연방준비은행	-11.9894
▁유럽중앙은행	-11.9894
▁융통성	-11.9894
▁이슬라미야	-11.9894
▁인수합병	-11.9894
▁족자카르타	-11.9894
▁차이나데일리	-11.9894
▁츠요시	-11.9894
▁캄푸쉬	-11.9894
▁캐시미르	-11.9894
▁코리아타임즈	-11.9894
▁코뿔소	-11.9894
▁코펜하겐	-11.9894
▁콴타스	-11.9894
▁클래식	-11.9894
▁클리브랜드	-11.9894
▁통합러시아당	-11.9894
▁트랜스포머	-11.9894
▁트럼프	-11.9894
▁파라마운트	-11.9894
▁파르베즈	-11.9894
▁프리미엄	-11.9894
▁확고히	-11.9894
텔레그래프	-11.9894
▁credit	-11.9894
▁critic	-11.9894
▁launch	-11.9894
▁노란색	-11.9894
▁대북제재	-11.9894
▁배기가스	-11.9894
▁불공평	-11.9894
▁성폭력	-11.9894
▁심사숙고	-11.9894
▁애국심	-11.9894
▁주일미군	-11.9894
▁천안문	-11.9894
▁휘두르	-11.9894
간담회에서	-11.9894
축구대표팀	-11.9894
▁snl	-11.9894
▁마들렌	-11.9894
▁무작위	-11.9894
▁복부비만	-11.9894
▁친인척	-11.9894
▁강렬한	-11.9894
▁냉소적	-11.9894
▁의사소통	-11.9894
▁카밀라	-11.9894
▁나르기스	-11.9894
▁레예스	-11.9894
▁쓰러지	-11.9894
▁유니폼	-11.9894
▁조연상	-11.9894
▁트레이너	-11.9894
▁flu	-11.9894
▁드물게	-11.9894
▁클래스	-11.9894
▁안테나	-11.9894
▁짐바브웨아프리카민족	-11.9894
▁백만장자	-11.9894
▁좌초	-11.9894
▁고프섬	-11.9894
▁끼치지	-11.9894
▁왓슨	-11.9894
▁헬멧	-11.9894
▁의정서	-11.9894
▁구덩이	-11.9894
▁욕실	-11.9894
▁에볼라	-11.9894
▁grand	-11.9894
▁한계선	-11.9894
▁리스본	-11.9894
▁스트립	-11.9894
▁붐비는	-11.9894
▁그랜트	-11.9894
프로야구	-11.9894
▁서부텍사스산	-11.9894
▁foundation	-11.9894
▁need	-11.9894
▁만수르	-11.9894
▁marine	-11.9894
▁이스트우드	-11.9894
▁sars	-11.9894
▁장래에	-11.9894
▁발리우드	-11.9894
▁클라우디	-11.9894
▁선두주자	-11.9894
▁트루먼	-11.9894
▁물고문	-11.9894
▁혈압	-11.9894
▁현존하	-11.9894
▁에어컨	-11.9894
▁폭죽	-11.9895
▁board	-11.9895
▁컨트리	-11.9895
▁휘둘	-11.9895
▁추락사고	-11.9895
▁징수	-11.9895
▁내보내	-11.9895
▁펠트	-11.9895
▁악몽	-11.9895
▁집주인	-11.9895
resume	-11.9895
▁곤봉	-11.9895
▁다이빙	-11.9895
▁로하스	-11.9895
▁billion	-11.9895
▁제주도	-11.9895
▁깨뜨	-11.9895
▁gold	-11.9895
▁압축	-11.9895
▁internet	-11.9895
▁전자제품	-11.9896
▁hill	-11.9896
▁혈통	-11.9896
▁flight	-11.9896
▁경범죄	-11.9896
▁착각	-11.9896
▁과격단체	-11.9896
▁언더파	-11.9896
▁장병들	-11.9896
▁세계무역센터	-11.9896
▁차량폭탄테러	-11.9896
▁니켈	-11.9896
▁station	-11.9896
▁학습	-11.9897
operation	-11.9897
▁rall	-11.9897
▁dur	-11.9897
▁행정장관	-11.9897
▁바이올	-11.9897
▁권좌	-11.9897
▁타깃	-11.9897
▁움직여	-11.9897
▁글로브	-11.9897
▁브랜슨	-11.9897
▁음란	-11.9897
▁독살	-11.9897
▁출품	-11.9897
▁라마디	-11.9897
▁보호구역	-11.9897
▁기반시설	-11.9898
▁클로버	-11.9898
▁지켜볼	-11.9898
첸코	-11.9898
▁심각해지	-11.9898
▁행해지	-11.9898
▁충실	-11.9898
▁상여금	-11.9898
▁왕립	-11.9898
▁교도관	-11.9898
▁부흥	-11.9899
▁미시시피강	-11.9899
▁mls	-11.9899
▁가리키	-11.9899
resent	-11.9899
▁관절	-11.9899
▁신탁	-11.9899
▁주가지수	-11.9899
▁자금지원	-11.9899
▁특별검사	-11.9899
▁치욕	-11.99
▁붉은색	-11.99
▁스몰	-11.99
▁아시안	-11.99
▁특검	-11.99
▁청구했다	-11.9901
▁낙타	-11.9901
▁유로스타	-11.9901
▁휩쓸려	-11.9901
▁떠올리	-11.9901
▁소멸	-11.9901
▁평화회담	-11.9901
▁출구	-11.9902
▁올라있다	-11.9902
▁tour	-11.9902
▁헬러	-11.9902
▁도킹	-11.9902
▁계란	-11.9902
▁구걸	-11.9903
▁대선결과	-11.9903
▁적합하지	-11.9903
▁항목	-11.9903
▁피해규모	-11.9904
▁cre	-11.9904
▁도망치	-11.9904
▁삼판	-11.9904
▁쏘아	-11.9904
▁소방서장	-11.9904
▁목재	-11.9904
▁선거결과	-11.9905
▁솔라나	-11.9905
▁양봉	-11.9906
▁채팅	-11.9906
▁메릴랜드주	-11.9906
▁사흘	-11.9906
▁테너	-11.9907
▁종족	-11.9907
▁능가	-11.9907
▁영공	-11.9907
▁변함	-11.9907
▁소변	-11.9907
▁태형	-11.9908
▁배치했다	-11.9908
▁갈색	-11.9908
느린	-11.9908
▁오존	-11.9909
▁친근	-11.991
▁커져	-11.991
▁길거리	-11.991
▁온건	-11.991
▁신변	-11.991
▁dra	-11.991
▁로이드	-11.991
▁천만원	-11.9911
▁세르비아계	-11.9911
▁파열	-11.9912
▁다수당	-11.9913
▁집행위원회	-11.9913
▁외교위원회	-11.9914
▁쇼핑센터	-11.9914
▁비틀	-11.9914
▁실험실	-11.9914
▁열망	-11.9915
▁전국위원회	-11.9915
▁우울	-11.9915
▁가린	-11.9916
▁무관	-11.9917
▁앉아서	-11.9918
▁치유	-11.992
▁소탕하기	-11.992
▁성전환	-11.992
▁댄스	-11.9921
▁클린트	-11.9921
▁유래	-11.9921
▁버티	-11.9921
▁동계	-11.9921
▁우유	-11.9922
▁군당국	-11.9923
▁청구서	-11.9923
▁파병군	-11.9923
▁테러사건	-11.9923
▁바람직하다	-11.9923
▁led	-11.9924
▁셸	-11.9924
▁산출	-11.9924
▁구입하는	-11.9924
▁실형	-11.9927
▁특유	-11.9927
▁기상학자	-11.9927
▁반입	-11.9927
▁지낼	-11.9928
▁내몰	-11.9928
▁철수시킬	-11.9928
▁방중	-11.993
▁합성	-11.9931
▁총탄	-11.9931
▁논리	-11.9931
▁모터스	-11.9932
▁추측된다	-11.9932
▁헤비	-11.9933
▁백명	-11.9933
▁시설물	-11.9934
▁near	-11.9934
▁현명하	-11.9934
▁뒷받침할	-11.9934
▁싸운	-11.9934
▁원료	-11.9935
▁천체	-11.9935
▁돌봐	-11.9936
▁석방하라	-11.9938
▁쫓아내	-11.9938
▁버니	-11.9938
▁가르쳐	-11.9938
▁건국	-11.9938
▁국교	-11.9939
▁되어있다	-11.9941
▁넘치	-11.9941
▁원작	-11.9942
▁우선시	-11.9943
▁불신	-11.9945
▁미끄러지	-11.9946
▁보내야	-11.9946
▁담보	-11.9946
연일	-11.9947
▁웬디	-11.9948
▁카라다	-11.995
▁모리스	-11.9951
▁여신	-11.9952
▁탄력	-11.9952
▁피랍자	-11.9954
▁날조	-11.9957
▁니콜슨	-11.9957
▁마련됐다	-11.9957
▁유린	-11.9957
▁있으면	-11.9958
▁도처에	-11.996
큐리	-11.996
ball	-11.9961
▁인신	-11.9961
오차	-11.9961
▁훔쳤	-11.9961
▁안경	-11.9962
소식	-11.9964
▁찬스	-11.9965
▁개입하지	-11.9966
▁선거위원회	-11.9968
▁road	-11.9969
▁마리오	-11.997
▁원더	-11.9971
▁밝혀내지	-11.9971
▁실시하는	-11.9971
▁기뻐했다	-11.9973
▁공보	-11.9973
▁전망된다	-11.9974
▁함자	-11.9974
▁검찰관	-11.9975
▁불확실한	-11.9976
▁게재했다	-11.9976
▁기조	-11.9978
▁추측했다	-11.9978
▁알약	-11.9984
▁흥미롭	-11.9985
▁화학적	-11.9986
▁외곽지역	-11.9987
타이거	-11.9989
▁중부지역	-11.9997
▁방일	-11.9997
▁후송됐다	-11.9998
▁인디애나주	-12.0001
▁예측하기	-12.0002
▁기본스	-12.0003
▁상징하	-12.0004
▁기여했다	-12.0009
▁주장하면서	-12.001
▁묘사하고	-12.001
전문가들	-12.0011
드리스	-12.0011
▁쏟아지	-12.0012
▁풀기	-12.0013
▁마디	-12.0014
▁취급하	-12.0014
▁발생했었다	-12.0016
▁회복하기	-12.0016
▁농지	-12.0018
▁경신했다	-12.0024
첼로	-12.0024
▁중추	-12.0026
▁솔로	-12.0029
▁맥스	-12.003
▁방법이라고	-12.003
▁중독자	-12.003
▁다투	-12.0031
▁만두	-12.0032
▁보고타	-12.0033
▁코스타	-12.0033
▁후원자	-12.0035
▁현재로서	-12.0035
▁말하면	-12.0046
▁살펴보	-12.0046
▁사회자	-12.0048
▁사바	-12.005
▁나쁘지	-12.005
▁바꾸어	-12.0053
▁이둘	-12.0065
anger	-12.0066
▁공제	-12.0073
▁선사	-12.0077
▁통근자들	-12.0077
uit	-12.0077
▁육박	-12.0078
▁확실시되	-12.0079
▁제명	-12.0082
▁생산국	-12.0084
▁오래전	-12.0085
▁맺었	-12.0096
▁설명하는	-12.0098
pet	-12.0104
▁공판에서	-12.0106
▁오크	-12.0108
▁가담했다	-12.0108
▁타오	-12.0109
▁촉발됐다	-12.0109
▁달성하기	-12.0112
▁골프장	-12.0113
▁잠정적	-12.0114
▁경제학자인	-12.0115
마사	-12.0129
▁회기	-12.0131
▁사람이었다	-12.0132
coming	-12.0133
▁막사	-12.0135
▁만들려	-12.014
▁팔기	-12.0141
▁체포되	-12.0145
nc	-12.0147
스버그	-12.0155
▁치르기	-12.0156
▁연결되	-12.0159
▁주중	-12.016
▁기관사	-12.0164
달아	-12.0165
▁조야	-12.0165
▁질문들	-12.0174
▁피살됐다	-12.0176
▁세워졌	-12.0176
▁국제공항에서	-12.0178
▁드러	-12.018
▁유명해	-12.0184
하더라	-12.0185
폴리스	-12.0192
▁내린다	-12.0199
▁오염된	-12.0201
▁이슬람인들	-12.0204
▁개발도상국들	-12.0211
▁선생님	-12.0222
▁마니	-12.0222
▁ten	-12.0229
▁출두했다	-12.0232
▁jer	-12.0239
▁트랜	-12.0239
▁환경운동	-12.024
▁개별적	-12.0244
▁ji	-12.0245
▁학교측	-12.025
▁허락했다	-12.025
▁금융기관	-12.0251
▁블로거들	-12.0253
▁마린	-12.0256
통계국	-12.026
▁학부모	-12.0261
신형	-12.0269
▁훈련시키	-12.027
▁중단한다	-12.0272
라이츠	-12.0275
추어	-12.0276
▁강화해	-12.0277
▁위주	-12.028
▁올리기	-12.0281
▁엔지니어들	-12.0285
▁지불해야	-12.0285
▁ev	-12.0288
ung	-12.0289
▁혁신	-12.0294
▁사과한다	-12.0298
▁대항해	-12.0299
▁루시	-12.03
▁소비자에게	-12.0308
▁지정했다	-12.0328
▁투입되	-12.0337
ami	-12.034
▁용이하	-12.0341
▁세무	-12.0343
▁가수들	-12.0344
▁발효된	-12.0351
▁조합원들	-12.0363
▁part	-12.0377
▁순찰차	-12.0394
▁보유자	-12.0397
▁tru	-12.0398
▁피난민들	-12.0401
▁아마드	-12.0401
▁개발자들	-12.0408
▁서머	-12.0412
▁돌려받	-12.0415
▁자랑스럽	-12.0416
▁도착하기	-12.0417
▁문화부	-12.042
▁증명했다	-12.0449
러드	-12.0452
▁납치하려	-12.0453
▁예일대	-12.0456
▁무기들	-12.0457
놓는다	-12.0458
▁타자	-12.046
▁간호사들	-12.0473
▁연결시키	-12.0476
▁거라	-12.0482
▁로비스트	-12.0484
흙	-12.0486
아버지	-12.0487
따	-12.0488
덜	-12.0491
헬	-12.0492
쓸	-12.0492
▁청중들	-12.0492
민주당	-12.0492
딸	-12.0492
싸움	-12.0493
끝	-12.0494
오바마	-12.0494
검색	-12.0495
hp	-12.0498
분석	-12.0508
라디오	-12.0508
교류	-12.0509
나이트	-12.051
▁스파	-12.051
르모	-12.051
공연	-12.0513
예산	-12.0514
▁장갑차	-12.0514
▁복귀했다	-12.0514
쉽게	-12.0517
▁잠정	-12.0517
▁이용되	-12.0518
성향	-12.0518
명령	-12.0518
공개	-12.0521
출신	-12.0524
ida	-12.0524
파업	-12.0524
▁동의하지	-12.0527
▁시민단체들	-12.0531
▁대변하는	-12.0532
방문	-12.0534
oman	-12.0535
hen	-12.0536
대변인	-12.0538
▁항공사들	-12.0551
었었다	-12.0567
▁순례객	-12.0572
▁late	-12.0574
▁도착한다	-12.0582
카노	-12.0582
▁취하겠다	-12.0583
▁pd	-12.0583
▁중소기업	-12.0589
▁제거하고	-12.0589
국제	-12.0594
수입	-12.0598
▁스캔	-12.0601
클라라	-12.0604
▁양심	-12.0613
▁간주하	-12.0618
스토어	-12.062
▁흑인들	-12.0621
▁수행한다	-12.0621
ise	-12.0632
▁안토니	-12.0632
▁ben	-12.0641
▁반대자들	-12.0648
▁진행됐	-12.0648
dle	-12.0652
▁멀지	-12.0655
▁저항하	-12.0656
▁옮겨졌	-12.0656
▁자원봉사	-12.066
▁far	-12.0661
▁추종	-12.0666
▁거부해	-12.067
▁예정됐	-12.0675
▁del	-12.068
▁노렸	-12.0689
▁기쁘	-12.0694
▁강국	-12.0708
▁악화시키	-12.0712
▁여학생들	-12.0713
▁외무	-12.0714
▁attack	-12.0715
▁틀림없	-12.0718
봇	-12.0721
붕	-12.0721
극장	-12.0722
▁봉사단	-12.0722
▁증권거래	-12.0724
늄	-12.0725
▁그것들	-12.0726
섹	-12.0726
▁jun	-12.0726
▁알아보	-12.0727
▁프리미어	-12.0727
횡	-12.0727
▁announce	-12.0727
▁little	-12.0727
▁prison	-12.0727
▁royal	-12.0727
▁난투극	-12.0727
▁네델란드	-12.0727
▁노스웨스트	-12.0727
▁보디가드	-12.0727
▁뿌려	-12.0727
▁시앙시앙	-12.0727
▁업데이트	-12.0727
▁옛날	-12.0727
▁쿠알라룸푸르	-12.0727
▁헨더슨	-12.0727
▁호나우지뉴	-12.0727
엉	-12.0727
츄	-12.0727
▁ambassador	-12.0727
▁beach	-12.0727
▁clinton	-12.0727
▁detain	-12.0727
▁dispute	-12.0727
▁half	-12.0727
▁ipcc	-12.0727
▁kcna	-12.0727
▁memorial	-12.0727
▁play	-12.0727
▁release	-12.0727
▁tgv	-12.0727
▁women	-12.0727
▁가브리엘	-12.0727
▁공영방송	-12.0727
▁구테레스	-12.0727
▁굶주림	-12.0727
▁까다로운	-12.0727
▁꺾었다	-12.0727
▁나노튜브	-12.0727
▁남아메리카	-12.0727
▁낮출	-12.0727
▁네브래스카	-12.0727
▁노벨평화상	-12.0727
▁뇌종양	-12.0727
▁라이베리아	-12.0727
▁레슬링	-12.0727
▁레터맨	-12.0727
▁록펠러	-12.0727
▁맥코넬	-12.0727
▁맥클라렌	-12.0727
▁메디슨	-12.0727
▁바뀌었다	-12.0727
▁바리케이드	-12.0727
▁반독점	-12.0727
▁버밍엄	-12.0727
▁부에노스아이레스	-12.0727
▁불태우	-12.0727
▁브란카토	-12.0727
▁살인혐의	-12.0727
▁수족구병	-12.0727
▁스트라이커	-12.0727
▁스피커	-12.0727
▁앓았	-12.0727
▁앞질렀	-12.0727
▁억파운드	-12.0727
▁얻으려	-12.0727
▁에스판디아리	-12.0727
▁오랑우탄	-12.0727
▁윈스턴	-12.0727
▁죄책감	-12.0727
▁카디널스	-12.0727
▁카트만두	-12.0727
▁컨텐츠	-12.0727
▁코카콜라	-12.0727
▁콜럼버스	-12.0727
▁콜럼비아	-12.0727
▁큐레이터	-12.0727
▁크루그먼	-12.0727
▁테스토스테론	-12.0727
▁팽창	-12.0727
▁펀자브	-12.0727
▁페르시아만	-12.0727
▁펜타곤	-12.0727
▁풍력발전기	-12.0727
▁플랫폼	-12.0727
▁플레임	-12.0727
▁피츠제럴드	-12.0727
▁핵사찰단	-12.0727
▁행방불명	-12.0727
▁휴먼라이츠워치	-12.0727
교통안전위원회	-12.0727
쉘	-12.0727
▁hotel	-12.0727
▁거식증	-12.0727
▁삽입	-12.0727
▁수뇌부	-12.0727
▁아인슈타인	-12.0727
▁트레제게	-12.0727
▁포레스트	-12.0727
▁회계연도	-12.0727
▁가비알	-12.0727
▁로버츠	-12.0727
▁멜리사	-12.0727
▁십자군	-12.0727
▁울타리	-12.0727
▁더블린	-12.0727
▁모니카	-12.0727
▁물대포	-12.0727
▁이병헌	-12.0727
▁고래상어	-12.0727
▁내버려	-12.0727
▁불사조	-12.0727
▁제노아	-12.0727
▁징집	-12.0727
▁개회식	-12.0727
▁양조장	-12.0727
▁오스본	-12.0727
▁빌라로사	-12.0727
▁오피니언리서치	-12.0727
▁순조롭	-12.0727
▁인권운동가	-12.0727
▁비엔나	-12.0727
▁주경기장	-12.0727
▁불어넣	-12.0727
▁이정표	-12.0727
▁튜브	-12.0727
▁congress	-12.0727
▁오마하	-12.0727
▁갑판	-12.0727
▁산유국	-12.0727
▁욕설	-12.0727
▁유니버셜	-12.0727
▁놔두	-12.0727
▁염증	-12.0727
▁로보트	-12.0728
▁흉선	-12.0728
▁템파베이	-12.0728
▁너머	-12.0728
▁메트로폴리	-12.0728
▁저질러	-12.0728
▁맹렬	-12.0728
▁유원지	-12.0728
▁운전기사	-12.0728
▁와이먼	-12.0728
▁플로렌스	-12.0728
▁자랑스러워	-12.0728
▁마운트	-12.0728
▁징크	-12.0728
▁솔로몬제도	-12.0728
▁미립자	-12.0728
▁메이저리그	-12.0728
▁플래카드	-12.0728
▁십억	-12.0728
▁캐스팅	-12.0728
▁동물보호	-12.0728
▁언쟁	-12.0728
▁hand	-12.0728
▁끼치는	-12.0728
▁이라와디	-12.0728
▁flor	-12.0728
▁셀틱	-12.0728
▁파라과이	-12.0728
▁burma	-12.0728
▁탁자	-12.0728
▁서면으로	-12.0728
▁팩스	-12.0728
▁호프만	-12.0728
▁안와르	-12.0728
▁율법	-12.0728
▁대명사	-12.0728
▁무리뉴	-12.0728
▁세부사항	-12.0728
▁불명예	-12.0728
▁교묘	-12.0728
▁터뜨렸다	-12.0728
▁유대관계	-12.0728
▁종합지수	-12.0728
▁월드뉴스	-12.0728
▁만유로	-12.0728
▁비상대책	-12.0729
▁파키스탄무슬림리그	-12.0729
▁사무엘	-12.0729
▁묵살	-12.0729
▁swee	-12.0729
▁풍습	-12.0729
▁체스판	-12.0729
▁drm	-12.0729
▁arrested	-12.0729
▁결탁	-12.0729
▁랄리	-12.0729
▁마이어스	-12.0729
▁long	-12.0729
▁보컬	-12.0729
▁오빠	-12.0729
▁폰테	-12.0729
▁브릿	-12.073
▁자연보호	-12.073
▁슈웨	-12.073
▁관중석	-12.073
▁island	-12.073
▁납품	-12.073
▁cell	-12.073
▁넘어갔다	-12.073
▁휩싸여	-12.073
▁잠겼다	-12.073
▁따냈다	-12.073
▁일어났는지	-12.073
▁치와와	-12.0731
[...]
